unsigned char utils_models_jarvis0_2_6_tflite[] = {
  0x1c, 0x00, 0x00, 0x00, 0x54, 0x46, 0x4c, 0x33, 0x14, 0x00, 0x20, 0x00,
  0x1c, 0x00, 0x18, 0x00, 0x14, 0x00, 0x10, 0x00, 0x0c, 0x00, 0x00, 0x00,
  0x08, 0x00, 0x04, 0x00, 0x14, 0x00, 0x00, 0x00, 0x1c, 0x00, 0x00, 0x00,
  0x8c, 0x00, 0x00, 0x00, 0xe4, 0x00, 0x00, 0x00, 0x78, 0x14, 0x00, 0x00,
  0x88, 0x14, 0x00, 0x00, 0x10, 0x25, 0x00, 0x00, 0x03, 0x00, 0x00, 0x00,
  0x01, 0x00, 0x00, 0x00, 0x04, 0x00, 0x00, 0x00, 0x62, 0xe8, 0xff, 0xff,
  0x0c, 0x00, 0x00, 0x00, 0x1c, 0x00, 0x00, 0x00, 0x3c, 0x00, 0x00, 0x00,
  0x0f, 0x00, 0x00, 0x00, 0x73, 0x65, 0x72, 0x76, 0x69, 0x6e, 0x67, 0x5f,
  0x64, 0x65, 0x66, 0x61, 0x75, 0x6c, 0x74, 0x00, 0x01, 0x00, 0x00, 0x00,
  0x04, 0x00, 0x00, 0x00, 0x90, 0xff, 0xff, 0xff, 0x1f, 0x00, 0x00, 0x00,
  0x04, 0x00, 0x00, 0x00, 0x08, 0x00, 0x00, 0x00, 0x6f, 0x75, 0x74, 0x70,
  0x75, 0x74, 0x5f, 0x30, 0x00, 0x00, 0x00, 0x00, 0x01, 0x00, 0x00, 0x00,
  0x04, 0x00, 0x00, 0x00, 0x16, 0xec, 0xff, 0xff, 0x04, 0x00, 0x00, 0x00,
  0x0f, 0x00, 0x00, 0x00, 0x6b, 0x65, 0x72, 0x61, 0x73, 0x5f, 0x74, 0x65,
  0x6e, 0x73, 0x6f, 0x72, 0x5f, 0x32, 0x39, 0x00, 0x02, 0x00, 0x00, 0x00,
  0x34, 0x00, 0x00, 0x00, 0x04, 0x00, 0x00, 0x00, 0xdc, 0xff, 0xff, 0xff,
  0x22, 0x00, 0x00, 0x00, 0x04, 0x00, 0x00, 0x00, 0x13, 0x00, 0x00, 0x00,
  0x43, 0x4f, 0x4e, 0x56, 0x45, 0x52, 0x53, 0x49, 0x4f, 0x4e, 0x5f, 0x4d,
  0x45, 0x54, 0x41, 0x44, 0x41, 0x54, 0x41, 0x00, 0x08, 0x00, 0x0c, 0x00,
  0x08, 0x00, 0x04, 0x00, 0x08, 0x00, 0x00, 0x00, 0x21, 0x00, 0x00, 0x00,
  0x04, 0x00, 0x00, 0x00, 0x13, 0x00, 0x00, 0x00, 0x6d, 0x69, 0x6e, 0x5f,
  0x72, 0x75, 0x6e, 0x74, 0x69, 0x6d, 0x65, 0x5f, 0x76, 0x65, 0x72, 0x73,
  0x69, 0x6f, 0x6e, 0x00, 0x23, 0x00, 0x00, 0x00, 0x90, 0x13, 0x00, 0x00,
  0x88, 0x13, 0x00, 0x00, 0x6c, 0x13, 0x00, 0x00, 0x48, 0x13, 0x00, 0x00,
  0x2c, 0x13, 0x00, 0x00, 0x10, 0x13, 0x00, 0x00, 0xc0, 0x11, 0x00, 0x00,
  0x10, 0x11, 0x00, 0x00, 0xf0, 0x10, 0x00, 0x00, 0xb0, 0x01, 0x00, 0x00,
  0x90, 0x01, 0x00, 0x00, 0x70, 0x01, 0x00, 0x00, 0x5c, 0x01, 0x00, 0x00,
  0x48, 0x01, 0x00, 0x00, 0x30, 0x01, 0x00, 0x00, 0x1c, 0x01, 0x00, 0x00,
  0x14, 0x01, 0x00, 0x00, 0x0c, 0x01, 0x00, 0x00, 0x04, 0x01, 0x00, 0x00,
  0xfc, 0x00, 0x00, 0x00, 0xf4, 0x00, 0x00, 0x00, 0xec, 0x00, 0x00, 0x00,
  0xe4, 0x00, 0x00, 0x00, 0xdc, 0x00, 0x00, 0x00, 0xd4, 0x00, 0x00, 0x00,
  0xcc, 0x00, 0x00, 0x00, 0xc4, 0x00, 0x00, 0x00, 0xbc, 0x00, 0x00, 0x00,
  0xb4, 0x00, 0x00, 0x00, 0xac, 0x00, 0x00, 0x00, 0xa4, 0x00, 0x00, 0x00,
  0x9c, 0x00, 0x00, 0x00, 0x94, 0x00, 0x00, 0x00, 0x74, 0x00, 0x00, 0x00,
  0x04, 0x00, 0x00, 0x00, 0x1e, 0xed, 0xff, 0xff, 0x04, 0x00, 0x00, 0x00,
  0x60, 0x00, 0x00, 0x00, 0x0c, 0x00, 0x00, 0x00, 0x08, 0x00, 0x0e, 0x00,
  0x08, 0x00, 0x04, 0x00, 0x08, 0x00, 0x00, 0x00, 0x10, 0x00, 0x00, 0x00,
  0x28, 0x00, 0x00, 0x00, 0x00, 0x00, 0x06, 0x00, 0x08, 0x00, 0x04, 0x00,
  0x06, 0x00, 0x00, 0x00, 0x04, 0x00, 0x00, 0x00, 0x01, 0x00, 0x00, 0x00,
  0xea, 0x03, 0x00, 0x00, 0x0c, 0x00, 0x18, 0x00, 0x14, 0x00, 0x10, 0x00,
  0x0c, 0x00, 0x04, 0x00, 0x0c, 0x00, 0x00, 0x00, 0x81, 0xc3, 0x54, 0xe0,
  0x69, 0x52, 0xdb, 0x37, 0x02, 0x00, 0x00, 0x00, 0x02, 0x00, 0x00, 0x00,
  0x04, 0x00, 0x00, 0x00, 0x06, 0x00, 0x00, 0x00, 0x32, 0x2e, 0x31, 0x37,
  0x2e, 0x30, 0x00, 0x00, 0x8a, 0xed, 0xff, 0xff, 0x04, 0x00, 0x00, 0x00,
  0x10, 0x00, 0x00, 0x00, 0x31, 0x2e, 0x31, 0x34, 0x2e, 0x30, 0x00, 0x00,
  0x00, 0x00, 0x00, 0x00, 0x00, 0x00, 0x00, 0x00, 0xa8, 0xdc, 0xff, 0xff,
  0xac, 0xdc, 0xff, 0xff, 0xb0, 0xdc, 0xff, 0xff, 0xb4, 0xdc, 0xff, 0xff,
  0xb8, 0xdc, 0xff, 0xff, 0xbc, 0xdc, 0xff, 0xff, 0xc0, 0xdc, 0xff, 0xff,
  0xc4, 0xdc, 0xff, 0xff, 0xc8, 0xdc, 0xff, 0xff, 0xcc, 0xdc, 0xff, 0xff,
  0xd0, 0xdc, 0xff, 0xff, 0xd4, 0xdc, 0xff, 0xff, 0xd8, 0xdc, 0xff, 0xff,
  0xdc, 0xdc, 0xff, 0xff, 0xe0, 0xdc, 0xff, 0xff, 0xe4, 0xdc, 0xff, 0xff,
  0xe8, 0xdc, 0xff, 0xff, 0xea, 0xed, 0xff, 0xff, 0x04, 0x00, 0x00, 0x00,
  0x04, 0x00, 0x00, 0x00, 0x01, 0x00, 0x00, 0x00, 0xfa, 0xed, 0xff, 0xff,
  0x04, 0x00, 0x00, 0x00, 0x08, 0x00, 0x00, 0x00, 0xff, 0xff, 0xff, 0xff,
  0xcc, 0x03, 0x00, 0x00, 0x0e, 0xee, 0xff, 0xff, 0x04, 0x00, 0x00, 0x00,
  0x04, 0x00, 0x00, 0x00, 0xfd, 0xff, 0xff, 0xff, 0x1e, 0xee, 0xff, 0xff,
  0x04, 0x00, 0x00, 0x00, 0x04, 0x00, 0x00, 0x00, 0x86, 0xb1, 0xbb, 0xbd,
  0x2e, 0xee, 0xff, 0xff, 0x04, 0x00, 0x00, 0x00, 0x10, 0x00, 0x00, 0x00,
  0xfe, 0x60, 0x69, 0xbd, 0xf8, 0x18, 0xdf, 0x3b, 0x01, 0x6a, 0x31, 0x3d,
  0xc4, 0x7d, 0xd4, 0x3c, 0x4a, 0xee, 0xff, 0xff, 0x04, 0x00, 0x00, 0x00,
  0x10, 0x00, 0x00, 0x00, 0x60, 0x1c, 0xcc, 0x3d, 0xf5, 0x11, 0xd8, 0xbd,
  0xab, 0xfe, 0x62, 0xbd, 0x9f, 0xfb, 0x73, 0x3d, 0x66, 0xee, 0xff, 0xff,
  0x04, 0x00, 0x00, 0x00, 0x30, 0x0f, 0x00, 0x00, 0x98, 0x05, 0x9a, 0x3d,
  0x20, 0xc1, 0xc3, 0x3b, 0x3b, 0xd1, 0xed, 0xbb, 0xdc, 0xac, 0xdb, 0xbd,
  0x0e, 0x62, 0xed, 0x3b, 0x70, 0x6f, 0x84, 0xb5, 0xd3, 0x8d, 0xc8, 0x3c,
  0x29, 0x45, 0x84, 0xbe, 0xc6, 0x0c, 0x9a, 0x3d, 0xec, 0xcb, 0xe8, 0x3c,
  0xa5, 0x04, 0xb4, 0xbc, 0x7f, 0xe1, 0x9c, 0xbe, 0xb0, 0xd9, 0x26, 0xbd,
  0xcf, 0xdf, 0x01, 0x3d, 0x8f, 0xdb, 0x13, 0xbd, 0x5a, 0x18, 0x8e, 0xbe,
  0xe5, 0xe2, 0xa0, 0xbc, 0x13, 0x4f, 0x7a, 0x3d, 0x04, 0xef, 0x80, 0xbc,
  0x02, 0xdb, 0x5a, 0xbe, 0xb6, 0xb0, 0xc0, 0xbd, 0x7d, 0xf5, 0xf2, 0x3b,
  0x54, 0xc0, 0x25, 0xbc, 0x6d, 0x99, 0x7f, 0xbe, 0x6a, 0xb2, 0x17, 0x3d,
  0x40, 0x94, 0xae, 0x3d, 0x84, 0x67, 0x90, 0xbd, 0xf3, 0x21, 0x90, 0xbd,
  0x37, 0x92, 0x8e, 0xbc, 0x9e, 0x5e, 0xa7, 0x3d, 0x4e, 0x2f, 0x2a, 0xbc,
  0x30, 0x5a, 0xc3, 0xbd, 0xc6, 0x52, 0x71, 0xbd, 0x51, 0xe7, 0xe8, 0xbc,
  0x33, 0x50, 0x84, 0x3d, 0xb6, 0xa6, 0x22, 0xbe, 0xce, 0x49, 0xbe, 0xbc,
  0xcf, 0xe9, 0xd7, 0x3c, 0xbf, 0xdf, 0x43, 0xbd, 0x5d, 0x49, 0x62, 0xbd,
  0x16, 0x21, 0x06, 0xbe, 0xf0, 0x75, 0x15, 0xbd, 0x7f, 0xb4, 0x22, 0xbd,
  0x28, 0x5b, 0xdf, 0xbd, 0x10, 0xf5, 0x56, 0xbd, 0x4f, 0xaa, 0x93, 0x3d,
  0x09, 0x0b, 0x33, 0xbd, 0xb2, 0x9a, 0x62, 0xbd, 0xf7, 0x35, 0x95, 0xbd,
  0xad, 0xe6, 0x2a, 0x3c, 0xaa, 0x80, 0x98, 0xbd, 0xc0, 0x7a, 0x8c, 0xbd,
  0x4f, 0x29, 0x45, 0xbc, 0x99, 0x14, 0xdb, 0x3d, 0x66, 0x67, 0x7f, 0xbd,
  0xa9, 0x4d, 0xbf, 0xbd, 0x37, 0x50, 0xd8, 0x3c, 0x13, 0x01, 0xf8, 0x3a,
  0x6b, 0x50, 0x3c, 0x3d, 0x26, 0x8b, 0x66, 0xbc, 0x40, 0x46, 0x8d, 0x3c,
  0xe5, 0x73, 0x6e, 0x3d, 0xcd, 0x41, 0x81, 0xbd, 0xc0, 0x04, 0x84, 0x3c,
  0x9d, 0x87, 0xbe, 0xbd, 0xd0, 0xea, 0xa8, 0xbd, 0x1b, 0x0c, 0x11, 0x3c,
  0x80, 0xa4, 0x98, 0xbc, 0xa7, 0xf0, 0x01, 0xbe, 0x74, 0xb0, 0x27, 0xbd,
  0x9f, 0xee, 0x93, 0xbd, 0x70, 0xea, 0x3a, 0xbd, 0xaf, 0x1e, 0x46, 0xbd,
  0x9b, 0x2b, 0xc2, 0x3c, 0xb3, 0x34, 0x50, 0xbc, 0x82, 0x6d, 0x4a, 0xbd,
  0xfa, 0x28, 0x03, 0xbe, 0x62, 0xac, 0xe4, 0x3d, 0xac, 0x29, 0x61, 0x3d,
  0x80, 0x54, 0x21, 0xbb, 0xec, 0xa7, 0x03, 0x3c, 0x8d, 0x47, 0x97, 0x3b,
  0xc8, 0x64, 0x80, 0x3c, 0x8d, 0x61, 0xa7, 0xbd, 0x5e, 0x91, 0xdf, 0xbd,
  0x56, 0x94, 0x7e, 0x3d, 0xf0, 0x0c, 0x24, 0x3d, 0x1e, 0xf4, 0x3f, 0xbe,
  0x66, 0x5f, 0xea, 0xbd, 0x9f, 0x24, 0x81, 0xbd, 0xba, 0x7c, 0x07, 0x3c,
  0x1d, 0xff, 0x8f, 0x3c, 0x6d, 0xd4, 0x9b, 0xbc, 0x23, 0xe4, 0x77, 0xbd,
  0x36, 0x29, 0xb3, 0xbd, 0x67, 0x36, 0x36, 0x3d, 0x48, 0x79, 0xbc, 0xbd,
  0x86, 0xff, 0x56, 0x3b, 0xd0, 0x18, 0x0e, 0x3d, 0x78, 0x71, 0x8b, 0x3d,
  0x18, 0xe3, 0xd4, 0xbd, 0xf5, 0x1f, 0x85, 0x3c, 0x02, 0x00, 0x6e, 0x3c,
  0xa9, 0x91, 0x7c, 0x3d, 0xb9, 0x0d, 0xe3, 0xbd, 0x64, 0x23, 0xf9, 0xbd,
  0x69, 0x8c, 0xaa, 0x3c, 0x2f, 0x18, 0x40, 0xbd, 0x3e, 0xec, 0x00, 0xbe,
  0x7b, 0x64, 0x8a, 0xbc, 0x18, 0x91, 0x60, 0x3d, 0xdf, 0x9f, 0x8e, 0x3c,
  0x95, 0xe4, 0x25, 0xbe, 0xfd, 0x61, 0x9b, 0xbb, 0x83, 0x50, 0x12, 0x3c,
  0x4f, 0xd2, 0x6a, 0x3d, 0x74, 0xc8, 0x43, 0xbe, 0x63, 0xa5, 0x4a, 0x3d,
  0x3b, 0x51, 0x57, 0x3d, 0x0d, 0xe7, 0xcf, 0x3c, 0x91, 0xec, 0x80, 0xbd,
  0xc8, 0x64, 0xd7, 0x3c, 0x09, 0xb5, 0x0d, 0xbe, 0x1f, 0x11, 0x5c, 0x3d,
  0x51, 0x1d, 0x0a, 0xbd, 0x79, 0xd3, 0x81, 0x3d, 0xd6, 0x88, 0xc6, 0xbd,
  0x4f, 0xbb, 0x4a, 0x3d, 0x52, 0xc9, 0x41, 0xbd, 0x0e, 0x27, 0x6b, 0x3b,
  0x44, 0xb1, 0xe5, 0xbd, 0xbf, 0x72, 0x7c, 0xbd, 0x52, 0x12, 0xa2, 0xbd,
  0xb7, 0x73, 0x26, 0xbd, 0x9e, 0xf5, 0xb5, 0xbb, 0xbe, 0x5a, 0x8a, 0xbd,
  0x5b, 0x43, 0x2b, 0xbe, 0x7e, 0x56, 0xb1, 0x3c, 0x01, 0xf4, 0xaf, 0xbd,
  0x59, 0x24, 0xdb, 0x3d, 0x96, 0x89, 0x6c, 0xbd, 0xa6, 0x5e, 0x6a, 0x3c,
  0x31, 0xd8, 0xdb, 0xbd, 0x2a, 0xb3, 0x99, 0x3c, 0x16, 0xa5, 0xe4, 0xbd,
  0xdb, 0x5e, 0x91, 0x3d, 0xe8, 0xb0, 0x25, 0xbd, 0xcf, 0x28, 0xad, 0x3c,
  0x66, 0xdf, 0x5f, 0xbd, 0xaf, 0x60, 0xfc, 0xbc, 0x03, 0xdf, 0x89, 0xbd,
  0x14, 0x02, 0x12, 0x3d, 0xf4, 0x7d, 0x39, 0xbe, 0x75, 0xfe, 0x03, 0xba,
  0x81, 0x0b, 0x81, 0xbd, 0x78, 0xc2, 0xe6, 0xbc, 0x6f, 0x4e, 0xbc, 0xbd,
  0x69, 0x13, 0x14, 0xbc, 0xcf, 0x0a, 0x7e, 0xbd, 0x00, 0xa3, 0xa3, 0xb5,
  0x45, 0x22, 0xe8, 0xbc, 0x07, 0x63, 0xb1, 0x3c, 0x52, 0xb5, 0xf1, 0x3a,
  0x71, 0x68, 0xe5, 0x3d, 0xd6, 0x41, 0x2a, 0xbd, 0x68, 0xcf, 0x9f, 0x3d,
  0xbe, 0x4e, 0x87, 0x3d, 0xe5, 0x1c, 0xc8, 0xbc, 0x32, 0xc5, 0xc7, 0xbc,
  0xb8, 0x98, 0x58, 0x3d, 0xf8, 0x64, 0x13, 0xbd, 0x9e, 0x28, 0xd1, 0x3c,
  0x19, 0x58, 0xa7, 0xbd, 0xc4, 0x34, 0x61, 0x3d, 0x64, 0xb4, 0x21, 0x3c,
  0xae, 0xa2, 0x7a, 0x3d, 0xcc, 0xae, 0xab, 0xbc, 0x1e, 0xac, 0x02, 0x3e,
  0xe9, 0x96, 0x00, 0x3e, 0x2c, 0xc8, 0xab, 0x3c, 0x33, 0xdf, 0x03, 0xbd,
  0x24, 0x12, 0xf6, 0x3d, 0xd1, 0xe2, 0xe7, 0x3d, 0x51, 0xfa, 0x79, 0xbd,
  0x0d, 0x3e, 0xaa, 0xbd, 0xaa, 0xa5, 0x8f, 0x3d, 0x8b, 0x95, 0x26, 0x3d,
  0xe1, 0x9a, 0xab, 0xbd, 0x25, 0xc3, 0xe7, 0xbd, 0x09, 0x8d, 0x99, 0x3d,
  0x06, 0xe1, 0x15, 0x3e, 0xb3, 0xc6, 0x35, 0xbd, 0xf1, 0xa0, 0x39, 0xbd,
  0x37, 0x68, 0x0e, 0x3e, 0x04, 0x54, 0xf0, 0x3d, 0xe4, 0x62, 0x5d, 0xbe,
  0x22, 0x78, 0x74, 0x3c, 0x20, 0x2e, 0xd7, 0x3d, 0xa4, 0xfa, 0x00, 0x3e,
  0x66, 0x10, 0xc4, 0x3c, 0x02, 0x48, 0x4c, 0xbc, 0xe0, 0xb4, 0xe7, 0x3d,
  0x68, 0x3e, 0xe3, 0x3d, 0xde, 0x52, 0x34, 0xbd, 0xb3, 0x71, 0x1e, 0xbd,
  0xdb, 0x73, 0x8d, 0x3d, 0x57, 0xad, 0xa7, 0x3d, 0xc5, 0xbc, 0xe1, 0xbc,
  0xe1, 0x47, 0x9b, 0x3c, 0x20, 0x3a, 0x60, 0x3d, 0x75, 0x16, 0xd3, 0x3d,
  0xed, 0xfe, 0xbd, 0x3d, 0x8a, 0xa4, 0x02, 0xbe, 0x4f, 0x0a, 0xaf, 0x3d,
  0xb8, 0x4f, 0x94, 0xbc, 0xc5, 0xa3, 0xaf, 0xbd, 0x13, 0xc9, 0xfe, 0x3a,
  0xa1, 0x60, 0xa9, 0x3c, 0xd9, 0x93, 0x3d, 0xbd, 0x64, 0x52, 0xc0, 0xbd,
  0x86, 0x08, 0xc4, 0xbc, 0xf9, 0xaf, 0x77, 0x3c, 0xd4, 0xda, 0xc4, 0xbc,
  0xd8, 0xb4, 0x04, 0x3d, 0xf4, 0x5b, 0x6d, 0xbd, 0x0e, 0x8f, 0x88, 0x3d,
  0x1f, 0xbc, 0x0d, 0x3d, 0x57, 0x4d, 0x40, 0x3d, 0x72, 0xe5, 0x89, 0xbd,
  0xdf, 0x5b, 0x41, 0x3d, 0xed, 0x2f, 0x81, 0x3c, 0x7d, 0x65, 0xf4, 0x3c,
  0x9f, 0x64, 0x51, 0xbd, 0x31, 0x66, 0x76, 0x3c, 0xbc, 0x58, 0xbb, 0x3b,
  0xb0, 0xba, 0x1e, 0x3d, 0xf6, 0x86, 0x46, 0xbd, 0x9d, 0xaf, 0xc3, 0x3d,
  0x94, 0xf9, 0x14, 0x3d, 0xc6, 0x56, 0x27, 0xbd, 0xf1, 0x87, 0xba, 0xbd,
  0x51, 0x79, 0x13, 0xbc, 0xb1, 0x1d, 0xf3, 0xbc, 0xba, 0xc6, 0x89, 0x3d,
  0x73, 0x1b, 0xf5, 0xbd, 0x37, 0x0c, 0x95, 0x3d, 0x53, 0xfb, 0x2e, 0xbd,
  0x78, 0xca, 0x82, 0xbd, 0x6c, 0x09, 0xfb, 0x3c, 0x05, 0x7f, 0xe6, 0x3d,
  0x59, 0x08, 0x93, 0xbc, 0x0a, 0xac, 0xb2, 0xbd, 0x58, 0x51, 0xc9, 0xbd,
  0x83, 0x3a, 0x00, 0x3e, 0x12, 0x03, 0x26, 0xbd, 0xe2, 0x5e, 0x87, 0xbd,
  0x17, 0x5e, 0xc5, 0xbd, 0x5b, 0xd1, 0xcc, 0x3c, 0x9d, 0x2c, 0xc4, 0x3d,
  0x05, 0x77, 0x80, 0x3d, 0xff, 0x81, 0x73, 0xbd, 0x2c, 0x14, 0x12, 0xbc,
  0x9d, 0x0d, 0x35, 0x3c, 0x12, 0x44, 0x98, 0x3d, 0xe3, 0xa7, 0x17, 0x3d,
  0xe0, 0x1c, 0x01, 0x3e, 0xbd, 0x5f, 0xe6, 0x3d, 0x6d, 0x21, 0xc2, 0xbd,
  0xcb, 0x16, 0x62, 0xbd, 0x8d, 0xd7, 0xcb, 0x3d, 0xd0, 0x71, 0xc6, 0x3d,
  0x75, 0x24, 0xc6, 0x3d, 0x11, 0xc7, 0x5f, 0x3d, 0x78, 0x4c, 0x1b, 0x3d,
  0x59, 0xe0, 0x54, 0x3c, 0xa5, 0xd5, 0xd8, 0xbd, 0xb8, 0x20, 0x4e, 0xbd,
  0xa3, 0x4a, 0xc5, 0x3d, 0x28, 0x3f, 0x8a, 0x3d, 0xbf, 0xfc, 0x98, 0x3d,
  0xfc, 0x51, 0x90, 0x3d, 0x8b, 0x7e, 0x97, 0x3d, 0xf4, 0xad, 0x70, 0xbc,
  0x33, 0x63, 0xb3, 0xbb, 0xd7, 0x20, 0x9c, 0x3d, 0xff, 0xa4, 0xa4, 0x3c,
  0xc5, 0x88, 0xd0, 0x3d, 0xbc, 0x22, 0xa6, 0xbd, 0x6c, 0x7e, 0xac, 0xbd,
  0x20, 0x2b, 0xee, 0x3d, 0xcc, 0xe6, 0x3e, 0x3d, 0x33, 0x53, 0xac, 0x3d,
  0x28, 0x3a, 0x12, 0x3d, 0x96, 0xe3, 0x19, 0x3e, 0xf4, 0xcb, 0x21, 0x3d,
  0x24, 0xff, 0xf5, 0x3c, 0x98, 0x4c, 0xad, 0xbd, 0x6e, 0xbe, 0xf5, 0x3d,
  0x85, 0xca, 0xa7, 0x3d, 0x18, 0xfa, 0x9f, 0xbd, 0x7c, 0xaf, 0x56, 0x3d,
  0x3b, 0x86, 0x0c, 0x3e, 0x04, 0xe6, 0xcd, 0xbb, 0xe6, 0x78, 0xcc, 0x3d,
  0x53, 0xc5, 0xad, 0x39, 0x59, 0xce, 0x22, 0x3c, 0x37, 0xf4, 0xb9, 0x3d,
  0xe4, 0x32, 0x20, 0x3d, 0xec, 0x21, 0xbe, 0xbc, 0x5d, 0x31, 0xa4, 0x3d,
  0x61, 0x1d, 0x96, 0x3d, 0xcc, 0xe6, 0x8e, 0xbc, 0xfc, 0xe2, 0x5c, 0xbd,
  0xca, 0x95, 0xd1, 0xbc, 0x23, 0x02, 0xc2, 0x3b, 0x13, 0x37, 0x7d, 0xbc,
  0x2d, 0x43, 0x65, 0xbd, 0xee, 0xa3, 0xad, 0xbc, 0xfa, 0xbc, 0xe7, 0xbc,
  0x21, 0x25, 0xc0, 0xbc, 0x96, 0x68, 0x4c, 0xbd, 0x4a, 0x03, 0x06, 0xbd,
  0x3e, 0xb8, 0x3a, 0x3d, 0x17, 0xd0, 0x22, 0xbd, 0xc8, 0x71, 0xea, 0xbd,
  0xa3, 0x8a, 0x9c, 0x3d, 0xa0, 0x81, 0x94, 0xbc, 0x7e, 0xc0, 0x38, 0xbe,
  0x1f, 0x9f, 0x86, 0xbc, 0xd5, 0xb9, 0xff, 0x3c, 0x0f, 0x46, 0xb6, 0xbd,
  0x3f, 0xa2, 0xc4, 0xbc, 0xef, 0xd5, 0xb7, 0xbd, 0xd3, 0x6e, 0xd7, 0xbd,
  0x81, 0xd6, 0x08, 0x3c, 0xeb, 0x6d, 0xca, 0xbd, 0x64, 0xd7, 0x42, 0xbd,
  0x23, 0x7d, 0xa8, 0x3a, 0xd0, 0x37, 0x1a, 0xbd, 0xad, 0x32, 0xb2, 0xbd,
  0xd0, 0xee, 0xf0, 0xbd, 0xfb, 0x42, 0x2c, 0x3d, 0xa0, 0x35, 0x86, 0xbd,
  0x60, 0xea, 0x7e, 0x3d, 0xd1, 0x91, 0x5e, 0xbc, 0xb2, 0x44, 0x11, 0x3d,
  0x58, 0x92, 0xe2, 0xbc, 0xb1, 0xc9, 0x80, 0xbd, 0x00, 0x43, 0xb9, 0x3b,
  0x2b, 0x31, 0x06, 0xbd, 0xcf, 0x5b, 0xb4, 0xbc, 0x61, 0xec, 0x96, 0x3d,
  0x57, 0xa8, 0xae, 0xbd, 0xb0, 0x4a, 0x2d, 0x3d, 0x8e, 0xf1, 0x90, 0x3d,
  0xd8, 0x16, 0x52, 0xbd, 0x96, 0x1b, 0x84, 0xbc, 0x7b, 0x97, 0x44, 0x3d,
  0x97, 0x68, 0x67, 0x3d, 0xbc, 0x77, 0x37, 0xbc, 0x1f, 0x10, 0x8d, 0x3d,
  0x5c, 0x3b, 0xb6, 0x3d, 0x1e, 0x36, 0xac, 0x3d, 0xdd, 0xf3, 0xad, 0xbd,
  0x41, 0x71, 0x54, 0xbb, 0x52, 0x0c, 0x40, 0xbb, 0x29, 0xe0, 0x77, 0x3d,
  0xa0, 0xff, 0xb2, 0xbc, 0xf8, 0x4a, 0x89, 0x3d, 0x67, 0x64, 0xaa, 0x3c,
  0x0d, 0x8f, 0xf4, 0x3d, 0x1e, 0x7f, 0x0e, 0xbd, 0x83, 0x23, 0x15, 0xbd,
  0xad, 0x28, 0xd1, 0x3d, 0xe9, 0xd9, 0x56, 0x3d, 0x5a, 0x15, 0x80, 0xbd,
  0xf0, 0x8b, 0x32, 0x3c, 0x05, 0xb6, 0xdd, 0x3d, 0x29, 0xaf, 0x19, 0x3e,
  0xc8, 0xca, 0xc8, 0xbd, 0x01, 0x07, 0xb0, 0x3d, 0x82, 0xeb, 0x02, 0x3d,
  0xeb, 0x7f, 0xfc, 0x3d, 0x70, 0xea, 0xd5, 0xbd, 0xa4, 0x8a, 0x11, 0xba,
  0x9d, 0x5f, 0xbf, 0x3d, 0xc9, 0xcc, 0x08, 0x3d, 0xc6, 0x76, 0x25, 0xbd,
  0xeb, 0xec, 0x30, 0xbd, 0xcd, 0x1c, 0x4a, 0x3e, 0x1b, 0xb7, 0x39, 0x3c,
  0x6d, 0xd4, 0x18, 0xbe, 0x77, 0x7f, 0x69, 0x3c, 0xd0, 0xe9, 0x82, 0x3d,
  0x12, 0x0b, 0xe5, 0x3d, 0x6c, 0x72, 0x94, 0xbd, 0x79, 0x36, 0x8c, 0x3d,
  0x62, 0x61, 0xa9, 0x3d, 0x78, 0x0e, 0x61, 0x3d, 0x73, 0xb8, 0x14, 0xbd,
  0x0a, 0xbc, 0xcd, 0x3b, 0x59, 0x80, 0x03, 0x3e, 0xa3, 0x2b, 0xc4, 0x3d,
  0x52, 0x46, 0xbc, 0xbd, 0xd6, 0x2d, 0x17, 0x3e, 0x36, 0x5e, 0x15, 0x3e,
  0xfc, 0x28, 0xd4, 0x3d, 0x24, 0xb2, 0x5b, 0xbe, 0x44, 0xb8, 0x6b, 0xbd,
  0x30, 0xad, 0x0f, 0x3e, 0xbc, 0xdb, 0x98, 0x3d, 0x96, 0xbd, 0x0c, 0xbe,
  0x2a, 0xe8, 0xd1, 0x3d, 0x74, 0x3b, 0x96, 0x3d, 0xa3, 0x8a, 0x11, 0x3e,
  0x7a, 0x3c, 0x91, 0x3b, 0xda, 0x59, 0x5c, 0x3d, 0x42, 0x6b, 0x16, 0x3e,
  0x98, 0x30, 0x33, 0x3e, 0x12, 0xeb, 0xcb, 0xbd, 0xa7, 0x94, 0x9c, 0x3c,
  0x66, 0x67, 0x0d, 0x3e, 0xd9, 0xb1, 0x52, 0x3d, 0x3e, 0x0b, 0xaf, 0xbd,
  0x3d, 0xc0, 0xb2, 0x3d, 0xe5, 0x69, 0x88, 0x3d, 0xe2, 0x08, 0xbf, 0x3d,
  0x1e, 0xd0, 0x04, 0xbe, 0x9d, 0x73, 0xfa, 0xbc, 0x5d, 0x4f, 0x3f, 0x3e,
  0xcc, 0x7c, 0x14, 0x3e, 0x46, 0x13, 0xc7, 0xbd, 0x27, 0xb8, 0x84, 0x3d,
  0x25, 0xf4, 0x20, 0x3e, 0x48, 0x35, 0x08, 0x3e, 0xf0, 0x1c, 0x2a, 0xbe,
  0x13, 0x05, 0x8b, 0xbd, 0xa6, 0xd9, 0xfc, 0x3d, 0x8c, 0x5b, 0xf7, 0x3d,
  0x78, 0x56, 0x9d, 0x3c, 0x7e, 0xef, 0x6d, 0x3c, 0xf0, 0x33, 0xf2, 0x3d,
  0x99, 0x1e, 0x35, 0x3d, 0x85, 0x2d, 0x07, 0xbe, 0x11, 0x3a, 0x3a, 0x3d,
  0xc1, 0x21, 0x83, 0x3d, 0xee, 0x9a, 0x94, 0x3d, 0xd8, 0xed, 0xc8, 0xbc,
  0x4b, 0x20, 0xb2, 0xbd, 0x2d, 0x47, 0x09, 0x3e, 0xf2, 0x83, 0xf3, 0x3d,
  0xcc, 0x2d, 0xab, 0xbc, 0x54, 0xdf, 0xa5, 0xbd, 0x71, 0x70, 0x97, 0x3d,
  0x74, 0xc0, 0x21, 0x3e, 0x69, 0xce, 0xf1, 0xbc, 0x8f, 0x11, 0x97, 0x3c,
  0xa5, 0xf8, 0x23, 0x39, 0x98, 0xee, 0x8e, 0xbd, 0x47, 0x58, 0x78, 0xbd,
  0xfb, 0x9b, 0x31, 0xbd, 0x97, 0x57, 0xf1, 0x3d, 0xdc, 0x99, 0x14, 0x3d,
  0xa9, 0xd2, 0xa0, 0x3d, 0x53, 0xd8, 0xc0, 0xbd, 0xf9, 0x7f, 0x4c, 0x3c,
  0xa8, 0x1d, 0xd4, 0x3c, 0x18, 0x40, 0xa1, 0x3c, 0x2a, 0x4a, 0x81, 0xbc,
  0x6b, 0xfa, 0x75, 0x3d, 0x76, 0x2e, 0xbf, 0x3d, 0xf9, 0xd1, 0x16, 0xbe,
  0x8e, 0xee, 0xf2, 0xbc, 0xa3, 0x0d, 0x63, 0xbc, 0xfd, 0x58, 0xb4, 0x3d,
  0x0d, 0x72, 0x98, 0xba, 0x0e, 0x6d, 0x7d, 0xbd, 0x10, 0x26, 0x1f, 0x3e,
  0xbc, 0x42, 0x21, 0xbd, 0xa1, 0xce, 0x8c, 0xbd, 0xf9, 0x68, 0xc3, 0xbd,
  0x73, 0x83, 0xac, 0x3d, 0x80, 0xfa, 0x17, 0x3e, 0x4b, 0x01, 0x99, 0xbc,
  0xdc, 0x3e, 0x46, 0x3d, 0x42, 0x8d, 0x96, 0x3d, 0xa4, 0x34, 0x12, 0xbd,
  0x65, 0x6b, 0xcb, 0x3d, 0xcf, 0x6b, 0x78, 0xbb, 0x44, 0x90, 0x8b, 0x3c,
  0xd9, 0x67, 0xac, 0x3d, 0x06, 0x54, 0x48, 0xbd, 0xb0, 0x69, 0x61, 0xbd,
  0xb2, 0xa2, 0x28, 0x3e, 0xf5, 0xf6, 0x0c, 0x3e, 0x38, 0x65, 0x1e, 0xbd,
  0xff, 0x42, 0x2a, 0x3d, 0x5d, 0x70, 0x83, 0x3d, 0xce, 0x63, 0xc0, 0x3d,
  0xe2, 0x66, 0x47, 0xbd, 0x37, 0x45, 0x4e, 0x3d, 0x0f, 0xe1, 0x23, 0x3e,
  0xe1, 0xc8, 0x22, 0x3e, 0xac, 0xdd, 0x15, 0xbd, 0xc2, 0x17, 0xa0, 0x3d,
  0x85, 0x73, 0x43, 0x3d, 0x85, 0x4e, 0x86, 0x3d, 0x20, 0xb6, 0x48, 0x3d,
  0xee, 0x1d, 0x1a, 0x3d, 0xaa, 0x88, 0x14, 0x3e, 0x36, 0x1f, 0x90, 0x3d,
  0xb5, 0x15, 0x7c, 0xbd, 0x35, 0x13, 0x1b, 0xbd, 0x38, 0xa2, 0x03, 0x3e,
  0xf6, 0x11, 0x65, 0x3d, 0xe5, 0xd2, 0x62, 0x3c, 0x45, 0xcc, 0x3a, 0x3c,
  0x76, 0x2a, 0x09, 0x3e, 0xf1, 0x2c, 0xbb, 0x3d, 0x24, 0xc9, 0x98, 0xbd,
  0xde, 0x77, 0x98, 0x3d, 0xf8, 0x4b, 0xc6, 0x3d, 0xf9, 0x0d, 0x65, 0x3d,
  0xa6, 0x64, 0xd9, 0xbc, 0x57, 0x38, 0xd1, 0xbd, 0xd3, 0x6b, 0x27, 0x3d,
  0x44, 0x32, 0xc6, 0x3d, 0x9c, 0xa7, 0x99, 0x3c, 0xb5, 0xbe, 0xa9, 0xb9,
  0x98, 0x7f, 0xb3, 0x3d, 0x7f, 0xe5, 0x42, 0xbd, 0x9f, 0xd9, 0xea, 0xbd,
  0x94, 0xa9, 0x18, 0x3d, 0x6f, 0x35, 0x2e, 0x3d, 0xbd, 0x4c, 0x4b, 0x3b,
  0xdc, 0x31, 0x99, 0x3d, 0x13, 0x7b, 0x37, 0xbd, 0x9f, 0x01, 0x2b, 0x3d,
  0x8f, 0x9b, 0x8c, 0xbd, 0x67, 0xb5, 0x63, 0x3c, 0xc8, 0xb4, 0xc0, 0x3d,
  0x6d, 0xda, 0x8a, 0x3d, 0x35, 0x83, 0x11, 0x3c, 0xd3, 0x84, 0x6e, 0x3d,
  0xc2, 0xeb, 0xcf, 0xbb, 0xb4, 0xb4, 0xc1, 0xbb, 0x5c, 0xe5, 0xd6, 0x3d,
  0x90, 0x3b, 0xe8, 0xbc, 0x2f, 0x07, 0x9c, 0x3c, 0x9a, 0x61, 0x90, 0x3d,
  0xfa, 0xd2, 0xae, 0x3d, 0xd4, 0x9f, 0x00, 0x3d, 0xca, 0x87, 0x33, 0x3d,
  0xb5, 0x90, 0x0d, 0x3e, 0x0a, 0xd8, 0xa0, 0x3d, 0xf1, 0x66, 0x31, 0xbd,
  0x68, 0x1a, 0x21, 0xbd, 0x58, 0x1d, 0xdc, 0x3c, 0x6a, 0xaf, 0x32, 0x3d,
  0x62, 0x4f, 0xc5, 0x3c, 0x18, 0x79, 0xb0, 0xbb, 0x37, 0xf0, 0xcb, 0x3c,
  0xa7, 0x2e, 0x3b, 0xbd, 0xc0, 0x8a, 0x67, 0xbd, 0x19, 0xca, 0x49, 0x3d,
  0xe9, 0xc6, 0xf3, 0x3d, 0xf9, 0xcc, 0x92, 0x3d, 0x47, 0x10, 0x05, 0x3d,
  0x5e, 0xfa, 0x1d, 0xbd, 0x3e, 0x14, 0xef, 0x3d, 0xd6, 0x76, 0xe9, 0x3d,
  0x27, 0xf6, 0x75, 0xbc, 0x25, 0x6f, 0xcb, 0xbc, 0xa6, 0x0c, 0xe3, 0x3c,
  0xb3, 0x23, 0x23, 0x3d, 0xe8, 0x14, 0x0c, 0xbe, 0x89, 0x5d, 0xc2, 0xbc,
  0x16, 0x13, 0x00, 0x3e, 0x4a, 0xb3, 0x9e, 0xba, 0x9e, 0x76, 0x6f, 0xbd,
  0xfd, 0xcd, 0x95, 0xbd, 0xe5, 0x88, 0x66, 0x3d, 0x79, 0x44, 0xa9, 0x3d,
  0x82, 0x46, 0xf5, 0xbd, 0xf7, 0x1d, 0x0b, 0x3d, 0xa5, 0x6b, 0x2c, 0xbc,
  0xce, 0x04, 0x40, 0x3d, 0x92, 0x31, 0xe5, 0xbd, 0xff, 0x31, 0xae, 0xbc,
  0x55, 0x9c, 0xc3, 0x3d, 0xc3, 0xc7, 0xb8, 0xbc, 0x58, 0x6e, 0x4a, 0x3d,
  0xd6, 0x31, 0x0e, 0x3d, 0xc5, 0xad, 0xac, 0x3c, 0x51, 0xa7, 0x6e, 0x3d,
  0x4a, 0xae, 0xa4, 0xbc, 0xed, 0x75, 0xca, 0xbd, 0x5c, 0x3f, 0x09, 0x3e,
  0xa0, 0xff, 0x04, 0x3e, 0x1b, 0x82, 0x47, 0x3d, 0x05, 0x28, 0x25, 0xbd,
  0x58, 0x47, 0xbc, 0x3d, 0x29, 0x30, 0x32, 0x3d, 0x56, 0xaa, 0xc5, 0xbd,
  0xe0, 0x8e, 0x13, 0xbd, 0x88, 0xfb, 0xda, 0x3d, 0x7f, 0x12, 0xa0, 0x3d,
  0x14, 0xaf, 0x80, 0xbd, 0x81, 0x77, 0x22, 0xbc, 0x5e, 0x0f, 0xb1, 0xbc,
  0x7b, 0xfa, 0xf8, 0x3c, 0x1c, 0xa7, 0x95, 0xbc, 0x5d, 0x8c, 0xde, 0xbd,
  0xde, 0x37, 0x83, 0x3d, 0x44, 0x90, 0x55, 0x3d, 0xbc, 0x30, 0xc1, 0xbd,
  0x97, 0x41, 0x1a, 0xba, 0xac, 0x9c, 0xf4, 0x3d, 0x0e, 0x32, 0xed, 0x3d,
  0x40, 0xc6, 0x77, 0xbd, 0x24, 0x64, 0x71, 0xbd, 0x3f, 0x29, 0xd3, 0x3c,
  0xf0, 0x0c, 0xb8, 0xbb, 0x1a, 0x61, 0xec, 0xbd, 0xf4, 0xb6, 0x21, 0xbc,
  0x5a, 0x07, 0x02, 0x3e, 0x16, 0x44, 0xf8, 0x3d, 0x3c, 0x0f, 0x14, 0x3d,
  0xa3, 0x27, 0x61, 0x3b, 0x0c, 0xa3, 0x1b, 0x3d, 0xd2, 0xb3, 0xce, 0x3b,
  0x1f, 0x4c, 0xe4, 0xbd, 0x82, 0xd8, 0x95, 0x3d, 0xd6, 0xdc, 0x94, 0x3d,
  0x02, 0x02, 0xb9, 0x3c, 0xeb, 0x40, 0xd5, 0xbd, 0xd3, 0xf6, 0xca, 0xbd,
  0xb4, 0x44, 0xba, 0x3a, 0x6e, 0x19, 0xe8, 0x3c, 0x5e, 0x2f, 0x70, 0x3d,
  0x2b, 0x6e, 0x05, 0xbd, 0x8c, 0xab, 0xa2, 0xba, 0x82, 0x17, 0x76, 0x3d,
  0x42, 0x95, 0x12, 0xbd, 0x95, 0xa8, 0xbf, 0xbc, 0x5d, 0xd1, 0x62, 0xbd,
  0xb8, 0xf8, 0x2a, 0xbd, 0xa2, 0x56, 0x9d, 0xbd, 0x31, 0x31, 0x80, 0xbd,
  0xfa, 0x43, 0xdd, 0x3c, 0x53, 0xff, 0xd3, 0xbc, 0xa7, 0x81, 0x8d, 0xbd,
  0x78, 0xe9, 0x8c, 0xbd, 0x11, 0xd3, 0xe8, 0x3c, 0x30, 0x53, 0x1a, 0xbd,
  0xde, 0x85, 0x85, 0x3c, 0xd8, 0xcc, 0x6c, 0x3c, 0xbc, 0x72, 0x9b, 0xbd,
  0x03, 0x74, 0x87, 0x3c, 0x48, 0x5c, 0x79, 0xbd, 0x3d, 0xb2, 0xda, 0xbd,
  0xdf, 0x00, 0xe0, 0xbc, 0xf3, 0x24, 0xd2, 0xbd, 0x21, 0xeb, 0x0e, 0xbd,
  0x09, 0x60, 0x6e, 0xbd, 0x8d, 0x1a, 0x1c, 0x3d, 0x02, 0x9f, 0x4d, 0x3d,
  0x14, 0xcb, 0xaf, 0xbd, 0x9f, 0x5b, 0x05, 0xbc, 0x16, 0xe2, 0x60, 0xbd,
  0x20, 0xb5, 0xf3, 0x3c, 0xe7, 0x99, 0xb7, 0x3c, 0x1f, 0x92, 0x3b, 0x3c,
  0x93, 0x06, 0xe0, 0xbd, 0x6d, 0x81, 0x7e, 0xbd, 0x60, 0x0c, 0x76, 0xbd,
  0x4e, 0xfc, 0x13, 0xbe, 0x09, 0xbc, 0x69, 0xbd, 0x67, 0xc5, 0xa4, 0xbd,
  0xab, 0x56, 0x99, 0xbd, 0xfe, 0x97, 0x51, 0xbd, 0x07, 0x2b, 0x6c, 0x3c,
  0xc9, 0xf9, 0xc2, 0x3c, 0x91, 0xe0, 0xca, 0xbc, 0x1d, 0xa5, 0xf9, 0x3c,
  0x88, 0x7f, 0xd3, 0xbc, 0xc4, 0xe8, 0xaf, 0xbd, 0x0f, 0xdd, 0x07, 0xbd,
  0xb7, 0x47, 0xf4, 0xbd, 0xd1, 0x56, 0x17, 0xbe, 0x75, 0xc8, 0x09, 0xbe,
  0x7a, 0x4f, 0x8b, 0xbd, 0x7b, 0x51, 0x5e, 0xbd, 0xfa, 0xf7, 0xfa, 0x3c,
  0xc1, 0x5a, 0x52, 0xbc, 0x4c, 0x66, 0x97, 0xba, 0xd2, 0x02, 0x0b, 0xbe,
  0x87, 0x11, 0xf6, 0x3c, 0x7e, 0xa8, 0xea, 0x3c, 0xc0, 0x06, 0x28, 0x3d,
  0xdc, 0x88, 0x0f, 0xbb, 0x0e, 0xb5, 0xa4, 0x3d, 0x17, 0x6a, 0x09, 0xbe,
  0xf3, 0x22, 0xa9, 0xbd, 0xcd, 0x0c, 0x28, 0xbe, 0x8f, 0x80, 0x0d, 0x3d,
  0x09, 0xb0, 0x96, 0xbd, 0xcc, 0x69, 0x22, 0x3c, 0xbc, 0x52, 0x51, 0x3d,
  0x63, 0x5b, 0x14, 0x3d, 0x2d, 0x2f, 0x65, 0xbd, 0xcb, 0x6c, 0x0d, 0xbe,
  0xc2, 0xd3, 0x68, 0xbd, 0x48, 0x31, 0x23, 0x3c, 0xb5, 0xd6, 0x86, 0xbc,
  0x28, 0x16, 0x28, 0xbc, 0xc6, 0x8b, 0x53, 0xbd, 0x98, 0xbb, 0x8e, 0x3c,
  0x1c, 0x76, 0x59, 0xbd, 0x35, 0xa2, 0x02, 0xbe, 0x6b, 0x02, 0x33, 0x3c,
  0xf3, 0xb2, 0x5e, 0xbd, 0xe4, 0x88, 0x1f, 0x3d, 0x1c, 0xd2, 0x94, 0x3d,
  0x42, 0x4c, 0xd2, 0xbb, 0xf8, 0xb4, 0x93, 0xbc, 0x76, 0xbc, 0x8b, 0x3d,
  0x93, 0x73, 0x63, 0xbd, 0xb7, 0x91, 0x8b, 0x3c, 0x66, 0x47, 0x86, 0x3d,
  0x45, 0xcd, 0x90, 0x3d, 0xc9, 0x2a, 0xa5, 0xbd, 0xf7, 0x41, 0x9a, 0xbd,
  0xd5, 0x13, 0xad, 0xbc, 0xbb, 0xe3, 0xa3, 0xbb, 0xf6, 0x8b, 0x17, 0x3c,
  0xfd, 0x00, 0x93, 0x3d, 0xb6, 0x75, 0xdf, 0x3d, 0x5f, 0x7b, 0x2e, 0xbd,
  0xeb, 0x19, 0xc6, 0xbd, 0x13, 0xda, 0x95, 0xbd, 0x96, 0x53, 0x46, 0xbd,
  0xeb, 0xe3, 0x0c, 0xbd, 0x03, 0xec, 0x3b, 0x3d, 0xbc, 0x92, 0x2c, 0xba,
  0x54, 0x7d, 0x31, 0x3c, 0xe8, 0x53, 0x06, 0xbd, 0xa5, 0xf4, 0xca, 0xbb,
  0xbd, 0x37, 0xc6, 0xbc, 0xbd, 0x5a, 0x32, 0x3d, 0xaf, 0x90, 0x50, 0x3d,
  0xd7, 0x62, 0x19, 0x3d, 0xbd, 0xbd, 0xac, 0x3c, 0x22, 0x77, 0x80, 0x3d,
  0x5c, 0xe5, 0x23, 0x3d, 0x4b, 0x8f, 0x0b, 0xbc, 0x96, 0xe4, 0x36, 0xbd,
  0xf6, 0x27, 0xc2, 0x3a, 0x2c, 0xb4, 0xf3, 0x3c, 0xd8, 0x13, 0xb7, 0xbb,
  0x40, 0x1f, 0xcb, 0xbc, 0x28, 0x56, 0xf8, 0x3c, 0xda, 0x19, 0x8f, 0x3d,
  0xa8, 0x37, 0x79, 0x3d, 0x6a, 0xc2, 0x51, 0xbc, 0xd5, 0x6b, 0x67, 0x3d,
  0x70, 0x20, 0x1f, 0xbd, 0x60, 0x40, 0x2a, 0x3d, 0xc8, 0xf4, 0xd2, 0x3c,
  0x8d, 0x06, 0xdc, 0xbc, 0x77, 0x45, 0xab, 0x3b, 0x1b, 0xd6, 0xba, 0xbd,
  0x54, 0x83, 0xa4, 0xbd, 0x98, 0x86, 0x41, 0x3d, 0xe6, 0x23, 0x77, 0x3d,
  0x78, 0x5a, 0x0c, 0x3d, 0x49, 0xda, 0x95, 0xbd, 0x59, 0x56, 0x99, 0x3d,
  0x5d, 0x44, 0xb0, 0xbd, 0x9b, 0x08, 0x68, 0xbd, 0x2a, 0x29, 0x2a, 0x3d,
  0x9f, 0x9f, 0xa0, 0xbd, 0x72, 0xb6, 0x03, 0x3d, 0xbf, 0x5d, 0x6d, 0xbd,
  0x92, 0x56, 0xf0, 0xbd, 0x45, 0x6a, 0x12, 0x3d, 0x5f, 0x7a, 0x5e, 0x3d,
  0x56, 0x48, 0xb4, 0xbd, 0xdf, 0xdc, 0x02, 0xbd, 0x41, 0xcb, 0x17, 0xbc,
  0x4c, 0x5b, 0x5a, 0xbc, 0x0d, 0x55, 0x55, 0x3d, 0x03, 0xe7, 0x0b, 0x3b,
  0x2d, 0xc5, 0xd4, 0xbd, 0x19, 0x63, 0xfe, 0xbd, 0x58, 0xea, 0xaa, 0xbd,
  0xac, 0xa4, 0x11, 0xbe, 0x8c, 0x64, 0x0d, 0x3d, 0x59, 0xdc, 0xeb, 0xbc,
  0x91, 0x02, 0x71, 0x3c, 0x6e, 0x7a, 0xd1, 0xbd, 0xaa, 0xc2, 0x11, 0xbd,
  0xb3, 0xb2, 0x85, 0xbd, 0xce, 0x90, 0xe0, 0x3a, 0x38, 0xa2, 0x9f, 0x3c,
  0xbc, 0x75, 0xf1, 0xbd, 0xe0, 0x3c, 0xe7, 0xbc, 0x29, 0xae, 0x75, 0x3d,
  0x29, 0x51, 0x14, 0xbc, 0x77, 0x53, 0xcd, 0xbd, 0x2d, 0x3f, 0xbe, 0xbc,
  0x4e, 0x4e, 0x73, 0xbd, 0x0f, 0x6e, 0xd5, 0xbd, 0xc4, 0x5e, 0xb7, 0xbd,
  0xd6, 0x32, 0xeb, 0xbc, 0x79, 0x23, 0xec, 0x3b, 0xb3, 0xb4, 0xb4, 0xbd,
  0xba, 0x8a, 0x21, 0xbe, 0x68, 0x9f, 0x36, 0xbe, 0xba, 0xe6, 0xd0, 0xbc,
  0x4d, 0x8a, 0x70, 0xbd, 0x11, 0x44, 0xa5, 0xbd, 0x88, 0x4a, 0xd1, 0xbd,
  0x69, 0xe8, 0x74, 0x3d, 0x33, 0x6f, 0x24, 0xbe, 0xaa, 0x1d, 0xf2, 0xbd,
  0x89, 0x6d, 0x38, 0xbe, 0x40, 0xb1, 0x04, 0x3e, 0x94, 0x59, 0x6d, 0xbd,
  0x46, 0xe7, 0x9b, 0xbd, 0xd0, 0x50, 0x27, 0xbe, 0x3f, 0x26, 0x4b, 0x3d,
  0x79, 0x15, 0x2e, 0xbe, 0xe5, 0x39, 0x23, 0xbe, 0x40, 0xcd, 0x26, 0xbe,
  0x95, 0xdf, 0xd6, 0x3b, 0x65, 0x70, 0x8f, 0xbd, 0xa5, 0x79, 0x4d, 0xbd,
  0xab, 0xdc, 0xf8, 0xbd, 0x23, 0x7a, 0x5f, 0xbd, 0x19, 0x7b, 0xe1, 0xbd,
  0xaf, 0x88, 0xb7, 0xbd, 0x36, 0x2f, 0x06, 0xbe, 0x28, 0x15, 0x05, 0x3e,
  0x35, 0xec, 0xad, 0xbd, 0xa1, 0xaa, 0x3a, 0xbe, 0xa6, 0xbb, 0xd4, 0xbd,
  0x95, 0x57, 0x63, 0xbc, 0xfd, 0x87, 0xdf, 0xbd, 0xbb, 0x75, 0xe8, 0xbd,
  0x3c, 0x45, 0xca, 0xbd, 0x74, 0xda, 0xbb, 0x3a, 0x29, 0x6b, 0x11, 0xbe,
  0xbb, 0x5e, 0x57, 0xbe, 0x6e, 0x77, 0xad, 0xbd, 0xc6, 0x22, 0x53, 0x3d,
  0xad, 0x39, 0x93, 0xbd, 0x53, 0xd3, 0xb9, 0xbc, 0x43, 0x40, 0xfd, 0xbd,
  0x11, 0xaf, 0x47, 0xbc, 0xf7, 0x7f, 0x16, 0xbe, 0x62, 0xf0, 0xab, 0xbd,
  0x5f, 0xb3, 0x4f, 0xbd, 0x80, 0x28, 0xb7, 0xbd, 0xca, 0xe3, 0xa0, 0xbd,
  0xb3, 0xe7, 0xaa, 0xbd, 0x55, 0x05, 0x69, 0xbe, 0x2b, 0xae, 0x98, 0x3d,
  0xc4, 0x4c, 0x2b, 0xbe, 0x2f, 0x8e, 0xb8, 0xbd, 0xd2, 0x9d, 0x2e, 0xbe,
  0xe2, 0x64, 0x08, 0x3d, 0x8f, 0x3c, 0x04, 0xbe, 0x90, 0x5a, 0x0f, 0xbe,
  0x02, 0x8b, 0x19, 0xbe, 0x40, 0x18, 0x15, 0xbd, 0xc1, 0x5c, 0x5d, 0xbd,
  0xf6, 0xb1, 0x62, 0xbe, 0x0a, 0x97, 0xa5, 0xbd, 0x5c, 0x8b, 0x8a, 0xbb,
  0x8f, 0xa6, 0xf2, 0xbd, 0xd4, 0x51, 0x2c, 0xbe, 0x0f, 0xc6, 0x8d, 0xbe,
  0xc9, 0x4f, 0x3c, 0x3d, 0x51, 0x6c, 0xb9, 0xbd, 0xd6, 0xea, 0x71, 0xbe,
  0xc3, 0x1a, 0xd8, 0xbd, 0xb6, 0xc0, 0xd4, 0x3d, 0x2e, 0x73, 0xa9, 0xbd,
  0x14, 0xfd, 0x41, 0xbe, 0x8d, 0x8e, 0xca, 0xbd, 0x95, 0x6c, 0x68, 0xbd,
  0xff, 0xf0, 0x3c, 0xbe, 0xf1, 0x51, 0x1c, 0xbe, 0xc8, 0x5b, 0x9a, 0xbd,
  0x55, 0x04, 0x8c, 0x3b, 0xf8, 0xf9, 0xa8, 0xbd, 0xb8, 0xf5, 0x15, 0xbe,
  0x40, 0x12, 0xda, 0xbd, 0xb7, 0xf6, 0xf1, 0xbc, 0xd6, 0x9a, 0xc9, 0xbd,
  0xb4, 0xdb, 0x2f, 0xbd, 0x8c, 0xa0, 0x47, 0xbe, 0x25, 0xc4, 0xb0, 0xbc,
  0x80, 0x7e, 0x54, 0xbe, 0xf4, 0x1f, 0xfd, 0xbc, 0xfa, 0x6e, 0x0b, 0xbe,
  0x98, 0x10, 0xea, 0xbd, 0x9d, 0x8b, 0xdf, 0xbd, 0xaf, 0xe1, 0x0d, 0xbe,
  0xd9, 0x1c, 0xc7, 0xbd, 0x1a, 0xa8, 0x92, 0xbd, 0x33, 0x7c, 0x48, 0xbd,
  0x33, 0x07, 0x9c, 0xbd, 0xf6, 0xc2, 0x2a, 0xbe, 0x3d, 0xbe, 0x50, 0xbc,
  0xa9, 0x51, 0x0b, 0xbe, 0x9d, 0x16, 0x05, 0xbd, 0xd6, 0x2c, 0x4a, 0xbe,
  0xe6, 0xa2, 0x55, 0x3c, 0x81, 0xf3, 0x26, 0xbe, 0x90, 0x07, 0xa9, 0xbd,
  0x56, 0x94, 0x8c, 0xbd, 0x63, 0xbf, 0x6c, 0xbd, 0xd0, 0x61, 0x0b, 0xbe,
  0x91, 0x4d, 0x20, 0xbe, 0xd7, 0x06, 0x72, 0xbd, 0xea, 0x1f, 0xc4, 0xbc,
  0xc3, 0x1b, 0xff, 0xbd, 0xb9, 0xdf, 0xb7, 0xbd, 0x13, 0x9a, 0xdf, 0xbd,
  0xe3, 0xf4, 0x06, 0xbe, 0xbd, 0xf8, 0xc6, 0xbd, 0x1a, 0x23, 0x2b, 0xbe,
  0x9a, 0x37, 0x16, 0xbe, 0x55, 0xf6, 0x5c, 0x3d, 0x01, 0xb6, 0x0a, 0xbe,
  0x4d, 0x7f, 0x37, 0xbe, 0xe7, 0x50, 0x34, 0xbe, 0xeb, 0x08, 0x66, 0xbc,
  0x6e, 0x56, 0xf5, 0xbd, 0x64, 0xbe, 0xd4, 0xbc, 0xed, 0x7f, 0x36, 0xbe,
  0x7f, 0x7b, 0x8e, 0xbc, 0x3c, 0x56, 0x8f, 0xbd, 0x9a, 0xc7, 0x0c, 0xbe,
  0x2b, 0x20, 0x96, 0xbd, 0xc6, 0x5c, 0xa9, 0x3c, 0xd7, 0x0d, 0x80, 0xbd,
  0x4b, 0x26, 0xaf, 0xbd, 0x82, 0x85, 0x2b, 0xbe, 0x0f, 0xd1, 0x13, 0x3b,
  0x65, 0x01, 0x42, 0xbe, 0xf3, 0x93, 0x5b, 0xbd, 0x55, 0x25, 0x04, 0xbe,
  0x0a, 0xd2, 0x51, 0x3d, 0x09, 0x24, 0xac, 0xbd, 0xcd, 0xe2, 0x10, 0xbe,
  0xce, 0x56, 0x2b, 0xbe, 0x88, 0x7a, 0xb2, 0x3d, 0x74, 0x78, 0xd6, 0xbd,
  0xf9, 0x9a, 0xa8, 0xbd, 0x54, 0x4b, 0xb2, 0xbd, 0xd7, 0x09, 0x9d, 0xbd,
  0xe7, 0x52, 0x51, 0xbd, 0x98, 0x12, 0x0a, 0xbe, 0xfc, 0x81, 0x47, 0xbd,
  0x07, 0xbd, 0xd9, 0x3c, 0x23, 0x1a, 0x32, 0xbe, 0x8c, 0x3e, 0xdb, 0xbd,
  0xf9, 0xd0, 0xc9, 0xbd, 0xbc, 0xa4, 0x97, 0x3d, 0xa2, 0xfd, 0xff, 0xff,
  0x04, 0x00, 0x00, 0x00, 0x10, 0x00, 0x00, 0x00, 0x00, 0x00, 0x00, 0x00,
  0x00, 0x00, 0x00, 0x00, 0x00, 0x00, 0x00, 0x00, 0x00, 0x00, 0x00, 0x00,
  0xbe, 0xfd, 0xff, 0xff, 0x04, 0x00, 0x00, 0x00, 0xa0, 0x00, 0x00, 0x00,
  0x07, 0x1d, 0xc8, 0xbd, 0xde, 0xc0, 0xb2, 0xbe, 0x9a, 0x69, 0x94, 0xbd,
  0x38, 0xc4, 0x61, 0x3d, 0x46, 0x59, 0xa4, 0x3e, 0xbc, 0x2e, 0x2f, 0xbd,
  0x1c, 0x08, 0x3c, 0xbc, 0x6d, 0x1f, 0x41, 0x3e, 0x13, 0xe0, 0x82, 0x3e,
  0x8c, 0x21, 0x1e, 0xbe, 0x99, 0xc5, 0xff, 0x3e, 0xf9, 0xac, 0x05, 0x3f,
  0x59, 0x2b, 0x82, 0x3e, 0x87, 0xee, 0x88, 0x3e, 0x4e, 0x11, 0x06, 0x3f,
  0x44, 0xef, 0xc8, 0x3e, 0xee, 0xc4, 0xe7, 0xbd, 0xf7, 0x80, 0x28, 0xbe,
  0x6c, 0x42, 0x76, 0xbe, 0x7c, 0x5f, 0xcc, 0xbd, 0x76, 0xff, 0xd3, 0x3e,
  0x77, 0xd9, 0xbb, 0x3e, 0x68, 0x50, 0x21, 0xbd, 0xc2, 0xa8, 0xa4, 0x3e,
  0x4f, 0x5e, 0xba, 0xbd, 0x1a, 0x31, 0x08, 0xbf, 0xdd, 0x38, 0x04, 0x3f,
  0x22, 0x48, 0x71, 0xbd, 0xf5, 0x3a, 0x5c, 0x3e, 0xbb, 0x38, 0x3b, 0x3e,
  0x25, 0x20, 0x04, 0x3d, 0x50, 0xcf, 0x4a, 0x3e, 0x84, 0x0d, 0x22, 0x3f,
  0x1f, 0xee, 0x9a, 0x3e, 0xa5, 0xe6, 0x8c, 0xbe, 0x77, 0x29, 0xe7, 0x3e,
  0x90, 0xdd, 0xf4, 0x3e, 0x03, 0x40, 0xa2, 0xbe, 0x7e, 0xc2, 0x74, 0xbe,
  0xbc, 0x9c, 0xe3, 0x3e, 0x6a, 0xfe, 0xff, 0xff, 0x04, 0x00, 0x00, 0x00,
  0x40, 0x01, 0x00, 0x00, 0xfb, 0xc8, 0x50, 0xbe, 0x86, 0x02, 0x72, 0x3e,
  0x82, 0x5b, 0x32, 0x3d, 0x62, 0x8b, 0x89, 0x3e, 0x3e, 0x50, 0x70, 0xbe,
  0x04, 0x8c, 0x71, 0xbe, 0xb2, 0xb6, 0x28, 0x3e, 0xa7, 0x10, 0x49, 0xbe,
  0xc3, 0xbb, 0xc1, 0xbe, 0xed, 0x92, 0x31, 0x3e, 0x5b, 0xda, 0x08, 0x3e,
  0xed, 0xec, 0xc1, 0x3e, 0x07, 0x5f, 0x38, 0xbe, 0xe2, 0x9c, 0x74, 0xbd,
  0x85, 0x7b, 0x8e, 0x3e, 0x58, 0xb3, 0x46, 0x3e, 0x05, 0xcf, 0x7e, 0x3e,
  0x2f, 0xe8, 0xac, 0xbe, 0x77, 0xe6, 0x70, 0x3d, 0xbe, 0x5d, 0x2c, 0x3d,
  0x48, 0x88, 0x54, 0x3e, 0xa5, 0x6d, 0xad, 0x3e, 0x7b, 0xb9, 0x6b, 0x3e,
  0x83, 0xe6, 0x90, 0x3d, 0xc1, 0x1d, 0xa2, 0x3e, 0x53, 0xca, 0x0e, 0xbe,
  0xc3, 0x25, 0xaf, 0x3e, 0xd1, 0xdc, 0x0a, 0x3f, 0x82, 0xe6, 0x97, 0x3e,
  0x5c, 0x8a, 0x2d, 0xbd, 0x59, 0x83, 0x2d, 0x3e, 0xf8, 0x5c, 0x09, 0x3f,
  0x5e, 0x38, 0x8c, 0x3e, 0x02, 0x12, 0x34, 0x3c, 0x90, 0x85, 0x1c, 0x3e,
  0xbb, 0xf1, 0xe3, 0x3d, 0x46, 0xf1, 0x77, 0xbd, 0xe3, 0x8e, 0x9b, 0x3e,
  0xf0, 0xa9, 0xb2, 0x3e, 0x63, 0x84, 0x0a, 0x3f, 0x0a, 0x2d, 0x95, 0xbe,
  0x7c, 0x3d, 0x59, 0xbd, 0xea, 0x92, 0xb3, 0x3e, 0x2d, 0xe5, 0x72, 0x3e,
  0x58, 0x2b, 0x02, 0x3e, 0x24, 0x72, 0xde, 0x3e, 0xe1, 0x4a, 0x2f, 0xbe,
  0xce, 0x7e, 0x02, 0x3e, 0x16, 0x5f, 0x8c, 0x3e, 0x26, 0x1c, 0xc0, 0x3d,
  0x6d, 0xeb, 0xeb, 0x3e, 0x76, 0x7f, 0xc6, 0x3c, 0xa5, 0x94, 0x22, 0xbe,
  0x46, 0x14, 0xb4, 0x3e, 0xd7, 0x88, 0xa2, 0x3e, 0x1d, 0x3e, 0x11, 0x3f,
  0x8b, 0x8f, 0x9d, 0xbe, 0x73, 0xcc, 0x22, 0x3f, 0xc3, 0xd9, 0x87, 0xbd,
  0xbb, 0x81, 0xe5, 0x3e, 0xf8, 0xc2, 0x3c, 0x3e, 0xd3, 0x32, 0x6c, 0x3b,
  0x66, 0x3a, 0x38, 0xbe, 0x4e, 0x31, 0x18, 0xbe, 0x21, 0x98, 0x8a, 0xbe,
  0x00, 0x7b, 0xa1, 0xbb, 0x9f, 0xe1, 0x5d, 0x3e, 0xbe, 0x13, 0x62, 0xbd,
  0x43, 0x6b, 0xb0, 0x3e, 0xcf, 0x24, 0xb9, 0x3d, 0xec, 0xfb, 0x78, 0x3e,
  0x86, 0x2b, 0xb9, 0xbd, 0xa3, 0x90, 0xce, 0x3e, 0x4d, 0x90, 0xe1, 0xbd,
  0x50, 0x70, 0xa7, 0xbe, 0xd0, 0x70, 0x3b, 0xbe, 0x31, 0x80, 0x53, 0xbe,
  0x1c, 0x7b, 0xf8, 0xbd, 0x76, 0x4a, 0x43, 0x3e, 0xdb, 0xf2, 0x76, 0x3e,
  0xb6, 0xff, 0xff, 0xff, 0x04, 0x00, 0x00, 0x00, 0x0c, 0x00, 0x00, 0x00,
  0xff, 0xff, 0xff, 0xff, 0xe8, 0x03, 0x00, 0x00, 0x01, 0x00, 0x00, 0x00,
  0xce, 0xff, 0xff, 0xff, 0x04, 0x00, 0x00, 0x00, 0x0c, 0x00, 0x00, 0x00,
  0xff, 0xff, 0xff, 0xff, 0xdf, 0x03, 0x00, 0x00, 0x04, 0x00, 0x00, 0x00,
  0xe6, 0xff, 0xff, 0xff, 0x04, 0x00, 0x00, 0x00, 0x0c, 0x00, 0x00, 0x00,
  0xff, 0xff, 0xff, 0xff, 0xf7, 0x00, 0x00, 0x00, 0x04, 0x00, 0x00, 0x00,
  0x00, 0x00, 0x06, 0x00, 0x08, 0x00, 0x04, 0x00, 0x06, 0x00, 0x00, 0x00,
  0x04, 0x00, 0x00, 0x00, 0x0c, 0x00, 0x00, 0x00, 0xff, 0xff, 0xff, 0xff,
  0xf3, 0x00, 0x00, 0x00, 0x04, 0x00, 0x00, 0x00, 0x20, 0xef, 0xff, 0xff,
  0x24, 0xef, 0xff, 0xff, 0x0f, 0x00, 0x00, 0x00, 0x4d, 0x4c, 0x49, 0x52,
  0x20, 0x43, 0x6f, 0x6e, 0x76, 0x65, 0x72, 0x74, 0x65, 0x64, 0x2e, 0x00,
  0x01, 0x00, 0x00, 0x00, 0x14, 0x00, 0x00, 0x00, 0x00, 0x00, 0x0e, 0x00,
  0x18, 0x00, 0x14, 0x00, 0x10, 0x00, 0x0c, 0x00, 0x08, 0x00, 0x04, 0x00,
  0x0e, 0x00, 0x00, 0x00, 0x14, 0x00, 0x00, 0x00, 0x1c, 0x00, 0x00, 0x00,
  0xd0, 0x03, 0x00, 0x00, 0xd4, 0x03, 0x00, 0x00, 0xd8, 0x03, 0x00, 0x00,
  0x04, 0x00, 0x00, 0x00, 0x6d, 0x61, 0x69, 0x6e, 0x00, 0x00, 0x00, 0x00,
  0x11, 0x00, 0x00, 0x00, 0x88, 0x03, 0x00, 0x00, 0x24, 0x03, 0x00, 0x00,
  0xec, 0x02, 0x00, 0x00, 0xb0, 0x02, 0x00, 0x00, 0x60, 0x02, 0x00, 0x00,
  0x38, 0x02, 0x00, 0x00, 0xf8, 0x01, 0x00, 0x00, 0xc8, 0x01, 0x00, 0x00,
  0x84, 0x01, 0x00, 0x00, 0x5c, 0x01, 0x00, 0x00, 0x2c, 0x01, 0x00, 0x00,
  0xe8, 0x00, 0x00, 0x00, 0xc0, 0x00, 0x00, 0x00, 0x88, 0x00, 0x00, 0x00,
  0x60, 0x00, 0x00, 0x00, 0x28, 0x00, 0x00, 0x00, 0x04, 0x00, 0x00, 0x00,
  0x5a, 0xfd, 0xff, 0xff, 0x0c, 0x00, 0x00, 0x00, 0x10, 0x00, 0x00, 0x00,
  0x06, 0x00, 0x00, 0x00, 0x01, 0x00, 0x00, 0x00, 0x1f, 0x00, 0x00, 0x00,
  0x01, 0x00, 0x00, 0x00, 0x1e, 0x00, 0x00, 0x00, 0x4a, 0xfd, 0xff, 0xff,
  0x14, 0x00, 0x00, 0x00, 0x00, 0x00, 0x00, 0x08, 0x10, 0x00, 0x00, 0x00,
  0x14, 0x00, 0x00, 0x00, 0x05, 0x00, 0x00, 0x00, 0xf8, 0xef, 0xff, 0xff,
  0x01, 0x00, 0x00, 0x00, 0x1e, 0x00, 0x00, 0x00, 0x03, 0x00, 0x00, 0x00,
  0x1d, 0x00, 0x00, 0x00, 0x08, 0x00, 0x00, 0x00, 0x0b, 0x00, 0x00, 0x00,
  0xae, 0xfd, 0xff, 0xff, 0x0c, 0x00, 0x00, 0x00, 0x10, 0x00, 0x00, 0x00,
  0x02, 0x00, 0x00, 0x00, 0x01, 0x00, 0x00, 0x00, 0x1d, 0x00, 0x00, 0x00,
  0x02, 0x00, 0x00, 0x00, 0x1c, 0x00, 0x00, 0x00, 0x0d, 0x00, 0x00, 0x00,
  0xa2, 0xfd, 0xff, 0xff, 0x14, 0x00, 0x00, 0x00, 0x00, 0x00, 0x00, 0x0b,
  0x14, 0x00, 0x00, 0x00, 0x18, 0x00, 0x00, 0x00, 0x04, 0x00, 0x00, 0x00,
  0xaa, 0xfe, 0xff, 0xff, 0x00, 0x00, 0x00, 0x01, 0x01, 0x00, 0x00, 0x00,
  0x1c, 0x00, 0x00, 0x00, 0x02, 0x00, 0x00, 0x00, 0x1b, 0x00, 0x00, 0x00,
  0x09, 0x00, 0x00, 0x00, 0x06, 0xfe, 0xff, 0xff, 0x0c, 0x00, 0x00, 0x00,
  0x10, 0x00, 0x00, 0x00, 0x02, 0x00, 0x00, 0x00, 0x01, 0x00, 0x00, 0x00,
  0x1b, 0x00, 0x00, 0x00, 0x02, 0x00, 0x00, 0x00, 0x1a, 0x00, 0x00, 0x00,
  0x01, 0x00, 0x00, 0x00, 0xfa, 0xfd, 0xff, 0xff, 0x14, 0x00, 0x00, 0x00,
  0x00, 0x00, 0x00, 0x01, 0x1c, 0x00, 0x00, 0x00, 0x20, 0x00, 0x00, 0x00,
  0x03, 0x00, 0x00, 0x00, 0xa2, 0xfe, 0xff, 0xff, 0x01, 0x00, 0x00, 0x00,
  0x01, 0x00, 0x00, 0x00, 0x00, 0x00, 0x00, 0x01, 0x01, 0x00, 0x00, 0x00,
  0x1a, 0x00, 0x00, 0x00, 0x03, 0x00, 0x00, 0x00, 0x19, 0x00, 0x00, 0x00,
  0x05, 0x00, 0x00, 0x00, 0x07, 0x00, 0x00, 0x00, 0xda, 0xfd, 0xff, 0xff,
  0x10, 0x00, 0x00, 0x00, 0x00, 0x00, 0x00, 0x34, 0x0c, 0x00, 0x00, 0x00,
  0x10, 0x00, 0x00, 0x00, 0xe4, 0xf0, 0xff, 0xff, 0x01, 0x00, 0x00, 0x00,
  0x19, 0x00, 0x00, 0x00, 0x02, 0x00, 0x00, 0x00, 0x18, 0x00, 0x00, 0x00,
  0x0c, 0x00, 0x00, 0x00, 0x96, 0xfe, 0xff, 0xff, 0x0c, 0x00, 0x00, 0x00,
  0x10, 0x00, 0x00, 0x00, 0x02, 0x00, 0x00, 0x00, 0x01, 0x00, 0x00, 0x00,
  0x18, 0x00, 0x00, 0x00, 0x02, 0x00, 0x00, 0x00, 0x17, 0x00, 0x00, 0x00,
  0x02, 0x00, 0x00, 0x00, 0x8a, 0xfe, 0xff, 0xff, 0x14, 0x00, 0x00, 0x00,
  0x00, 0x00, 0x00, 0x05, 0x24, 0x00, 0x00, 0x00, 0x28, 0x00, 0x00, 0x00,
  0x01, 0x00, 0x00, 0x00, 0x7a, 0xfe, 0xff, 0xff, 0x01, 0x00, 0x00, 0x00,
  0x04, 0x00, 0x00, 0x00, 0x01, 0x00, 0x00, 0x00, 0x04, 0x00, 0x00, 0x00,
  0x00, 0x00, 0x00, 0x01, 0x01, 0x00, 0x00, 0x00, 0x17, 0x00, 0x00, 0x00,
  0x01, 0x00, 0x00, 0x00, 0x16, 0x00, 0x00, 0x00, 0x6a, 0xfe, 0xff, 0xff,
  0x10, 0x00, 0x00, 0x00, 0x00, 0x00, 0x00, 0x34, 0x0c, 0x00, 0x00, 0x00,
  0x10, 0x00, 0x00, 0x00, 0x74, 0xf1, 0xff, 0xff, 0x01, 0x00, 0x00, 0x00,
  0x16, 0x00, 0x00, 0x00, 0x02, 0x00, 0x00, 0x00, 0x15, 0x00, 0x00, 0x00,
  0x0e, 0x00, 0x00, 0x00, 0xf6, 0xfe, 0xff, 0xff, 0x1c, 0x00, 0x00, 0x00,
  0x00, 0x00, 0x00, 0x0b, 0x1c, 0x00, 0x00, 0x00, 0x20, 0x00, 0x00, 0x00,
  0x04, 0x00, 0x00, 0x00, 0x00, 0x00, 0x06, 0x00, 0x08, 0x00, 0x07, 0x00,
  0x06, 0x00, 0x00, 0x00, 0x00, 0x00, 0x00, 0x01, 0x01, 0x00, 0x00, 0x00,
  0x15, 0x00, 0x00, 0x00, 0x02, 0x00, 0x00, 0x00, 0x14, 0x00, 0x00, 0x00,
  0x0a, 0x00, 0x00, 0x00, 0x62, 0xff, 0xff, 0xff, 0x0c, 0x00, 0x00, 0x00,
  0x10, 0x00, 0x00, 0x00, 0x02, 0x00, 0x00, 0x00, 0x01, 0x00, 0x00, 0x00,
  0x14, 0x00, 0x00, 0x00, 0x02, 0x00, 0x00, 0x00, 0x13, 0x00, 0x00, 0x00,
  0x03, 0x00, 0x00, 0x00, 0x56, 0xff, 0xff, 0xff, 0x20, 0x00, 0x00, 0x00,
  0x00, 0x00, 0x00, 0x01, 0x28, 0x00, 0x00, 0x00, 0x2c, 0x00, 0x00, 0x00,
  0x03, 0x00, 0x00, 0x00, 0x00, 0x00, 0x0a, 0x00, 0x10, 0x00, 0x0f, 0x00,
  0x08, 0x00, 0x04, 0x00, 0x0a, 0x00, 0x00, 0x00, 0x01, 0x00, 0x00, 0x00,
  0x01, 0x00, 0x00, 0x00, 0x00, 0x00, 0x00, 0x01, 0x01, 0x00, 0x00, 0x00,
  0x13, 0x00, 0x00, 0x00, 0x03, 0x00, 0x00, 0x00, 0x12, 0x00, 0x00, 0x00,
  0x06, 0x00, 0x00, 0x00, 0x07, 0x00, 0x00, 0x00, 0x42, 0xff, 0xff, 0xff,
  0x10, 0x00, 0x00, 0x00, 0x00, 0x00, 0x00, 0x34, 0x0c, 0x00, 0x00, 0x00,
  0x10, 0x00, 0x00, 0x00, 0x4c, 0xf2, 0xff, 0xff, 0x01, 0x00, 0x00, 0x00,
  0x12, 0x00, 0x00, 0x00, 0x02, 0x00, 0x00, 0x00, 0x11, 0x00, 0x00, 0x00,
  0x0c, 0x00, 0x00, 0x00, 0x00, 0x00, 0x0a, 0x00, 0x10, 0x00, 0x0c, 0x00,
  0x08, 0x00, 0x04, 0x00, 0x0a, 0x00, 0x00, 0x00, 0x0c, 0x00, 0x00, 0x00,
  0x10, 0x00, 0x00, 0x00, 0x02, 0x00, 0x00, 0x00, 0x01, 0x00, 0x00, 0x00,
  0x11, 0x00, 0x00, 0x00, 0x02, 0x00, 0x00, 0x00, 0x10, 0x00, 0x00, 0x00,
  0x04, 0x00, 0x00, 0x00, 0x00, 0x00, 0x0e, 0x00, 0x1a, 0x00, 0x14, 0x00,
  0x10, 0x00, 0x0c, 0x00, 0x0b, 0x00, 0x04, 0x00, 0x0e, 0x00, 0x00, 0x00,
  0x24, 0x00, 0x00, 0x00, 0x00, 0x00, 0x00, 0x05, 0x34, 0x00, 0x00, 0x00,
  0x38, 0x00, 0x00, 0x00, 0x01, 0x00, 0x00, 0x00, 0x00, 0x00, 0x0e, 0x00,
  0x18, 0x00, 0x17, 0x00, 0x10, 0x00, 0x0c, 0x00, 0x08, 0x00, 0x04, 0x00,
  0x0e, 0x00, 0x00, 0x00, 0x01, 0x00, 0x00, 0x00, 0x08, 0x00, 0x00, 0x00,
  0x01, 0x00, 0x00, 0x00, 0x08, 0x00, 0x00, 0x00, 0x00, 0x00, 0x00, 0x01,
  0x01, 0x00, 0x00, 0x00, 0x10, 0x00, 0x00, 0x00, 0x01, 0x00, 0x00, 0x00,
  0x0f, 0x00, 0x00, 0x00, 0x00, 0x00, 0x0e, 0x00, 0x14, 0x00, 0x00, 0x00,
  0x10, 0x00, 0x0c, 0x00, 0x0b, 0x00, 0x04, 0x00, 0x0e, 0x00, 0x00, 0x00,
  0x10, 0x00, 0x00, 0x00, 0x00, 0x00, 0x00, 0x34, 0x0c, 0x00, 0x00, 0x00,
  0x10, 0x00, 0x00, 0x00, 0x18, 0xf3, 0xff, 0xff, 0x01, 0x00, 0x00, 0x00,
  0x0f, 0x00, 0x00, 0x00, 0x02, 0x00, 0x00, 0x00, 0x00, 0x00, 0x00, 0x00,
  0x0e, 0x00, 0x00, 0x00, 0x01, 0x00, 0x00, 0x00, 0x1f, 0x00, 0x00, 0x00,
  0x01, 0x00, 0x00, 0x00, 0x00, 0x00, 0x00, 0x00, 0x20, 0x00, 0x00, 0x00,
  0x1c, 0x0c, 0x00, 0x00, 0xc4, 0x0b, 0x00, 0x00, 0x6c, 0x0b, 0x00, 0x00,
  0x2c, 0x0b, 0x00, 0x00, 0xec, 0x0a, 0x00, 0x00, 0xa4, 0x0a, 0x00, 0x00,
  0x44, 0x0a, 0x00, 0x00, 0x08, 0x0a, 0x00, 0x00, 0xc8, 0x09, 0x00, 0x00,
  0x84, 0x09, 0x00, 0x00, 0x40, 0x09, 0x00, 0x00, 0x00, 0x09, 0x00, 0x00,
  0xc0, 0x08, 0x00, 0x00, 0x7c, 0x08, 0x00, 0x00, 0x3c, 0x08, 0x00, 0x00,
  0xb4, 0x07, 0x00, 0x00, 0x38, 0x07, 0x00, 0x00, 0xbc, 0x06, 0x00, 0x00,
  0x38, 0x06, 0x00, 0x00, 0xc0, 0x05, 0x00, 0x00, 0x48, 0x05, 0x00, 0x00,
  0xc0, 0x04, 0x00, 0x00, 0x38, 0x04, 0x00, 0x00, 0xbc, 0x03, 0x00, 0x00,
  0x40, 0x03, 0x00, 0x00, 0xbc, 0x02, 0x00, 0x00, 0x44, 0x02, 0x00, 0x00,
  0xcc, 0x01, 0x00, 0x00, 0x44, 0x01, 0x00, 0x00, 0xe0, 0x00, 0x00, 0x00,
  0x60, 0x00, 0x00, 0x00, 0x04, 0x00, 0x00, 0x00, 0x7a, 0xf4, 0xff, 0xff,
  0x00, 0x00, 0x00, 0x01, 0x14, 0x00, 0x00, 0x00, 0x1c, 0x00, 0x00, 0x00,
  0x1c, 0x00, 0x00, 0x00, 0x20, 0x00, 0x00, 0x00, 0x34, 0x00, 0x00, 0x00,
  0x02, 0x00, 0x00, 0x00, 0xff, 0xff, 0xff, 0xff, 0x01, 0x00, 0x00, 0x00,
  0xec, 0xf3, 0xff, 0xff, 0x1b, 0x00, 0x00, 0x00, 0x53, 0x74, 0x61, 0x74,
  0x65, 0x66, 0x75, 0x6c, 0x50, 0x61, 0x72, 0x74, 0x69, 0x74, 0x69, 0x6f,
  0x6e, 0x65, 0x64, 0x43, 0x61, 0x6c, 0x6c, 0x5f, 0x31, 0x3a, 0x30, 0x00,
  0x02, 0x00, 0x00, 0x00, 0x01, 0x00, 0x00, 0x00, 0x01, 0x00, 0x00, 0x00,
  0xd2, 0xf4, 0xff, 0xff, 0x00, 0x00, 0x00, 0x01, 0x14, 0x00, 0x00, 0x00,
  0x1c, 0x00, 0x00, 0x00, 0x1c, 0x00, 0x00, 0x00, 0x1f, 0x00, 0x00, 0x00,
  0x58, 0x00, 0x00, 0x00, 0x02, 0x00, 0x00, 0x00, 0xff, 0xff, 0xff, 0xff,
  0x01, 0x00, 0x00, 0x00, 0x44, 0xf4, 0xff, 0xff, 0x3c, 0x00, 0x00, 0x00,
  0x73, 0x65, 0x71, 0x75, 0x65, 0x6e, 0x74, 0x69, 0x61, 0x6c, 0x5f, 0x31,
  0x5f, 0x31, 0x2f, 0x64, 0x65, 0x6e, 0x73, 0x65, 0x5f, 0x31, 0x5f, 0x31,
  0x2f, 0x4d, 0x61, 0x74, 0x4d, 0x75, 0x6c, 0x3b, 0x73, 0x65, 0x71, 0x75,
  0x65, 0x6e, 0x74, 0x69, 0x61, 0x6c, 0x5f, 0x31, 0x5f, 0x31, 0x2f, 0x64,
  0x65, 0x6e, 0x73, 0x65, 0x5f, 0x31, 0x5f, 0x31, 0x2f, 0x41, 0x64, 0x64,
  0x00, 0x00, 0x00, 0x00, 0x02, 0x00, 0x00, 0x00, 0x01, 0x00, 0x00, 0x00,
  0x01, 0x00, 0x00, 0x00, 0x4e, 0xf5, 0xff, 0xff, 0x00, 0x00, 0x00, 0x01,
  0x14, 0x00, 0x00, 0x00, 0x1c, 0x00, 0x00, 0x00, 0x1c, 0x00, 0x00, 0x00,
  0x1e, 0x00, 0x00, 0x00, 0x3c, 0x00, 0x00, 0x00, 0x02, 0x00, 0x00, 0x00,
  0xff, 0xff, 0xff, 0xff, 0xcc, 0x03, 0x00, 0x00, 0xc0, 0xf4, 0xff, 0xff,
  0x22, 0x00, 0x00, 0x00, 0x73, 0x65, 0x71, 0x75, 0x65, 0x6e, 0x74, 0x69,
  0x61, 0x6c, 0x5f, 0x31, 0x5f, 0x31, 0x2f, 0x66, 0x6c, 0x61, 0x74, 0x74,
  0x65, 0x6e, 0x5f, 0x31, 0x5f, 0x31, 0x2f, 0x52, 0x65, 0x73, 0x68, 0x61,
  0x70, 0x65, 0x00, 0x00, 0x02, 0x00, 0x00, 0x00, 0x01, 0x00, 0x00, 0x00,
  0xcc, 0x03, 0x00, 0x00, 0xae, 0xf5, 0xff, 0xff, 0x00, 0x00, 0x00, 0x01,
  0x14, 0x00, 0x00, 0x00, 0x20, 0x00, 0x00, 0x00, 0x20, 0x00, 0x00, 0x00,
  0x1d, 0x00, 0x00, 0x00, 0x5c, 0x00, 0x00, 0x00, 0x03, 0x00, 0x00, 0x00,
  0xff, 0xff, 0xff, 0xff, 0xf3, 0x00, 0x00, 0x00, 0x04, 0x00, 0x00, 0x00,
  0x24, 0xf5, 0xff, 0xff, 0x3c, 0x00, 0x00, 0x00, 0x73, 0x65, 0x71, 0x75,
  0x65, 0x6e, 0x74, 0x69, 0x61, 0x6c, 0x5f, 0x31, 0x5f, 0x31, 0x2f, 0x63,
  0x6f, 0x6e, 0x76, 0x31, 0x64, 0x5f, 0x33, 0x5f, 0x31, 0x2f, 0x52, 0x65,
  0x6c, 0x75, 0x3b, 0x73, 0x65, 0x71, 0x75, 0x65, 0x6e, 0x74, 0x69, 0x61,
  0x6c, 0x5f, 0x31, 0x5f, 0x31, 0x2f, 0x63, 0x6f, 0x6e, 0x76, 0x31, 0x64,
  0x5f, 0x33, 0x5f, 0x31, 0x2f, 0x61, 0x64, 0x64, 0x00, 0x00, 0x00, 0x00,
  0x03, 0x00, 0x00, 0x00, 0x01, 0x00, 0x00, 0x00, 0xf3, 0x00, 0x00, 0x00,
  0x04, 0x00, 0x00, 0x00, 0x32, 0xf6, 0xff, 0xff, 0x00, 0x00, 0x00, 0x01,
  0x14, 0x00, 0x00, 0x00, 0x20, 0x00, 0x00, 0x00, 0x20, 0x00, 0x00, 0x00,
  0x1c, 0x00, 0x00, 0x00, 0x4c, 0x00, 0x00, 0x00, 0x03, 0x00, 0x00, 0x00,
  0xff, 0xff, 0xff, 0xff, 0xf3, 0x00, 0x00, 0x00, 0x04, 0x00, 0x00, 0x00,
  0xa8, 0xf5, 0xff, 0xff, 0x2d, 0x00, 0x00, 0x00, 0x73, 0x65, 0x71, 0x75,
  0x65, 0x6e, 0x74, 0x69, 0x61, 0x6c, 0x5f, 0x31, 0x5f, 0x31, 0x2f, 0x63,
  0x6f, 0x6e, 0x76, 0x31, 0x64, 0x5f, 0x33, 0x5f, 0x31, 0x2f, 0x63, 0x6f,
  0x6e, 0x76, 0x6f, 0x6c, 0x75, 0x74, 0x69, 0x6f, 0x6e, 0x2f, 0x53, 0x71,
  0x75, 0x65, 0x65, 0x7a, 0x65, 0x00, 0x00, 0x00, 0x03, 0x00, 0x00, 0x00,
  0x01, 0x00, 0x00, 0x00, 0xf3, 0x00, 0x00, 0x00, 0x04, 0x00, 0x00, 0x00,
  0xa6, 0xf6, 0xff, 0xff, 0x00, 0x00, 0x00, 0x01, 0x14, 0x00, 0x00, 0x00,
  0x24, 0x00, 0x00, 0x00, 0x24, 0x00, 0x00, 0x00, 0x1b, 0x00, 0x00, 0x00,
  0x48, 0x00, 0x00, 0x00, 0x04, 0x00, 0x00, 0x00, 0xff, 0xff, 0xff, 0xff,
  0x01, 0x00, 0x00, 0x00, 0xf3, 0x00, 0x00, 0x00, 0x04, 0x00, 0x00, 0x00,
  0x20, 0xf6, 0xff, 0xff, 0x25, 0x00, 0x00, 0x00, 0x73, 0x65, 0x71, 0x75,
  0x65, 0x6e, 0x74, 0x69, 0x61, 0x6c, 0x5f, 0x31, 0x5f, 0x31, 0x2f, 0x63,
  0x6f, 0x6e, 0x76, 0x31, 0x64, 0x5f, 0x33, 0x5f, 0x31, 0x2f, 0x63, 0x6f,
  0x6e, 0x76, 0x6f, 0x6c, 0x75, 0x74, 0x69, 0x6f, 0x6e, 0x00, 0x00, 0x00,
  0x04, 0x00, 0x00, 0x00, 0x01, 0x00, 0x00, 0x00, 0x01, 0x00, 0x00, 0x00,
  0xf3, 0x00, 0x00, 0x00, 0x04, 0x00, 0x00, 0x00, 0x1a, 0xf7, 0xff, 0xff,
  0x00, 0x00, 0x00, 0x01, 0x14, 0x00, 0x00, 0x00, 0x24, 0x00, 0x00, 0x00,
  0x24, 0x00, 0x00, 0x00, 0x1a, 0x00, 0x00, 0x00, 0x54, 0x00, 0x00, 0x00,
  0x04, 0x00, 0x00, 0x00, 0xff, 0xff, 0xff, 0xff, 0x01, 0x00, 0x00, 0x00,
  0xf7, 0x00, 0x00, 0x00, 0x04, 0x00, 0x00, 0x00, 0x94, 0xf6, 0xff, 0xff,
  0x30, 0x00, 0x00, 0x00, 0x73, 0x65, 0x71, 0x75, 0x65, 0x6e, 0x74, 0x69,
  0x61, 0x6c, 0x5f, 0x31, 0x5f, 0x31, 0x2f, 0x63, 0x6f, 0x6e, 0x76, 0x31,
  0x64, 0x5f, 0x33, 0x5f, 0x31, 0x2f, 0x63, 0x6f, 0x6e, 0x76, 0x6f, 0x6c,
  0x75, 0x74, 0x69, 0x6f, 0x6e, 0x2f, 0x45, 0x78, 0x70, 0x61, 0x6e, 0x64,
  0x44, 0x69, 0x6d, 0x73, 0x00, 0x00, 0x00, 0x00, 0x04, 0x00, 0x00, 0x00,
  0x01, 0x00, 0x00, 0x00, 0x01, 0x00, 0x00, 0x00, 0xf7, 0x00, 0x00, 0x00,
  0x04, 0x00, 0x00, 0x00, 0x9a, 0xf7, 0xff, 0xff, 0x00, 0x00, 0x00, 0x01,
  0x14, 0x00, 0x00, 0x00, 0x20, 0x00, 0x00, 0x00, 0x20, 0x00, 0x00, 0x00,
  0x19, 0x00, 0x00, 0x00, 0x50, 0x00, 0x00, 0x00, 0x03, 0x00, 0x00, 0x00,
  0xff, 0xff, 0xff, 0xff, 0xf7, 0x00, 0x00, 0x00, 0x04, 0x00, 0x00, 0x00,
  0x10, 0xf7, 0xff, 0xff, 0x32, 0x00, 0x00, 0x00, 0x73, 0x65, 0x71, 0x75,
  0x65, 0x6e, 0x74, 0x69, 0x61, 0x6c, 0x5f, 0x31, 0x5f, 0x31, 0x2f, 0x6d,
  0x61, 0x78, 0x5f, 0x70, 0x6f, 0x6f, 0x6c, 0x69, 0x6e, 0x67, 0x31, 0x64,
  0x5f, 0x33, 0x5f, 0x31, 0x2f, 0x4d, 0x61, 0x78, 0x50, 0x6f, 0x6f, 0x6c,
  0x31, 0x64, 0x2f, 0x53, 0x71, 0x75, 0x65, 0x65, 0x7a, 0x65, 0x00, 0x00,
  0x03, 0x00, 0x00, 0x00, 0x01, 0x00, 0x00, 0x00, 0xf7, 0x00, 0x00, 0x00,
  0x04, 0x00, 0x00, 0x00, 0x12, 0xf8, 0xff, 0xff, 0x00, 0x00, 0x00, 0x01,
  0x14, 0x00, 0x00, 0x00, 0x24, 0x00, 0x00, 0x00, 0x24, 0x00, 0x00, 0x00,
  0x18, 0x00, 0x00, 0x00, 0x4c, 0x00, 0x00, 0x00, 0x04, 0x00, 0x00, 0x00,
  0xff, 0xff, 0xff, 0xff, 0x01, 0x00, 0x00, 0x00, 0xf7, 0x00, 0x00, 0x00,
  0x04, 0x00, 0x00, 0x00, 0x8c, 0xf7, 0xff, 0xff, 0x2a, 0x00, 0x00, 0x00,
  0x73, 0x65, 0x71, 0x75, 0x65, 0x6e, 0x74, 0x69, 0x61, 0x6c, 0x5f, 0x31,
  0x5f, 0x31, 0x2f, 0x6d, 0x61, 0x78, 0x5f, 0x70, 0x6f, 0x6f, 0x6c, 0x69,
  0x6e, 0x67, 0x31, 0x64, 0x5f, 0x33, 0x5f, 0x31, 0x2f, 0x4d, 0x61, 0x78,
  0x50, 0x6f, 0x6f, 0x6c, 0x31, 0x64, 0x00, 0x00, 0x04, 0x00, 0x00, 0x00,
  0x01, 0x00, 0x00, 0x00, 0x01, 0x00, 0x00, 0x00, 0xf7, 0x00, 0x00, 0x00,
  0x04, 0x00, 0x00, 0x00, 0x8a, 0xf8, 0xff, 0xff, 0x00, 0x00, 0x00, 0x01,
  0x14, 0x00, 0x00, 0x00, 0x24, 0x00, 0x00, 0x00, 0x24, 0x00, 0x00, 0x00,
  0x17, 0x00, 0x00, 0x00, 0x58, 0x00, 0x00, 0x00, 0x04, 0x00, 0x00, 0x00,
  0xff, 0xff, 0xff, 0xff, 0x01, 0x00, 0x00, 0x00, 0xdf, 0x03, 0x00, 0x00,
  0x04, 0x00, 0x00, 0x00, 0x04, 0xf8, 0xff, 0xff, 0x35, 0x00, 0x00, 0x00,
  0x73, 0x65, 0x71, 0x75, 0x65, 0x6e, 0x74, 0x69, 0x61, 0x6c, 0x5f, 0x31,
  0x5f, 0x31, 0x2f, 0x6d, 0x61, 0x78, 0x5f, 0x70, 0x6f, 0x6f, 0x6c, 0x69,
  0x6e, 0x67, 0x31, 0x64, 0x5f, 0x33, 0x5f, 0x31, 0x2f, 0x4d, 0x61, 0x78,
  0x50, 0x6f, 0x6f, 0x6c, 0x31, 0x64, 0x2f, 0x45, 0x78, 0x70, 0x61, 0x6e,
  0x64, 0x44, 0x69, 0x6d, 0x73, 0x00, 0x00, 0x00, 0x04, 0x00, 0x00, 0x00,
  0x01, 0x00, 0x00, 0x00, 0x01, 0x00, 0x00, 0x00, 0xdf, 0x03, 0x00, 0x00,
  0x04, 0x00, 0x00, 0x00, 0x0e, 0xf9, 0xff, 0xff, 0x00, 0x00, 0x00, 0x01,
  0x14, 0x00, 0x00, 0x00, 0x20, 0x00, 0x00, 0x00, 0x20, 0x00, 0x00, 0x00,
  0x16, 0x00, 0x00, 0x00, 0x5c, 0x00, 0x00, 0x00, 0x03, 0x00, 0x00, 0x00,
  0xff, 0xff, 0xff, 0xff, 0xdf, 0x03, 0x00, 0x00, 0x04, 0x00, 0x00, 0x00,
  0x84, 0xf8, 0xff, 0xff, 0x3c, 0x00, 0x00, 0x00, 0x73, 0x65, 0x71, 0x75,
  0x65, 0x6e, 0x74, 0x69, 0x61, 0x6c, 0x5f, 0x31, 0x5f, 0x31, 0x2f, 0x63,
  0x6f, 0x6e, 0x76, 0x31, 0x64, 0x5f, 0x32, 0x5f, 0x31, 0x2f, 0x52, 0x65,
  0x6c, 0x75, 0x3b, 0x73, 0x65, 0x71, 0x75, 0x65, 0x6e, 0x74, 0x69, 0x61,
  0x6c, 0x5f, 0x31, 0x5f, 0x31, 0x2f, 0x63, 0x6f, 0x6e, 0x76, 0x31, 0x64,
  0x5f, 0x32, 0x5f, 0x31, 0x2f, 0x61, 0x64, 0x64, 0x00, 0x00, 0x00, 0x00,
  0x03, 0x00, 0x00, 0x00, 0x01, 0x00, 0x00, 0x00, 0xdf, 0x03, 0x00, 0x00,
  0x04, 0x00, 0x00, 0x00, 0x92, 0xf9, 0xff, 0xff, 0x00, 0x00, 0x00, 0x01,
  0x14, 0x00, 0x00, 0x00, 0x20, 0x00, 0x00, 0x00, 0x20, 0x00, 0x00, 0x00,
  0x15, 0x00, 0x00, 0x00, 0x4c, 0x00, 0x00, 0x00, 0x03, 0x00, 0x00, 0x00,
  0xff, 0xff, 0xff, 0xff, 0xdf, 0x03, 0x00, 0x00, 0x04, 0x00, 0x00, 0x00,
  0x08, 0xf9, 0xff, 0xff, 0x2d, 0x00, 0x00, 0x00, 0x73, 0x65, 0x71, 0x75,
  0x65, 0x6e, 0x74, 0x69, 0x61, 0x6c, 0x5f, 0x31, 0x5f, 0x31, 0x2f, 0x63,
  0x6f, 0x6e, 0x76, 0x31, 0x64, 0x5f, 0x32, 0x5f, 0x31, 0x2f, 0x63, 0x6f,
  0x6e, 0x76, 0x6f, 0x6c, 0x75, 0x74, 0x69, 0x6f, 0x6e, 0x2f, 0x53, 0x71,
  0x75, 0x65, 0x65, 0x7a, 0x65, 0x00, 0x00, 0x00, 0x03, 0x00, 0x00, 0x00,
  0x01, 0x00, 0x00, 0x00, 0xdf, 0x03, 0x00, 0x00, 0x04, 0x00, 0x00, 0x00,
  0x06, 0xfa, 0xff, 0xff, 0x00, 0x00, 0x00, 0x01, 0x14, 0x00, 0x00, 0x00,
  0x24, 0x00, 0x00, 0x00, 0x24, 0x00, 0x00, 0x00, 0x14, 0x00, 0x00, 0x00,
  0x48, 0x00, 0x00, 0x00, 0x04, 0x00, 0x00, 0x00, 0xff, 0xff, 0xff, 0xff,
  0x01, 0x00, 0x00, 0x00, 0xdf, 0x03, 0x00, 0x00, 0x04, 0x00, 0x00, 0x00,
  0x80, 0xf9, 0xff, 0xff, 0x25, 0x00, 0x00, 0x00, 0x73, 0x65, 0x71, 0x75,
  0x65, 0x6e, 0x74, 0x69, 0x61, 0x6c, 0x5f, 0x31, 0x5f, 0x31, 0x2f, 0x63,
  0x6f, 0x6e, 0x76, 0x31, 0x64, 0x5f, 0x32, 0x5f, 0x31, 0x2f, 0x63, 0x6f,
  0x6e, 0x76, 0x6f, 0x6c, 0x75, 0x74, 0x69, 0x6f, 0x6e, 0x00, 0x00, 0x00,
  0x04, 0x00, 0x00, 0x00, 0x01, 0x00, 0x00, 0x00, 0x01, 0x00, 0x00, 0x00,
  0xdf, 0x03, 0x00, 0x00, 0x04, 0x00, 0x00, 0x00, 0x7a, 0xfa, 0xff, 0xff,
  0x00, 0x00, 0x00, 0x01, 0x14, 0x00, 0x00, 0x00, 0x24, 0x00, 0x00, 0x00,
  0x24, 0x00, 0x00, 0x00, 0x13, 0x00, 0x00, 0x00, 0x54, 0x00, 0x00, 0x00,
  0x04, 0x00, 0x00, 0x00, 0xff, 0xff, 0xff, 0xff, 0x01, 0x00, 0x00, 0x00,
  0xe8, 0x03, 0x00, 0x00, 0x01, 0x00, 0x00, 0x00, 0xf4, 0xf9, 0xff, 0xff,
  0x30, 0x00, 0x00, 0x00, 0x73, 0x65, 0x71, 0x75, 0x65, 0x6e, 0x74, 0x69,
  0x61, 0x6c, 0x5f, 0x31, 0x5f, 0x31, 0x2f, 0x63, 0x6f, 0x6e, 0x76, 0x31,
  0x64, 0x5f, 0x32, 0x5f, 0x31, 0x2f, 0x63, 0x6f, 0x6e, 0x76, 0x6f, 0x6c,
  0x75, 0x74, 0x69, 0x6f, 0x6e, 0x2f, 0x45, 0x78, 0x70, 0x61, 0x6e, 0x64,
  0x44, 0x69, 0x6d, 0x73, 0x00, 0x00, 0x00, 0x00, 0x04, 0x00, 0x00, 0x00,
  0x01, 0x00, 0x00, 0x00, 0x01, 0x00, 0x00, 0x00, 0xe8, 0x03, 0x00, 0x00,
  0x01, 0x00, 0x00, 0x00, 0xfa, 0xfa, 0xff, 0xff, 0x00, 0x00, 0x00, 0x01,
  0x14, 0x00, 0x00, 0x00, 0x20, 0x00, 0x00, 0x00, 0x20, 0x00, 0x00, 0x00,
  0x12, 0x00, 0x00, 0x00, 0x50, 0x00, 0x00, 0x00, 0x03, 0x00, 0x00, 0x00,
  0xff, 0xff, 0xff, 0xff, 0xe8, 0x03, 0x00, 0x00, 0x01, 0x00, 0x00, 0x00,
  0x70, 0xfa, 0xff, 0xff, 0x32, 0x00, 0x00, 0x00, 0x73, 0x65, 0x71, 0x75,
  0x65, 0x6e, 0x74, 0x69, 0x61, 0x6c, 0x5f, 0x31, 0x5f, 0x31, 0x2f, 0x6d,
  0x61, 0x78, 0x5f, 0x70, 0x6f, 0x6f, 0x6c, 0x69, 0x6e, 0x67, 0x31, 0x64,
  0x5f, 0x32, 0x5f, 0x31, 0x2f, 0x4d, 0x61, 0x78, 0x50, 0x6f, 0x6f, 0x6c,
  0x31, 0x64, 0x2f, 0x53, 0x71, 0x75, 0x65, 0x65, 0x7a, 0x65, 0x00, 0x00,
  0x03, 0x00, 0x00, 0x00, 0x01, 0x00, 0x00, 0x00, 0xe8, 0x03, 0x00, 0x00,
  0x01, 0x00, 0x00, 0x00, 0x72, 0xfb, 0xff, 0xff, 0x00, 0x00, 0x00, 0x01,
  0x14, 0x00, 0x00, 0x00, 0x24, 0x00, 0x00, 0x00, 0x24, 0x00, 0x00, 0x00,
  0x11, 0x00, 0x00, 0x00, 0x4c, 0x00, 0x00, 0x00, 0x04, 0x00, 0x00, 0x00,
  0xff, 0xff, 0xff, 0xff, 0x01, 0x00, 0x00, 0x00, 0xe8, 0x03, 0x00, 0x00,
  0x01, 0x00, 0x00, 0x00, 0xec, 0xfa, 0xff, 0xff, 0x2a, 0x00, 0x00, 0x00,
  0x73, 0x65, 0x71, 0x75, 0x65, 0x6e, 0x74, 0x69, 0x61, 0x6c, 0x5f, 0x31,
  0x5f, 0x31, 0x2f, 0x6d, 0x61, 0x78, 0x5f, 0x70, 0x6f, 0x6f, 0x6c, 0x69,
  0x6e, 0x67, 0x31, 0x64, 0x5f, 0x32, 0x5f, 0x31, 0x2f, 0x4d, 0x61, 0x78,
  0x50, 0x6f, 0x6f, 0x6c, 0x31, 0x64, 0x00, 0x00, 0x04, 0x00, 0x00, 0x00,
  0x01, 0x00, 0x00, 0x00, 0x01, 0x00, 0x00, 0x00, 0xe8, 0x03, 0x00, 0x00,
  0x01, 0x00, 0x00, 0x00, 0xea, 0xfb, 0xff, 0xff, 0x00, 0x00, 0x00, 0x01,
  0x14, 0x00, 0x00, 0x00, 0x24, 0x00, 0x00, 0x00, 0x24, 0x00, 0x00, 0x00,
  0x10, 0x00, 0x00, 0x00, 0x58, 0x00, 0x00, 0x00, 0x04, 0x00, 0x00, 0x00,
  0xff, 0xff, 0xff, 0xff, 0x01, 0x00, 0x00, 0x00, 0x40, 0x1f, 0x00, 0x00,
  0x01, 0x00, 0x00, 0x00, 0x64, 0xfb, 0xff, 0xff, 0x35, 0x00, 0x00, 0x00,
  0x73, 0x65, 0x71, 0x75, 0x65, 0x6e, 0x74, 0x69, 0x61, 0x6c, 0x5f, 0x31,
  0x5f, 0x31, 0x2f, 0x6d, 0x61, 0x78, 0x5f, 0x70, 0x6f, 0x6f, 0x6c, 0x69,
  0x6e, 0x67, 0x31, 0x64, 0x5f, 0x32, 0x5f, 0x31, 0x2f, 0x4d, 0x61, 0x78,
  0x50, 0x6f, 0x6f, 0x6c, 0x31, 0x64, 0x2f, 0x45, 0x78, 0x70, 0x61, 0x6e,
  0x64, 0x44, 0x69, 0x6d, 0x73, 0x00, 0x00, 0x00, 0x04, 0x00, 0x00, 0x00,
  0x01, 0x00, 0x00, 0x00, 0x01, 0x00, 0x00, 0x00, 0x40, 0x1f, 0x00, 0x00,
  0x01, 0x00, 0x00, 0x00, 0xc2, 0xfc, 0xff, 0xff, 0x00, 0x00, 0x00, 0x01,
  0x14, 0x00, 0x00, 0x00, 0x14, 0x00, 0x00, 0x00, 0x0f, 0x00, 0x00, 0x00,
  0x00, 0x00, 0x00, 0x02, 0x20, 0x00, 0x00, 0x00, 0xd4, 0xfb, 0xff, 0xff,
  0x10, 0x00, 0x00, 0x00, 0x61, 0x72, 0x69, 0x74, 0x68, 0x2e, 0x63, 0x6f,
  0x6e, 0x73, 0x74, 0x61, 0x6e, 0x74, 0x31, 0x33, 0x00, 0x00, 0x00, 0x00,
  0x00, 0x00, 0x00, 0x00, 0xfe, 0xfc, 0xff, 0xff, 0x00, 0x00, 0x00, 0x01,
  0x14, 0x00, 0x00, 0x00, 0x14, 0x00, 0x00, 0x00, 0x0e, 0x00, 0x00, 0x00,
  0x00, 0x00, 0x00, 0x02, 0x20, 0x00, 0x00, 0x00, 0x10, 0xfc, 0xff, 0xff,
  0x10, 0x00, 0x00, 0x00, 0x61, 0x72, 0x69, 0x74, 0x68, 0x2e, 0x63, 0x6f,
  0x6e, 0x73, 0x74, 0x61, 0x6e, 0x74, 0x31, 0x32, 0x00, 0x00, 0x00, 0x00,
  0x01, 0x00, 0x00, 0x00, 0x02, 0x00, 0x00, 0x00, 0x3e, 0xfd, 0xff, 0xff,
  0x00, 0x00, 0x00, 0x01, 0x14, 0x00, 0x00, 0x00, 0x14, 0x00, 0x00, 0x00,
  0x0d, 0x00, 0x00, 0x00, 0x00, 0x00, 0x00, 0x02, 0x20, 0x00, 0x00, 0x00,
  0x50, 0xfc, 0xff, 0xff, 0x10, 0x00, 0x00, 0x00, 0x61, 0x72, 0x69, 0x74,
  0x68, 0x2e, 0x63, 0x6f, 0x6e, 0x73, 0x74, 0x61, 0x6e, 0x74, 0x31, 0x31,
  0x00, 0x00, 0x00, 0x00, 0x00, 0x00, 0x00, 0x00, 0x8a, 0xfe, 0xff, 0xff,
  0x00, 0x00, 0x00, 0x01, 0x10, 0x00, 0x00, 0x00, 0x10, 0x00, 0x00, 0x00,
  0x0c, 0x00, 0x00, 0x00, 0x20, 0x00, 0x00, 0x00, 0x88, 0xfc, 0xff, 0xff,
  0x10, 0x00, 0x00, 0x00, 0x61, 0x72, 0x69, 0x74, 0x68, 0x2e, 0x63, 0x6f,
  0x6e, 0x73, 0x74, 0x61, 0x6e, 0x74, 0x31, 0x30, 0x00, 0x00, 0x00, 0x00,
  0x01, 0x00, 0x00, 0x00, 0x01, 0x00, 0x00, 0x00, 0xc6, 0xfe, 0xff, 0xff,
  0x00, 0x00, 0x00, 0x01, 0x10, 0x00, 0x00, 0x00, 0x10, 0x00, 0x00, 0x00,
  0x0b, 0x00, 0x00, 0x00, 0x1c, 0x00, 0x00, 0x00, 0xc4, 0xfc, 0xff, 0xff,
  0x0f, 0x00, 0x00, 0x00, 0x61, 0x72, 0x69, 0x74, 0x68, 0x2e, 0x63, 0x6f,
  0x6e, 0x73, 0x74, 0x61, 0x6e, 0x74, 0x39, 0x00, 0x03, 0x00, 0x00, 0x00,
  0x01, 0x00, 0x00, 0x00, 0x01, 0x00, 0x00, 0x00, 0x04, 0x00, 0x00, 0x00,
  0x06, 0xff, 0xff, 0xff, 0x00, 0x00, 0x00, 0x01, 0x10, 0x00, 0x00, 0x00,
  0x10, 0x00, 0x00, 0x00, 0x0a, 0x00, 0x00, 0x00, 0x1c, 0x00, 0x00, 0x00,
  0x04, 0xfd, 0xff, 0xff, 0x0f, 0x00, 0x00, 0x00, 0x61, 0x72, 0x69, 0x74,
  0x68, 0x2e, 0x63, 0x6f, 0x6e, 0x73, 0x74, 0x61, 0x6e, 0x74, 0x38, 0x00,
  0x03, 0x00, 0x00, 0x00, 0x01, 0x00, 0x00, 0x00, 0x01, 0x00, 0x00, 0x00,
  0x04, 0x00, 0x00, 0x00, 0x46, 0xff, 0xff, 0xff, 0x00, 0x00, 0x00, 0x01,
  0x10, 0x00, 0x00, 0x00, 0x10, 0x00, 0x00, 0x00, 0x09, 0x00, 0x00, 0x00,
  0x1c, 0x00, 0x00, 0x00, 0x44, 0xfd, 0xff, 0xff, 0x0f, 0x00, 0x00, 0x00,
  0x61, 0x72, 0x69, 0x74, 0x68, 0x2e, 0x63, 0x6f, 0x6e, 0x73, 0x74, 0x61,
  0x6e, 0x74, 0x37, 0x00, 0x02, 0x00, 0x00, 0x00, 0x01, 0x00, 0x00, 0x00,
  0xcc, 0x03, 0x00, 0x00, 0x82, 0xff, 0xff, 0xff, 0x00, 0x00, 0x00, 0x01,
  0x10, 0x00, 0x00, 0x00, 0x10, 0x00, 0x00, 0x00, 0x08, 0x00, 0x00, 0x00,
  0x1c, 0x00, 0x00, 0x00, 0x80, 0xfd, 0xff, 0xff, 0x0f, 0x00, 0x00, 0x00,
  0x61, 0x72, 0x69, 0x74, 0x68, 0x2e, 0x63, 0x6f, 0x6e, 0x73, 0x74, 0x61,
  0x6e, 0x74, 0x36, 0x00, 0x01, 0x00, 0x00, 0x00, 0x04, 0x00, 0x00, 0x00,
  0xba, 0xff, 0xff, 0xff, 0x00, 0x00, 0x00, 0x01, 0x10, 0x00, 0x00, 0x00,
  0x10, 0x00, 0x00, 0x00, 0x07, 0x00, 0x00, 0x00, 0x1c, 0x00, 0x00, 0x00,
  0xb8, 0xfd, 0xff, 0xff, 0x0f, 0x00, 0x00, 0x00, 0x61, 0x72, 0x69, 0x74,
  0x68, 0x2e, 0x63, 0x6f, 0x6e, 0x73, 0x74, 0x61, 0x6e, 0x74, 0x35, 0x00,
  0x04, 0x00, 0x00, 0x00, 0x04, 0x00, 0x00, 0x00, 0x01, 0x00, 0x00, 0x00,
  0x0a, 0x00, 0x00, 0x00, 0x01, 0x00, 0x00, 0x00, 0x00, 0x00, 0x16, 0x00,
  0x18, 0x00, 0x14, 0x00, 0x00, 0x00, 0x10, 0x00, 0x0c, 0x00, 0x08, 0x00,
  0x00, 0x00, 0x00, 0x00, 0x00, 0x00, 0x07, 0x00, 0x16, 0x00, 0x00, 0x00,
  0x00, 0x00, 0x00, 0x01, 0x10, 0x00, 0x00, 0x00, 0x10, 0x00, 0x00, 0x00,
  0x06, 0x00, 0x00, 0x00, 0x1c, 0x00, 0x00, 0x00, 0x14, 0xfe, 0xff, 0xff,
  0x0f, 0x00, 0x00, 0x00, 0x61, 0x72, 0x69, 0x74, 0x68, 0x2e, 0x63, 0x6f,
  0x6e, 0x73, 0x74, 0x61, 0x6e, 0x74, 0x34, 0x00, 0x04, 0x00, 0x00, 0x00,
  0x04, 0x00, 0x00, 0x00, 0x01, 0x00, 0x00, 0x00, 0x05, 0x00, 0x00, 0x00,
  0x04, 0x00, 0x00, 0x00, 0x4a, 0xff, 0xff, 0xff, 0x00, 0x00, 0x00, 0x01,
  0x14, 0x00, 0x00, 0x00, 0x14, 0x00, 0x00, 0x00, 0x05, 0x00, 0x00, 0x00,
  0x00, 0x00, 0x00, 0x02, 0x1c, 0x00, 0x00, 0x00, 0x5c, 0xfe, 0xff, 0xff,
  0x0f, 0x00, 0x00, 0x00, 0x61, 0x72, 0x69, 0x74, 0x68, 0x2e, 0x63, 0x6f,
  0x6e, 0x73, 0x74, 0x61, 0x6e, 0x74, 0x33, 0x00, 0x01, 0x00, 0x00, 0x00,
  0x03, 0x00, 0x00, 0x00, 0x86, 0xff, 0xff, 0xff, 0x00, 0x00, 0x00, 0x01,
  0x14, 0x00, 0x00, 0x00, 0x14, 0x00, 0x00, 0x00, 0x04, 0x00, 0x00, 0x00,
  0x00, 0x00, 0x00, 0x02, 0x1c, 0x00, 0x00, 0x00, 0x98, 0xfe, 0xff, 0xff,
  0x0f, 0x00, 0x00, 0x00, 0x61, 0x72, 0x69, 0x74, 0x68, 0x2e, 0x63, 0x6f,
  0x6e, 0x73, 0x74, 0x61, 0x6e, 0x74, 0x32, 0x00, 0x01, 0x00, 0x00, 0x00,
  0x03, 0x00, 0x00, 0x00, 0xc2, 0xff, 0xff, 0xff, 0x00, 0x00, 0x00, 0x01,
  0x14, 0x00, 0x00, 0x00, 0x14, 0x00, 0x00, 0x00, 0x03, 0x00, 0x00, 0x00,
  0x00, 0x00, 0x00, 0x02, 0x1c, 0x00, 0x00, 0x00, 0xd4, 0xfe, 0xff, 0xff,
  0x0f, 0x00, 0x00, 0x00, 0x61, 0x72, 0x69, 0x74, 0x68, 0x2e, 0x63, 0x6f,
  0x6e, 0x73, 0x74, 0x61, 0x6e, 0x74, 0x31, 0x00, 0x01, 0x00, 0x00, 0x00,
  0x03, 0x00, 0x00, 0x00, 0x00, 0x00, 0x16, 0x00, 0x1c, 0x00, 0x18, 0x00,
  0x17, 0x00, 0x10, 0x00, 0x0c, 0x00, 0x08, 0x00, 0x00, 0x00, 0x00, 0x00,
  0x00, 0x00, 0x07, 0x00, 0x16, 0x00, 0x00, 0x00, 0x00, 0x00, 0x00, 0x01,
  0x14, 0x00, 0x00, 0x00, 0x14, 0x00, 0x00, 0x00, 0x02, 0x00, 0x00, 0x00,
  0x00, 0x00, 0x00, 0x02, 0x1c, 0x00, 0x00, 0x00, 0x28, 0xff, 0xff, 0xff,
  0x0e, 0x00, 0x00, 0x00, 0x61, 0x72, 0x69, 0x74, 0x68, 0x2e, 0x63, 0x6f,
  0x6e, 0x73, 0x74, 0x61, 0x6e, 0x74, 0x00, 0x00, 0x01, 0x00, 0x00, 0x00,
  0x03, 0x00, 0x00, 0x00, 0x00, 0x00, 0x16, 0x00, 0x1c, 0x00, 0x18, 0x00,
  0x00, 0x00, 0x14, 0x00, 0x10, 0x00, 0x0c, 0x00, 0x00, 0x00, 0x00, 0x00,
  0x08, 0x00, 0x07, 0x00, 0x16, 0x00, 0x00, 0x00, 0x00, 0x00, 0x00, 0x01,
  0x14, 0x00, 0x00, 0x00, 0x20, 0x00, 0x00, 0x00, 0x20, 0x00, 0x00, 0x00,
  0x01, 0x00, 0x00, 0x00, 0x40, 0x00, 0x00, 0x00, 0x03, 0x00, 0x00, 0x00,
  0xff, 0xff, 0xff, 0xff, 0x40, 0x1f, 0x00, 0x00, 0x01, 0x00, 0x00, 0x00,
  0x8c, 0xff, 0xff, 0xff, 0x21, 0x00, 0x00, 0x00, 0x73, 0x65, 0x72, 0x76,
  0x69, 0x6e, 0x67, 0x5f, 0x64, 0x65, 0x66, 0x61, 0x75, 0x6c, 0x74, 0x5f,
  0x6b, 0x65, 0x72, 0x61, 0x73, 0x5f, 0x74, 0x65, 0x6e, 0x73, 0x6f, 0x72,
  0x5f, 0x32, 0x39, 0x3a, 0x30, 0x00, 0x00, 0x00, 0x03, 0x00, 0x00, 0x00,
  0x01, 0x00, 0x00, 0x00, 0x40, 0x1f, 0x00, 0x00, 0x01, 0x00, 0x00, 0x00,
  0x07, 0x00, 0x00, 0x00, 0x6c, 0x00, 0x00, 0x00, 0x50, 0x00, 0x00, 0x00,
  0x40, 0x00, 0x00, 0x00, 0x30, 0x00, 0x00, 0x00, 0x28, 0x00, 0x00, 0x00,
  0x14, 0x00, 0x00, 0x00, 0x04, 0x00, 0x00, 0x00, 0xbc, 0xff, 0xff, 0xff,
  0x0e, 0x00, 0x00, 0x00, 0x00, 0x00, 0x00, 0x0e, 0xc8, 0xff, 0xff, 0xff,
  0x09, 0x00, 0x00, 0x00, 0x00, 0x00, 0x00, 0x09, 0x04, 0x00, 0x04, 0x00,
  0x04, 0x00, 0x00, 0x00, 0xdc, 0xff, 0xff, 0xff, 0x03, 0x00, 0x00, 0x00,
  0x00, 0x00, 0x00, 0x03, 0xe8, 0xff, 0xff, 0xff, 0x16, 0x00, 0x00, 0x00,
  0x00, 0x00, 0x00, 0x16, 0xf4, 0xff, 0xff, 0xff, 0x11, 0x00, 0x00, 0x00,
  0x00, 0x00, 0x00, 0x11, 0x0c, 0x00, 0x0c, 0x00, 0x0b, 0x00, 0x00, 0x00,
  0x00, 0x00, 0x04, 0x00, 0x0c, 0x00, 0x00, 0x00, 0x46, 0x00, 0x00, 0x00,
  0x00, 0x00, 0x00, 0x46
};
unsigned int utils_models_jarvis0_2_6_tflite_len = 9664;
