unsigned char jarvis0_4_10_tflite[] = {
  0x20, 0x00, 0x00, 0x00, 0x54, 0x46, 0x4c, 0x33, 0x00, 0x00, 0x00, 0x00,
  0x14, 0x00, 0x20, 0x00, 0x1c, 0x00, 0x18, 0x00, 0x14, 0x00, 0x10, 0x00,
  0x0c, 0x00, 0x00, 0x00, 0x08, 0x00, 0x04, 0x00, 0x14, 0x00, 0x00, 0x00,
  0x1c, 0x00, 0x00, 0x00, 0x90, 0x00, 0x00, 0x00, 0x10, 0x01, 0x00, 0x00,
  0xf4, 0x25, 0x00, 0x00, 0x04, 0x26, 0x00, 0x00, 0x34, 0x4e, 0x00, 0x00,
  0x03, 0x00, 0x00, 0x00, 0x01, 0x00, 0x00, 0x00, 0x04, 0x00, 0x00, 0x00,
  0x92, 0xd5, 0xff, 0xff, 0x0c, 0x00, 0x00, 0x00, 0x1c, 0x00, 0x00, 0x00,
  0x3c, 0x00, 0x00, 0x00, 0x0f, 0x00, 0x00, 0x00, 0x73, 0x65, 0x72, 0x76,
  0x69, 0x6e, 0x67, 0x5f, 0x64, 0x65, 0x66, 0x61, 0x75, 0x6c, 0x74, 0x00,
  0x01, 0x00, 0x00, 0x00, 0x04, 0x00, 0x00, 0x00, 0x64, 0xff, 0xff, 0xff,
  0x2f, 0x00, 0x00, 0x00, 0x04, 0x00, 0x00, 0x00, 0x08, 0x00, 0x00, 0x00,
  0x6f, 0x75, 0x74, 0x70, 0x75, 0x74, 0x5f, 0x30, 0x00, 0x00, 0x00, 0x00,
  0x01, 0x00, 0x00, 0x00, 0x04, 0x00, 0x00, 0x00, 0x9a, 0xd5, 0xff, 0xff,
  0x04, 0x00, 0x00, 0x00, 0x10, 0x00, 0x00, 0x00, 0x6b, 0x65, 0x72, 0x61,
  0x73, 0x5f, 0x74, 0x65, 0x6e, 0x73, 0x6f, 0x72, 0x5f, 0x31, 0x32, 0x30,
  0x00, 0x00, 0x00, 0x00, 0x03, 0x00, 0x00, 0x00, 0x5c, 0x00, 0x00, 0x00,
  0x2c, 0x00, 0x00, 0x00, 0x04, 0x00, 0x00, 0x00, 0xb8, 0xff, 0xff, 0xff,
  0x33, 0x00, 0x00, 0x00, 0x04, 0x00, 0x00, 0x00, 0x13, 0x00, 0x00, 0x00,
  0x43, 0x4f, 0x4e, 0x56, 0x45, 0x52, 0x53, 0x49, 0x4f, 0x4e, 0x5f, 0x4d,
  0x45, 0x54, 0x41, 0x44, 0x41, 0x54, 0x41, 0x00, 0xdc, 0xff, 0xff, 0xff,
  0x32, 0x00, 0x00, 0x00, 0x04, 0x00, 0x00, 0x00, 0x13, 0x00, 0x00, 0x00,
  0x6d, 0x69, 0x6e, 0x5f, 0x72, 0x75, 0x6e, 0x74, 0x69, 0x6d, 0x65, 0x5f,
  0x76, 0x65, 0x72, 0x73, 0x69, 0x6f, 0x6e, 0x00, 0x08, 0x00, 0x0c, 0x00,
  0x08, 0x00, 0x04, 0x00, 0x08, 0x00, 0x00, 0x00, 0x31, 0x00, 0x00, 0x00,
  0x04, 0x00, 0x00, 0x00, 0x13, 0x00, 0x00, 0x00, 0x6d, 0x69, 0x6e, 0x5f,
  0x72, 0x75, 0x6e, 0x74, 0x69, 0x6d, 0x65, 0x5f, 0x76, 0x65, 0x72, 0x73,
  0x69, 0x6f, 0x6e, 0x00, 0x34, 0x00, 0x00, 0x00, 0xe0, 0x24, 0x00, 0x00,
  0xd8, 0x24, 0x00, 0x00, 0xc4, 0x24, 0x00, 0x00, 0xb0, 0x24, 0x00, 0x00,
  0x9c, 0x24, 0x00, 0x00, 0x88, 0x24, 0x00, 0x00, 0x74, 0x24, 0x00, 0x00,
  0x58, 0x24, 0x00, 0x00, 0x50, 0x24, 0x00, 0x00, 0x34, 0x24, 0x00, 0x00,
  0x18, 0x24, 0x00, 0x00, 0x00, 0x24, 0x00, 0x00, 0xec, 0x23, 0x00, 0x00,
  0xbc, 0x23, 0x00, 0x00, 0x2c, 0x23, 0x00, 0x00, 0x1c, 0x0f, 0x00, 0x00,
  0xec, 0x0e, 0x00, 0x00, 0xbc, 0x0e, 0x00, 0x00, 0x2c, 0x0e, 0x00, 0x00,
  0x1c, 0x08, 0x00, 0x00, 0xfc, 0x07, 0x00, 0x00, 0xdc, 0x07, 0x00, 0x00,
  0x8c, 0x07, 0x00, 0x00, 0x7c, 0x01, 0x00, 0x00, 0x74, 0x01, 0x00, 0x00,
  0x6c, 0x01, 0x00, 0x00, 0x64, 0x01, 0x00, 0x00, 0x5c, 0x01, 0x00, 0x00,
  0x54, 0x01, 0x00, 0x00, 0x4c, 0x01, 0x00, 0x00, 0x44, 0x01, 0x00, 0x00,
  0x3c, 0x01, 0x00, 0x00, 0x34, 0x01, 0x00, 0x00, 0x2c, 0x01, 0x00, 0x00,
  0x24, 0x01, 0x00, 0x00, 0x1c, 0x01, 0x00, 0x00, 0x14, 0x01, 0x00, 0x00,
  0x0c, 0x01, 0x00, 0x00, 0x04, 0x01, 0x00, 0x00, 0xfc, 0x00, 0x00, 0x00,
  0xf4, 0x00, 0x00, 0x00, 0xec, 0x00, 0x00, 0x00, 0xe4, 0x00, 0x00, 0x00,
  0xdc, 0x00, 0x00, 0x00, 0xd4, 0x00, 0x00, 0x00, 0xcc, 0x00, 0x00, 0x00,
  0xc4, 0x00, 0x00, 0x00, 0xbc, 0x00, 0x00, 0x00, 0xb4, 0x00, 0x00, 0x00,
  0x94, 0x00, 0x00, 0x00, 0x74, 0x00, 0x00, 0x00, 0x04, 0x00, 0x00, 0x00,
  0x12, 0xd7, 0xff, 0xff, 0x04, 0x00, 0x00, 0x00, 0x60, 0x00, 0x00, 0x00,
  0x0c, 0x00, 0x00, 0x00, 0x08, 0x00, 0x0e, 0x00, 0x08, 0x00, 0x04, 0x00,
  0x08, 0x00, 0x00, 0x00, 0x10, 0x00, 0x00, 0x00, 0x28, 0x00, 0x00, 0x00,
  0x00, 0x00, 0x06, 0x00, 0x08, 0x00, 0x04, 0x00, 0x06, 0x00, 0x00, 0x00,
  0x04, 0x00, 0x00, 0x00, 0x01, 0x00, 0x00, 0x00, 0xeb, 0x03, 0x00, 0x00,
  0x0c, 0x00, 0x18, 0x00, 0x14, 0x00, 0x10, 0x00, 0x0c, 0x00, 0x04, 0x00,
  0x0c, 0x00, 0x00, 0x00, 0xe7, 0xb1, 0xba, 0xd5, 0xa0, 0x11, 0xa2, 0x37,
  0x02, 0x00, 0x00, 0x00, 0x02, 0x00, 0x00, 0x00, 0x04, 0x00, 0x00, 0x00,
  0x06, 0x00, 0x00, 0x00, 0x32, 0x2e, 0x31, 0x38, 0x2e, 0x30, 0x00, 0x00,
  0x7e, 0xd7, 0xff, 0xff, 0x04, 0x00, 0x00, 0x00, 0x10, 0x00, 0x00, 0x00,
  0x00, 0x00, 0x00, 0x00, 0x00, 0x00, 0x00, 0x00, 0x00, 0x00, 0x00, 0x00,
  0x00, 0x00, 0x00, 0x00, 0x9a, 0xd7, 0xff, 0xff, 0x04, 0x00, 0x00, 0x00,
  0x10, 0x00, 0x00, 0x00, 0x31, 0x2e, 0x31, 0x35, 0x2e, 0x30, 0x00, 0x00,
  0x00, 0x00, 0x00, 0x00, 0x00, 0x00, 0x00, 0x00, 0x88, 0xb4, 0xff, 0xff,
  0x8c, 0xb4, 0xff, 0xff, 0x90, 0xb4, 0xff, 0xff, 0x94, 0xb4, 0xff, 0xff,
  0x98, 0xb4, 0xff, 0xff, 0x9c, 0xb4, 0xff, 0xff, 0xa0, 0xb4, 0xff, 0xff,
  0xa4, 0xb4, 0xff, 0xff, 0xa8, 0xb4, 0xff, 0xff, 0xac, 0xb4, 0xff, 0xff,
  0xb0, 0xb4, 0xff, 0xff, 0xb4, 0xb4, 0xff, 0xff, 0xb8, 0xb4, 0xff, 0xff,
  0xbc, 0xb4, 0xff, 0xff, 0xc0, 0xb4, 0xff, 0xff, 0xc4, 0xb4, 0xff, 0xff,
  0xc8, 0xb4, 0xff, 0xff, 0xcc, 0xb4, 0xff, 0xff, 0xd0, 0xb4, 0xff, 0xff,
  0xd4, 0xb4, 0xff, 0xff, 0xd8, 0xb4, 0xff, 0xff, 0xdc, 0xb4, 0xff, 0xff,
  0xe0, 0xb4, 0xff, 0xff, 0xe4, 0xb4, 0xff, 0xff, 0xe8, 0xb4, 0xff, 0xff,
  0x1a, 0xd8, 0xff, 0xff, 0x04, 0x00, 0x00, 0x00, 0x00, 0x06, 0x00, 0x00,
  0xe7, 0x13, 0x15, 0x60, 0xfc, 0x06, 0xa6, 0xb5, 0xdb, 0xfb, 0xc3, 0xa3,
  0xf8, 0xe8, 0xe1, 0x86, 0x98, 0x90, 0x8c, 0xc6, 0xd0, 0x40, 0xfc, 0x3f,
  0xe5, 0xf4, 0x6e, 0xb2, 0x68, 0xb0, 0x1f, 0x0b, 0xb7, 0xaf, 0xbb, 0x33,
  0xbd, 0xc8, 0x45, 0xdb, 0xee, 0x4d, 0xcb, 0xb1, 0x49, 0x12, 0x59, 0x7f,
  0x30, 0x36, 0x2c, 0xd5, 0x29, 0x2c, 0x9c, 0xea, 0xe9, 0xa9, 0xf8, 0xf9,
  0xb5, 0xd7, 0x9b, 0x30, 0xbf, 0x14, 0x64, 0xca, 0xf6, 0x17, 0x6c, 0x27,
  0xde, 0x1a, 0xb4, 0x32, 0x28, 0xf8, 0x4a, 0x57, 0xff, 0xb7, 0x46, 0x12,
  0x41, 0x22, 0x1d, 0xca, 0x58, 0x47, 0x0a, 0x6e, 0x25, 0x46, 0x1d, 0xbe,
  0x7c, 0xd5, 0x57, 0x33, 0x21, 0x0e, 0xdf, 0xcf, 0xd8, 0x7b, 0x3a, 0x34,
  0x10, 0x11, 0xfd, 0x2d, 0x7f, 0xc6, 0xe3, 0xf5, 0x4b, 0x3f, 0xee, 0xbc,
  0x5c, 0x36, 0xb4, 0xf2, 0xe3, 0x0d, 0x2d, 0x5f, 0xaa, 0x4d, 0xb4, 0xee,
  0x62, 0x64, 0x14, 0x4e, 0x24, 0x44, 0x56, 0x1b, 0x89, 0xdb, 0x1e, 0xca,
  0xe6, 0xf0, 0x62, 0x5a, 0xb1, 0x68, 0xac, 0xa2, 0x22, 0xb8, 0x5f, 0x01,
  0xc9, 0x50, 0x21, 0x22, 0x9b, 0x99, 0x59, 0x98, 0x86, 0x0d, 0x2c, 0x65,
  0xfd, 0x04, 0x9c, 0xcb, 0xc6, 0x24, 0x12, 0x25, 0xd0, 0x8b, 0xf2, 0x30,
  0x93, 0x03, 0xbf, 0xef, 0xc6, 0xf5, 0x1e, 0xf8, 0x92, 0xaf, 0xe7, 0xc4,
  0xb7, 0x59, 0x3f, 0xbb, 0xbb, 0x14, 0xf4, 0x38, 0x50, 0xa3, 0xb8, 0x93,
  0xad, 0xa9, 0x47, 0xeb, 0x9f, 0x89, 0xe9, 0xd9, 0xb5, 0x02, 0x58, 0xdb,
  0x5f, 0x89, 0xee, 0x30, 0x70, 0x34, 0x85, 0xca, 0x19, 0xa8, 0x00, 0x67,
  0xf0, 0x18, 0xc4, 0x65, 0x1e, 0xc0, 0xb1, 0xe5, 0x40, 0x40, 0x26, 0xb9,
  0x2f, 0xaf, 0xbc, 0xd5, 0xd2, 0x50, 0xd0, 0xd9, 0x07, 0x70, 0xe7, 0x03,
  0x20, 0xaa, 0xa1, 0x4f, 0x5b, 0x7f, 0xf7, 0x83, 0x0d, 0xdc, 0xec, 0x2f,
  0xe1, 0x19, 0xf0, 0x57, 0xbc, 0x20, 0xa3, 0x5d, 0x4c, 0x48, 0xd3, 0x00,
  0xec, 0x5f, 0xf3, 0x1a, 0x2c, 0x6a, 0xfb, 0xa8, 0xd9, 0x89, 0xe0, 0xa1,
  0xe2, 0xd2, 0xd4, 0xe1, 0x02, 0xce, 0x62, 0x4e, 0x22, 0x67, 0x94, 0xd0,
  0xd9, 0x7a, 0x4d, 0x27, 0x3b, 0x9e, 0xb7, 0xca, 0x43, 0xf2, 0x78, 0x53,
  0x06, 0x4d, 0x3f, 0xe2, 0xcc, 0x92, 0x4f, 0x52, 0x75, 0xa6, 0x51, 0x25,
  0x47, 0xa5, 0x13, 0x9b, 0x99, 0x75, 0x51, 0x7f, 0xa0, 0x98, 0xf9, 0xdf,
  0xd0, 0x1d, 0x79, 0x96, 0x0b, 0xef, 0x65, 0x25, 0x1c, 0x6b, 0x74, 0x1f,
  0xbd, 0x3a, 0x73, 0x19, 0x39, 0x10, 0x28, 0x50, 0xa8, 0x54, 0x98, 0x46,
  0x38, 0x77, 0xe3, 0x23, 0xd9, 0xf3, 0x18, 0xb7, 0x42, 0xa2, 0x6e, 0x69,
  0xf3, 0xf8, 0xaa, 0xfe, 0x0a, 0x5e, 0x47, 0xc4, 0xe4, 0xf5, 0xf7, 0xd9,
  0x25, 0x8d, 0xca, 0x06, 0xc2, 0xc4, 0xb2, 0xc7, 0xc9, 0x81, 0xa4, 0x32,
  0x42, 0x4b, 0xac, 0x95, 0x25, 0x22, 0x1e, 0x2d, 0xbb, 0x37, 0xe8, 0xbc,
  0xcc, 0xa9, 0xe4, 0x49, 0x0e, 0xff, 0x32, 0xa4, 0xc3, 0x02, 0xe9, 0x4f,
  0xdf, 0x13, 0xc7, 0x15, 0x75, 0xcb, 0x96, 0xc8, 0x38, 0x1b, 0x02, 0x2d,
  0x4b, 0xe8, 0xeb, 0x58, 0xe4, 0x53, 0x02, 0xa4, 0xfb, 0xd6, 0x49, 0xc6,
  0x43, 0x1e, 0xdf, 0xd1, 0x0f, 0xdf, 0x71, 0x0d, 0xb8, 0xc2, 0xe1, 0xf8,
  0x8e, 0x05, 0xeb, 0xdb, 0x0b, 0xf2, 0x88, 0x07, 0xe4, 0x56, 0x2b, 0x4c,
  0xc0, 0x3f, 0xbf, 0xbe, 0x22, 0xe8, 0xa3, 0xca, 0xe5, 0xda, 0x8d, 0xf9,
  0xcb, 0xd3, 0x0d, 0x04, 0xc6, 0xe3, 0x4e, 0xd0, 0x2b, 0x4d, 0xa4, 0x54,
  0x3d, 0x09, 0xfc, 0x04, 0xa1, 0x0a, 0xa6, 0x38, 0x1d, 0xf5, 0xc5, 0xcc,
  0x1b, 0xee, 0x55, 0x59, 0xd1, 0xfd, 0xe3, 0x27, 0xc4, 0x29, 0x44, 0x8e,
  0x4a, 0x5d, 0x41, 0x50, 0xdc, 0x17, 0x19, 0x8b, 0x79, 0x07, 0x21, 0x2b,
  0x9a, 0x53, 0x15, 0x04, 0xe2, 0xf9, 0x63, 0x02, 0x04, 0x3e, 0x25, 0x7f,
  0x0d, 0x23, 0x39, 0x7b, 0x24, 0x1d, 0x90, 0x7a, 0xd4, 0x14, 0xb2, 0x51,
  0xd7, 0x5f, 0x42, 0xf5, 0x93, 0xc7, 0x29, 0x53, 0xc1, 0xb0, 0xd3, 0x1f,
  0x67, 0x97, 0xd2, 0x82, 0x12, 0x09, 0xfb, 0x4e, 0x6e, 0x16, 0x65, 0x88,
  0xd2, 0xdc, 0x54, 0x45, 0x15, 0x76, 0xf3, 0x2b, 0x25, 0xdc, 0x46, 0x62,
  0x7e, 0x6b, 0x92, 0x45, 0x2f, 0x49, 0x72, 0xa3, 0x0f, 0xcd, 0x33, 0xc8,
  0x7e, 0x90, 0x81, 0x11, 0x01, 0xe1, 0x4a, 0x98, 0x6d, 0xe6, 0x3f, 0x4b,
  0x2e, 0xc1, 0x51, 0xf1, 0xe3, 0xdf, 0xba, 0x2d, 0x9b, 0xec, 0xf3, 0x19,
  0xd8, 0xa4, 0x61, 0x32, 0xd6, 0xbe, 0xc9, 0x53, 0x2a, 0x3f, 0xef, 0x1d,
  0x30, 0xea, 0x56, 0x2a, 0x0d, 0xf0, 0x2a, 0x8d, 0xcd, 0x55, 0x5f, 0x14,
  0x7f, 0x97, 0xe4, 0x43, 0xca, 0xb5, 0xcb, 0x61, 0xca, 0x1a, 0x60, 0x0d,
  0xf3, 0xc3, 0x3b, 0xd3, 0x27, 0x17, 0x4d, 0xaa, 0xd1, 0x33, 0x18, 0x78,
  0xda, 0x10, 0xdc, 0x34, 0x02, 0xf8, 0x11, 0xc4, 0x46, 0x81, 0xb2, 0xeb,
  0xfb, 0x0b, 0xd7, 0xcc, 0xa2, 0xaf, 0xf9, 0xc3, 0xf3, 0x37, 0x02, 0x9c,
  0x3b, 0x13, 0xc9, 0x31, 0x17, 0xce, 0x20, 0x45, 0xc9, 0xec, 0xfc, 0x23,
  0xcf, 0xd0, 0xdd, 0x03, 0xed, 0x1e, 0xc7, 0x9d, 0x29, 0xf1, 0xe2, 0x57,
  0x00, 0xd5, 0xac, 0x96, 0x46, 0x3d, 0xef, 0xd1, 0x82, 0x1f, 0x2b, 0xf3,
  0x27, 0xdf, 0xc2, 0x58, 0xfc, 0x9b, 0x22, 0x5c, 0xdc, 0x19, 0x4a, 0xd6,
  0xd5, 0xd9, 0xbd, 0xc9, 0x00, 0xfb, 0xde, 0x14, 0x43, 0x4b, 0x29, 0x35,
  0x34, 0x00, 0x37, 0x0c, 0xff, 0xbf, 0x35, 0x34, 0x65, 0x63, 0x5f, 0xea,
  0x28, 0x7f, 0x58, 0xb0, 0x0e, 0x31, 0x0b, 0x1a, 0x03, 0x12, 0xb3, 0xe0,
  0xda, 0x3a, 0x15, 0x59, 0x98, 0xb0, 0x91, 0xe5, 0x21, 0xdd, 0xce, 0x71,
  0xe6, 0x76, 0xba, 0xe8, 0xbc, 0x7b, 0x2f, 0xae, 0x8f, 0x62, 0x95, 0x60,
  0x59, 0xea, 0xce, 0x7a, 0x41, 0x5a, 0x26, 0x0e, 0x22, 0x2a, 0x05, 0x22,
  0x05, 0x8d, 0x9b, 0xb1, 0x5a, 0xd8, 0xcf, 0x22, 0xef, 0x5a, 0xaa, 0x69,
  0xfc, 0x75, 0x7a, 0x6a, 0x31, 0x0d, 0x7d, 0x55, 0x1f, 0x7f, 0x2b, 0xe0,
  0x5c, 0xce, 0x27, 0xc7, 0x61, 0xbe, 0x34, 0x0c, 0x2d, 0xea, 0xd5, 0x11,
  0x42, 0x4c, 0x3a, 0x1d, 0x76, 0x06, 0x97, 0x14, 0x33, 0x94, 0x68, 0xeb,
  0x93, 0x0d, 0x37, 0x86, 0x30, 0xe8, 0xd6, 0xff, 0x3b, 0xba, 0x26, 0x1e,
  0x26, 0x38, 0x3e, 0xd7, 0xab, 0xd8, 0x24, 0x99, 0xe6, 0xc6, 0xda, 0x63,
  0x60, 0xc8, 0xa5, 0xf9, 0x9f, 0xa5, 0x18, 0xd0, 0x6e, 0x00, 0xc3, 0x1a,
  0x1f, 0x4d, 0x7f, 0x57, 0xdb, 0x44, 0xad, 0x5a, 0x53, 0xaf, 0x9d, 0x3f,
  0xe5, 0xa5, 0x65, 0x9d, 0x23, 0x49, 0x5e, 0x3a, 0x6a, 0x57, 0xd0, 0x9c,
  0x13, 0x2e, 0xb5, 0x92, 0xc1, 0x7a, 0x62, 0x21, 0x5f, 0x60, 0x2d, 0xdb,
  0x93, 0x52, 0x28, 0x0b, 0x32, 0x05, 0xae, 0xa4, 0xbe, 0xc1, 0xbe, 0x9e,
  0x8a, 0x9c, 0x4c, 0xbc, 0xf2, 0x5a, 0x27, 0x58, 0x4c, 0xad, 0x9a, 0xc1,
  0xca, 0x48, 0x1f, 0xcb, 0xa7, 0xf6, 0x15, 0x7f, 0xaf, 0xc5, 0xae, 0xda,
  0xec, 0x6e, 0x05, 0xf2, 0xd1, 0x19, 0x2d, 0x55, 0xf4, 0x1c, 0x9c, 0x25,
  0xb6, 0x33, 0x96, 0x6a, 0x25, 0xea, 0xe4, 0x7d, 0x1f, 0xdb, 0xc7, 0x28,
  0xf7, 0xd5, 0x72, 0xba, 0x7f, 0xee, 0x13, 0xe2, 0x5b, 0x46, 0xcb, 0x71,
  0x00, 0xe5, 0xf0, 0x7c, 0xba, 0x95, 0x68, 0xea, 0x3f, 0xec, 0xe4, 0x7f,
  0x6a, 0xb2, 0x1c, 0x9c, 0x0d, 0xb1, 0x32, 0xe1, 0x05, 0xe8, 0xe9, 0x06,
  0xd2, 0xf4, 0x23, 0xb0, 0xe7, 0xfc, 0xe1, 0x16, 0xd0, 0xf0, 0x67, 0xee,
  0x16, 0x77, 0x15, 0x38, 0x1d, 0xa3, 0x0a, 0x1e, 0x54, 0x0f, 0x6d, 0xff,
  0xb8, 0xc4, 0x38, 0xcb, 0xaa, 0xfa, 0xb6, 0x98, 0xf7, 0xb7, 0x2c, 0x34,
  0x15, 0xc9, 0xaf, 0xff, 0xd5, 0x81, 0x4f, 0xb7, 0x62, 0x1d, 0x1d, 0x40,
  0x0b, 0xc8, 0xf2, 0x4c, 0x26, 0x1e, 0xef, 0x25, 0x07, 0x94, 0x81, 0xfe,
  0x30, 0x35, 0xbb, 0xe1, 0x72, 0xee, 0x6c, 0x33, 0x63, 0xeb, 0x10, 0x5a,
  0x0c, 0xd2, 0x14, 0x13, 0xe4, 0xc0, 0xf9, 0x38, 0x2c, 0x12, 0xac, 0x2e,
  0x45, 0xfe, 0xe1, 0x71, 0x73, 0xcf, 0xf9, 0xf4, 0xdc, 0x16, 0xbd, 0xc4,
  0xa1, 0xb5, 0x32, 0xae, 0x9a, 0xce, 0x44, 0xb0, 0xec, 0x25, 0x2d, 0x4a,
  0x6e, 0x71, 0x3b, 0x4f, 0x1b, 0x34, 0xa1, 0xb8, 0x0a, 0xf1, 0xc0, 0xf1,
  0x04, 0x0b, 0xa9, 0x32, 0x17, 0x2d, 0xaf, 0x01, 0x4c, 0x27, 0x0a, 0xa2,
  0x08, 0x1f, 0x26, 0x9c, 0x97, 0x1d, 0x38, 0x81, 0xb7, 0x92, 0xa6, 0xb6,
  0xe5, 0x36, 0x2a, 0xc1, 0x43, 0x63, 0x18, 0x05, 0x90, 0xdd, 0x9c, 0x44,
  0x14, 0xef, 0xa8, 0xd2, 0x24, 0x28, 0x0b, 0x12, 0xe6, 0xec, 0xd2, 0xe5,
  0x72, 0x4c, 0xfb, 0x58, 0x42, 0xac, 0x0d, 0xb2, 0x94, 0xc7, 0x4a, 0x3a,
  0x9d, 0x46, 0x02, 0xeb, 0x1d, 0xd5, 0x39, 0xb4, 0x24, 0x3d, 0xfb, 0x75,
  0xb9, 0xd7, 0xcb, 0xd1, 0x2e, 0xa4, 0xab, 0x43, 0x5a, 0x05, 0x59, 0xd8,
  0x1b, 0xf1, 0xd5, 0xc1, 0xe3, 0x56, 0xe6, 0x2e, 0x67, 0x47, 0x1e, 0xea,
  0x53, 0xd8, 0xe3, 0x0d, 0x13, 0xcf, 0xed, 0x0a, 0xd3, 0xcb, 0xef, 0x0e,
  0x12, 0x9e, 0xdb, 0x29, 0x27, 0x28, 0x0b, 0xc4, 0xc8, 0xb2, 0x41, 0xf0,
  0x41, 0xc5, 0xfb, 0x43, 0xa2, 0x50, 0x72, 0x18, 0x47, 0x1f, 0x0d, 0xda,
  0xbd, 0xaf, 0x32, 0xc9, 0xe4, 0x8a, 0x53, 0xf5, 0x1f, 0xbe, 0xff, 0x3a,
  0x00, 0xc1, 0x25, 0xb7, 0x0e, 0xa3, 0xb5, 0xc2, 0x3d, 0xeb, 0xd7, 0xd2,
  0x37, 0xbe, 0x9c, 0xf8, 0xd0, 0x41, 0xd6, 0xf3, 0x05, 0x3d, 0x2d, 0x4f,
  0xd0, 0x0f, 0xa7, 0xc5, 0xe1, 0xe8, 0x1d, 0xe4, 0x9a, 0xfa, 0x81, 0x0b,
  0x32, 0x0e, 0x5a, 0x0f, 0x3a, 0x4c, 0xe0, 0xfb, 0xf3, 0x33, 0xdf, 0xdf,
  0x95, 0x9b, 0xec, 0x24, 0x04, 0xbf, 0x09, 0x1a, 0xe3, 0x1f, 0xe7, 0x52,
  0x39, 0x1f, 0x43, 0xce, 0xf8, 0x23, 0xb3, 0x10, 0x51, 0xc0, 0x09, 0xb0,
  0xf1, 0xe0, 0x03, 0x38, 0xdd, 0xd9, 0x4a, 0x19, 0x01, 0x1f, 0x6c, 0x49,
  0xee, 0xc3, 0x2d, 0x3d, 0x22, 0x5d, 0x2f, 0x25, 0xd6, 0xfe, 0xb4, 0x21,
  0xad, 0x3c, 0xf8, 0x1b, 0xea, 0xf7, 0xcd, 0xe6, 0xc1, 0xf4, 0x35, 0xd4,
  0xa0, 0x49, 0xcc, 0xba, 0xc2, 0x10, 0xfa, 0xc8, 0x08, 0x3a, 0xdc, 0x24,
  0x23, 0x2e, 0x0d, 0xae, 0x5e, 0x12, 0x1c, 0xe6, 0xfa, 0x36, 0x50, 0xbc,
  0xd6, 0xb4, 0xee, 0xd0, 0x1f, 0x45, 0xe6, 0x4c, 0xe2, 0xc6, 0xbb, 0x81,
  0x29, 0x85, 0x33, 0x3d, 0x58, 0xf4, 0x54, 0x7c, 0xbe, 0x33, 0x7f, 0x69,
  0x35, 0xd9, 0x25, 0x4d, 0xe2, 0x4b, 0x29, 0xb7, 0xda, 0xbd, 0x8c, 0x67,
  0x8f, 0xa5, 0x20, 0xe2, 0x78, 0xca, 0x3f, 0xc9, 0x6f, 0xd7, 0x3c, 0x3a,
  0xb5, 0x53, 0xeb, 0x38, 0x65, 0xbc, 0x73, 0x02, 0x40, 0x97, 0x3d, 0x35,
  0x0a, 0xe8, 0xb8, 0xff, 0x59, 0x91, 0x52, 0x66, 0x6e, 0x74, 0x35, 0x99,
  0x16, 0x44, 0x1a, 0x62, 0xc5, 0xf4, 0x1b, 0x00, 0x45, 0x41, 0xdc, 0x2c,
  0xe8, 0x7c, 0xee, 0x2c, 0x96, 0x14, 0xce, 0x43, 0xda, 0xb9, 0x01, 0xd6,
  0x8d, 0x3c, 0x52, 0x8a, 0x6f, 0xfa, 0xe0, 0x6d, 0xa3, 0xd7, 0x3d, 0x2e,
  0x26, 0xde, 0xff, 0xff, 0x04, 0x00, 0x00, 0x00, 0x40, 0x00, 0x00, 0x00,
  0x49, 0x00, 0x00, 0x00, 0x52, 0x00, 0x00, 0x00, 0x1e, 0x00, 0x00, 0x00,
  0xac, 0xff, 0xff, 0xff, 0x24, 0x00, 0x00, 0x00, 0x00, 0x00, 0x00, 0x00,
  0xef, 0xff, 0xff, 0xff, 0x4d, 0x00, 0x00, 0x00, 0xf9, 0xff, 0xff, 0xff,
  0x34, 0x00, 0x00, 0x00, 0xe6, 0xff, 0xff, 0xff, 0x2e, 0x00, 0x00, 0x00,
  0x43, 0x00, 0x00, 0x00, 0xc8, 0xff, 0xff, 0xff, 0x4a, 0x00, 0x00, 0x00,
  0x00, 0x00, 0x00, 0x00, 0x72, 0xde, 0xff, 0xff, 0x04, 0x00, 0x00, 0x00,
  0x10, 0x00, 0x00, 0x00, 0x80, 0x81, 0x80, 0x7e, 0x80, 0x7f, 0x7d, 0x80,
  0x7e, 0x81, 0x7d, 0x80, 0x80, 0x80, 0x81, 0x7f, 0x8e, 0xde, 0xff, 0xff,
  0x04, 0x00, 0x00, 0x00, 0x10, 0x00, 0x00, 0x00, 0x49, 0x5a, 0xf4, 0x7f,
  0x80, 0x7e, 0x7a, 0xfd, 0x7c, 0x39, 0x7c, 0x48, 0x44, 0xab, 0x09, 0x7a,
  0xaa, 0xde, 0xff, 0xff, 0x04, 0x00, 0x00, 0x00, 0x00, 0x06, 0x00, 0x00,
  0xf5, 0xa5, 0x01, 0xba, 0xd2, 0xc9, 0xe9, 0xcd, 0xfe, 0xcc, 0xcf, 0x46,
  0xf4, 0xc1, 0xd5, 0xfa, 0x4f, 0x05, 0xc4, 0x30, 0x94, 0x3a, 0x0d, 0x1a,
  0x39, 0x3e, 0x00, 0x4e, 0x06, 0x7f, 0xe4, 0x59, 0x0e, 0x14, 0x91, 0xda,
  0xf4, 0xcd, 0x23, 0xa9, 0x24, 0x23, 0xc5, 0x10, 0x43, 0xef, 0x57, 0x22,
  0xd6, 0xba, 0x61, 0xb9, 0xee, 0xab, 0x8f, 0x81, 0xd2, 0xe6, 0x96, 0xed,
  0x3b, 0x3a, 0xb7, 0xad, 0xd6, 0x1e, 0xd0, 0xfa, 0x0d, 0xfa, 0xd1, 0x70,
  0x2e, 0xe5, 0x1f, 0xe9, 0x32, 0xd9, 0xf1, 0x1a, 0xdd, 0xdc, 0xa2, 0x4c,
  0x26, 0xb7, 0xd7, 0x3b, 0x19, 0x3e, 0x4e, 0x70, 0xf8, 0xf5, 0xd7, 0xbc,
  0xff, 0x3a, 0x6b, 0x46, 0xd2, 0xe8, 0xe7, 0x40, 0x0f, 0x10, 0x02, 0xf8,
  0x0e, 0xfb, 0x03, 0xff, 0x41, 0xeb, 0x7f, 0xfc, 0xd0, 0x38, 0x41, 0xf7,
  0xeb, 0xd0, 0xc3, 0x08, 0x24, 0x26, 0x31, 0x09, 0xc4, 0xe1, 0x0f, 0xc8,
  0xcb, 0x12, 0x59, 0x8c, 0x2a, 0xf3, 0xe8, 0x1c, 0x29, 0xe6, 0xce, 0x40,
  0xf3, 0x2b, 0x49, 0xb9, 0x02, 0x2b, 0x57, 0x5c, 0xfb, 0xea, 0xd1, 0x31,
  0xc6, 0xc3, 0xe2, 0xd9, 0xc1, 0xd2, 0x20, 0x32, 0xe3, 0x1f, 0xbe, 0xe9,
  0xcc, 0x14, 0x4c, 0xda, 0x44, 0x03, 0x10, 0x48, 0xb5, 0x3f, 0xfc, 0x2b,
  0x62, 0xde, 0x39, 0xe0, 0x32, 0xa5, 0x09, 0x81, 0x3f, 0x02, 0xfd, 0xbc,
  0x00, 0x33, 0xcd, 0x70, 0x47, 0x18, 0x4a, 0x5a, 0x1f, 0x4b, 0xfd, 0x12,
  0xd5, 0x17, 0x72, 0x27, 0xcb, 0x54, 0x66, 0xd2, 0x23, 0x61, 0x62, 0x5b,
  0x22, 0xec, 0xa2, 0x3a, 0xbd, 0xd4, 0xff, 0xb5, 0x6f, 0x9c, 0xd6, 0x46,
  0x59, 0xf2, 0x3c, 0xfb, 0x26, 0x2a, 0x45, 0xee, 0x71, 0xbc, 0xc4, 0x7f,
  0x40, 0xc5, 0x55, 0x6d, 0x2c, 0xc2, 0x55, 0x4a, 0x26, 0x30, 0xbd, 0x38,
  0xf7, 0xbe, 0x09, 0xf0, 0x1c, 0xf6, 0xcf, 0xb5, 0x9f, 0x11, 0x85, 0x71,
  0x1b, 0x2a, 0x2c, 0xad, 0xdd, 0x25, 0x04, 0xbc, 0x3b, 0xd3, 0x39, 0x25,
  0xc8, 0xf5, 0xbf, 0x3c, 0x3f, 0x39, 0xee, 0x81, 0x0b, 0xdd, 0xc5, 0xf5,
  0xf3, 0x29, 0x2b, 0x05, 0x2d, 0x21, 0xcb, 0x0b, 0x04, 0xbe, 0x1f, 0x39,
  0x81, 0xb6, 0x17, 0x42, 0xff, 0xc2, 0x2c, 0xf5, 0x59, 0x57, 0xb8, 0x53,
  0x3a, 0x34, 0xad, 0xfb, 0xa2, 0xc5, 0xb0, 0xde, 0xc3, 0xb9, 0xda, 0xd4,
  0x10, 0xae, 0x48, 0x47, 0x0e, 0x3c, 0x16, 0x19, 0x83, 0xeb, 0xbc, 0x67,
  0x41, 0xa2, 0x0e, 0x1c, 0xab, 0x33, 0xf3, 0xdf, 0xfa, 0x20, 0xa5, 0x55,
  0x02, 0x65, 0x33, 0x32, 0x1b, 0xf6, 0xc2, 0x19, 0x2b, 0x20, 0xa3, 0x26,
  0xa4, 0xf8, 0x44, 0x1b, 0xe4, 0x59, 0xcf, 0x97, 0x1d, 0xdc, 0x4d, 0x25,
  0x37, 0xc8, 0x28, 0xef, 0x3c, 0xa4, 0xe8, 0x91, 0xe1, 0x7f, 0xea, 0x50,
  0x88, 0x12, 0xfe, 0x0a, 0x27, 0x15, 0xc6, 0x14, 0xfd, 0xc0, 0x36, 0x34,
  0x79, 0x33, 0xc2, 0x28, 0x25, 0xb4, 0x14, 0xd8, 0xfa, 0xe5, 0xed, 0xe5,
  0x39, 0xb7, 0x11, 0xf1, 0x18, 0x00, 0xa6, 0xfe, 0xb4, 0x7d, 0xad, 0x21,
  0xaa, 0xc9, 0x75, 0xd0, 0xda, 0x24, 0x13, 0x15, 0xb4, 0x52, 0x0c, 0x7f,
  0x99, 0x2b, 0xc8, 0x49, 0xe4, 0xe2, 0xa2, 0x9e, 0xd9, 0xde, 0x00, 0xc9,
  0x12, 0xec, 0xeb, 0x09, 0x44, 0x54, 0x07, 0x5e, 0x50, 0xe0, 0x4d, 0x37,
  0x41, 0xea, 0xc7, 0x12, 0x0d, 0xe1, 0x2e, 0xc6, 0x61, 0x4c, 0x4b, 0xac,
  0x81, 0xf0, 0xde, 0x66, 0x2b, 0x1c, 0xbd, 0x09, 0x01, 0xf1, 0x46, 0x85,
  0x24, 0x17, 0xc8, 0x16, 0xcd, 0x3e, 0x44, 0xce, 0xfb, 0xab, 0x29, 0x7f,
  0x3b, 0xea, 0xd7, 0x02, 0x46, 0x01, 0x2d, 0xdf, 0x57, 0x2c, 0x1e, 0x1f,
  0x3e, 0x1b, 0x4e, 0xf9, 0x24, 0xc6, 0xd9, 0xf1, 0x19, 0x4d, 0x5e, 0xff,
  0x46, 0xf3, 0xc1, 0x37, 0x1c, 0x03, 0x24, 0xef, 0x35, 0xab, 0x2c, 0x0e,
  0x3b, 0xf4, 0xfb, 0xf1, 0xd3, 0x1e, 0xb7, 0x54, 0x2a, 0x36, 0x0a, 0xc5,
  0xd3, 0xd4, 0x3c, 0xb7, 0x21, 0xae, 0x17, 0x10, 0x0b, 0xd6, 0xc9, 0x33,
  0xdd, 0xb6, 0xbc, 0x77, 0x5c, 0xc8, 0x81, 0x54, 0x54, 0x00, 0xcd, 0x1c,
  0x2a, 0xf7, 0xb2, 0x21, 0x37, 0x58, 0xc4, 0x7f, 0x54, 0x29, 0xf8, 0x07,
  0xdd, 0x95, 0x4f, 0xc4, 0x97, 0xe0, 0x1b, 0x20, 0x1b, 0xca, 0x3f, 0x07,
  0xab, 0xcd, 0x66, 0x98, 0x46, 0x12, 0x2d, 0x10, 0x3f, 0x2a, 0xd7, 0x66,
  0xe2, 0x22, 0x72, 0xba, 0xfe, 0x43, 0xb4, 0xf6, 0x77, 0xfb, 0xff, 0xa1,
  0xca, 0xfb, 0xfc, 0x34, 0xae, 0xef, 0x64, 0x81, 0x27, 0xa5, 0x6e, 0x1d,
  0x36, 0x9e, 0x06, 0x4b, 0x7e, 0x00, 0x1f, 0x70, 0xb9, 0x08, 0xbf, 0x23,
  0x0f, 0xe4, 0x4e, 0x64, 0x0b, 0xeb, 0xbd, 0x24, 0xca, 0xa6, 0xca, 0xac,
  0x14, 0x68, 0xc2, 0xdb, 0x2e, 0x84, 0x14, 0x4f, 0xb2, 0x54, 0xf0, 0xcb,
  0xb6, 0xe9, 0x91, 0x55, 0x91, 0xe4, 0x32, 0xf7, 0x97, 0xfb, 0xf6, 0x81,
  0xbc, 0x31, 0xf6, 0x33, 0x3c, 0x3c, 0x52, 0xcd, 0x00, 0xdc, 0x18, 0xdb,
  0x10, 0x4c, 0xcb, 0x7b, 0xf9, 0x0a, 0xb0, 0x10, 0x5c, 0x11, 0x05, 0xe1,
  0x21, 0xc1, 0x41, 0x17, 0x25, 0x43, 0xa7, 0x6c, 0xe1, 0xed, 0x16, 0x42,
  0x7f, 0xc0, 0x1c, 0x1c, 0xf7, 0xa2, 0xc6, 0xd6, 0xc2, 0xc9, 0xf9, 0x15,
  0xae, 0xb7, 0x22, 0x6b, 0x44, 0x14, 0x3d, 0x0e, 0x0f, 0x45, 0xf8, 0x8d,
  0xbf, 0x39, 0xe0, 0x4e, 0xbe, 0x27, 0x38, 0x98, 0xde, 0x3a, 0x04, 0xe6,
  0x1f, 0x4f, 0x20, 0x7f, 0xcc, 0xfd, 0x8d, 0x1b, 0x82, 0xcc, 0x2f, 0x4b,
  0xce, 0x48, 0x8f, 0xc5, 0x86, 0x08, 0x0c, 0xf6, 0xd9, 0xf1, 0x13, 0x47,
  0x40, 0x03, 0x7e, 0x40, 0x0f, 0x14, 0xd8, 0x03, 0x4d, 0x7f, 0x3e, 0x52,
  0x71, 0x1f, 0x11, 0xd9, 0xee, 0xcd, 0x5d, 0xa1, 0xb6, 0x38, 0xfe, 0x32,
  0xa9, 0x7d, 0x2b, 0xdc, 0x8c, 0x31, 0xa7, 0x02, 0x10, 0xbf, 0x39, 0x04,
  0xdb, 0x60, 0x39, 0xf4, 0xbb, 0xe9, 0x7f, 0xec, 0x47, 0x4d, 0x21, 0x24,
  0x24, 0x03, 0xb3, 0xdc, 0xd8, 0x23, 0x0a, 0xfd, 0x94, 0xef, 0xf2, 0x28,
  0xf8, 0x7f, 0xdd, 0x83, 0x30, 0xc1, 0xd1, 0x52, 0x69, 0x18, 0xa5, 0x33,
  0xb2, 0xf9, 0x17, 0x27, 0x36, 0x17, 0x1f, 0x88, 0x21, 0xc5, 0xcd, 0xaf,
  0xcb, 0xd5, 0x10, 0x0f, 0xf0, 0xdb, 0x12, 0xf6, 0x05, 0xb5, 0xf7, 0x3a,
  0x42, 0x17, 0xc8, 0x0e, 0xe0, 0x45, 0x07, 0xfa, 0x26, 0xee, 0xb3, 0x02,
  0x08, 0x48, 0x3d, 0xe5, 0xe8, 0xed, 0x36, 0xd7, 0x2b, 0xe7, 0x21, 0x6a,
  0x3f, 0xca, 0x47, 0xbe, 0x03, 0x98, 0xe5, 0x06, 0xb9, 0xbb, 0x21, 0x2c,
  0x3d, 0xc5, 0x30, 0xad, 0xff, 0x48, 0x3b, 0x2b, 0xff, 0xee, 0xc0, 0x7f,
  0x2b, 0xe1, 0x00, 0x25, 0x27, 0xcf, 0x0c, 0x47, 0xfb, 0x0b, 0xe5, 0x8f,
  0x54, 0xb6, 0xef, 0x00, 0x50, 0xfb, 0xcf, 0x09, 0xac, 0xb6, 0x69, 0x7f,
  0xdd, 0xfd, 0xc7, 0xbe, 0x3f, 0xd3, 0xaa, 0xd5, 0x63, 0x18, 0x29, 0x15,
  0xdd, 0xf1, 0x66, 0x96, 0x0b, 0x99, 0xf0, 0xf2, 0xb9, 0x36, 0x11, 0x74,
  0xf6, 0x05, 0xd1, 0x0f, 0x27, 0xd4, 0xfd, 0x81, 0xbe, 0xc8, 0xf4, 0xd9,
  0x16, 0xb2, 0xfd, 0x2e, 0xda, 0x47, 0x07, 0xc7, 0x52, 0xfe, 0x28, 0x5d,
  0xfa, 0x86, 0xe7, 0xb1, 0xcb, 0x0e, 0x02, 0x3e, 0x12, 0x8b, 0xa5, 0x5d,
  0x13, 0x17, 0x36, 0x60, 0xed, 0xfe, 0xdf, 0xdb, 0x3b, 0x6c, 0xaf, 0xac,
  0xda, 0x2a, 0xee, 0x40, 0x7f, 0x20, 0x3d, 0x25, 0x2b, 0xea, 0x36, 0x70,
  0x1e, 0xf6, 0xdc, 0xf9, 0x15, 0x4e, 0xcf, 0x46, 0x90, 0xea, 0x4e, 0xec,
  0xae, 0xf5, 0xdc, 0x13, 0x3c, 0x73, 0xaf, 0xf3, 0x44, 0x6a, 0xbc, 0xec,
  0xc8, 0x9d, 0x94, 0x2b, 0x58, 0xdc, 0x02, 0x30, 0x32, 0x38, 0xc4, 0xcd,
  0x81, 0x0e, 0x19, 0xb4, 0xe1, 0xe8, 0xbb, 0xc2, 0x2e, 0x25, 0x45, 0x3b,
  0xe6, 0x17, 0x2b, 0xe5, 0x06, 0xd5, 0x32, 0xee, 0x55, 0x20, 0xa4, 0xb4,
  0x05, 0xe2, 0xed, 0x15, 0xd9, 0x0b, 0x6b, 0xb8, 0x4f, 0x08, 0x13, 0xd4,
  0xb7, 0xed, 0x3c, 0x48, 0x41, 0x3e, 0xfc, 0xee, 0xd1, 0x11, 0xc7, 0xbd,
  0xc6, 0x41, 0xda, 0x03, 0x17, 0x3d, 0xe5, 0x43, 0xb7, 0x34, 0x48, 0x28,
  0x13, 0xde, 0x0e, 0xd9, 0x06, 0x59, 0x96, 0x05, 0xf5, 0x07, 0xfd, 0x84,
  0x81, 0x4c, 0x4a, 0xe5, 0xd7, 0x4b, 0xe8, 0xb7, 0x1d, 0x21, 0x1b, 0x1a,
  0xa0, 0x47, 0xa9, 0x48, 0xab, 0x41, 0x31, 0x46, 0xd0, 0xfc, 0xff, 0x57,
  0x33, 0x3c, 0x7f, 0x5e, 0x3e, 0xbe, 0x43, 0x00, 0xae, 0x1f, 0xf6, 0x63,
  0xd4, 0xd7, 0x63, 0xf6, 0xbe, 0xf5, 0x85, 0xb8, 0xd2, 0x61, 0x50, 0xf0,
  0x4d, 0xbd, 0xf4, 0xac, 0x6e, 0xa4, 0x57, 0xf5, 0x90, 0xf0, 0xa3, 0xe8,
  0xd4, 0xee, 0x5d, 0x47, 0x2d, 0x79, 0xfa, 0xc6, 0x98, 0x5d, 0x01, 0x9f,
  0xa5, 0x05, 0x4e, 0x00, 0x2a, 0x19, 0xac, 0x2a, 0x36, 0x23, 0xed, 0xbe,
  0x9c, 0x1f, 0xb5, 0xf1, 0x5d, 0x4e, 0xeb, 0x06, 0xd0, 0x1c, 0x31, 0x3d,
  0x5d, 0xd5, 0xf2, 0x0e, 0x18, 0x36, 0x5e, 0x3e, 0xfb, 0xf2, 0x44, 0x52,
  0x1b, 0xf8, 0x72, 0xcf, 0xfa, 0x2c, 0xd6, 0x7f, 0x10, 0x4e, 0x06, 0x1e,
  0x9a, 0x2b, 0x37, 0xf0, 0x57, 0xa8, 0x24, 0xdf, 0xdf, 0x3c, 0x3f, 0x54,
  0xf3, 0x0e, 0x35, 0x28, 0xb3, 0xd2, 0x16, 0xb3, 0x56, 0x10, 0xcb, 0x44,
  0x22, 0x40, 0xc9, 0x08, 0x48, 0xdd, 0x23, 0x3b, 0x1f, 0xfa, 0xf2, 0x42,
  0xfa, 0x2a, 0x02, 0xe8, 0xff, 0xe8, 0xee, 0x0b, 0xb1, 0xcc, 0x18, 0x7f,
  0x37, 0x42, 0x9a, 0x0f, 0xa1, 0x52, 0x08, 0xd8, 0x3a, 0x88, 0xbf, 0x70,
  0x5a, 0x34, 0x4c, 0x6c, 0x2f, 0xf9, 0x8f, 0xd5, 0x20, 0x60, 0x4d, 0xf0,
  0x12, 0x1b, 0x4a, 0x55, 0x3d, 0x3a, 0xbd, 0x72, 0x27, 0xd5, 0x39, 0xab,
  0xb4, 0x06, 0x23, 0x7f, 0x5e, 0xf0, 0xec, 0xe0, 0x71, 0x38, 0xa4, 0xfa,
  0xa1, 0x2f, 0xbb, 0xee, 0x4e, 0xf5, 0x88, 0xf5, 0x32, 0x1d, 0xd1, 0xd4,
  0xda, 0x3f, 0x21, 0xfd, 0x28, 0x9f, 0x12, 0xae, 0x11, 0x9e, 0xe3, 0xc2,
  0xfe, 0x1d, 0xc6, 0xfa, 0xaf, 0xcb, 0xc0, 0x3f, 0x38, 0xe0, 0x7f, 0xce,
  0xbe, 0x04, 0xe8, 0xcb, 0xe2, 0xe0, 0xc7, 0x47, 0xc9, 0x5f, 0x3a, 0x00,
  0x81, 0x47, 0xcb, 0x16, 0x1d, 0x5e, 0x43, 0x31, 0x57, 0x01, 0xc6, 0xcb,
  0x98, 0xa1, 0xbe, 0x0d, 0xca, 0xcb, 0xf0, 0xfb, 0x71, 0xc3, 0xeb, 0xb6,
  0x39, 0xf0, 0x54, 0xd8, 0xb5, 0xbe, 0xc9, 0xe8, 0x4a, 0xa1, 0x2e, 0xc6,
  0x0a, 0xe1, 0xd6, 0xd1, 0x91, 0x62, 0xf8, 0x50, 0x4d, 0xfa, 0x23, 0xa0,
  0x81, 0x4e, 0xc3, 0xbc, 0xd0, 0x29, 0x57, 0x23, 0x3f, 0xe7, 0x41, 0xba,
  0xff, 0x05, 0x0c, 0x1e, 0x03, 0xc8, 0x33, 0x28, 0x3c, 0xca, 0x98, 0xd4,
  0x0d, 0x06, 0x12, 0xbb, 0xe1, 0x11, 0xed, 0xf2, 0xcb, 0xb9, 0x41, 0x45,
  0xfd, 0x28, 0x9d, 0x25, 0x08, 0xfc, 0xbd, 0x1f, 0xdd, 0xfe, 0x97, 0x22,
  0x66, 0xd0, 0xbc, 0x9c, 0x92, 0x45, 0xce, 0xec, 0xc4, 0x1d, 0x7f, 0xcc,
  0xdd, 0x63, 0xa5, 0x40, 0xc8, 0x92, 0xfa, 0x97, 0xb1, 0x53, 0x37, 0x3e,
  0x01, 0x70, 0xa5, 0x37, 0xe4, 0xb9, 0x65, 0x29, 0xbd, 0xc6, 0xf5, 0xf7,
  0x71, 0xa5, 0x85, 0xbe, 0xe3, 0x35, 0x94, 0x38, 0xc1, 0x4a, 0x5b, 0xd7,
  0xb6, 0xe4, 0xff, 0xff, 0x04, 0x00, 0x00, 0x00, 0x80, 0x00, 0x00, 0x00,
  0x58, 0xfd, 0xff, 0xff, 0x8a, 0x01, 0x00, 0x00, 0xb4, 0x00, 0x00, 0x00,
  0xc6, 0xfe, 0xff, 0xff, 0xd4, 0xfe, 0xff, 0xff, 0x29, 0x03, 0x00, 0x00,
  0x0b, 0x00, 0x00, 0x00, 0x29, 0x01, 0x00, 0x00, 0xc9, 0x00, 0x00, 0x00,
  0x35, 0x01, 0x00, 0x00, 0x48, 0xff, 0xff, 0xff, 0x86, 0x02, 0x00, 0x00,
  0x3b, 0xff, 0xff, 0xff, 0xec, 0x01, 0x00, 0x00, 0x29, 0xfa, 0xff, 0xff,
  0x3c, 0x02, 0x00, 0x00, 0xcf, 0xfe, 0xff, 0xff, 0x64, 0x04, 0x00, 0x00,
  0x09, 0xfc, 0xff, 0xff, 0xfd, 0xfd, 0xff, 0xff, 0xfb, 0x00, 0x00, 0x00,
  0x1a, 0xfe, 0xff, 0xff, 0x99, 0x03, 0x00, 0x00, 0x4f, 0x03, 0x00, 0x00,
  0x73, 0xfd, 0xff, 0xff, 0x4d, 0xfe, 0xff, 0xff, 0xa1, 0xfe, 0xff, 0xff,
  0x62, 0xfc, 0xff, 0xff, 0x0a, 0x00, 0x00, 0x00, 0x52, 0xff, 0xff, 0xff,
  0xe9, 0x02, 0x00, 0x00, 0x61, 0xfc, 0xff, 0xff, 0x42, 0xe5, 0xff, 0xff,
  0x04, 0x00, 0x00, 0x00, 0x20, 0x00, 0x00, 0x00, 0xfe, 0x6c, 0x14, 0x31,
  0xe0, 0xed, 0x04, 0xea, 0x3d, 0xc7, 0xc1, 0xcd, 0x29, 0x31, 0x5c, 0xfb,
  0xce, 0xec, 0x7f, 0x34, 0x38, 0xd1, 0xe7, 0xd7, 0x6c, 0xc7, 0xd3, 0xbb,
  0xdc, 0x35, 0x51, 0xdf, 0x6e, 0xe5, 0xff, 0xff, 0x04, 0x00, 0x00, 0x00,
  0x20, 0x00, 0x00, 0x00, 0x2d, 0x18, 0x00, 0x25, 0x80, 0xe2, 0x21, 0xb9,
  0x36, 0xfe, 0xf7, 0xe6, 0xfc, 0x0c, 0x3a, 0x2f, 0xd3, 0xbf, 0x22, 0x3a,
  0x21, 0x14, 0xde, 0x09, 0x12, 0xb9, 0xc4, 0x15, 0x0b, 0x37, 0x44, 0x0a,
  0x9a, 0xe5, 0xff, 0xff, 0x04, 0x00, 0x00, 0x00, 0x00, 0x14, 0x00, 0x00,
  0xa9, 0x29, 0xe0, 0x27, 0xcf, 0xfb, 0x20, 0x1b, 0xa8, 0x06, 0x86, 0xe5,
  0xbe, 0x4b, 0xad, 0x45, 0x3d, 0xb5, 0x04, 0xcd, 0x02, 0x91, 0x2c, 0xe3,
  0x35, 0xd2, 0xf6, 0xd5, 0x26, 0x01, 0xcc, 0xd0, 0x1a, 0x5f, 0x45, 0x20,
  0x1c, 0x23, 0x43, 0xe1, 0xfb, 0xc7, 0x1e, 0x68, 0x0a, 0xbf, 0x54, 0xe1,
  0xe1, 0xde, 0xe4, 0x64, 0x04, 0x22, 0xbd, 0xbe, 0x84, 0x0b, 0x88, 0xce,
  0x23, 0xde, 0xd8, 0xe3, 0x7f, 0xed, 0x42, 0x58, 0x0b, 0x28, 0x3d, 0xd7,
  0xbe, 0xa6, 0xe5, 0x5a, 0xe2, 0x32, 0xb5, 0x0e, 0x49, 0xdc, 0xaa, 0x35,
  0xeb, 0xdc, 0x4a, 0xba, 0xdc, 0xcd, 0x1f, 0x3d, 0xad, 0x8b, 0x08, 0xf7,
  0xfe, 0x09, 0xd2, 0x01, 0xe1, 0xfe, 0xc9, 0x24, 0x04, 0x23, 0x20, 0xe4,
  0x25, 0xfd, 0x25, 0x9d, 0x1c, 0x55, 0xd0, 0x34, 0x24, 0x3a, 0xad, 0xc4,
  0x0e, 0xc8, 0xcb, 0x62, 0x9e, 0xfd, 0x0d, 0xcd, 0xbf, 0xdd, 0x41, 0x37,
  0x00, 0xa6, 0x00, 0x35, 0x49, 0xff, 0x46, 0x90, 0x44, 0x35, 0x16, 0x00,
  0xc7, 0xb9, 0xf1, 0x6a, 0xf8, 0x3b, 0xac, 0xdb, 0xfe, 0xcf, 0x14, 0x4d,
  0x67, 0xb5, 0x4f, 0xde, 0xde, 0x0e, 0xa9, 0x64, 0xd7, 0x37, 0xa9, 0x09,
  0x06, 0xae, 0x35, 0x38, 0xaf, 0x3c, 0x5b, 0x55, 0x3c, 0x10, 0x13, 0x24,
  0x0c, 0x98, 0x17, 0x1a, 0xa6, 0x34, 0x07, 0x07, 0x4b, 0xe0, 0xb9, 0xe4,
  0xc3, 0xdb, 0x00, 0x15, 0xc3, 0xe1, 0x2b, 0xa1, 0x32, 0x15, 0xdb, 0x31,
  0x03, 0x3d, 0x56, 0xa4, 0x2a, 0x00, 0x4d, 0x1a, 0xee, 0x51, 0xf5, 0x5e,
  0xcf, 0xb6, 0x19, 0x1b, 0x3b, 0x69, 0xb1, 0xee, 0x79, 0x24, 0x39, 0x34,
  0x08, 0xd0, 0x0b, 0xe4, 0x55, 0x2e, 0x39, 0xfb, 0xd9, 0xe5, 0x47, 0xf3,
  0xcf, 0x1e, 0x9d, 0xd5, 0x41, 0xfb, 0xba, 0x0c, 0xec, 0xcd, 0xad, 0xe5,
  0xd1, 0xd8, 0x03, 0xb4, 0xf5, 0xe4, 0xab, 0x1f, 0x26, 0x21, 0xdd, 0x31,
  0x30, 0x1c, 0x35, 0x44, 0xdf, 0x15, 0xe4, 0xbe, 0x17, 0x1b, 0x18, 0xda,
  0x14, 0x18, 0xf5, 0xd8, 0xd7, 0x60, 0xc2, 0x59, 0x2d, 0x0a, 0x09, 0x5a,
  0xfb, 0xd5, 0x6e, 0x34, 0x37, 0xe9, 0x2b, 0x05, 0x2b, 0x5f, 0xf7, 0x40,
  0x1d, 0x5e, 0xa3, 0x33, 0x55, 0xb0, 0xce, 0x2b, 0x04, 0x3a, 0xeb, 0x47,
  0x8a, 0x7e, 0x42, 0xe2, 0x7f, 0x11, 0x38, 0xfa, 0x28, 0x31, 0x2b, 0x9f,
  0x39, 0xcd, 0xf5, 0x20, 0x3e, 0xaa, 0x25, 0xda, 0x01, 0xf3, 0x0b, 0xd0,
  0xcf, 0x54, 0x00, 0xdb, 0xf0, 0x35, 0xdc, 0x3f, 0x15, 0x24, 0xc5, 0xaf,
  0xfe, 0xbf, 0x06, 0x58, 0x17, 0xbd, 0xad, 0x28, 0x55, 0x1c, 0x42, 0xd5,
  0x16, 0x02, 0x32, 0xc2, 0xe3, 0xd5, 0x10, 0xf7, 0x43, 0x1c, 0x3f, 0xca,
  0xf4, 0xf8, 0x54, 0x33, 0x6d, 0x38, 0xc8, 0xe9, 0xda, 0xd7, 0x50, 0x45,
  0x84, 0x48, 0x5a, 0x41, 0xf6, 0xf2, 0x30, 0xfe, 0x30, 0x05, 0xe3, 0x0a,
  0x06, 0xd5, 0x42, 0x16, 0x02, 0xe9, 0xb6, 0xe6, 0xf9, 0x52, 0xd9, 0x09,
  0xff, 0xe7, 0x48, 0x14, 0xfe, 0x53, 0x02, 0x35, 0xff, 0x03, 0x04, 0x01,
  0x3a, 0x60, 0xed, 0xd4, 0x19, 0x0a, 0x44, 0xe6, 0x24, 0xe9, 0x9f, 0xaf,
  0x42, 0x50, 0xca, 0xa9, 0x81, 0x0e, 0xbf, 0x3d, 0x75, 0xa5, 0xc6, 0xdf,
  0xa8, 0xd0, 0xc6, 0x1c, 0xe6, 0x12, 0xd2, 0xe4, 0xf8, 0x21, 0xfb, 0x90,
  0x07, 0x05, 0x19, 0xca, 0x25, 0x3c, 0xb5, 0xe3, 0xf2, 0x0f, 0xec, 0xd9,
  0xcd, 0xf8, 0x2a, 0xd8, 0x6f, 0xf6, 0xb5, 0xe8, 0x2c, 0x63, 0xea, 0x0c,
  0xe8, 0xc4, 0x25, 0x7f, 0xeb, 0xcf, 0xfa, 0xc9, 0x2a, 0x44, 0xf7, 0xc0,
  0x6d, 0xb4, 0x10, 0x43, 0x31, 0xc0, 0x1e, 0xbc, 0x3d, 0x14, 0xb5, 0x0c,
  0x07, 0xd0, 0xed, 0x3e, 0x33, 0xf1, 0xeb, 0xbb, 0x28, 0xcb, 0xc1, 0x01,
  0xb0, 0x52, 0xa5, 0xd5, 0x31, 0xce, 0xa6, 0xf3, 0x12, 0xf6, 0x0b, 0xcc,
  0xd5, 0x29, 0xed, 0x12, 0x11, 0xae, 0x04, 0x14, 0xa1, 0xcb, 0xa1, 0xea,
  0x13, 0x41, 0x05, 0x39, 0xde, 0xfc, 0xb6, 0xff, 0x10, 0x1e, 0xc0, 0x32,
  0x2b, 0xb0, 0xb1, 0xec, 0x02, 0xe1, 0xdb, 0xf3, 0x0e, 0x9a, 0x39, 0xda,
  0xb6, 0x9c, 0x27, 0xe8, 0xe3, 0x2c, 0xf8, 0x0d, 0xc2, 0xc5, 0xc4, 0x00,
  0xc0, 0x35, 0x02, 0xfa, 0xc2, 0x2f, 0x4f, 0x22, 0x0d, 0x01, 0xfe, 0x02,
  0xe1, 0xa9, 0x30, 0x39, 0x46, 0xf6, 0xca, 0xe4, 0x33, 0xe8, 0x43, 0x4c,
  0xbe, 0x51, 0xf6, 0xf9, 0x70, 0xe7, 0x23, 0x15, 0xf4, 0x40, 0xda, 0x31,
  0xfc, 0xf7, 0xfd, 0x54, 0x02, 0xfc, 0x44, 0x61, 0xdc, 0x04, 0xff, 0x21,
  0x35, 0xe4, 0xe9, 0xdd, 0x43, 0xeb, 0xc0, 0xb9, 0xe4, 0xec, 0x17, 0x36,
  0xff, 0xb3, 0x00, 0x59, 0x92, 0xce, 0xc0, 0x48, 0xc9, 0xa0, 0x1f, 0xb1,
  0xe2, 0x17, 0xdf, 0x10, 0x1f, 0x50, 0x0f, 0x3d, 0xfa, 0x20, 0xfb, 0xd6,
  0x08, 0x2c, 0x34, 0x16, 0x02, 0xae, 0x14, 0xac, 0x35, 0x65, 0x4e, 0x2d,
  0x0c, 0x03, 0x58, 0xc9, 0xe9, 0xd6, 0x2b, 0xbd, 0xec, 0x54, 0x1e, 0x24,
  0x24, 0xad, 0x5f, 0xef, 0xc5, 0x6b, 0x17, 0xc8, 0x0f, 0xf2, 0x2f, 0xb1,
  0xb1, 0x41, 0xea, 0xc6, 0xee, 0x0c, 0x36, 0xc8, 0x0d, 0xd3, 0xdd, 0xdb,
  0x44, 0x32, 0xc3, 0x3e, 0xf5, 0xe8, 0x4e, 0xe7, 0xcc, 0x5b, 0x30, 0xca,
  0xcf, 0xbe, 0xa9, 0xca, 0x2c, 0x20, 0xa2, 0x36, 0x4f, 0x19, 0xe4, 0xbd,
  0x22, 0xdb, 0x20, 0xff, 0x2f, 0xd9, 0xd2, 0xf7, 0xbf, 0x0b, 0x4c, 0xe0,
  0x18, 0x57, 0x4e, 0x2f, 0x0d, 0xf1, 0x40, 0x1a, 0xed, 0x12, 0x1d, 0xc5,
  0x38, 0x29, 0x1a, 0x4e, 0x00, 0x0d, 0xe1, 0x69, 0xcc, 0x45, 0x1c, 0x18,
  0x1c, 0xfc, 0x7f, 0x46, 0x05, 0x21, 0x4a, 0xf7, 0x67, 0xf2, 0xda, 0x0b,
  0xc5, 0xa8, 0x27, 0xee, 0xfd, 0x3d, 0xdd, 0x3a, 0x19, 0xdd, 0x3e, 0xd0,
  0xa6, 0xd2, 0x13, 0xd1, 0xff, 0x14, 0xf4, 0x5f, 0xb7, 0xc3, 0xf9, 0x45,
  0xbc, 0xdd, 0xd5, 0xdf, 0xcc, 0x15, 0x37, 0x2f, 0xe7, 0x28, 0x3a, 0x18,
  0x05, 0x09, 0x09, 0xe8, 0x4d, 0x23, 0xe6, 0xe8, 0xfc, 0x34, 0x14, 0x4b,
  0x0d, 0x02, 0xe7, 0x28, 0xc9, 0xa2, 0x40, 0xb2, 0xff, 0xe8, 0xcf, 0x31,
  0xc8, 0xf0, 0xf6, 0x30, 0x44, 0x40, 0x0f, 0xd9, 0xdc, 0x3b, 0xe5, 0x54,
  0xe8, 0x01, 0xdd, 0xf3, 0x0f, 0xfa, 0xbe, 0xcf, 0x0b, 0x15, 0x9b, 0x02,
  0xfc, 0xd1, 0xef, 0x40, 0x2c, 0x25, 0xf5, 0xce, 0xbb, 0x81, 0xb7, 0x25,
  0x2f, 0xbc, 0x26, 0xd0, 0xfd, 0x19, 0xf2, 0xc3, 0xf0, 0xda, 0x45, 0x27,
  0xec, 0x16, 0xff, 0x03, 0x1d, 0xa8, 0xbc, 0x01, 0xe4, 0x39, 0xfa, 0x16,
  0x58, 0xaa, 0xf1, 0x49, 0x17, 0x39, 0xbf, 0xc0, 0x16, 0xdf, 0xff, 0x50,
  0x02, 0x4b, 0xd6, 0x06, 0x5c, 0xfb, 0x39, 0x0b, 0xa8, 0xd9, 0x19, 0x1b,
  0x22, 0x45, 0x2e, 0xcf, 0xa1, 0xce, 0xf3, 0xd7, 0xec, 0xa6, 0x13, 0xe6,
  0x0c, 0x10, 0xcf, 0xbd, 0x97, 0xad, 0xff, 0xc0, 0xb4, 0x45, 0x07, 0x04,
  0xfc, 0xe5, 0xe1, 0xd2, 0xe3, 0x96, 0x36, 0x09, 0xc4, 0x9e, 0x12, 0xb3,
  0x01, 0x9d, 0xb0, 0xf3, 0x1b, 0x49, 0x14, 0xcc, 0xe5, 0x57, 0xe6, 0xfc,
  0x70, 0x3b, 0x22, 0x3f, 0x2f, 0xf2, 0xd4, 0x26, 0xf6, 0xb4, 0xfb, 0xfd,
  0xd0, 0xe1, 0x61, 0xbc, 0xf2, 0x27, 0xd0, 0x14, 0xbd, 0xdd, 0xd2, 0xfd,
  0xb8, 0x59, 0x41, 0x69, 0xaf, 0x08, 0xe7, 0x02, 0x39, 0xbf, 0xae, 0x10,
  0x50, 0x2c, 0xb6, 0xc7, 0x37, 0xdf, 0x3a, 0x3b, 0xd0, 0xe0, 0xe7, 0xf4,
  0xd1, 0xd7, 0x35, 0x4b, 0xf8, 0x12, 0x2f, 0xb5, 0xcc, 0xf1, 0xbe, 0x5d,
  0xb2, 0x10, 0xa5, 0xb5, 0x45, 0x35, 0xf3, 0xe5, 0xe7, 0x95, 0x09, 0x13,
  0x0c, 0xaf, 0xf0, 0xc3, 0xcb, 0x11, 0x54, 0x23, 0xda, 0x3b, 0x2a, 0x2a,
  0x62, 0x24, 0xd9, 0xed, 0xd6, 0x15, 0x4f, 0x25, 0xb8, 0x5b, 0x51, 0xfd,
  0x81, 0xb1, 0xcf, 0x08, 0x15, 0xc2, 0x5f, 0x24, 0xd5, 0x22, 0x19, 0x36,
  0xb5, 0xb3, 0x96, 0x69, 0xcd, 0x12, 0x28, 0x28, 0x1b, 0xfa, 0xd6, 0xed,
  0xf5, 0xfc, 0xc5, 0xa6, 0x68, 0xfc, 0x01, 0x2a, 0xdd, 0x36, 0x72, 0x22,
  0x82, 0xf2, 0xce, 0xcb, 0x1f, 0x23, 0xe1, 0xbf, 0xac, 0xe9, 0xa3, 0xef,
  0xb1, 0xec, 0x38, 0x3e, 0x92, 0x1d, 0xcf, 0xd3, 0x2a, 0x8e, 0xcd, 0xff,
  0x2b, 0x21, 0x9d, 0xe4, 0x36, 0x68, 0xeb, 0xdb, 0x37, 0xd5, 0x16, 0x81,
  0xbd, 0xcd, 0x14, 0x06, 0x64, 0x28, 0x30, 0x2c, 0x45, 0x14, 0xb7, 0x0a,
  0x4e, 0x6e, 0x24, 0xec, 0xe7, 0xd6, 0x10, 0xa7, 0x41, 0x1a, 0x90, 0x59,
  0xb0, 0xe5, 0x18, 0xf1, 0x1f, 0xd6, 0x21, 0xf6, 0xc3, 0xde, 0xed, 0x34,
  0x91, 0xc6, 0xb1, 0xbb, 0x03, 0xee, 0xf3, 0x50, 0xfa, 0xc9, 0x25, 0x64,
  0x9b, 0x36, 0xac, 0x49, 0xe3, 0xc5, 0x88, 0xe1, 0xc8, 0x34, 0x28, 0xcc,
  0xb8, 0x21, 0xc5, 0x99, 0xef, 0x29, 0x27, 0xfc, 0x20, 0xa5, 0xf7, 0x37,
  0x2e, 0x11, 0x24, 0x0c, 0xc4, 0x11, 0xac, 0x31, 0xfe, 0xf6, 0x10, 0x51,
  0x2d, 0x54, 0x12, 0x13, 0x30, 0xdc, 0x3f, 0x3c, 0x01, 0x29, 0xed, 0xf7,
  0x76, 0xf3, 0xbe, 0xf3, 0x00, 0xf6, 0xec, 0x4e, 0x34, 0x42, 0xce, 0xe5,
  0xeb, 0xa5, 0xef, 0xb4, 0x56, 0xcc, 0xac, 0x3b, 0x41, 0xfb, 0xe1, 0xc8,
  0xd2, 0x25, 0xb1, 0xfb, 0xd6, 0x53, 0xe7, 0xdc, 0x0a, 0x3e, 0x3c, 0xf9,
  0xc4, 0xb9, 0x47, 0xfb, 0x09, 0xff, 0xc3, 0xf3, 0xef, 0x49, 0x16, 0x0f,
  0x00, 0x2c, 0xe0, 0xce, 0xf9, 0xcf, 0x12, 0xf7, 0xdd, 0xf8, 0x01, 0xc1,
  0xd6, 0x20, 0xd8, 0xfe, 0x27, 0xc6, 0xbb, 0xb0, 0xd2, 0x49, 0xfc, 0x47,
  0xa4, 0xbe, 0x46, 0xc6, 0x1a, 0xd4, 0xf6, 0xed, 0xdc, 0xd6, 0x34, 0xcd,
  0x46, 0x48, 0xd3, 0xd7, 0xbf, 0x20, 0x3a, 0xdb, 0x0b, 0xd1, 0x1f, 0xce,
  0xbd, 0x33, 0x21, 0xe5, 0xde, 0xff, 0x06, 0x35, 0x0e, 0x10, 0xc2, 0xb2,
  0x22, 0x06, 0xf1, 0xaa, 0x0c, 0x01, 0x1d, 0x0b, 0x11, 0xd8, 0xf4, 0xa9,
  0xb5, 0xf6, 0xe8, 0x09, 0xc1, 0x14, 0xf2, 0xea, 0xc8, 0xd0, 0xf5, 0x0e,
  0xfb, 0xef, 0xaf, 0x45, 0xec, 0x35, 0xc9, 0xd5, 0xd7, 0x20, 0x40, 0xe1,
  0xdc, 0x21, 0x12, 0x17, 0xd6, 0x33, 0x16, 0xd6, 0xd9, 0xe7, 0x31, 0x0e,
  0xfa, 0xc6, 0x03, 0x0a, 0x27, 0x0b, 0xcc, 0x43, 0x03, 0x16, 0xcd, 0xeb,
  0x5d, 0xc2, 0xe9, 0x45, 0x5c, 0x12, 0x41, 0x27, 0x4b, 0x1d, 0x1b, 0x0d,
  0xe3, 0xf7, 0xb5, 0x1c, 0x07, 0xc2, 0xdf, 0x49, 0x48, 0xfe, 0x26, 0x9a,
  0x0e, 0x01, 0x20, 0x04, 0xe9, 0x2b, 0x3f, 0xde, 0x18, 0xc4, 0xdb, 0x7f,
  0x22, 0x01, 0x05, 0x99, 0xff, 0xcf, 0xc8, 0x5b, 0x1a, 0x49, 0x07, 0x2d,
  0x13, 0xb3, 0x25, 0x24, 0x48, 0x57, 0x08, 0xdd, 0xba, 0x18, 0x2c, 0x12,
  0x02, 0x10, 0x20, 0xc5, 0x14, 0xf7, 0xa6, 0x58, 0xe7, 0x0e, 0x99, 0xd8,
  0xf1, 0xe1, 0xec, 0xbd, 0x07, 0x1d, 0x2d, 0xb8, 0xbb, 0xcc, 0x9b, 0xad,
  0xd9, 0x1f, 0x27, 0xdb, 0xd2, 0x17, 0x1b, 0xee, 0x43, 0xee, 0x3c, 0xb4,
  0xba, 0x0f, 0xec, 0x16, 0x86, 0x3f, 0x51, 0x54, 0x2f, 0x4a, 0x02, 0x44,
  0x10, 0x0a, 0xfd, 0xcf, 0x05, 0xcc, 0x01, 0xea, 0x12, 0x31, 0xf2, 0x03,
  0xdf, 0x2b, 0x17, 0xf3, 0xbc, 0x4f, 0xfd, 0xfb, 0xc8, 0x58, 0xe5, 0xdc,
  0x19, 0xf5, 0x1d, 0x02, 0x13, 0xe2, 0xfc, 0x22, 0x2b, 0xee, 0x24, 0x39,
  0x14, 0x31, 0x9b, 0x0d, 0x3f, 0xb0, 0xec, 0x33, 0xf3, 0xef, 0x1f, 0x0a,
  0xf7, 0xb5, 0xc7, 0xb2, 0x11, 0x16, 0x08, 0xb6, 0xc5, 0x1a, 0xe2, 0x13,
  0x2a, 0x08, 0x95, 0xd4, 0xef, 0xc7, 0x15, 0x07, 0x11, 0x5a, 0x0e, 0xd7,
  0x9d, 0xab, 0x6a, 0x19, 0xb0, 0xaa, 0xc9, 0x3d, 0x7f, 0xc0, 0xae, 0xde,
  0xc3, 0x35, 0x64, 0x01, 0x16, 0x0c, 0xd0, 0xff, 0x3a, 0xe3, 0xf5, 0xec,
  0xe0, 0xf1, 0x36, 0x1a, 0x81, 0xd3, 0xe0, 0xcd, 0xff, 0xfc, 0xdc, 0xb8,
  0x88, 0xd7, 0x37, 0x27, 0xec, 0xf1, 0x31, 0x13, 0xfb, 0xcb, 0xf2, 0xec,
  0xd1, 0xc2, 0xb1, 0x5c, 0x2c, 0x1b, 0xbc, 0x1b, 0x22, 0x13, 0x09, 0xbb,
  0x08, 0xb3, 0x84, 0x9c, 0x00, 0xbf, 0x06, 0xbe, 0xfc, 0x03, 0x3b, 0x36,
  0x61, 0x4c, 0x5c, 0xcc, 0x19, 0xf8, 0x0c, 0xd4, 0xf8, 0xd8, 0x40, 0x21,
  0x1d, 0xf4, 0xce, 0x13, 0x2c, 0x56, 0x06, 0xdd, 0x64, 0x2e, 0x06, 0x22,
  0x2d, 0x2f, 0xdc, 0x34, 0xd1, 0xe4, 0x3d, 0xe9, 0xe2, 0x15, 0xe7, 0x17,
  0x25, 0x03, 0xe6, 0xf3, 0x18, 0x08, 0x15, 0xe8, 0x18, 0x13, 0xe8, 0x33,
  0x24, 0x1a, 0xf2, 0x07, 0x39, 0xfc, 0xfe, 0x0b, 0x35, 0x5f, 0x29, 0xec,
  0xd2, 0x19, 0xb1, 0xb5, 0x48, 0x1c, 0x14, 0x22, 0xaa, 0xdb, 0x35, 0xae,
  0xbc, 0x21, 0xd3, 0xe5, 0xeb, 0x47, 0xed, 0x9f, 0xe8, 0x20, 0xc5, 0xbf,
  0x14, 0xf0, 0xf0, 0xf0, 0x1a, 0xe0, 0x2a, 0x31, 0x14, 0xea, 0xb7, 0x11,
  0x2e, 0xe6, 0x12, 0xac, 0xd3, 0x3c, 0x47, 0xe1, 0xc1, 0xc3, 0x03, 0x20,
  0xf6, 0xd9, 0x49, 0xc3, 0xf3, 0xd8, 0xf9, 0xbf, 0x26, 0x28, 0xc2, 0xfa,
  0xe1, 0xe2, 0xea, 0x08, 0xfa, 0x00, 0x33, 0xf3, 0x1a, 0xf0, 0x2d, 0x16,
  0x02, 0x1f, 0x2e, 0x14, 0x3e, 0x15, 0xe3, 0xdf, 0x0c, 0xf2, 0x0d, 0xe2,
  0xfd, 0x2e, 0xe0, 0x1b, 0x4d, 0xe0, 0xc5, 0xff, 0x3a, 0x14, 0xf1, 0xf1,
  0xe3, 0xa7, 0xf2, 0x07, 0x0d, 0xee, 0xfc, 0x23, 0x00, 0xea, 0xcd, 0xe1,
  0x35, 0xf0, 0x05, 0xd7, 0xeb, 0x31, 0x2b, 0xe2, 0xd4, 0xd6, 0x20, 0xe5,
  0x06, 0x35, 0x0a, 0x01, 0x1a, 0xf4, 0x5d, 0xfb, 0xde, 0x0d, 0xf4, 0x1c,
  0x1d, 0xfe, 0x15, 0x29, 0xea, 0x0c, 0xc9, 0x2a, 0x26, 0x1d, 0xfe, 0xf9,
  0x00, 0xdf, 0xf9, 0x3c, 0x16, 0x08, 0x22, 0x0b, 0xd5, 0xda, 0x44, 0x2c,
  0xfe, 0xf2, 0xc3, 0xeb, 0x41, 0x3d, 0xeb, 0xbd, 0xf3, 0x2f, 0xfb, 0x4e,
  0xe9, 0xf3, 0x07, 0xd9, 0xbb, 0xee, 0xdf, 0x22, 0xbc, 0x17, 0xd3, 0xd4,
  0xef, 0xc1, 0x07, 0xd0, 0x06, 0xfb, 0x7f, 0xe3, 0xba, 0x22, 0x3a, 0x2a,
  0x2e, 0x3f, 0x08, 0xd0, 0xea, 0x0b, 0x37, 0xf9, 0xba, 0xf3, 0xfa, 0xf9,
  0x1e, 0x31, 0x1f, 0x77, 0x22, 0xcf, 0xd1, 0x1d, 0x0b, 0xe8, 0xb4, 0x00,
  0xd9, 0x4d, 0x51, 0xcd, 0xa9, 0xf8, 0x26, 0xb0, 0x60, 0x25, 0xc5, 0x8d,
  0x60, 0x35, 0xdc, 0xac, 0x2e, 0x23, 0x02, 0x81, 0xeb, 0x65, 0xeb, 0xf7,
  0xac, 0xaf, 0x53, 0x94, 0x30, 0x22, 0x29, 0xb9, 0xc2, 0xf9, 0x7e, 0xe5,
  0xe1, 0xfa, 0xfd, 0xf8, 0x0f, 0x33, 0x19, 0xef, 0xc1, 0xc1, 0xbc, 0xe9,
  0xf7, 0x0b, 0xec, 0xbb, 0x68, 0x50, 0xc9, 0xcd, 0xd6, 0x53, 0xd8, 0x31,
  0x4b, 0xc3, 0xd0, 0xc6, 0x01, 0x1d, 0xde, 0x14, 0x1e, 0xac, 0xa2, 0xee,
  0xe9, 0x49, 0xe9, 0x43, 0x21, 0x09, 0xfb, 0xd0, 0xdf, 0xe8, 0xa8, 0x4f,
  0xf4, 0x64, 0x1c, 0x9b, 0x92, 0xf7, 0x26, 0xe7, 0x06, 0xf1, 0xf0, 0x96,
  0xda, 0x9d, 0xce, 0xb1, 0x4c, 0x10, 0xf0, 0x6a, 0x44, 0x38, 0x50, 0xc3,
  0xc7, 0x5e, 0x1e, 0xb2, 0x65, 0x0a, 0xe8, 0xc6, 0x10, 0xab, 0x6b, 0xaf,
  0x3d, 0xfc, 0x59, 0x5c, 0x1c, 0x31, 0xcd, 0xdb, 0x99, 0xe7, 0xc3, 0xf5,
  0x3a, 0xbc, 0xd9, 0x05, 0xb3, 0xcc, 0xf6, 0x52, 0xbf, 0x18, 0x31, 0xb6,
  0x1a, 0xc7, 0x11, 0x39, 0xfc, 0x0e, 0x35, 0x99, 0x13, 0xd9, 0xd8, 0xf4,
  0xff, 0x05, 0x10, 0xb9, 0xaf, 0xb0, 0x1b, 0xf3, 0x1d, 0x23, 0x42, 0xce,
  0xce, 0xbe, 0xc9, 0x48, 0xe5, 0x21, 0x06, 0xb5, 0x27, 0x23, 0x81, 0xc5,
  0x94, 0xba, 0xcf, 0x55, 0x1e, 0x2f, 0xa0, 0xa3, 0x4c, 0xf1, 0x03, 0xb9,
  0x37, 0xda, 0xf5, 0xf2, 0x9e, 0xab, 0xf3, 0x21, 0x53, 0x12, 0x40, 0x03,
  0x70, 0xf5, 0x59, 0x42, 0x01, 0xb8, 0x53, 0x17, 0x07, 0x06, 0x4f, 0x8b,
  0x2e, 0xc9, 0x11, 0xfa, 0x43, 0x08, 0xc2, 0x3f, 0x20, 0x31, 0x31, 0xdc,
  0xdf, 0x9b, 0x31, 0xf8, 0x15, 0xdc, 0x3d, 0x16, 0xf0, 0x62, 0xc3, 0x10,
  0x56, 0x40, 0xad, 0x01, 0xab, 0x31, 0xd2, 0xc5, 0x29, 0x6d, 0xfc, 0x1b,
  0x00, 0x46, 0x19, 0xe0, 0x1c, 0x4d, 0xd7, 0x99, 0xf4, 0x51, 0x3b, 0xed,
  0x25, 0x47, 0xa2, 0xa3, 0xee, 0x2e, 0xaa, 0x50, 0x9e, 0x03, 0x42, 0xdc,
  0x4c, 0xfc, 0xf5, 0x2e, 0x11, 0x01, 0xa6, 0x16, 0x0b, 0xed, 0xe7, 0x50,
  0x01, 0xf0, 0xcb, 0xdc, 0xe7, 0xf9, 0xd2, 0x72, 0x43, 0x58, 0xcd, 0x01,
  0x73, 0x05, 0xbf, 0x1a, 0xde, 0x0f, 0x40, 0xad, 0xc7, 0x36, 0x1c, 0xfd,
  0x2d, 0xfd, 0x0b, 0x4f, 0xf6, 0x3d, 0xc8, 0x0b, 0xaf, 0xb0, 0xdc, 0xe9,
  0xb8, 0x0e, 0xf8, 0x2d, 0x03, 0xcf, 0x2b, 0xe8, 0x36, 0xf8, 0xf1, 0xbc,
  0xc0, 0xbe, 0xcd, 0x20, 0xe3, 0x3e, 0x24, 0xeb, 0xd4, 0xe3, 0x05, 0xf3,
  0x08, 0x18, 0x4b, 0xc7, 0xdb, 0xf4, 0x9b, 0xaf, 0xe5, 0xcd, 0x39, 0xea,
  0x51, 0xf7, 0xf4, 0x13, 0x4f, 0xc4, 0x08, 0x32, 0x24, 0xcb, 0x0d, 0x25,
  0xd2, 0x38, 0xbd, 0xb3, 0xec, 0x26, 0xf5, 0x34, 0xc6, 0x52, 0x1f, 0xd3,
  0xd1, 0x9e, 0xac, 0xfe, 0xf5, 0x38, 0x07, 0xc4, 0xef, 0xc1, 0x02, 0x4b,
  0xb4, 0xe7, 0xe2, 0x28, 0xe2, 0xb1, 0xf6, 0xdc, 0x25, 0x10, 0x22, 0xad,
  0x3a, 0xdb, 0xd0, 0x3a, 0xa9, 0x1b, 0xb1, 0xe6, 0xe3, 0xf4, 0x19, 0xa6,
  0x23, 0x05, 0x0b, 0x46, 0x05, 0x43, 0x42, 0x3a, 0xff, 0x0c, 0xc9, 0xbe,
  0xd2, 0x1b, 0xcf, 0xed, 0xfd, 0x3e, 0xfd, 0xb6, 0x36, 0x43, 0xd9, 0x26,
  0x37, 0xc7, 0x05, 0xeb, 0xb3, 0x27, 0x23, 0xbf, 0x0f, 0x1d, 0xf2, 0x3f,
  0x00, 0x3b, 0x81, 0x3a, 0xe7, 0xbd, 0xd8, 0x3e, 0xce, 0xfa, 0x48, 0x0d,
  0x1e, 0x0a, 0xf7, 0xd8, 0x26, 0xb7, 0x02, 0xf2, 0x26, 0xcb, 0x32, 0x0c,
  0xca, 0xd7, 0xeb, 0x0a, 0xc5, 0x2d, 0x18, 0xd0, 0x85, 0xc8, 0x34, 0xc5,
  0x08, 0x26, 0x5d, 0x24, 0xe1, 0x55, 0xb3, 0x61, 0xe8, 0x12, 0xc4, 0x43,
  0x44, 0xd6, 0xd7, 0xde, 0x16, 0x58, 0xfc, 0xa4, 0x34, 0xdf, 0xce, 0xa9,
  0x3b, 0xe6, 0x48, 0x22, 0xe3, 0xf5, 0x17, 0xf7, 0x56, 0xe9, 0xdf, 0xe8,
  0x10, 0x27, 0x57, 0xb6, 0xc2, 0xc2, 0x2b, 0xdd, 0x17, 0xee, 0xff, 0xee,
  0xe2, 0x62, 0x25, 0xf2, 0x1a, 0x3a, 0xc1, 0x54, 0xdf, 0x03, 0xe1, 0xda,
  0xae, 0xec, 0x01, 0x26, 0x00, 0x49, 0x45, 0xe2, 0x2b, 0xf5, 0xf2, 0x19,
  0xa6, 0xdf, 0x1e, 0xd9, 0x13, 0x04, 0x33, 0x54, 0xbe, 0x1d, 0x60, 0x34,
  0x45, 0xde, 0xfb, 0x0e, 0x4f, 0x64, 0x14, 0x1d, 0xce, 0xb7, 0xe3, 0x1c,
  0x17, 0xb1, 0x2b, 0x3a, 0x11, 0xab, 0xd5, 0xb7, 0xcd, 0xd4, 0xc8, 0xbe,
  0x41, 0xde, 0xec, 0x97, 0x2c, 0x33, 0x20, 0xed, 0xc8, 0x1d, 0xc9, 0xf6,
  0xf8, 0x32, 0x11, 0x4f, 0xec, 0x21, 0x81, 0xd0, 0x78, 0x26, 0xbc, 0xb3,
  0xb9, 0xdb, 0x1e, 0x90, 0xfe, 0x9e, 0x1c, 0xe0, 0xd0, 0x00, 0xfc, 0xce,
  0xc2, 0xdb, 0xf8, 0xb2, 0x2f, 0x3f, 0xd4, 0xee, 0xc7, 0xbf, 0xaa, 0xa8,
  0xc4, 0x15, 0x39, 0x08, 0xf3, 0xc5, 0x0e, 0xfc, 0x46, 0x57, 0x01, 0xc8,
  0x5f, 0x67, 0x0f, 0x2d, 0xf8, 0xdb, 0x1d, 0xe7, 0xe0, 0xdb, 0xd5, 0x25,
  0x34, 0x25, 0x09, 0x10, 0x33, 0xd3, 0x21, 0xf9, 0xfa, 0x46, 0xda, 0xf2,
  0xf9, 0x19, 0xc2, 0xc2, 0x3b, 0xc6, 0xd0, 0x30, 0x29, 0x03, 0xd6, 0x31,
  0x16, 0x1b, 0xe8, 0xe8, 0xf6, 0x2e, 0x03, 0xc5, 0x9e, 0x1d, 0x2f, 0x01,
  0xf3, 0x11, 0x16, 0xdf, 0xb7, 0x4e, 0x1c, 0xfc, 0x5f, 0x13, 0xdd, 0xfc,
  0xde, 0xe3, 0xad, 0x65, 0xf8, 0x03, 0x97, 0x1d, 0xec, 0x03, 0x41, 0xea,
  0x06, 0x33, 0x2d, 0xed, 0xdc, 0xd0, 0x59, 0x1e, 0xf3, 0x50, 0x05, 0xbd,
  0x7f, 0xe2, 0xbc, 0xe3, 0xbd, 0x34, 0xe9, 0xfb, 0x56, 0xea, 0xe4, 0x43,
  0xe6, 0x13, 0x20, 0x55, 0xd8, 0xb5, 0x10, 0x18, 0xfc, 0x03, 0x10, 0xf5,
  0xe0, 0xbe, 0x44, 0xc4, 0xe8, 0x43, 0xcb, 0xf3, 0x15, 0x15, 0xb5, 0xc6,
  0xa5, 0x20, 0xbb, 0x42, 0x12, 0xf5, 0x97, 0x1d, 0x07, 0xde, 0xf5, 0x1f,
  0xc9, 0xe3, 0xbf, 0x3c, 0x19, 0xdc, 0x2d, 0xca, 0xf5, 0xf1, 0x0c, 0x3c,
  0xe5, 0x0a, 0xeb, 0xd9, 0x43, 0xc8, 0xdc, 0x0d, 0xe2, 0xeb, 0x07, 0x0c,
  0xca, 0xc3, 0x24, 0xb4, 0x46, 0x33, 0xff, 0x21, 0xb3, 0xcd, 0xd9, 0xf8,
  0x37, 0xc1, 0x3a, 0xe1, 0xc2, 0x28, 0x1b, 0xf7, 0x04, 0xe2, 0x17, 0xf0,
  0x23, 0x35, 0xee, 0xc9, 0xbf, 0xff, 0x09, 0x0e, 0x2a, 0xf8, 0x1d, 0xe3,
  0x04, 0x19, 0x00, 0xd9, 0xf6, 0x06, 0xe2, 0xfc, 0xf3, 0xfe, 0xda, 0xf9,
  0xd2, 0xd4, 0xf9, 0xc3, 0xe7, 0x3b, 0x0e, 0xfb, 0x13, 0xe3, 0x32, 0x23,
  0x27, 0xbc, 0xe7, 0xd7, 0x1f, 0x14, 0xc9, 0x0c, 0xf5, 0x03, 0x3d, 0xd0,
  0x00, 0x07, 0x19, 0x2f, 0xc6, 0x32, 0x26, 0xd1, 0x02, 0xbf, 0xcc, 0x2c,
  0xcd, 0xf5, 0x3f, 0x23, 0xf3, 0x12, 0x31, 0xfb, 0xc8, 0x0c, 0x1c, 0xf0,
  0xeb, 0x07, 0x11, 0xe2, 0x17, 0xe7, 0x36, 0x1f, 0x1e, 0x47, 0xd0, 0x5e,
  0xd2, 0x17, 0xeb, 0x14, 0x0b, 0xfb, 0x1a, 0x4a, 0x3b, 0xe4, 0xa5, 0x0f,
  0xb1, 0xc9, 0xf9, 0x1f, 0x81, 0x36, 0x19, 0xf3, 0x1a, 0xef, 0xd3, 0x26,
  0x40, 0xf4, 0x00, 0xf0, 0x10, 0x4d, 0xd5, 0x50, 0x33, 0x3b, 0x17, 0xd0,
  0x34, 0x2e, 0xe9, 0xe0, 0xfb, 0x15, 0xc9, 0x3f, 0x2a, 0x31, 0xd4, 0xc9,
  0xd4, 0xe6, 0x30, 0x33, 0x19, 0xbf, 0xd3, 0xfd, 0xc2, 0xdc, 0x2b, 0xe2,
  0x35, 0xdb, 0x0c, 0xca, 0xe9, 0xe1, 0x0c, 0x1a, 0x98, 0x1f, 0x1c, 0x30,
  0xe8, 0xf2, 0x10, 0xc1, 0x28, 0xf5, 0x20, 0xe0, 0x32, 0x20, 0xdc, 0x08,
  0x00, 0xf1, 0x16, 0x20, 0x0b, 0x42, 0xe0, 0x38, 0xd0, 0xbd, 0x1e, 0x1a,
  0x14, 0x32, 0x01, 0xf8, 0x15, 0xc9, 0x1f, 0x19, 0xca, 0x0f, 0xe8, 0x0a,
  0xdf, 0xeb, 0x06, 0xb1, 0xa7, 0xbe, 0x17, 0x2d, 0x00, 0x26, 0x42, 0xbf,
  0x19, 0xd0, 0x3b, 0xee, 0xc2, 0xc9, 0x06, 0xff, 0x49, 0xe5, 0x38, 0xcc,
  0xe1, 0x5c, 0xb3, 0xe6, 0x22, 0xc7, 0xd7, 0x14, 0xcf, 0xb2, 0xd4, 0x0c,
  0x3a, 0xb5, 0x29, 0xa2, 0x9b, 0xcc, 0x26, 0xa5, 0xf0, 0x07, 0xbd, 0xa1,
  0x1c, 0x0a, 0x30, 0xf9, 0xdb, 0x3b, 0xf6, 0x12, 0x1a, 0xff, 0x81, 0xda,
  0x42, 0xd0, 0xf1, 0xcf, 0xf2, 0x1d, 0x3a, 0x0e, 0x26, 0x07, 0x33, 0x26,
  0x3e, 0x04, 0x1b, 0xd7, 0x81, 0xfb, 0xe5, 0x3d, 0xb3, 0xde, 0x01, 0x9d,
  0x31, 0x0a, 0xae, 0xdc, 0x90, 0xed, 0x20, 0xf2, 0xf3, 0xef, 0xb0, 0xe9,
  0x23, 0xe1, 0xf2, 0x1e, 0xc7, 0x13, 0x3d, 0xab, 0xed, 0x78, 0x49, 0x2f,
  0x01, 0x50, 0xb6, 0xd9, 0xf8, 0xfe, 0xbe, 0x0e, 0xd3, 0xe4, 0xc9, 0x02,
  0x4b, 0xda, 0xc6, 0x48, 0xa9, 0xdf, 0x2f, 0xcb, 0x10, 0xc3, 0x29, 0xc6,
  0xa6, 0x44, 0x2c, 0x21, 0x15, 0x31, 0x09, 0x17, 0x21, 0xf7, 0x1a, 0xe4,
  0xd4, 0xba, 0xc7, 0xcd, 0xba, 0x92, 0xe5, 0xf6, 0xac, 0x18, 0x02, 0xdd,
  0xc2, 0xca, 0x92, 0xc7, 0xde, 0x15, 0xde, 0xcc, 0x43, 0xb7, 0xb9, 0xfb,
  0x94, 0x16, 0xd3, 0xc4, 0xb3, 0x43, 0x8f, 0xc3, 0x03, 0x20, 0x09, 0x1c,
  0xd9, 0xdd, 0xdb, 0xf2, 0x17, 0xbf, 0x1f, 0xa1, 0xd0, 0xe7, 0x2a, 0x3f,
  0x6a, 0xc2, 0xb3, 0x1b, 0x39, 0x07, 0x0d, 0x63, 0x0a, 0xdf, 0x51, 0x0f,
  0xc3, 0x18, 0x71, 0x52, 0x07, 0x35, 0xa6, 0x4f, 0x53, 0xc3, 0xc6, 0xe1,
  0x00, 0x25, 0xe9, 0xb3, 0x70, 0x1b, 0xa0, 0xff, 0xea, 0x3f, 0xe5, 0xeb,
  0xd0, 0xff, 0x29, 0x41, 0x23, 0xe1, 0xfd, 0x30, 0x37, 0xac, 0xf7, 0xb1,
  0x11, 0x34, 0xe2, 0x6f, 0xee, 0x35, 0xde, 0x2f, 0x1f, 0x39, 0xe6, 0xf8,
  0x3a, 0x2e, 0x47, 0x46, 0x1f, 0x0f, 0xbc, 0xbf, 0xd8, 0xfa, 0xec, 0x2a,
  0x2c, 0xf0, 0xf0, 0xf8, 0x81, 0xdb, 0xd9, 0xec, 0xef, 0xd0, 0x3d, 0xd3,
  0xe9, 0xb8, 0x04, 0xd2, 0xbc, 0x21, 0xe6, 0x03, 0x0a, 0x16, 0xe8, 0xdb,
  0xf1, 0xc5, 0xfb, 0xeb, 0x15, 0x22, 0xd7, 0x1b, 0xdb, 0xc8, 0x15, 0x04,
  0xd2, 0x41, 0xcb, 0x50, 0x20, 0xaa, 0x20, 0xf0, 0x0f, 0xf4, 0x3e, 0xd8,
  0x14, 0x9e, 0xf3, 0x2d, 0xa1, 0x46, 0x1a, 0x03, 0x24, 0xbe, 0x22, 0xcf,
  0xbc, 0xf8, 0x52, 0x0c, 0xd9, 0x02, 0x49, 0xae, 0x45, 0xad, 0x10, 0x16,
  0xc0, 0x38, 0xf9, 0x9a, 0x5b, 0xbb, 0xd2, 0x31, 0xc4, 0xf5, 0xf1, 0x11,
  0xe1, 0x9f, 0xb7, 0x1d, 0xb6, 0xf5, 0x2f, 0x27, 0x09, 0x03, 0x1b, 0xa4,
  0x04, 0x4c, 0xa9, 0x0f, 0x3a, 0x4d, 0x03, 0xab, 0x0c, 0x4e, 0xe7, 0xe4,
  0xe8, 0x0c, 0xd6, 0xf3, 0x02, 0xff, 0x95, 0x40, 0xe1, 0x1c, 0xf3, 0xfd,
  0xd1, 0x0c, 0x56, 0xe5, 0x58, 0x61, 0x42, 0x19, 0x45, 0x49, 0x3b, 0x0a,
  0x12, 0x37, 0xf8, 0xea, 0xef, 0xb2, 0xb9, 0xe0, 0xff, 0xd3, 0xfc, 0x25,
  0x21, 0xff, 0xb0, 0x15, 0x3e, 0xec, 0x2c, 0xf0, 0xd0, 0x45, 0x07, 0x10,
  0xef, 0x48, 0xf8, 0x54, 0xa7, 0xdc, 0xf6, 0x5c, 0x95, 0xc8, 0xbe, 0x2f,
  0x34, 0x09, 0xdb, 0xf1, 0x01, 0x1e, 0xd2, 0xd8, 0xf2, 0xcd, 0x94, 0xd3,
  0x0e, 0xa3, 0x2d, 0x93, 0x27, 0xd8, 0xf1, 0xde, 0x33, 0x32, 0x5a, 0xfe,
  0xd4, 0x91, 0xc0, 0xe2, 0xa8, 0x28, 0x1e, 0x63, 0x2d, 0xb3, 0xc7, 0x1b,
  0xd4, 0xe3, 0x37, 0x02, 0x20, 0x23, 0x1b, 0x42, 0x24, 0x47, 0xff, 0xe8,
  0x00, 0xfd, 0x56, 0x15, 0xf4, 0x1c, 0xf7, 0xe8, 0xcb, 0x4d, 0xf0, 0xb9,
  0xe9, 0xdf, 0x55, 0xc6, 0x5d, 0xf6, 0xbe, 0x08, 0xf3, 0xf6, 0x21, 0x3b,
  0xea, 0x6c, 0x90, 0xa2, 0x42, 0x26, 0xfb, 0xbd, 0xec, 0xf6, 0x30, 0x16,
  0x2e, 0xb6, 0x02, 0xab, 0x92, 0xf9, 0x36, 0xbc, 0xbd, 0x05, 0x07, 0x0b,
  0xfb, 0x39, 0xb3, 0xa0, 0xd5, 0x5a, 0x95, 0x0c, 0x61, 0xf4, 0xbc, 0xe4,
  0x56, 0xfc, 0x3a, 0x2e, 0x11, 0xae, 0x10, 0xd5, 0x76, 0xce, 0xf0, 0xeb,
  0x25, 0x7f, 0x21, 0x9c, 0xce, 0xcb, 0xfa, 0x65, 0x27, 0xaa, 0x36, 0x48,
  0x0d, 0x2f, 0xa0, 0x37, 0xa9, 0xec, 0x20, 0xf3, 0xd4, 0xb6, 0xbd, 0xfd,
  0x14, 0xce, 0xdb, 0x17, 0x16, 0x12, 0x05, 0xbb, 0x46, 0x3a, 0x34, 0xff,
  0xcf, 0x69, 0x03, 0xea, 0x3b, 0x0b, 0xe8, 0x46, 0x58, 0xe7, 0x4b, 0xf4,
  0xbf, 0xd2, 0x4e, 0xcd, 0xb2, 0x53, 0x45, 0x0f, 0xe6, 0x1d, 0x47, 0xc4,
  0xe5, 0x31, 0xf1, 0xbf, 0x1a, 0x1a, 0x49, 0xdc, 0x3a, 0xe6, 0xe8, 0xf0,
  0x19, 0xc8, 0xb0, 0xcd, 0xe8, 0x3b, 0x2b, 0x0c, 0x9f, 0xf0, 0x26, 0xe7,
  0x43, 0xd9, 0xb1, 0xfd, 0xf9, 0xfd, 0xe1, 0xb5, 0x36, 0x10, 0x0d, 0xcb,
  0xb2, 0xb0, 0xc2, 0xb6, 0x3b, 0x4d, 0x17, 0x10, 0x24, 0x0b, 0x22, 0x41,
  0x30, 0x3c, 0x34, 0x0e, 0x08, 0xeb, 0x30, 0xad, 0xf8, 0x08, 0x24, 0x4f,
  0x51, 0x22, 0xce, 0x35, 0x2d, 0x53, 0xbc, 0x7f, 0x22, 0x2f, 0xc6, 0xb6,
  0x0e, 0x3f, 0xf1, 0xd8, 0xe6, 0x43, 0x33, 0x1a, 0xb3, 0x11, 0x0f, 0xa3,
  0x2b, 0xc1, 0x37, 0xe0, 0x35, 0x22, 0x9c, 0x37, 0xd7, 0x48, 0x06, 0xd6,
  0xb4, 0x3c, 0x02, 0x35, 0xdd, 0x25, 0xfd, 0x3b, 0xca, 0xcd, 0x28, 0x0d,
  0x10, 0x0b, 0xee, 0x45, 0x02, 0x36, 0xe5, 0xc9, 0x3b, 0x20, 0xc9, 0xfa,
  0x12, 0xe8, 0xea, 0xdb, 0x45, 0x17, 0x03, 0xb3, 0x23, 0xc0, 0xc5, 0x2f,
  0xcf, 0x47, 0x04, 0xb8, 0xc4, 0x0e, 0xfe, 0x91, 0xcb, 0x09, 0xfe, 0x1c,
  0xed, 0xce, 0xda, 0xff, 0x5c, 0x33, 0xf9, 0xb6, 0xca, 0x15, 0xa3, 0x4f,
  0x02, 0x98, 0xd1, 0x23, 0xf0, 0xbf, 0xc0, 0x15, 0xe2, 0x09, 0x15, 0x3e,
  0xfa, 0xa3, 0xd8, 0x2c, 0x08, 0x3d, 0xba, 0x49, 0x2c, 0xba, 0xea, 0xcd,
  0xcb, 0x41, 0xc2, 0xbe, 0x60, 0xbb, 0x4c, 0x46, 0xee, 0x27, 0xe0, 0xcf,
  0xdd, 0xe1, 0x3d, 0xf5, 0x10, 0x0c, 0xfe, 0xf7, 0x65, 0xe1, 0xe7, 0xef,
  0xfc, 0x0d, 0xe7, 0xdd, 0xd2, 0xe7, 0xe9, 0x1f, 0xd4, 0x26, 0x61, 0xfd,
  0xf2, 0xea, 0xf6, 0xb6, 0xdb, 0xe1, 0x28, 0x18, 0xef, 0x20, 0x12, 0xec,
  0x6e, 0x02, 0x09, 0xe7, 0xce, 0xd5, 0xd7, 0x52, 0xb6, 0x1b, 0x35, 0x46,
  0x3f, 0x23, 0xea, 0x5a, 0xb2, 0x1a, 0x7f, 0xf3, 0x16, 0xe3, 0x5a, 0x11,
  0xf8, 0x14, 0x13, 0x23, 0xc4, 0x02, 0x15, 0x34, 0x08, 0xdc, 0x18, 0x60,
  0xb9, 0xe1, 0xe8, 0xcf, 0x42, 0x2f, 0x0f, 0xe3, 0x38, 0xb3, 0x69, 0xfb,
  0x9c, 0xdc, 0xd2, 0x19, 0xd3, 0xb3, 0x64, 0xc2, 0xa1, 0xa6, 0xd2, 0x43,
  0xa5, 0x5b, 0x60, 0x0b, 0xb5, 0xd8, 0x9c, 0x24, 0xea, 0x9e, 0x07, 0xf3,
  0x32, 0x2f, 0x47, 0xdf, 0x0b, 0x3e, 0xd2, 0xe7, 0x4a, 0xb1, 0xde, 0x34,
  0x14, 0xb0, 0xc7, 0xb0, 0xc9, 0x26, 0x23, 0x50, 0x31, 0x1f, 0x40, 0x03,
  0xc9, 0xbe, 0x4b, 0x8d, 0xb0, 0xbc, 0x20, 0x2b, 0x63, 0xf2, 0xbe, 0x1f,
  0xab, 0x44, 0x4c, 0x43, 0x7c, 0x39, 0xf0, 0xce, 0x0f, 0x67, 0x08, 0xcf,
  0xf2, 0x0b, 0xc0, 0x6d, 0x90, 0x00, 0x0a, 0xe8, 0xbd, 0x01, 0x1f, 0x51,
  0x0c, 0xf2, 0x51, 0x3c, 0x1c, 0x3d, 0xdb, 0x7f, 0x15, 0xc2, 0x49, 0xce,
  0x54, 0x27, 0x06, 0xc8, 0x63, 0xd7, 0x2d, 0x62, 0xf1, 0x85, 0xe0, 0x52,
  0xe1, 0x4f, 0x3f, 0xb7, 0xdb, 0x85, 0x2c, 0xba, 0x27, 0xe7, 0x03, 0xe9,
  0xda, 0xea, 0x06, 0xbb, 0xee, 0x34, 0xf6, 0x07, 0x44, 0x5f, 0x03, 0x3a,
  0x9f, 0x08, 0x02, 0x0a, 0x98, 0x3d, 0x81, 0x0b, 0x2c, 0x84, 0x29, 0x06,
  0xc9, 0xc7, 0xc8, 0xdc, 0x29, 0xe2, 0xfe, 0xe0, 0x1d, 0x21, 0xd0, 0x20,
  0xe2, 0xea, 0x0e, 0x27, 0x28, 0xfc, 0xd6, 0xb5, 0xf0, 0xee, 0x2a, 0x26,
  0x24, 0xcd, 0xf2, 0x31, 0x10, 0xf9, 0xeb, 0x32, 0xc8, 0x9e, 0x1f, 0xf2,
  0x96, 0xfd, 0x3a, 0xd6, 0x3a, 0xbe, 0xf2, 0x08, 0xe1, 0xc7, 0x35, 0x29,
  0x81, 0x0e, 0xb0, 0xcb, 0xef, 0x01, 0xf5, 0xc9, 0x0e, 0xe2, 0x09, 0xeb,
  0x0f, 0x2b, 0xce, 0xb8, 0xf7, 0xbc, 0xd8, 0x4b, 0xab, 0x55, 0xce, 0x0b,
  0xef, 0xe6, 0x24, 0xa4, 0x09, 0xd0, 0x2a, 0xc8, 0xe0, 0x19, 0x23, 0x45,
  0xfc, 0x5a, 0xf0, 0xf3, 0x16, 0xd4, 0xf1, 0x04, 0xee, 0x10, 0xd3, 0xc6,
  0x1b, 0x2e, 0xea, 0xbe, 0xe0, 0xe9, 0x38, 0xfb, 0xa2, 0x05, 0xe4, 0xa9,
  0x27, 0x18, 0x10, 0xe2, 0xd9, 0x3a, 0x98, 0xb7, 0xfc, 0x97, 0xe0, 0x30,
  0xaa, 0x2e, 0x01, 0xd1, 0x09, 0xc2, 0x19, 0xf2, 0x12, 0x19, 0x13, 0xf6,
  0x04, 0x43, 0x0b, 0xd8, 0x41, 0x1d, 0xd5, 0xf3, 0xeb, 0x4b, 0xb2, 0x00,
  0x3f, 0x22, 0x8f, 0x0e, 0x42, 0xb2, 0x40, 0xcb, 0xd6, 0xcc, 0x17, 0x37,
  0x15, 0x04, 0x13, 0x2b, 0x2b, 0xf3, 0xfd, 0xb2, 0xda, 0x0c, 0xdd, 0x0d,
  0x09, 0xf3, 0xf7, 0xba, 0x00, 0x25, 0x1b, 0x20, 0xbb, 0x4b, 0x2c, 0x00,
  0xd0, 0x00, 0xfa, 0xe6, 0xff, 0xfd, 0xe8, 0xc7, 0xe1, 0xfb, 0x1e, 0xc3,
  0x1b, 0x0d, 0x5d, 0xa3, 0x4d, 0x6b, 0xe8, 0x08, 0xf3, 0xb4, 0x1f, 0xc7,
  0xfe, 0x1a, 0xfc, 0x07, 0xa4, 0x14, 0x2e, 0x2d, 0x11, 0xe2, 0xd3, 0xf0,
  0xdc, 0x07, 0x0e, 0xbf, 0xe3, 0x09, 0x2d, 0x27, 0xea, 0x50, 0x34, 0x2b,
  0x33, 0xe2, 0xab, 0xf0, 0x3d, 0xde, 0xda, 0x06, 0x15, 0xce, 0x04, 0x45,
  0xa9, 0x3e, 0x36, 0x07, 0xde, 0xd1, 0xca, 0xf0, 0x35, 0xe6, 0x21, 0xd0,
  0x29, 0xf8, 0xeb, 0x35, 0x20, 0xb0, 0xb1, 0xef, 0xcf, 0x2b, 0x0b, 0x05,
  0x17, 0x3d, 0xf2, 0x2c, 0xf5, 0x03, 0xd1, 0x42, 0xdc, 0xd1, 0x04, 0xef,
  0xb6, 0xe0, 0xd6, 0x23, 0x38, 0x14, 0x46, 0xfc, 0x37, 0x40, 0xef, 0x4d,
  0xfd, 0xdd, 0xea, 0x08, 0xe1, 0xa5, 0x5a, 0xbc, 0x2b, 0x58, 0x23, 0x3b,
  0xe8, 0xf7, 0xcb, 0xf6, 0x12, 0xce, 0x15, 0x12, 0x6a, 0xb5, 0xe6, 0x2a,
  0x36, 0xe3, 0x46, 0x3c, 0xce, 0x28, 0x14, 0x2a, 0x7f, 0xf2, 0xf1, 0x64,
  0xec, 0x12, 0xf4, 0xe8, 0x3c, 0x52, 0xe7, 0x3b, 0x04, 0x0d, 0x34, 0xc2,
  0x48, 0x11, 0x42, 0xb1, 0xdd, 0xda, 0x3e, 0xe4, 0x44, 0xee, 0x06, 0xd0,
  0x3e, 0x2a, 0xac, 0xc2, 0x0c, 0xc4, 0xde, 0x1d, 0xbe, 0xb1, 0xcb, 0xe7,
  0x14, 0x5b, 0xf0, 0x51, 0xe4, 0xec, 0x0c, 0xba, 0x30, 0xda, 0x08, 0x38,
  0xea, 0xf4, 0x03, 0x3f, 0xca, 0x14, 0xe2, 0x0d, 0xaa, 0xc3, 0xc6, 0x01,
  0xbc, 0xc9, 0xa0, 0x17, 0xef, 0xba, 0x30, 0xe7, 0xd7, 0xd8, 0xec, 0xf2,
  0xb5, 0x9c, 0xee, 0xe3, 0x14, 0xca, 0x29, 0x2c, 0xd3, 0xff, 0xe7, 0xf2,
  0x19, 0xe4, 0xd2, 0xd7, 0xeb, 0x26, 0xee, 0xc4, 0x29, 0xd1, 0xf0, 0xdf,
  0xc8, 0xfb, 0x12, 0xce, 0x3e, 0xcd, 0x55, 0x38, 0xdd, 0xf5, 0xc5, 0x11,
  0xcc, 0xf0, 0x48, 0x19, 0x19, 0xad, 0xb1, 0x17, 0xe7, 0xad, 0xc6, 0xe8,
  0x81, 0xc9, 0xe9, 0x06, 0x68, 0x39, 0xe5, 0x1d, 0x1f, 0x0c, 0xb8, 0x1b,
  0x3e, 0xb2, 0x52, 0x46, 0x33, 0xbd, 0xf9, 0xe9, 0xd7, 0xda, 0x15, 0x08,
  0x19, 0x35, 0x0c, 0xd1, 0xdf, 0x12, 0xf7, 0x0c, 0xf2, 0xe7, 0x2c, 0x32,
  0xea, 0x05, 0x07, 0x40, 0xf3, 0xc5, 0xeb, 0xf3, 0xdf, 0xe1, 0x4b, 0x24,
  0xf7, 0xe3, 0xfe, 0xc2, 0x32, 0xe4, 0x0f, 0xf5, 0xf7, 0x04, 0x0e, 0x1a,
  0x30, 0xdc, 0x28, 0x04, 0x0d, 0x01, 0x3c, 0xc2, 0x1c, 0x4b, 0xe1, 0xf3,
  0x21, 0xc6, 0x01, 0xb8, 0xcd, 0x0b, 0x0f, 0x30, 0xf8, 0x08, 0x08, 0x0d,
  0x48, 0xcd, 0x06, 0x14, 0x27, 0x4b, 0xc4, 0x02, 0x1b, 0xcf, 0xd7, 0xff,
  0xff, 0xf6, 0xc6, 0xf8, 0xfe, 0x29, 0x14, 0x1e, 0x27, 0xe3, 0xec, 0x07,
  0xe9, 0x35, 0xe6, 0x30, 0xdd, 0xcd, 0xd2, 0x1f, 0x18, 0x1d, 0x03, 0xf3,
  0xe1, 0x01, 0x4a, 0x1b, 0x2a, 0xee, 0xe4, 0x25, 0x29, 0xdd, 0x24, 0xd4,
  0xc8, 0x0c, 0x2d, 0x33, 0x19, 0xfe, 0xe8, 0xf2, 0xd4, 0xc9, 0x2c, 0x2f,
  0x00, 0xcc, 0xc1, 0x1a, 0xf4, 0xca, 0x3b, 0x30, 0xc2, 0x2f, 0xe5, 0x10,
  0x0e, 0x2a, 0xea, 0xcf, 0x08, 0x22, 0xe5, 0x11, 0xd9, 0x03, 0x43, 0x27,
  0xc1, 0x1b, 0xcb, 0x33, 0xce, 0xef, 0xff, 0xd2, 0x13, 0xe1, 0x3c, 0xdc,
  0xc8, 0x02, 0x7f, 0xb8, 0xcc, 0x38, 0x28, 0xec, 0x22, 0x2f, 0x0a, 0xe0,
  0xac, 0xc7, 0xe9, 0x16, 0x1a, 0xb8, 0xbd, 0xe3, 0x56, 0xee, 0xd4, 0x99,
  0x2f, 0xca, 0x06, 0x15, 0xf2, 0x0f, 0x32, 0x14, 0xec, 0xc8, 0xdf, 0xb5,
  0xc0, 0x27, 0x27, 0xeb, 0xe6, 0xeb, 0xb0, 0x1d, 0xce, 0x01, 0xd6, 0xde,
  0x52, 0x1a, 0xed, 0x31, 0xb5, 0x09, 0x1b, 0x20, 0x2e, 0xfe, 0x04, 0x27,
  0xc8, 0xa6, 0x33, 0xd3, 0xef, 0xc9, 0xab, 0x25, 0x43, 0xd3, 0x4b, 0xd2,
  0x41, 0x11, 0x1f, 0xfc, 0x49, 0x1a, 0x18, 0xd0, 0xc8, 0xa1, 0x06, 0xfc,
  0xfc, 0xf9, 0x6e, 0x54, 0x45, 0xc4, 0x0e, 0xf2, 0xf8, 0x60, 0x0b, 0x20,
  0x2a, 0xe6, 0xd7, 0xd4, 0xe0, 0xc0, 0xfa, 0xcc, 0x20, 0x29, 0x5d, 0xc2,
  0xd4, 0x13, 0x07, 0xea, 0xfb, 0xeb, 0xe6, 0xbf, 0xde, 0xf6, 0x01, 0x15,
  0x06, 0x19, 0xea, 0x34, 0xbd, 0xbf, 0xec, 0x13, 0x50, 0x0c, 0xa3, 0xe6,
  0x45, 0x0a, 0x0d, 0xcb, 0x81, 0xcd, 0x08, 0x14, 0x2c, 0xe5, 0xca, 0xcf,
  0x9c, 0xc1, 0xfe, 0xee, 0x21, 0x6f, 0xf3, 0xcb, 0xe7, 0x3e, 0xd1, 0xbd,
  0xd3, 0x13, 0xfd, 0x2c, 0xfd, 0x1d, 0x93, 0x4d, 0xd3, 0xca, 0x39, 0xdf,
  0x2f, 0x33, 0xd8, 0x46, 0x7b, 0x41, 0xbd, 0x01, 0xb2, 0xf7, 0x37, 0xb0,
  0x07, 0xd5, 0x33, 0x07, 0x0e, 0xbf, 0xec, 0x0e, 0xd4, 0x26, 0x08, 0x35,
  0xd0, 0x32, 0x7f, 0x21, 0xf4, 0xe2, 0xda, 0xd5, 0x56, 0x02, 0x9e, 0xf0,
  0x4e, 0x1a, 0xf9, 0xe7, 0xe3, 0xc2, 0xe1, 0xf2, 0xf8, 0x4a, 0xf3, 0x06,
  0xc7, 0xe8, 0x40, 0x00, 0x18, 0xc2, 0x52, 0xbd, 0xd2, 0x93, 0x31, 0x04,
  0x16, 0x33, 0xee, 0x09, 0xde, 0x4c, 0x9e, 0xac, 0xba, 0x96, 0xbf, 0xfe,
  0xe7, 0x56, 0x0a, 0xfa, 0x3c, 0xc4, 0xb0, 0xc0, 0xb9, 0xb4, 0xab, 0xd9,
  0x32, 0x24, 0x0b, 0x96, 0x1c, 0xdb, 0xf8, 0xcb, 0x13, 0x3e, 0x50, 0xd6,
  0x28, 0xf3, 0x0c, 0x18, 0x73, 0xfe, 0x22, 0xd6, 0x50, 0xac, 0xcc, 0x0b,
  0x04, 0x0f, 0x12, 0xb0, 0x46, 0xf2, 0x0f, 0xf0, 0xc5, 0x36, 0x97, 0xa7,
  0xd1, 0x11, 0xb3, 0x40, 0xb7, 0xca, 0xf1, 0x3b, 0x32, 0xe5, 0x27, 0x20,
  0x0e, 0x46, 0x95, 0x14, 0xfa, 0x0b, 0xd7, 0x57, 0xce, 0x9a, 0x32, 0xf8,
  0xf5, 0xba, 0x1b, 0x50, 0x27, 0x5a, 0x20, 0x23, 0x3e, 0xb5, 0x2f, 0x31,
  0x48, 0xab, 0xad, 0xde, 0xaf, 0x22, 0x32, 0x21, 0xa8, 0xed, 0xe7, 0x0b,
  0x58, 0xd4, 0xc7, 0x1b, 0xf5, 0xdc, 0xcf, 0xae, 0x2b, 0x00, 0x15, 0xc7,
  0x48, 0xf2, 0x14, 0xf9, 0x1f, 0xd2, 0x18, 0x26, 0x3a, 0x51, 0x40, 0xfb,
  0xf0, 0x1c, 0xe9, 0xd7, 0x2b, 0x1e, 0x3c, 0xff, 0x16, 0xd1, 0xd3, 0xe2,
  0x29, 0xfe, 0xe3, 0x0a, 0xd6, 0x11, 0x4a, 0x01, 0x9c, 0xe3, 0x24, 0xf2,
  0xc1, 0xf3, 0x9d, 0xea, 0x3a, 0xa3, 0x50, 0x8f, 0x3e, 0x2b, 0xd0, 0x3a,
  0x49, 0x0c, 0x43, 0x07, 0x49, 0xd7, 0xc1, 0x54, 0xf6, 0xfa, 0x47, 0xc4,
  0x47, 0x00, 0x3e, 0x12, 0xaa, 0x1b, 0x4b, 0x0d, 0x31, 0xb1, 0xf9, 0x10,
  0xf5, 0x49, 0xe0, 0x4f, 0x2e, 0x49, 0x0f, 0xd7, 0xdc, 0x3b, 0x13, 0x1b,
  0xd0, 0x3d, 0x36, 0xd7, 0xec, 0xdb, 0xe1, 0x6e, 0x4b, 0xc9, 0x1f, 0xbd,
  0x51, 0xb8, 0xd2, 0xe8, 0x22, 0x4a, 0xb7, 0x1e, 0x41, 0xff, 0xf0, 0xfe,
  0x81, 0xc0, 0x16, 0xcf, 0xfa, 0x0e, 0x1d, 0x0a, 0x9b, 0x2d, 0x16, 0xdc,
  0xab, 0x3e, 0xc4, 0xcb, 0xd4, 0xd4, 0xa1, 0xc5, 0xba, 0xcb, 0xa7, 0xf6,
  0x3f, 0x25, 0x83, 0xed, 0x3a, 0xc3, 0x12, 0xd6, 0xd2, 0xdc, 0xb7, 0x48,
  0x70, 0x52, 0xf1, 0xc2, 0x32, 0x34, 0x56, 0x9c, 0xa6, 0xf9, 0xff, 0xff,
  0x04, 0x00, 0x00, 0x00, 0x80, 0x00, 0x00, 0x00, 0xc6, 0x00, 0x00, 0x00,
  0x5e, 0xfe, 0xff, 0xff, 0x9d, 0xfe, 0xff, 0xff, 0xd8, 0x00, 0x00, 0x00,
  0xb1, 0x00, 0x00, 0x00, 0xe7, 0x00, 0x00, 0x00, 0x4c, 0xfe, 0xff, 0xff,
  0xb2, 0xfe, 0xff, 0xff, 0x85, 0xff, 0xff, 0xff, 0x98, 0xfe, 0xff, 0xff,
  0x79, 0xfd, 0xff, 0xff, 0xdb, 0x00, 0x00, 0x00, 0xfe, 0xff, 0xff, 0xff,
  0x2c, 0xfe, 0xff, 0xff, 0xd6, 0xfd, 0xff, 0xff, 0xdf, 0xff, 0xff, 0xff,
  0xfb, 0x00, 0x00, 0x00, 0x09, 0x00, 0x00, 0x00, 0x88, 0xfe, 0xff, 0xff,
  0x5c, 0x00, 0x00, 0x00, 0x82, 0xfe, 0xff, 0xff, 0x38, 0xfd, 0xff, 0xff,
  0x89, 0xff, 0xff, 0xff, 0xf3, 0xff, 0xff, 0xff, 0x61, 0xfe, 0xff, 0xff,
  0xf5, 0xfd, 0xff, 0xff, 0x9b, 0x00, 0x00, 0x00, 0xac, 0x00, 0x00, 0x00,
  0x12, 0x00, 0x00, 0x00, 0x08, 0x00, 0x00, 0x00, 0x81, 0xff, 0xff, 0xff,
  0x9f, 0xfe, 0xff, 0xff, 0x32, 0xfa, 0xff, 0xff, 0x04, 0x00, 0x00, 0x00,
  0x20, 0x00, 0x00, 0x00, 0xbd, 0xc7, 0x3b, 0x84, 0x9b, 0xae, 0xe4, 0x81,
  0xab, 0x41, 0x22, 0xd8, 0xab, 0x72, 0x70, 0x4c, 0xb5, 0xbd, 0x46, 0xcc,
  0x4d, 0x59, 0x8b, 0xb1, 0x21, 0x5a, 0xcd, 0xb3, 0xce, 0x70, 0xbc, 0x67,
  0x5e, 0xfa, 0xff, 0xff, 0x04, 0x00, 0x00, 0x00, 0x04, 0x00, 0x00, 0x00,
  0x2b, 0x00, 0x00, 0x00, 0x6e, 0xfa, 0xff, 0xff, 0x04, 0x00, 0x00, 0x00,
  0x08, 0x00, 0x00, 0x00, 0xff, 0xff, 0xff, 0xff, 0xa0, 0x00, 0x00, 0x00,
  0x82, 0xfa, 0xff, 0xff, 0x04, 0x00, 0x00, 0x00, 0x0c, 0x00, 0x00, 0x00,
  0xff, 0xff, 0xff, 0xff, 0x0a, 0x00, 0x00, 0x00, 0x20, 0x00, 0x00, 0x00,
  0x9a, 0xfa, 0xff, 0xff, 0x04, 0x00, 0x00, 0x00, 0x0c, 0x00, 0x00, 0x00,
  0xff, 0xff, 0xff, 0xff, 0x0a, 0x00, 0x00, 0x00, 0x10, 0x00, 0x00, 0x00,
  0x84, 0xd7, 0xff, 0xff, 0xb6, 0xfa, 0xff, 0xff, 0x04, 0x00, 0x00, 0x00,
  0x0c, 0x00, 0x00, 0x00, 0xff, 0xff, 0xff, 0xff, 0x15, 0x00, 0x00, 0x00,
  0x10, 0x00, 0x00, 0x00, 0xce, 0xfa, 0xff, 0xff, 0x04, 0x00, 0x00, 0x00,
  0x04, 0x00, 0x00, 0x00, 0xfd, 0xff, 0xff, 0xff, 0xde, 0xfa, 0xff, 0xff,
  0x04, 0x00, 0x00, 0x00, 0x04, 0x00, 0x00, 0x00, 0x20, 0x00, 0x00, 0x00,
  0xee, 0xfa, 0xff, 0xff, 0x04, 0x00, 0x00, 0x00, 0x04, 0x00, 0x00, 0x00,
  0x15, 0x00, 0x00, 0x00, 0xfe, 0xfa, 0xff, 0xff, 0x04, 0x00, 0x00, 0x00,
  0x04, 0x00, 0x00, 0x00, 0x01, 0x00, 0x00, 0x00, 0x0e, 0xfb, 0xff, 0xff,
  0x04, 0x00, 0x00, 0x00, 0x04, 0x00, 0x00, 0x00, 0x00, 0x00, 0x00, 0x00,
  0xf0, 0xd7, 0xff, 0xff, 0xf4, 0xd7, 0xff, 0xff, 0x0f, 0x00, 0x00, 0x00,
  0x4d, 0x4c, 0x49, 0x52, 0x20, 0x43, 0x6f, 0x6e, 0x76, 0x65, 0x72, 0x74,
  0x65, 0x64, 0x2e, 0x00, 0x01, 0x00, 0x00, 0x00, 0x14, 0x00, 0x00, 0x00,
  0x00, 0x00, 0x0e, 0x00, 0x18, 0x00, 0x14, 0x00, 0x10, 0x00, 0x0c, 0x00,
  0x08, 0x00, 0x04, 0x00, 0x0e, 0x00, 0x00, 0x00, 0x14, 0x00, 0x00, 0x00,
  0x1c, 0x00, 0x00, 0x00, 0x84, 0x05, 0x00, 0x00, 0x88, 0x05, 0x00, 0x00,
  0x8c, 0x05, 0x00, 0x00, 0x04, 0x00, 0x00, 0x00, 0x6d, 0x61, 0x69, 0x6e,
  0x00, 0x00, 0x00, 0x00, 0x19, 0x00, 0x00, 0x00, 0x4c, 0x05, 0x00, 0x00,
  0x04, 0x05, 0x00, 0x00, 0xa4, 0x04, 0x00, 0x00, 0x60, 0x04, 0x00, 0x00,
  0x38, 0x04, 0x00, 0x00, 0xf8, 0x03, 0x00, 0x00, 0xa8, 0x03, 0x00, 0x00,
  0x74, 0x03, 0x00, 0x00, 0x40, 0x03, 0x00, 0x00, 0x18, 0x03, 0x00, 0x00,
  0xe4, 0x02, 0x00, 0x00, 0x90, 0x02, 0x00, 0x00, 0x68, 0x02, 0x00, 0x00,
  0x34, 0x02, 0x00, 0x00, 0xf0, 0x01, 0x00, 0x00, 0xbc, 0x01, 0x00, 0x00,
  0x88, 0x01, 0x00, 0x00, 0x60, 0x01, 0x00, 0x00, 0x2c, 0x01, 0x00, 0x00,
  0xe8, 0x00, 0x00, 0x00, 0xc0, 0x00, 0x00, 0x00, 0x84, 0x00, 0x00, 0x00,
  0x4c, 0x00, 0x00, 0x00, 0x28, 0x00, 0x00, 0x00, 0x04, 0x00, 0x00, 0x00,
  0x26, 0xfc, 0xff, 0xff, 0x0c, 0x00, 0x00, 0x00, 0x10, 0x00, 0x00, 0x00,
  0x0c, 0x00, 0x00, 0x00, 0x01, 0x00, 0x00, 0x00, 0x2f, 0x00, 0x00, 0x00,
  0x01, 0x00, 0x00, 0x00, 0x2e, 0x00, 0x00, 0x00, 0x46, 0xfc, 0xff, 0xff,
  0x0c, 0x00, 0x00, 0x00, 0x10, 0x00, 0x00, 0x00, 0x0b, 0x00, 0x00, 0x00,
  0x01, 0x00, 0x00, 0x00, 0x2e, 0x00, 0x00, 0x00, 0x01, 0x00, 0x00, 0x00,
  0x2d, 0x00, 0x00, 0x00, 0xaa, 0xfb, 0xff, 0xff, 0x14, 0x00, 0x00, 0x00,
  0x00, 0x00, 0x00, 0x08, 0x10, 0x00, 0x00, 0x00, 0x14, 0x00, 0x00, 0x00,
  0x0a, 0x00, 0x00, 0x00, 0x08, 0xd9, 0xff, 0xff, 0x01, 0x00, 0x00, 0x00,
  0x2d, 0x00, 0x00, 0x00, 0x03, 0x00, 0x00, 0x00, 0x2c, 0x00, 0x00, 0x00,
  0x0c, 0x00, 0x00, 0x00, 0x0b, 0x00, 0x00, 0x00, 0xde, 0xfb, 0xff, 0xff,
  0x14, 0x00, 0x00, 0x00, 0x00, 0x00, 0x00, 0x08, 0x14, 0x00, 0x00, 0x00,
  0x18, 0x00, 0x00, 0x00, 0x0a, 0x00, 0x00, 0x00, 0xce, 0xfb, 0xff, 0xff,
  0x00, 0x00, 0x00, 0x01, 0x01, 0x00, 0x00, 0x00, 0x2c, 0x00, 0x00, 0x00,
  0x03, 0x00, 0x00, 0x00, 0x2b, 0x00, 0x00, 0x00, 0x0e, 0x00, 0x00, 0x00,
  0x0d, 0x00, 0x00, 0x00, 0xd2, 0xfc, 0xff, 0xff, 0x0c, 0x00, 0x00, 0x00,
  0x10, 0x00, 0x00, 0x00, 0x04, 0x00, 0x00, 0x00, 0x01, 0x00, 0x00, 0x00,
  0x2b, 0x00, 0x00, 0x00, 0x02, 0x00, 0x00, 0x00, 0x2a, 0x00, 0x00, 0x00,
  0x0a, 0x00, 0x00, 0x00, 0x3a, 0xfc, 0xff, 0xff, 0x14, 0x00, 0x00, 0x00,
  0x00, 0x00, 0x00, 0x05, 0x24, 0x00, 0x00, 0x00, 0x28, 0x00, 0x00, 0x00,
  0x09, 0x00, 0x00, 0x00, 0x76, 0xfe, 0xff, 0xff, 0x01, 0x00, 0x00, 0x00,
  0x02, 0x00, 0x00, 0x00, 0x01, 0x00, 0x00, 0x00, 0x02, 0x00, 0x00, 0x00,
  0x00, 0x00, 0x00, 0x01, 0x01, 0x00, 0x00, 0x00, 0x2a, 0x00, 0x00, 0x00,
  0x01, 0x00, 0x00, 0x00, 0x29, 0x00, 0x00, 0x00, 0x7a, 0xfc, 0xff, 0xff,
  0x14, 0x00, 0x00, 0x00, 0x00, 0x00, 0x00, 0x34, 0x10, 0x00, 0x00, 0x00,
  0x14, 0x00, 0x00, 0x00, 0x05, 0x00, 0x00, 0x00, 0xd8, 0xd9, 0xff, 0xff,
  0x01, 0x00, 0x00, 0x00, 0x29, 0x00, 0x00, 0x00, 0x02, 0x00, 0x00, 0x00,
  0x28, 0x00, 0x00, 0x00, 0x07, 0x00, 0x00, 0x00, 0x66, 0xfd, 0xff, 0xff,
  0x0c, 0x00, 0x00, 0x00, 0x10, 0x00, 0x00, 0x00, 0x04, 0x00, 0x00, 0x00,
  0x01, 0x00, 0x00, 0x00, 0x28, 0x00, 0x00, 0x00, 0x02, 0x00, 0x00, 0x00,
  0x27, 0x00, 0x00, 0x00, 0x09, 0x00, 0x00, 0x00, 0xce, 0xfc, 0xff, 0xff,
  0x14, 0x00, 0x00, 0x00, 0x00, 0x00, 0x00, 0x0b, 0x10, 0x00, 0x00, 0x00,
  0x14, 0x00, 0x00, 0x00, 0x08, 0x00, 0x00, 0x00, 0x2c, 0xda, 0xff, 0xff,
  0x01, 0x00, 0x00, 0x00, 0x27, 0x00, 0x00, 0x00, 0x02, 0x00, 0x00, 0x00,
  0x26, 0x00, 0x00, 0x00, 0x0f, 0x00, 0x00, 0x00, 0xfe, 0xfc, 0xff, 0xff,
  0x14, 0x00, 0x00, 0x00, 0x00, 0x00, 0x00, 0x15, 0x10, 0x00, 0x00, 0x00,
  0x14, 0x00, 0x00, 0x00, 0x07, 0x00, 0x00, 0x00, 0x5c, 0xda, 0xff, 0xff,
  0x01, 0x00, 0x00, 0x00, 0x26, 0x00, 0x00, 0x00, 0x02, 0x00, 0x00, 0x00,
  0x25, 0x00, 0x00, 0x00, 0x10, 0x00, 0x00, 0x00, 0x2e, 0xfd, 0xff, 0xff,
  0x14, 0x00, 0x00, 0x00, 0x00, 0x00, 0x00, 0x01, 0x1c, 0x00, 0x00, 0x00,
  0x20, 0x00, 0x00, 0x00, 0x06, 0x00, 0x00, 0x00, 0x68, 0xfe, 0xff, 0xff,
  0x00, 0x00, 0x00, 0x01, 0x01, 0x00, 0x00, 0x00, 0x01, 0x00, 0x00, 0x00,
  0x01, 0x00, 0x00, 0x00, 0x25, 0x00, 0x00, 0x00, 0x03, 0x00, 0x00, 0x00,
  0x24, 0x00, 0x00, 0x00, 0x12, 0x00, 0x00, 0x00, 0x11, 0x00, 0x00, 0x00,
  0x6e, 0xfd, 0xff, 0xff, 0x14, 0x00, 0x00, 0x00, 0x00, 0x00, 0x00, 0x34,
  0x10, 0x00, 0x00, 0x00, 0x14, 0x00, 0x00, 0x00, 0x05, 0x00, 0x00, 0x00,
  0xcc, 0xda, 0xff, 0xff, 0x01, 0x00, 0x00, 0x00, 0x24, 0x00, 0x00, 0x00,
  0x02, 0x00, 0x00, 0x00, 0x23, 0x00, 0x00, 0x00, 0x05, 0x00, 0x00, 0x00,
  0x5a, 0xfe, 0xff, 0xff, 0x0c, 0x00, 0x00, 0x00, 0x10, 0x00, 0x00, 0x00,
  0x04, 0x00, 0x00, 0x00, 0x01, 0x00, 0x00, 0x00, 0x23, 0x00, 0x00, 0x00,
  0x02, 0x00, 0x00, 0x00, 0x22, 0x00, 0x00, 0x00, 0x08, 0x00, 0x00, 0x00,
  0xc2, 0xfd, 0xff, 0xff, 0x24, 0x00, 0x00, 0x00, 0x00, 0x00, 0x00, 0x05,
  0x34, 0x00, 0x00, 0x00, 0x38, 0x00, 0x00, 0x00, 0x09, 0x00, 0x00, 0x00,
  0x00, 0x00, 0x0e, 0x00, 0x18, 0x00, 0x17, 0x00, 0x10, 0x00, 0x0c, 0x00,
  0x08, 0x00, 0x04, 0x00, 0x0e, 0x00, 0x00, 0x00, 0x01, 0x00, 0x00, 0x00,
  0x02, 0x00, 0x00, 0x00, 0x01, 0x00, 0x00, 0x00, 0x02, 0x00, 0x00, 0x00,
  0x00, 0x00, 0x00, 0x01, 0x01, 0x00, 0x00, 0x00, 0x22, 0x00, 0x00, 0x00,
  0x01, 0x00, 0x00, 0x00, 0x21, 0x00, 0x00, 0x00, 0x12, 0xfe, 0xff, 0xff,
  0x14, 0x00, 0x00, 0x00, 0x00, 0x00, 0x00, 0x34, 0x10, 0x00, 0x00, 0x00,
  0x14, 0x00, 0x00, 0x00, 0x05, 0x00, 0x00, 0x00, 0x70, 0xdb, 0xff, 0xff,
  0x01, 0x00, 0x00, 0x00, 0x21, 0x00, 0x00, 0x00, 0x02, 0x00, 0x00, 0x00,
  0x20, 0x00, 0x00, 0x00, 0x07, 0x00, 0x00, 0x00, 0xfe, 0xfe, 0xff, 0xff,
  0x0c, 0x00, 0x00, 0x00, 0x10, 0x00, 0x00, 0x00, 0x04, 0x00, 0x00, 0x00,
  0x01, 0x00, 0x00, 0x00, 0x20, 0x00, 0x00, 0x00, 0x02, 0x00, 0x00, 0x00,
  0x1f, 0x00, 0x00, 0x00, 0x06, 0x00, 0x00, 0x00, 0x66, 0xfe, 0xff, 0xff,
  0x14, 0x00, 0x00, 0x00, 0x00, 0x00, 0x00, 0x0b, 0x10, 0x00, 0x00, 0x00,
  0x14, 0x00, 0x00, 0x00, 0x08, 0x00, 0x00, 0x00, 0xc4, 0xdb, 0xff, 0xff,
  0x01, 0x00, 0x00, 0x00, 0x1f, 0x00, 0x00, 0x00, 0x02, 0x00, 0x00, 0x00,
  0x1e, 0x00, 0x00, 0x00, 0x13, 0x00, 0x00, 0x00, 0x96, 0xfe, 0xff, 0xff,
  0x14, 0x00, 0x00, 0x00, 0x00, 0x00, 0x00, 0x15, 0x10, 0x00, 0x00, 0x00,
  0x14, 0x00, 0x00, 0x00, 0x07, 0x00, 0x00, 0x00, 0xf4, 0xdb, 0xff, 0xff,
  0x01, 0x00, 0x00, 0x00, 0x1e, 0x00, 0x00, 0x00, 0x02, 0x00, 0x00, 0x00,
  0x1d, 0x00, 0x00, 0x00, 0x14, 0x00, 0x00, 0x00, 0xc6, 0xfe, 0xff, 0xff,
  0x20, 0x00, 0x00, 0x00, 0x00, 0x00, 0x00, 0x01, 0x28, 0x00, 0x00, 0x00,
  0x2c, 0x00, 0x00, 0x00, 0x06, 0x00, 0x00, 0x00, 0x0c, 0x00, 0x10, 0x00,
  0x00, 0x00, 0x0c, 0x00, 0x08, 0x00, 0x07, 0x00, 0x0c, 0x00, 0x00, 0x00,
  0x00, 0x00, 0x00, 0x01, 0x01, 0x00, 0x00, 0x00, 0x01, 0x00, 0x00, 0x00,
  0x01, 0x00, 0x00, 0x00, 0x1d, 0x00, 0x00, 0x00, 0x03, 0x00, 0x00, 0x00,
  0x1c, 0x00, 0x00, 0x00, 0x16, 0x00, 0x00, 0x00, 0x15, 0x00, 0x00, 0x00,
  0x12, 0xff, 0xff, 0xff, 0x14, 0x00, 0x00, 0x00, 0x00, 0x00, 0x00, 0x34,
  0x10, 0x00, 0x00, 0x00, 0x14, 0x00, 0x00, 0x00, 0x05, 0x00, 0x00, 0x00,
  0x70, 0xdc, 0xff, 0xff, 0x01, 0x00, 0x00, 0x00, 0x1c, 0x00, 0x00, 0x00,
  0x02, 0x00, 0x00, 0x00, 0x1b, 0x00, 0x00, 0x00, 0x05, 0x00, 0x00, 0x00,
  0x00, 0x00, 0x0a, 0x00, 0x10, 0x00, 0x0c, 0x00, 0x08, 0x00, 0x04, 0x00,
  0x0a, 0x00, 0x00, 0x00, 0x0c, 0x00, 0x00, 0x00, 0x10, 0x00, 0x00, 0x00,
  0x04, 0x00, 0x00, 0x00, 0x01, 0x00, 0x00, 0x00, 0x1b, 0x00, 0x00, 0x00,
  0x02, 0x00, 0x00, 0x00, 0x17, 0x00, 0x00, 0x00, 0x1a, 0x00, 0x00, 0x00,
  0x72, 0xff, 0xff, 0xff, 0x1c, 0x00, 0x00, 0x00, 0x00, 0x00, 0x00, 0x3b,
  0x1c, 0x00, 0x00, 0x00, 0x20, 0x00, 0x00, 0x00, 0x03, 0x00, 0x00, 0x00,
  0x00, 0x00, 0x06, 0x00, 0x08, 0x00, 0x04, 0x00, 0x06, 0x00, 0x00, 0x00,
  0x03, 0x00, 0x00, 0x00, 0x01, 0x00, 0x00, 0x00, 0x1a, 0x00, 0x00, 0x00,
  0x03, 0x00, 0x00, 0x00, 0x19, 0x00, 0x00, 0x00, 0x03, 0x00, 0x00, 0x00,
  0x04, 0x00, 0x00, 0x00, 0xb2, 0xff, 0xff, 0xff, 0x24, 0x00, 0x00, 0x00,
  0x00, 0x00, 0x00, 0x20, 0x24, 0x00, 0x00, 0x00, 0x28, 0x00, 0x00, 0x00,
  0x02, 0x00, 0x00, 0x00, 0x00, 0x00, 0x0e, 0x00, 0x08, 0x00, 0x00, 0x00,
  0x00, 0x00, 0x00, 0x00, 0x00, 0x00, 0x04, 0x00, 0x0e, 0x00, 0x00, 0x00,
  0x01, 0x00, 0x00, 0x00, 0x01, 0x00, 0x00, 0x00, 0x19, 0x00, 0x00, 0x00,
  0x04, 0x00, 0x00, 0x00, 0x18, 0x00, 0x00, 0x00, 0x01, 0x00, 0x00, 0x00,
  0x02, 0x00, 0x00, 0x00, 0x02, 0x00, 0x00, 0x00, 0x00, 0x00, 0x0e, 0x00,
  0x1a, 0x00, 0x14, 0x00, 0x10, 0x00, 0x0c, 0x00, 0x0b, 0x00, 0x04, 0x00,
  0x0e, 0x00, 0x00, 0x00, 0x1c, 0x00, 0x00, 0x00, 0x00, 0x00, 0x00, 0x37,
  0x1c, 0x00, 0x00, 0x00, 0x20, 0x00, 0x00, 0x00, 0x01, 0x00, 0x00, 0x00,
  0x00, 0x00, 0x06, 0x00, 0x08, 0x00, 0x07, 0x00, 0x06, 0x00, 0x00, 0x00,
  0x00, 0x00, 0x00, 0x02, 0x01, 0x00, 0x00, 0x00, 0x18, 0x00, 0x00, 0x00,
  0x01, 0x00, 0x00, 0x00, 0x17, 0x00, 0x00, 0x00, 0x00, 0x00, 0x0a, 0x00,
  0x0c, 0x00, 0x00, 0x00, 0x08, 0x00, 0x04, 0x00, 0x0a, 0x00, 0x00, 0x00,
  0x08, 0x00, 0x00, 0x00, 0x0c, 0x00, 0x00, 0x00, 0x01, 0x00, 0x00, 0x00,
  0x17, 0x00, 0x00, 0x00, 0x01, 0x00, 0x00, 0x00, 0x00, 0x00, 0x00, 0x00,
  0x01, 0x00, 0x00, 0x00, 0x2f, 0x00, 0x00, 0x00, 0x01, 0x00, 0x00, 0x00,
  0x00, 0x00, 0x00, 0x00, 0x30, 0x00, 0x00, 0x00, 0x0c, 0x22, 0x00, 0x00,
  0xb4, 0x21, 0x00, 0x00, 0x5c, 0x21, 0x00, 0x00, 0x20, 0x21, 0x00, 0x00,
  0xe4, 0x20, 0x00, 0x00, 0xa8, 0x20, 0x00, 0x00, 0x68, 0x20, 0x00, 0x00,
  0x2c, 0x20, 0x00, 0x00, 0xec, 0x1f, 0x00, 0x00, 0xac, 0x1f, 0x00, 0x00,
  0x6c, 0x1f, 0x00, 0x00, 0x00, 0x1f, 0x00, 0x00, 0x98, 0x1e, 0x00, 0x00,
  0xc4, 0x1c, 0x00, 0x00, 0xe8, 0x1a, 0x00, 0x00, 0x84, 0x1a, 0x00, 0x00,
  0x20, 0x1a, 0x00, 0x00, 0x4c, 0x18, 0x00, 0x00, 0x68, 0x16, 0x00, 0x00,
  0x04, 0x16, 0x00, 0x00, 0xa0, 0x15, 0x00, 0x00, 0x8c, 0x14, 0x00, 0x00,
  0x68, 0x13, 0x00, 0x00, 0xf0, 0x12, 0x00, 0x00, 0x84, 0x12, 0x00, 0x00,
  0x2c, 0x12, 0x00, 0x00, 0xd0, 0x11, 0x00, 0x00, 0x40, 0x11, 0x00, 0x00,
  0x98, 0x10, 0x00, 0x00, 0x84, 0x0f, 0x00, 0x00, 0x60, 0x0e, 0x00, 0x00,
  0x04, 0x0d, 0x00, 0x00, 0xac, 0x0b, 0x00, 0x00, 0x04, 0x0b, 0x00, 0x00,
  0x60, 0x0a, 0x00, 0x00, 0xc0, 0x09, 0x00, 0x00, 0x18, 0x09, 0x00, 0x00,
  0x04, 0x08, 0x00, 0x00, 0xe0, 0x06, 0x00, 0x00, 0x84, 0x05, 0x00, 0x00,
  0x2c, 0x04, 0x00, 0x00, 0x84, 0x03, 0x00, 0x00, 0xe0, 0x02, 0x00, 0x00,
  0x54, 0x02, 0x00, 0x00, 0x88, 0x01, 0x00, 0x00, 0xe4, 0x00, 0x00, 0x00,
  0x60, 0x00, 0x00, 0x00, 0x04, 0x00, 0x00, 0x00, 0xca, 0xde, 0xff, 0xff,
  0x00, 0x00, 0x00, 0x01, 0x14, 0x00, 0x00, 0x00, 0x1c, 0x00, 0x00, 0x00,
  0x1c, 0x00, 0x00, 0x00, 0x30, 0x00, 0x00, 0x00, 0x34, 0x00, 0x00, 0x00,
  0x02, 0x00, 0x00, 0x00, 0xff, 0xff, 0xff, 0xff, 0x01, 0x00, 0x00, 0x00,
  0xb0, 0xde, 0xff, 0xff, 0x1b, 0x00, 0x00, 0x00, 0x53, 0x74, 0x61, 0x74,
  0x65, 0x66, 0x75, 0x6c, 0x50, 0x61, 0x72, 0x74, 0x69, 0x74, 0x69, 0x6f,
  0x6e, 0x65, 0x64, 0x43, 0x61, 0x6c, 0x6c, 0x5f, 0x31, 0x3a, 0x30, 0x00,
  0x02, 0x00, 0x00, 0x00, 0x01, 0x00, 0x00, 0x00, 0x01, 0x00, 0x00, 0x00,
  0xe2, 0xed, 0xff, 0xff, 0x00, 0x00, 0x00, 0x01, 0x18, 0x00, 0x00, 0x00,
  0x20, 0x00, 0x00, 0x00, 0x40, 0x00, 0x00, 0x00, 0x2f, 0x00, 0x00, 0x00,
  0x00, 0x00, 0x00, 0x09, 0x58, 0x00, 0x00, 0x00, 0x02, 0x00, 0x00, 0x00,
  0xff, 0xff, 0xff, 0xff, 0x01, 0x00, 0x00, 0x00, 0xfc, 0xe1, 0xff, 0xff,
  0x08, 0x00, 0x00, 0x00, 0x14, 0x00, 0x00, 0x00, 0x01, 0x00, 0x00, 0x00,
  0x80, 0xff, 0xff, 0xff, 0xff, 0xff, 0xff, 0xff, 0x00, 0x00, 0x00, 0x00,
  0x01, 0x00, 0x00, 0x00, 0x00, 0x00, 0x80, 0x3b, 0x1c, 0x00, 0x00, 0x00,
  0x53, 0x74, 0x61, 0x74, 0x65, 0x66, 0x75, 0x6c, 0x50, 0x61, 0x72, 0x74,
  0x69, 0x74, 0x69, 0x6f, 0x6e, 0x65, 0x64, 0x43, 0x61, 0x6c, 0x6c, 0x5f,
  0x31, 0x3a, 0x30, 0x31, 0x00, 0x00, 0x00, 0x00, 0x02, 0x00, 0x00, 0x00,
  0x01, 0x00, 0x00, 0x00, 0x01, 0x00, 0x00, 0x00, 0x62, 0xee, 0xff, 0xff,
  0x00, 0x00, 0x00, 0x01, 0x18, 0x00, 0x00, 0x00, 0x20, 0x00, 0x00, 0x00,
  0x3c, 0x00, 0x00, 0x00, 0x2e, 0x00, 0x00, 0x00, 0x00, 0x00, 0x00, 0x09,
  0x78, 0x00, 0x00, 0x00, 0x02, 0x00, 0x00, 0x00, 0xff, 0xff, 0xff, 0xff,
  0x01, 0x00, 0x00, 0x00, 0x7c, 0xe2, 0xff, 0xff, 0x08, 0x00, 0x00, 0x00,
  0x10, 0x00, 0x00, 0x00, 0x01, 0x00, 0x00, 0x00, 0x0e, 0x00, 0x00, 0x00,
  0x00, 0x00, 0x00, 0x00, 0x01, 0x00, 0x00, 0x00, 0x5a, 0xd5, 0xc0, 0x3d,
  0x40, 0x00, 0x00, 0x00, 0x73, 0x65, 0x71, 0x75, 0x65, 0x6e, 0x74, 0x69,
  0x61, 0x6c, 0x5f, 0x31, 0x30, 0x5f, 0x31, 0x2f, 0x64, 0x65, 0x6e, 0x73,
  0x65, 0x5f, 0x32, 0x31, 0x5f, 0x31, 0x2f, 0x4d, 0x61, 0x74, 0x4d, 0x75,
  0x6c, 0x3b, 0x73, 0x65, 0x71, 0x75, 0x65, 0x6e, 0x74, 0x69, 0x61, 0x6c,
  0x5f, 0x31, 0x30, 0x5f, 0x31, 0x2f, 0x64, 0x65, 0x6e, 0x73, 0x65, 0x5f,
  0x32, 0x31, 0x5f, 0x31, 0x2f, 0x41, 0x64, 0x64, 0x00, 0x00, 0x00, 0x00,
  0x02, 0x00, 0x00, 0x00, 0x01, 0x00, 0x00, 0x00, 0x01, 0x00, 0x00, 0x00,
  0x02, 0xef, 0xff, 0xff, 0x00, 0x00, 0x00, 0x01, 0x18, 0x00, 0x00, 0x00,
  0x20, 0x00, 0x00, 0x00, 0x40, 0x00, 0x00, 0x00, 0x2d, 0x00, 0x00, 0x00,
  0x00, 0x00, 0x00, 0x09, 0xa0, 0x00, 0x00, 0x00, 0x02, 0x00, 0x00, 0x00,
  0xff, 0xff, 0xff, 0xff, 0x20, 0x00, 0x00, 0x00, 0x1c, 0xe3, 0xff, 0xff,
  0x08, 0x00, 0x00, 0x00, 0x14, 0x00, 0x00, 0x00, 0x01, 0x00, 0x00, 0x00,
  0x80, 0xff, 0xff, 0xff, 0xff, 0xff, 0xff, 0xff, 0x00, 0x00, 0x00, 0x00,
  0x01, 0x00, 0x00, 0x00, 0xe9, 0x85, 0x13, 0x3d, 0x64, 0x00, 0x00, 0x00,
  0x73, 0x65, 0x71, 0x75, 0x65, 0x6e, 0x74, 0x69, 0x61, 0x6c, 0x5f, 0x31,
  0x30, 0x5f, 0x31, 0x2f, 0x64, 0x65, 0x6e, 0x73, 0x65, 0x5f, 0x32, 0x30,
  0x5f, 0x31, 0x2f, 0x4d, 0x61, 0x74, 0x4d, 0x75, 0x6c, 0x3b, 0x73, 0x65,
  0x71, 0x75, 0x65, 0x6e, 0x74, 0x69, 0x61, 0x6c, 0x5f, 0x31, 0x30, 0x5f,
  0x31, 0x2f, 0x64, 0x65, 0x6e, 0x73, 0x65, 0x5f, 0x32, 0x30, 0x5f, 0x31,
  0x2f, 0x52, 0x65, 0x6c, 0x75, 0x3b, 0x73, 0x65, 0x71, 0x75, 0x65, 0x6e,
  0x74, 0x69, 0x61, 0x6c, 0x5f, 0x31, 0x30, 0x5f, 0x31, 0x2f, 0x64, 0x65,
  0x6e, 0x73, 0x65, 0x5f, 0x32, 0x30, 0x5f, 0x31, 0x2f, 0x42, 0x69, 0x61,
  0x73, 0x41, 0x64, 0x64, 0x00, 0x00, 0x00, 0x00, 0x02, 0x00, 0x00, 0x00,
  0x01, 0x00, 0x00, 0x00, 0x20, 0x00, 0x00, 0x00, 0xca, 0xef, 0xff, 0xff,
  0x00, 0x00, 0x00, 0x01, 0x18, 0x00, 0x00, 0x00, 0x20, 0x00, 0x00, 0x00,
  0x40, 0x00, 0x00, 0x00, 0x2c, 0x00, 0x00, 0x00, 0x00, 0x00, 0x00, 0x09,
  0x60, 0x00, 0x00, 0x00, 0x02, 0x00, 0x00, 0x00, 0xff, 0xff, 0xff, 0xff,
  0xa0, 0x00, 0x00, 0x00, 0xe4, 0xe3, 0xff, 0xff, 0x08, 0x00, 0x00, 0x00,
  0x14, 0x00, 0x00, 0x00, 0x01, 0x00, 0x00, 0x00, 0xa7, 0xff, 0xff, 0xff,
  0xff, 0xff, 0xff, 0xff, 0x00, 0x00, 0x00, 0x00, 0x01, 0x00, 0x00, 0x00,
  0x36, 0x74, 0x2b, 0x3d, 0x24, 0x00, 0x00, 0x00, 0x73, 0x65, 0x71, 0x75,
  0x65, 0x6e, 0x74, 0x69, 0x61, 0x6c, 0x5f, 0x31, 0x30, 0x5f, 0x31, 0x2f,
  0x66, 0x6c, 0x61, 0x74, 0x74, 0x65, 0x6e, 0x5f, 0x31, 0x30, 0x5f, 0x31,
  0x2f, 0x52, 0x65, 0x73, 0x68, 0x61, 0x70, 0x65, 0x00, 0x00, 0x00, 0x00,
  0x02, 0x00, 0x00, 0x00, 0x01, 0x00, 0x00, 0x00, 0xa0, 0x00, 0x00, 0x00,
  0x52, 0xf0, 0xff, 0xff, 0x00, 0x00, 0x00, 0x01, 0x18, 0x00, 0x00, 0x00,
  0x28, 0x00, 0x00, 0x00, 0x48, 0x00, 0x00, 0x00, 0x2b, 0x00, 0x00, 0x00,
  0x00, 0x00, 0x00, 0x09, 0x70, 0x00, 0x00, 0x00, 0x04, 0x00, 0x00, 0x00,
  0xff, 0xff, 0xff, 0xff, 0x01, 0x00, 0x00, 0x00, 0x05, 0x00, 0x00, 0x00,
  0x20, 0x00, 0x00, 0x00, 0x74, 0xe4, 0xff, 0xff, 0x08, 0x00, 0x00, 0x00,
  0x14, 0x00, 0x00, 0x00, 0x01, 0x00, 0x00, 0x00, 0xa7, 0xff, 0xff, 0xff,
  0xff, 0xff, 0xff, 0xff, 0x00, 0x00, 0x00, 0x00, 0x01, 0x00, 0x00, 0x00,
  0x36, 0x74, 0x2b, 0x3d, 0x2c, 0x00, 0x00, 0x00, 0x73, 0x65, 0x71, 0x75,
  0x65, 0x6e, 0x74, 0x69, 0x61, 0x6c, 0x5f, 0x31, 0x30, 0x5f, 0x31, 0x2f,
  0x6d, 0x61, 0x78, 0x5f, 0x70, 0x6f, 0x6f, 0x6c, 0x69, 0x6e, 0x67, 0x31,
  0x64, 0x5f, 0x32, 0x31, 0x5f, 0x31, 0x2f, 0x4d, 0x61, 0x78, 0x50, 0x6f,
  0x6f, 0x6c, 0x31, 0x64, 0x00, 0x00, 0x00, 0x00, 0x04, 0x00, 0x00, 0x00,
  0x01, 0x00, 0x00, 0x00, 0x01, 0x00, 0x00, 0x00, 0x05, 0x00, 0x00, 0x00,
  0x20, 0x00, 0x00, 0x00, 0xf2, 0xf0, 0xff, 0xff, 0x00, 0x00, 0x00, 0x01,
  0x18, 0x00, 0x00, 0x00, 0x28, 0x00, 0x00, 0x00, 0x44, 0x00, 0x00, 0x00,
  0x2a, 0x00, 0x00, 0x00, 0x00, 0x00, 0x00, 0x09, 0x74, 0x00, 0x00, 0x00,
  0x04, 0x00, 0x00, 0x00, 0xff, 0xff, 0xff, 0xff, 0x01, 0x00, 0x00, 0x00,
  0x0a, 0x00, 0x00, 0x00, 0x20, 0x00, 0x00, 0x00, 0x14, 0xe5, 0xff, 0xff,
  0x08, 0x00, 0x00, 0x00, 0x10, 0x00, 0x00, 0x00, 0x01, 0x00, 0x00, 0x00,
  0xa7, 0xff, 0xff, 0xff, 0xff, 0xff, 0xff, 0xff, 0x01, 0x00, 0x00, 0x00,
  0x36, 0x74, 0x2b, 0x3d, 0x37, 0x00, 0x00, 0x00, 0x73, 0x65, 0x71, 0x75,
  0x65, 0x6e, 0x74, 0x69, 0x61, 0x6c, 0x5f, 0x31, 0x30, 0x5f, 0x31, 0x2f,
  0x6d, 0x61, 0x78, 0x5f, 0x70, 0x6f, 0x6f, 0x6c, 0x69, 0x6e, 0x67, 0x31,
  0x64, 0x5f, 0x32, 0x31, 0x5f, 0x31, 0x2f, 0x4d, 0x61, 0x78, 0x50, 0x6f,
  0x6f, 0x6c, 0x31, 0x64, 0x2f, 0x45, 0x78, 0x70, 0x61, 0x6e, 0x64, 0x44,
  0x69, 0x6d, 0x73, 0x00, 0x04, 0x00, 0x00, 0x00, 0x01, 0x00, 0x00, 0x00,
  0x01, 0x00, 0x00, 0x00, 0x0a, 0x00, 0x00, 0x00, 0x20, 0x00, 0x00, 0x00,
  0x96, 0xf1, 0xff, 0xff, 0x00, 0x00, 0x00, 0x01, 0x18, 0x00, 0x00, 0x00,
  0x24, 0x00, 0x00, 0x00, 0x44, 0x00, 0x00, 0x00, 0x29, 0x00, 0x00, 0x00,
  0x00, 0x00, 0x00, 0x09, 0x28, 0x01, 0x00, 0x00, 0x03, 0x00, 0x00, 0x00,
  0xff, 0xff, 0xff, 0xff, 0x0a, 0x00, 0x00, 0x00, 0x20, 0x00, 0x00, 0x00,
  0xb4, 0xe5, 0xff, 0xff, 0x08, 0x00, 0x00, 0x00, 0x14, 0x00, 0x00, 0x00,
  0x01, 0x00, 0x00, 0x00, 0xa7, 0xff, 0xff, 0xff, 0xff, 0xff, 0xff, 0xff,
  0x00, 0x00, 0x00, 0x00, 0x01, 0x00, 0x00, 0x00, 0x36, 0x74, 0x2b, 0x3d,
  0xe8, 0x00, 0x00, 0x00, 0x73, 0x65, 0x71, 0x75, 0x65, 0x6e, 0x74, 0x69,
  0x61, 0x6c, 0x5f, 0x31, 0x30, 0x5f, 0x31, 0x2f, 0x62, 0x61, 0x74, 0x63,
  0x68, 0x5f, 0x6e, 0x6f, 0x72, 0x6d, 0x61, 0x6c, 0x69, 0x7a, 0x61, 0x74,
  0x69, 0x6f, 0x6e, 0x5f, 0x32, 0x31, 0x5f, 0x31, 0x2f, 0x62, 0x61, 0x74,
  0x63, 0x68, 0x6e, 0x6f, 0x72, 0x6d, 0x2f, 0x61, 0x64, 0x64, 0x5f, 0x31,
  0x3b, 0x73, 0x65, 0x71, 0x75, 0x65, 0x6e, 0x74, 0x69, 0x61, 0x6c, 0x5f,
  0x31, 0x30, 0x5f, 0x31, 0x2f, 0x63, 0x6f, 0x6e, 0x76, 0x31, 0x64, 0x5f,
  0x32, 0x31, 0x5f, 0x31, 0x2f, 0x63, 0x6f, 0x6e, 0x76, 0x6f, 0x6c, 0x75,
  0x74, 0x69, 0x6f, 0x6e, 0x2f, 0x53, 0x71, 0x75, 0x65, 0x65, 0x7a, 0x65,
  0x3b, 0x73, 0x65, 0x71, 0x75, 0x65, 0x6e, 0x74, 0x69, 0x61, 0x6c, 0x5f,
  0x31, 0x30, 0x5f, 0x31, 0x2f, 0x62, 0x61, 0x74, 0x63, 0x68, 0x5f, 0x6e,
  0x6f, 0x72, 0x6d, 0x61, 0x6c, 0x69, 0x7a, 0x61, 0x74, 0x69, 0x6f, 0x6e,
  0x5f, 0x32, 0x31, 0x5f, 0x31, 0x2f, 0x62, 0x61, 0x74, 0x63, 0x68, 0x6e,
  0x6f, 0x72, 0x6d, 0x2f, 0x6d, 0x75, 0x6c, 0x5f, 0x31, 0x3b, 0x73, 0x65,
  0x71, 0x75, 0x65, 0x6e, 0x74, 0x69, 0x61, 0x6c, 0x5f, 0x31, 0x30, 0x5f,
  0x31, 0x2f, 0x63, 0x6f, 0x6e, 0x76, 0x31, 0x64, 0x5f, 0x32, 0x31, 0x5f,
  0x31, 0x2f, 0x52, 0x65, 0x6c, 0x75, 0x3b, 0x73, 0x65, 0x71, 0x75, 0x65,
  0x6e, 0x74, 0x69, 0x61, 0x6c, 0x5f, 0x31, 0x30, 0x5f, 0x31, 0x2f, 0x63,
  0x6f, 0x6e, 0x76, 0x31, 0x64, 0x5f, 0x32, 0x31, 0x5f, 0x31, 0x2f, 0x42,
  0x69, 0x61, 0x73, 0x41, 0x64, 0x64, 0x3b, 0x31, 0x00, 0x00, 0x00, 0x00,
  0x03, 0x00, 0x00, 0x00, 0x01, 0x00, 0x00, 0x00, 0x0a, 0x00, 0x00, 0x00,
  0x20, 0x00, 0x00, 0x00, 0xea, 0xf2, 0xff, 0xff, 0x00, 0x00, 0x00, 0x01,
  0x18, 0x00, 0x00, 0x00, 0x28, 0x00, 0x00, 0x00, 0x48, 0x00, 0x00, 0x00,
  0x28, 0x00, 0x00, 0x00, 0x00, 0x00, 0x00, 0x09, 0x28, 0x01, 0x00, 0x00,
  0x04, 0x00, 0x00, 0x00, 0xff, 0xff, 0xff, 0xff, 0x01, 0x00, 0x00, 0x00,
  0x0a, 0x00, 0x00, 0x00, 0x20, 0x00, 0x00, 0x00, 0x0c, 0xe7, 0xff, 0xff,
  0x08, 0x00, 0x00, 0x00, 0x14, 0x00, 0x00, 0x00, 0x01, 0x00, 0x00, 0x00,
  0xa7, 0xff, 0xff, 0xff, 0xff, 0xff, 0xff, 0xff, 0x00, 0x00, 0x00, 0x00,
  0x01, 0x00, 0x00, 0x00, 0x36, 0x74, 0x2b, 0x3d, 0xe7, 0x00, 0x00, 0x00,
  0x73, 0x65, 0x71, 0x75, 0x65, 0x6e, 0x74, 0x69, 0x61, 0x6c, 0x5f, 0x31,
  0x30, 0x5f, 0x31, 0x2f, 0x62, 0x61, 0x74, 0x63, 0x68, 0x5f, 0x6e, 0x6f,
  0x72, 0x6d, 0x61, 0x6c, 0x69, 0x7a, 0x61, 0x74, 0x69, 0x6f, 0x6e, 0x5f,
  0x32, 0x31, 0x5f, 0x31, 0x2f, 0x62, 0x61, 0x74, 0x63, 0x68, 0x6e, 0x6f,
  0x72, 0x6d, 0x2f, 0x61, 0x64, 0x64, 0x5f, 0x31, 0x3b, 0x73, 0x65, 0x71,
  0x75, 0x65, 0x6e, 0x74, 0x69, 0x61, 0x6c, 0x5f, 0x31, 0x30, 0x5f, 0x31,
  0x2f, 0x63, 0x6f, 0x6e, 0x76, 0x31, 0x64, 0x5f, 0x32, 0x31, 0x5f, 0x31,
  0x2f, 0x63, 0x6f, 0x6e, 0x76, 0x6f, 0x6c, 0x75, 0x74, 0x69, 0x6f, 0x6e,
  0x2f, 0x53, 0x71, 0x75, 0x65, 0x65, 0x7a, 0x65, 0x3b, 0x73, 0x65, 0x71,
  0x75, 0x65, 0x6e, 0x74, 0x69, 0x61, 0x6c, 0x5f, 0x31, 0x30, 0x5f, 0x31,
  0x2f, 0x62, 0x61, 0x74, 0x63, 0x68, 0x5f, 0x6e, 0x6f, 0x72, 0x6d, 0x61,
  0x6c, 0x69, 0x7a, 0x61, 0x74, 0x69, 0x6f, 0x6e, 0x5f, 0x32, 0x31, 0x5f,
  0x31, 0x2f, 0x62, 0x61, 0x74, 0x63, 0x68, 0x6e, 0x6f, 0x72, 0x6d, 0x2f,
  0x6d, 0x75, 0x6c, 0x5f, 0x31, 0x3b, 0x73, 0x65, 0x71, 0x75, 0x65, 0x6e,
  0x74, 0x69, 0x61, 0x6c, 0x5f, 0x31, 0x30, 0x5f, 0x31, 0x2f, 0x63, 0x6f,
  0x6e, 0x76, 0x31, 0x64, 0x5f, 0x32, 0x31, 0x5f, 0x31, 0x2f, 0x52, 0x65,
  0x6c, 0x75, 0x3b, 0x73, 0x65, 0x71, 0x75, 0x65, 0x6e, 0x74, 0x69, 0x61,
  0x6c, 0x5f, 0x31, 0x30, 0x5f, 0x31, 0x2f, 0x63, 0x6f, 0x6e, 0x76, 0x31,
  0x64, 0x5f, 0x32, 0x31, 0x5f, 0x31, 0x2f, 0x42, 0x69, 0x61, 0x73, 0x41,
  0x64, 0x64, 0x3b, 0x00, 0x04, 0x00, 0x00, 0x00, 0x01, 0x00, 0x00, 0x00,
  0x01, 0x00, 0x00, 0x00, 0x0a, 0x00, 0x00, 0x00, 0x20, 0x00, 0x00, 0x00,
  0x42, 0xf4, 0xff, 0xff, 0x00, 0x00, 0x00, 0x01, 0x18, 0x00, 0x00, 0x00,
  0x28, 0x00, 0x00, 0x00, 0x48, 0x00, 0x00, 0x00, 0x27, 0x00, 0x00, 0x00,
  0x00, 0x00, 0x00, 0x09, 0xf0, 0x00, 0x00, 0x00, 0x04, 0x00, 0x00, 0x00,
  0xff, 0xff, 0xff, 0xff, 0x01, 0x00, 0x00, 0x00, 0x0a, 0x00, 0x00, 0x00,
  0x20, 0x00, 0x00, 0x00, 0x64, 0xe8, 0xff, 0xff, 0x08, 0x00, 0x00, 0x00,
  0x14, 0x00, 0x00, 0x00, 0x01, 0x00, 0x00, 0x00, 0xa6, 0xff, 0xff, 0xff,
  0xff, 0xff, 0xff, 0xff, 0x00, 0x00, 0x00, 0x00, 0x01, 0x00, 0x00, 0x00,
  0x8d, 0x89, 0x31, 0x3d, 0xae, 0x00, 0x00, 0x00, 0x73, 0x65, 0x71, 0x75,
  0x65, 0x6e, 0x74, 0x69, 0x61, 0x6c, 0x5f, 0x31, 0x30, 0x5f, 0x31, 0x2f,
  0x62, 0x61, 0x74, 0x63, 0x68, 0x5f, 0x6e, 0x6f, 0x72, 0x6d, 0x61, 0x6c,
  0x69, 0x7a, 0x61, 0x74, 0x69, 0x6f, 0x6e, 0x5f, 0x32, 0x31, 0x5f, 0x31,
  0x2f, 0x62, 0x61, 0x74, 0x63, 0x68, 0x6e, 0x6f, 0x72, 0x6d, 0x2f, 0x6d,
  0x75, 0x6c, 0x5f, 0x31, 0x3b, 0x73, 0x65, 0x71, 0x75, 0x65, 0x6e, 0x74,
  0x69, 0x61, 0x6c, 0x5f, 0x31, 0x30, 0x5f, 0x31, 0x2f, 0x63, 0x6f, 0x6e,
  0x76, 0x31, 0x64, 0x5f, 0x32, 0x31, 0x5f, 0x31, 0x2f, 0x63, 0x6f, 0x6e,
  0x76, 0x6f, 0x6c, 0x75, 0x74, 0x69, 0x6f, 0x6e, 0x2f, 0x53, 0x71, 0x75,
  0x65, 0x65, 0x7a, 0x65, 0x3b, 0x73, 0x65, 0x71, 0x75, 0x65, 0x6e, 0x74,
  0x69, 0x61, 0x6c, 0x5f, 0x31, 0x30, 0x5f, 0x31, 0x2f, 0x63, 0x6f, 0x6e,
  0x76, 0x31, 0x64, 0x5f, 0x32, 0x31, 0x5f, 0x31, 0x2f, 0x52, 0x65, 0x6c,
  0x75, 0x3b, 0x73, 0x65, 0x71, 0x75, 0x65, 0x6e, 0x74, 0x69, 0x61, 0x6c,
  0x5f, 0x31, 0x30, 0x5f, 0x31, 0x2f, 0x63, 0x6f, 0x6e, 0x76, 0x31, 0x64,
  0x5f, 0x32, 0x31, 0x5f, 0x31, 0x2f, 0x42, 0x69, 0x61, 0x73, 0x41, 0x64,
  0x64, 0x3b, 0x00, 0x00, 0x04, 0x00, 0x00, 0x00, 0x01, 0x00, 0x00, 0x00,
  0x01, 0x00, 0x00, 0x00, 0x0a, 0x00, 0x00, 0x00, 0x20, 0x00, 0x00, 0x00,
  0x62, 0xf5, 0xff, 0xff, 0x00, 0x00, 0x00, 0x01, 0x18, 0x00, 0x00, 0x00,
  0x28, 0x00, 0x00, 0x00, 0x48, 0x00, 0x00, 0x00, 0x26, 0x00, 0x00, 0x00,
  0x00, 0x00, 0x00, 0x09, 0xe0, 0x00, 0x00, 0x00, 0x04, 0x00, 0x00, 0x00,
  0xff, 0xff, 0xff, 0xff, 0x01, 0x00, 0x00, 0x00, 0x0a, 0x00, 0x00, 0x00,
  0x20, 0x00, 0x00, 0x00, 0x84, 0xe9, 0xff, 0xff, 0x08, 0x00, 0x00, 0x00,
  0x14, 0x00, 0x00, 0x00, 0x01, 0x00, 0x00, 0x00, 0x80, 0xff, 0xff, 0xff,
  0xff, 0xff, 0xff, 0xff, 0x00, 0x00, 0x00, 0x00, 0x01, 0x00, 0x00, 0x00,
  0x4b, 0x60, 0x17, 0x3d, 0x9d, 0x00, 0x00, 0x00, 0x73, 0x65, 0x71, 0x75,
  0x65, 0x6e, 0x74, 0x69, 0x61, 0x6c, 0x5f, 0x31, 0x30, 0x5f, 0x31, 0x2f,
  0x63, 0x6f, 0x6e, 0x76, 0x31, 0x64, 0x5f, 0x32, 0x31, 0x5f, 0x31, 0x2f,
  0x52, 0x65, 0x6c, 0x75, 0x3b, 0x73, 0x65, 0x71, 0x75, 0x65, 0x6e, 0x74,
  0x69, 0x61, 0x6c, 0x5f, 0x31, 0x30, 0x5f, 0x31, 0x2f, 0x63, 0x6f, 0x6e,
  0x76, 0x31, 0x64, 0x5f, 0x32, 0x31, 0x5f, 0x31, 0x2f, 0x42, 0x69, 0x61,
  0x73, 0x41, 0x64, 0x64, 0x3b, 0x73, 0x65, 0x71, 0x75, 0x65, 0x6e, 0x74,
  0x69, 0x61, 0x6c, 0x5f, 0x31, 0x30, 0x5f, 0x31, 0x2f, 0x63, 0x6f, 0x6e,
  0x76, 0x31, 0x64, 0x5f, 0x32, 0x31, 0x5f, 0x31, 0x2f, 0x63, 0x6f, 0x6e,
  0x76, 0x6f, 0x6c, 0x75, 0x74, 0x69, 0x6f, 0x6e, 0x2f, 0x53, 0x71, 0x75,
  0x65, 0x65, 0x7a, 0x65, 0x3b, 0x3b, 0x73, 0x65, 0x71, 0x75, 0x65, 0x6e,
  0x74, 0x69, 0x61, 0x6c, 0x5f, 0x31, 0x30, 0x5f, 0x31, 0x2f, 0x63, 0x6f,
  0x6e, 0x76, 0x31, 0x64, 0x5f, 0x32, 0x31, 0x5f, 0x31, 0x2f, 0x63, 0x6f,
  0x6e, 0x76, 0x6f, 0x6c, 0x75, 0x74, 0x69, 0x6f, 0x6e, 0x00, 0x00, 0x00,
  0x04, 0x00, 0x00, 0x00, 0x01, 0x00, 0x00, 0x00, 0x01, 0x00, 0x00, 0x00,
  0x0a, 0x00, 0x00, 0x00, 0x20, 0x00, 0x00, 0x00, 0x72, 0xf6, 0xff, 0xff,
  0x00, 0x00, 0x00, 0x01, 0x18, 0x00, 0x00, 0x00, 0x28, 0x00, 0x00, 0x00,
  0x48, 0x00, 0x00, 0x00, 0x25, 0x00, 0x00, 0x00, 0x00, 0x00, 0x00, 0x09,
  0x74, 0x00, 0x00, 0x00, 0x04, 0x00, 0x00, 0x00, 0xff, 0xff, 0xff, 0xff,
  0x01, 0x00, 0x00, 0x00, 0x0a, 0x00, 0x00, 0x00, 0x10, 0x00, 0x00, 0x00,
  0x94, 0xea, 0xff, 0xff, 0x08, 0x00, 0x00, 0x00, 0x14, 0x00, 0x00, 0x00,
  0x01, 0x00, 0x00, 0x00, 0xf1, 0xff, 0xff, 0xff, 0xff, 0xff, 0xff, 0xff,
  0x00, 0x00, 0x00, 0x00, 0x01, 0x00, 0x00, 0x00, 0x45, 0x9a, 0x0b, 0x3d,
  0x32, 0x00, 0x00, 0x00, 0x73, 0x65, 0x71, 0x75, 0x65, 0x6e, 0x74, 0x69,
  0x61, 0x6c, 0x5f, 0x31, 0x30, 0x5f, 0x31, 0x2f, 0x63, 0x6f, 0x6e, 0x76,
  0x31, 0x64, 0x5f, 0x32, 0x31, 0x5f, 0x31, 0x2f, 0x63, 0x6f, 0x6e, 0x76,
  0x6f, 0x6c, 0x75, 0x74, 0x69, 0x6f, 0x6e, 0x2f, 0x45, 0x78, 0x70, 0x61,
  0x6e, 0x64, 0x44, 0x69, 0x6d, 0x73, 0x00, 0x00, 0x04, 0x00, 0x00, 0x00,
  0x01, 0x00, 0x00, 0x00, 0x01, 0x00, 0x00, 0x00, 0x0a, 0x00, 0x00, 0x00,
  0x10, 0x00, 0x00, 0x00, 0x16, 0xf7, 0xff, 0xff, 0x00, 0x00, 0x00, 0x01,
  0x18, 0x00, 0x00, 0x00, 0x24, 0x00, 0x00, 0x00, 0x40, 0x00, 0x00, 0x00,
  0x24, 0x00, 0x00, 0x00, 0x00, 0x00, 0x00, 0x09, 0x70, 0x00, 0x00, 0x00,
  0x03, 0x00, 0x00, 0x00, 0xff, 0xff, 0xff, 0xff, 0x0a, 0x00, 0x00, 0x00,
  0x10, 0x00, 0x00, 0x00, 0x34, 0xeb, 0xff, 0xff, 0x08, 0x00, 0x00, 0x00,
  0x10, 0x00, 0x00, 0x00, 0x01, 0x00, 0x00, 0x00, 0xf1, 0xff, 0xff, 0xff,
  0xff, 0xff, 0xff, 0xff, 0x01, 0x00, 0x00, 0x00, 0x45, 0x9a, 0x0b, 0x3d,
  0x34, 0x00, 0x00, 0x00, 0x73, 0x65, 0x71, 0x75, 0x65, 0x6e, 0x74, 0x69,
  0x61, 0x6c, 0x5f, 0x31, 0x30, 0x5f, 0x31, 0x2f, 0x6d, 0x61, 0x78, 0x5f,
  0x70, 0x6f, 0x6f, 0x6c, 0x69, 0x6e, 0x67, 0x31, 0x64, 0x5f, 0x32, 0x30,
  0x5f, 0x31, 0x2f, 0x4d, 0x61, 0x78, 0x50, 0x6f, 0x6f, 0x6c, 0x31, 0x64,
  0x2f, 0x53, 0x71, 0x75, 0x65, 0x65, 0x7a, 0x65, 0x00, 0x00, 0x00, 0x00,
  0x03, 0x00, 0x00, 0x00, 0x01, 0x00, 0x00, 0x00, 0x0a, 0x00, 0x00, 0x00,
  0x10, 0x00, 0x00, 0x00, 0xb2, 0xf7, 0xff, 0xff, 0x00, 0x00, 0x00, 0x01,
  0x18, 0x00, 0x00, 0x00, 0x28, 0x00, 0x00, 0x00, 0x48, 0x00, 0x00, 0x00,
  0x23, 0x00, 0x00, 0x00, 0x00, 0x00, 0x00, 0x09, 0x70, 0x00, 0x00, 0x00,
  0x04, 0x00, 0x00, 0x00, 0xff, 0xff, 0xff, 0xff, 0x01, 0x00, 0x00, 0x00,
  0x0a, 0x00, 0x00, 0x00, 0x10, 0x00, 0x00, 0x00, 0xd4, 0xeb, 0xff, 0xff,
  0x08, 0x00, 0x00, 0x00, 0x14, 0x00, 0x00, 0x00, 0x01, 0x00, 0x00, 0x00,
  0xf1, 0xff, 0xff, 0xff, 0xff, 0xff, 0xff, 0xff, 0x00, 0x00, 0x00, 0x00,
  0x01, 0x00, 0x00, 0x00, 0x45, 0x9a, 0x0b, 0x3d, 0x2c, 0x00, 0x00, 0x00,
  0x73, 0x65, 0x71, 0x75, 0x65, 0x6e, 0x74, 0x69, 0x61, 0x6c, 0x5f, 0x31,
  0x30, 0x5f, 0x31, 0x2f, 0x6d, 0x61, 0x78, 0x5f, 0x70, 0x6f, 0x6f, 0x6c,
  0x69, 0x6e, 0x67, 0x31, 0x64, 0x5f, 0x32, 0x30, 0x5f, 0x31, 0x2f, 0x4d,
  0x61, 0x78, 0x50, 0x6f, 0x6f, 0x6c, 0x31, 0x64, 0x00, 0x00, 0x00, 0x00,
  0x04, 0x00, 0x00, 0x00, 0x01, 0x00, 0x00, 0x00, 0x01, 0x00, 0x00, 0x00,
  0x0a, 0x00, 0x00, 0x00, 0x10, 0x00, 0x00, 0x00, 0x52, 0xf8, 0xff, 0xff,
  0x00, 0x00, 0x00, 0x01, 0x18, 0x00, 0x00, 0x00, 0x28, 0x00, 0x00, 0x00,
  0x44, 0x00, 0x00, 0x00, 0x22, 0x00, 0x00, 0x00, 0x00, 0x00, 0x00, 0x09,
  0x74, 0x00, 0x00, 0x00, 0x04, 0x00, 0x00, 0x00, 0xff, 0xff, 0xff, 0xff,
  0x01, 0x00, 0x00, 0x00, 0x15, 0x00, 0x00, 0x00, 0x10, 0x00, 0x00, 0x00,
  0x74, 0xec, 0xff, 0xff, 0x08, 0x00, 0x00, 0x00, 0x10, 0x00, 0x00, 0x00,
  0x01, 0x00, 0x00, 0x00, 0xf1, 0xff, 0xff, 0xff, 0xff, 0xff, 0xff, 0xff,
  0x01, 0x00, 0x00, 0x00, 0x45, 0x9a, 0x0b, 0x3d, 0x37, 0x00, 0x00, 0x00,
  0x73, 0x65, 0x71, 0x75, 0x65, 0x6e, 0x74, 0x69, 0x61, 0x6c, 0x5f, 0x31,
  0x30, 0x5f, 0x31, 0x2f, 0x6d, 0x61, 0x78, 0x5f, 0x70, 0x6f, 0x6f, 0x6c,
  0x69, 0x6e, 0x67, 0x31, 0x64, 0x5f, 0x32, 0x30, 0x5f, 0x31, 0x2f, 0x4d,
  0x61, 0x78, 0x50, 0x6f, 0x6f, 0x6c, 0x31, 0x64, 0x2f, 0x45, 0x78, 0x70,
  0x61, 0x6e, 0x64, 0x44, 0x69, 0x6d, 0x73, 0x00, 0x04, 0x00, 0x00, 0x00,
  0x01, 0x00, 0x00, 0x00, 0x01, 0x00, 0x00, 0x00, 0x15, 0x00, 0x00, 0x00,
  0x10, 0x00, 0x00, 0x00, 0xf6, 0xf8, 0xff, 0xff, 0x00, 0x00, 0x00, 0x01,
  0x18, 0x00, 0x00, 0x00, 0x24, 0x00, 0x00, 0x00, 0x44, 0x00, 0x00, 0x00,
  0x21, 0x00, 0x00, 0x00, 0x00, 0x00, 0x00, 0x09, 0x28, 0x01, 0x00, 0x00,
  0x03, 0x00, 0x00, 0x00, 0xff, 0xff, 0xff, 0xff, 0x15, 0x00, 0x00, 0x00,
  0x10, 0x00, 0x00, 0x00, 0x14, 0xed, 0xff, 0xff, 0x08, 0x00, 0x00, 0x00,
  0x14, 0x00, 0x00, 0x00, 0x01, 0x00, 0x00, 0x00, 0xf1, 0xff, 0xff, 0xff,
  0xff, 0xff, 0xff, 0xff, 0x00, 0x00, 0x00, 0x00, 0x01, 0x00, 0x00, 0x00,
  0x45, 0x9a, 0x0b, 0x3d, 0xe8, 0x00, 0x00, 0x00, 0x73, 0x65, 0x71, 0x75,
  0x65, 0x6e, 0x74, 0x69, 0x61, 0x6c, 0x5f, 0x31, 0x30, 0x5f, 0x31, 0x2f,
  0x62, 0x61, 0x74, 0x63, 0x68, 0x5f, 0x6e, 0x6f, 0x72, 0x6d, 0x61, 0x6c,
  0x69, 0x7a, 0x61, 0x74, 0x69, 0x6f, 0x6e, 0x5f, 0x32, 0x30, 0x5f, 0x31,
  0x2f, 0x62, 0x61, 0x74, 0x63, 0x68, 0x6e, 0x6f, 0x72, 0x6d, 0x2f, 0x61,
  0x64, 0x64, 0x5f, 0x31, 0x3b, 0x73, 0x65, 0x71, 0x75, 0x65, 0x6e, 0x74,
  0x69, 0x61, 0x6c, 0x5f, 0x31, 0x30, 0x5f, 0x31, 0x2f, 0x63, 0x6f, 0x6e,
  0x76, 0x31, 0x64, 0x5f, 0x32, 0x30, 0x5f, 0x31, 0x2f, 0x63, 0x6f, 0x6e,
  0x76, 0x6f, 0x6c, 0x75, 0x74, 0x69, 0x6f, 0x6e, 0x2f, 0x53, 0x71, 0x75,
  0x65, 0x65, 0x7a, 0x65, 0x3b, 0x73, 0x65, 0x71, 0x75, 0x65, 0x6e, 0x74,
  0x69, 0x61, 0x6c, 0x5f, 0x31, 0x30, 0x5f, 0x31, 0x2f, 0x62, 0x61, 0x74,
  0x63, 0x68, 0x5f, 0x6e, 0x6f, 0x72, 0x6d, 0x61, 0x6c, 0x69, 0x7a, 0x61,
  0x74, 0x69, 0x6f, 0x6e, 0x5f, 0x32, 0x30, 0x5f, 0x31, 0x2f, 0x62, 0x61,
  0x74, 0x63, 0x68, 0x6e, 0x6f, 0x72, 0x6d, 0x2f, 0x6d, 0x75, 0x6c, 0x5f,
  0x31, 0x3b, 0x73, 0x65, 0x71, 0x75, 0x65, 0x6e, 0x74, 0x69, 0x61, 0x6c,
  0x5f, 0x31, 0x30, 0x5f, 0x31, 0x2f, 0x63, 0x6f, 0x6e, 0x76, 0x31, 0x64,
  0x5f, 0x32, 0x30, 0x5f, 0x31, 0x2f, 0x52, 0x65, 0x6c, 0x75, 0x3b, 0x73,
  0x65, 0x71, 0x75, 0x65, 0x6e, 0x74, 0x69, 0x61, 0x6c, 0x5f, 0x31, 0x30,
  0x5f, 0x31, 0x2f, 0x63, 0x6f, 0x6e, 0x76, 0x31, 0x64, 0x5f, 0x32, 0x30,
  0x5f, 0x31, 0x2f, 0x42, 0x69, 0x61, 0x73, 0x41, 0x64, 0x64, 0x3b, 0x31,
  0x00, 0x00, 0x00, 0x00, 0x03, 0x00, 0x00, 0x00, 0x01, 0x00, 0x00, 0x00,
  0x15, 0x00, 0x00, 0x00, 0x10, 0x00, 0x00, 0x00, 0x4a, 0xfa, 0xff, 0xff,
  0x00, 0x00, 0x00, 0x01, 0x18, 0x00, 0x00, 0x00, 0x28, 0x00, 0x00, 0x00,
  0x48, 0x00, 0x00, 0x00, 0x20, 0x00, 0x00, 0x00, 0x00, 0x00, 0x00, 0x09,
  0x28, 0x01, 0x00, 0x00, 0x04, 0x00, 0x00, 0x00, 0xff, 0xff, 0xff, 0xff,
  0x01, 0x00, 0x00, 0x00, 0x15, 0x00, 0x00, 0x00, 0x10, 0x00, 0x00, 0x00,
  0x6c, 0xee, 0xff, 0xff, 0x08, 0x00, 0x00, 0x00, 0x14, 0x00, 0x00, 0x00,
  0x01, 0x00, 0x00, 0x00, 0xf1, 0xff, 0xff, 0xff, 0xff, 0xff, 0xff, 0xff,
  0x00, 0x00, 0x00, 0x00, 0x01, 0x00, 0x00, 0x00, 0x45, 0x9a, 0x0b, 0x3d,
  0xe7, 0x00, 0x00, 0x00, 0x73, 0x65, 0x71, 0x75, 0x65, 0x6e, 0x74, 0x69,
  0x61, 0x6c, 0x5f, 0x31, 0x30, 0x5f, 0x31, 0x2f, 0x62, 0x61, 0x74, 0x63,
  0x68, 0x5f, 0x6e, 0x6f, 0x72, 0x6d, 0x61, 0x6c, 0x69, 0x7a, 0x61, 0x74,
  0x69, 0x6f, 0x6e, 0x5f, 0x32, 0x30, 0x5f, 0x31, 0x2f, 0x62, 0x61, 0x74,
  0x63, 0x68, 0x6e, 0x6f, 0x72, 0x6d, 0x2f, 0x61, 0x64, 0x64, 0x5f, 0x31,
  0x3b, 0x73, 0x65, 0x71, 0x75, 0x65, 0x6e, 0x74, 0x69, 0x61, 0x6c, 0x5f,
  0x31, 0x30, 0x5f, 0x31, 0x2f, 0x63, 0x6f, 0x6e, 0x76, 0x31, 0x64, 0x5f,
  0x32, 0x30, 0x5f, 0x31, 0x2f, 0x63, 0x6f, 0x6e, 0x76, 0x6f, 0x6c, 0x75,
  0x74, 0x69, 0x6f, 0x6e, 0x2f, 0x53, 0x71, 0x75, 0x65, 0x65, 0x7a, 0x65,
  0x3b, 0x73, 0x65, 0x71, 0x75, 0x65, 0x6e, 0x74, 0x69, 0x61, 0x6c, 0x5f,
  0x31, 0x30, 0x5f, 0x31, 0x2f, 0x62, 0x61, 0x74, 0x63, 0x68, 0x5f, 0x6e,
  0x6f, 0x72, 0x6d, 0x61, 0x6c, 0x69, 0x7a, 0x61, 0x74, 0x69, 0x6f, 0x6e,
  0x5f, 0x32, 0x30, 0x5f, 0x31, 0x2f, 0x62, 0x61, 0x74, 0x63, 0x68, 0x6e,
  0x6f, 0x72, 0x6d, 0x2f, 0x6d, 0x75, 0x6c, 0x5f, 0x31, 0x3b, 0x73, 0x65,
  0x71, 0x75, 0x65, 0x6e, 0x74, 0x69, 0x61, 0x6c, 0x5f, 0x31, 0x30, 0x5f,
  0x31, 0x2f, 0x63, 0x6f, 0x6e, 0x76, 0x31, 0x64, 0x5f, 0x32, 0x30, 0x5f,
  0x31, 0x2f, 0x52, 0x65, 0x6c, 0x75, 0x3b, 0x73, 0x65, 0x71, 0x75, 0x65,
  0x6e, 0x74, 0x69, 0x61, 0x6c, 0x5f, 0x31, 0x30, 0x5f, 0x31, 0x2f, 0x63,
  0x6f, 0x6e, 0x76, 0x31, 0x64, 0x5f, 0x32, 0x30, 0x5f, 0x31, 0x2f, 0x42,
  0x69, 0x61, 0x73, 0x41, 0x64, 0x64, 0x3b, 0x00, 0x04, 0x00, 0x00, 0x00,
  0x01, 0x00, 0x00, 0x00, 0x01, 0x00, 0x00, 0x00, 0x15, 0x00, 0x00, 0x00,
  0x10, 0x00, 0x00, 0x00, 0xa2, 0xfb, 0xff, 0xff, 0x00, 0x00, 0x00, 0x01,
  0x18, 0x00, 0x00, 0x00, 0x28, 0x00, 0x00, 0x00, 0x48, 0x00, 0x00, 0x00,
  0x1f, 0x00, 0x00, 0x00, 0x00, 0x00, 0x00, 0x09, 0xf0, 0x00, 0x00, 0x00,
  0x04, 0x00, 0x00, 0x00, 0xff, 0xff, 0xff, 0xff, 0x01, 0x00, 0x00, 0x00,
  0x15, 0x00, 0x00, 0x00, 0x10, 0x00, 0x00, 0x00, 0xc4, 0xef, 0xff, 0xff,
  0x08, 0x00, 0x00, 0x00, 0x14, 0x00, 0x00, 0x00, 0x01, 0x00, 0x00, 0x00,
  0xdc, 0xff, 0xff, 0xff, 0xff, 0xff, 0xff, 0xff, 0x00, 0x00, 0x00, 0x00,
  0x01, 0x00, 0x00, 0x00, 0x67, 0x65, 0x2a, 0x3d, 0xae, 0x00, 0x00, 0x00,
  0x73, 0x65, 0x71, 0x75, 0x65, 0x6e, 0x74, 0x69, 0x61, 0x6c, 0x5f, 0x31,
  0x30, 0x5f, 0x31, 0x2f, 0x62, 0x61, 0x74, 0x63, 0x68, 0x5f, 0x6e, 0x6f,
  0x72, 0x6d, 0x61, 0x6c, 0x69, 0x7a, 0x61, 0x74, 0x69, 0x6f, 0x6e, 0x5f,
  0x32, 0x30, 0x5f, 0x31, 0x2f, 0x62, 0x61, 0x74, 0x63, 0x68, 0x6e, 0x6f,
  0x72, 0x6d, 0x2f, 0x6d, 0x75, 0x6c, 0x5f, 0x31, 0x3b, 0x73, 0x65, 0x71,
  0x75, 0x65, 0x6e, 0x74, 0x69, 0x61, 0x6c, 0x5f, 0x31, 0x30, 0x5f, 0x31,
  0x2f, 0x63, 0x6f, 0x6e, 0x76, 0x31, 0x64, 0x5f, 0x32, 0x30, 0x5f, 0x31,
  0x2f, 0x63, 0x6f, 0x6e, 0x76, 0x6f, 0x6c, 0x75, 0x74, 0x69, 0x6f, 0x6e,
  0x2f, 0x53, 0x71, 0x75, 0x65, 0x65, 0x7a, 0x65, 0x3b, 0x73, 0x65, 0x71,
  0x75, 0x65, 0x6e, 0x74, 0x69, 0x61, 0x6c, 0x5f, 0x31, 0x30, 0x5f, 0x31,
  0x2f, 0x63, 0x6f, 0x6e, 0x76, 0x31, 0x64, 0x5f, 0x32, 0x30, 0x5f, 0x31,
  0x2f, 0x52, 0x65, 0x6c, 0x75, 0x3b, 0x73, 0x65, 0x71, 0x75, 0x65, 0x6e,
  0x74, 0x69, 0x61, 0x6c, 0x5f, 0x31, 0x30, 0x5f, 0x31, 0x2f, 0x63, 0x6f,
  0x6e, 0x76, 0x31, 0x64, 0x5f, 0x32, 0x30, 0x5f, 0x31, 0x2f, 0x42, 0x69,
  0x61, 0x73, 0x41, 0x64, 0x64, 0x3b, 0x00, 0x00, 0x04, 0x00, 0x00, 0x00,
  0x01, 0x00, 0x00, 0x00, 0x01, 0x00, 0x00, 0x00, 0x15, 0x00, 0x00, 0x00,
  0x10, 0x00, 0x00, 0x00, 0xc2, 0xfc, 0xff, 0xff, 0x00, 0x00, 0x00, 0x01,
  0x18, 0x00, 0x00, 0x00, 0x28, 0x00, 0x00, 0x00, 0x48, 0x00, 0x00, 0x00,
  0x1e, 0x00, 0x00, 0x00, 0x00, 0x00, 0x00, 0x09, 0xe0, 0x00, 0x00, 0x00,
  0x04, 0x00, 0x00, 0x00, 0xff, 0xff, 0xff, 0xff, 0x01, 0x00, 0x00, 0x00,
  0x15, 0x00, 0x00, 0x00, 0x10, 0x00, 0x00, 0x00, 0xe4, 0xf0, 0xff, 0xff,
  0x08, 0x00, 0x00, 0x00, 0x14, 0x00, 0x00, 0x00, 0x01, 0x00, 0x00, 0x00,
  0x80, 0xff, 0xff, 0xff, 0xff, 0xff, 0xff, 0xff, 0x00, 0x00, 0x00, 0x00,
  0x01, 0x00, 0x00, 0x00, 0x82, 0xc7, 0x29, 0x3f, 0x9d, 0x00, 0x00, 0x00,
  0x73, 0x65, 0x71, 0x75, 0x65, 0x6e, 0x74, 0x69, 0x61, 0x6c, 0x5f, 0x31,
  0x30, 0x5f, 0x31, 0x2f, 0x63, 0x6f, 0x6e, 0x76, 0x31, 0x64, 0x5f, 0x32,
  0x30, 0x5f, 0x31, 0x2f, 0x52, 0x65, 0x6c, 0x75, 0x3b, 0x73, 0x65, 0x71,
  0x75, 0x65, 0x6e, 0x74, 0x69, 0x61, 0x6c, 0x5f, 0x31, 0x30, 0x5f, 0x31,
  0x2f, 0x63, 0x6f, 0x6e, 0x76, 0x31, 0x64, 0x5f, 0x32, 0x30, 0x5f, 0x31,
  0x2f, 0x42, 0x69, 0x61, 0x73, 0x41, 0x64, 0x64, 0x3b, 0x73, 0x65, 0x71,
  0x75, 0x65, 0x6e, 0x74, 0x69, 0x61, 0x6c, 0x5f, 0x31, 0x30, 0x5f, 0x31,
  0x2f, 0x63, 0x6f, 0x6e, 0x76, 0x31, 0x64, 0x5f, 0x32, 0x30, 0x5f, 0x31,
  0x2f, 0x63, 0x6f, 0x6e, 0x76, 0x6f, 0x6c, 0x75, 0x74, 0x69, 0x6f, 0x6e,
  0x2f, 0x53, 0x71, 0x75, 0x65, 0x65, 0x7a, 0x65, 0x3b, 0x3b, 0x73, 0x65,
  0x71, 0x75, 0x65, 0x6e, 0x74, 0x69, 0x61, 0x6c, 0x5f, 0x31, 0x30, 0x5f,
  0x31, 0x2f, 0x63, 0x6f, 0x6e, 0x76, 0x31, 0x64, 0x5f, 0x32, 0x30, 0x5f,
  0x31, 0x2f, 0x63, 0x6f, 0x6e, 0x76, 0x6f, 0x6c, 0x75, 0x74, 0x69, 0x6f,
  0x6e, 0x00, 0x00, 0x00, 0x04, 0x00, 0x00, 0x00, 0x01, 0x00, 0x00, 0x00,
  0x01, 0x00, 0x00, 0x00, 0x15, 0x00, 0x00, 0x00, 0x10, 0x00, 0x00, 0x00,
  0xd2, 0xfd, 0xff, 0xff, 0x00, 0x00, 0x00, 0x01, 0x18, 0x00, 0x00, 0x00,
  0x28, 0x00, 0x00, 0x00, 0x48, 0x00, 0x00, 0x00, 0x1d, 0x00, 0x00, 0x00,
  0x00, 0x00, 0x00, 0x09, 0x74, 0x00, 0x00, 0x00, 0x04, 0x00, 0x00, 0x00,
  0xff, 0xff, 0xff, 0xff, 0x01, 0x00, 0x00, 0x00, 0x15, 0x00, 0x00, 0x00,
  0x20, 0x00, 0x00, 0x00, 0xf4, 0xf1, 0xff, 0xff, 0x08, 0x00, 0x00, 0x00,
  0x14, 0x00, 0x00, 0x00, 0x01, 0x00, 0x00, 0x00, 0x7f, 0x00, 0x00, 0x00,
  0x00, 0x00, 0x00, 0x00, 0x00, 0x00, 0x00, 0x00, 0x01, 0x00, 0x00, 0x00,
  0xd1, 0xd0, 0x50, 0x3e, 0x32, 0x00, 0x00, 0x00, 0x73, 0x65, 0x71, 0x75,
  0x65, 0x6e, 0x74, 0x69, 0x61, 0x6c, 0x5f, 0x31, 0x30, 0x5f, 0x31, 0x2f,
  0x63, 0x6f, 0x6e, 0x76, 0x31, 0x64, 0x5f, 0x32, 0x30, 0x5f, 0x31, 0x2f,
  0x63, 0x6f, 0x6e, 0x76, 0x6f, 0x6c, 0x75, 0x74, 0x69, 0x6f, 0x6e, 0x2f,
  0x45, 0x78, 0x70, 0x61, 0x6e, 0x64, 0x44, 0x69, 0x6d, 0x73, 0x00, 0x00,
  0x04, 0x00, 0x00, 0x00, 0x01, 0x00, 0x00, 0x00, 0x01, 0x00, 0x00, 0x00,
  0x15, 0x00, 0x00, 0x00, 0x20, 0x00, 0x00, 0x00, 0x76, 0xfe, 0xff, 0xff,
  0x00, 0x00, 0x00, 0x01, 0x18, 0x00, 0x00, 0x00, 0x24, 0x00, 0x00, 0x00,
  0x40, 0x00, 0x00, 0x00, 0x1c, 0x00, 0x00, 0x00, 0x00, 0x00, 0x00, 0x09,
  0x60, 0x00, 0x00, 0x00, 0x03, 0x00, 0x00, 0x00, 0xff, 0xff, 0xff, 0xff,
  0x15, 0x00, 0x00, 0x00, 0x20, 0x00, 0x00, 0x00, 0x94, 0xf2, 0xff, 0xff,
  0x08, 0x00, 0x00, 0x00, 0x10, 0x00, 0x00, 0x00, 0x01, 0x00, 0x00, 0x00,
  0x7f, 0x00, 0x00, 0x00, 0x00, 0x00, 0x00, 0x00, 0x01, 0x00, 0x00, 0x00,
  0xd1, 0xd0, 0x50, 0x3e, 0x24, 0x00, 0x00, 0x00, 0x73, 0x65, 0x71, 0x75,
  0x65, 0x6e, 0x74, 0x69, 0x61, 0x6c, 0x5f, 0x31, 0x30, 0x5f, 0x31, 0x2f,
  0x72, 0x65, 0x73, 0x68, 0x61, 0x70, 0x65, 0x5f, 0x31, 0x30, 0x5f, 0x31,
  0x2f, 0x52, 0x65, 0x73, 0x68, 0x61, 0x70, 0x65, 0x00, 0x00, 0x00, 0x00,
  0x03, 0x00, 0x00, 0x00, 0x01, 0x00, 0x00, 0x00, 0x15, 0x00, 0x00, 0x00,
  0x20, 0x00, 0x00, 0x00, 0x96, 0xf0, 0xff, 0xff, 0x00, 0x00, 0x00, 0x01,
  0x14, 0x00, 0x00, 0x00, 0x14, 0x00, 0x00, 0x00, 0x1b, 0x00, 0x00, 0x00,
  0x00, 0x00, 0x00, 0x02, 0x38, 0x00, 0x00, 0x00, 0x1c, 0xf0, 0xff, 0xff,
  0x2a, 0x00, 0x00, 0x00, 0x73, 0x65, 0x71, 0x75, 0x65, 0x6e, 0x74, 0x69,
  0x61, 0x6c, 0x5f, 0x31, 0x30, 0x5f, 0x31, 0x2f, 0x72, 0x65, 0x73, 0x68,
  0x61, 0x70, 0x65, 0x5f, 0x31, 0x30, 0x5f, 0x31, 0x2f, 0x52, 0x65, 0x73,
  0x68, 0x61, 0x70, 0x65, 0x2f, 0x73, 0x68, 0x61, 0x70, 0x65, 0x00, 0x00,
  0x01, 0x00, 0x00, 0x00, 0x03, 0x00, 0x00, 0x00, 0xee, 0xf0, 0xff, 0xff,
  0x00, 0x00, 0x00, 0x01, 0x14, 0x00, 0x00, 0x00, 0x14, 0x00, 0x00, 0x00,
  0x1a, 0x00, 0x00, 0x00, 0x00, 0x00, 0x00, 0x02, 0x38, 0x00, 0x00, 0x00,
  0x74, 0xf0, 0xff, 0xff, 0x2a, 0x00, 0x00, 0x00, 0x73, 0x65, 0x71, 0x75,
  0x65, 0x6e, 0x74, 0x69, 0x61, 0x6c, 0x5f, 0x31, 0x30, 0x5f, 0x31, 0x2f,
  0x72, 0x65, 0x73, 0x68, 0x61, 0x70, 0x65, 0x5f, 0x31, 0x30, 0x5f, 0x31,
  0x2f, 0x73, 0x74, 0x72, 0x69, 0x64, 0x65, 0x64, 0x5f, 0x73, 0x6c, 0x69,
  0x63, 0x65, 0x00, 0x00, 0x00, 0x00, 0x00, 0x00, 0x42, 0xf1, 0xff, 0xff,
  0x00, 0x00, 0x00, 0x01, 0x14, 0x00, 0x00, 0x00, 0x14, 0x00, 0x00, 0x00,
  0x19, 0x00, 0x00, 0x00, 0x00, 0x00, 0x00, 0x02, 0x30, 0x00, 0x00, 0x00,
  0xc8, 0xf0, 0xff, 0xff, 0x22, 0x00, 0x00, 0x00, 0x73, 0x65, 0x71, 0x75,
  0x65, 0x6e, 0x74, 0x69, 0x61, 0x6c, 0x5f, 0x31, 0x30, 0x5f, 0x31, 0x2f,
  0x72, 0x65, 0x73, 0x68, 0x61, 0x70, 0x65, 0x5f, 0x31, 0x30, 0x5f, 0x31,
  0x2f, 0x53, 0x68, 0x61, 0x70, 0x65, 0x00, 0x00, 0x01, 0x00, 0x00, 0x00,
  0x03, 0x00, 0x00, 0x00, 0x00, 0x00, 0x16, 0x00, 0x20, 0x00, 0x1c, 0x00,
  0x1b, 0x00, 0x14, 0x00, 0x10, 0x00, 0x0c, 0x00, 0x00, 0x00, 0x00, 0x00,
  0x08, 0x00, 0x07, 0x00, 0x16, 0x00, 0x00, 0x00, 0x00, 0x00, 0x00, 0x01,
