unsigned char jarvis0_4_7_tflite[] = {
  0x1c, 0x00, 0x00, 0x00, 0x54, 0x46, 0x4c, 0x33, 0x14, 0x00, 0x20, 0x00,
  0x1c, 0x00, 0x18, 0x00, 0x14, 0x00, 0x10, 0x00, 0x0c, 0x00, 0x00, 0x00,
  0x08, 0x00, 0x04, 0x00, 0x14, 0x00, 0x00, 0x00, 0x1c, 0x00, 0x00, 0x00,
  0x8c, 0x00, 0x00, 0x00, 0x0c, 0x01, 0x00, 0x00, 0xf0, 0x25, 0x00, 0x00,
  0x00, 0x26, 0x00, 0x00, 0xc0, 0x4d, 0x00, 0x00, 0x03, 0x00, 0x00, 0x00,
  0x01, 0x00, 0x00, 0x00, 0x04, 0x00, 0x00, 0x00, 0x96, 0xd5, 0xff, 0xff,
  0x0c, 0x00, 0x00, 0x00, 0x1c, 0x00, 0x00, 0x00, 0x3c, 0x00, 0x00, 0x00,
  0x0f, 0x00, 0x00, 0x00, 0x73, 0x65, 0x72, 0x76, 0x69, 0x6e, 0x67, 0x5f,
  0x64, 0x65, 0x66, 0x61, 0x75, 0x6c, 0x74, 0x00, 0x01, 0x00, 0x00, 0x00,
  0x04, 0x00, 0x00, 0x00, 0x68, 0xff, 0xff, 0xff, 0x2f, 0x00, 0x00, 0x00,
  0x04, 0x00, 0x00, 0x00, 0x08, 0x00, 0x00, 0x00, 0x6f, 0x75, 0x74, 0x70,
  0x75, 0x74, 0x5f, 0x30, 0x00, 0x00, 0x00, 0x00, 0x01, 0x00, 0x00, 0x00,
  0x04, 0x00, 0x00, 0x00, 0x9e, 0xd5, 0xff, 0xff, 0x04, 0x00, 0x00, 0x00,
  0x0f, 0x00, 0x00, 0x00, 0x6b, 0x65, 0x72, 0x61, 0x73, 0x5f, 0x74, 0x65,
  0x6e, 0x73, 0x6f, 0x72, 0x5f, 0x33, 0x36, 0x00, 0x03, 0x00, 0x00, 0x00,
  0x5c, 0x00, 0x00, 0x00, 0x2c, 0x00, 0x00, 0x00, 0x04, 0x00, 0x00, 0x00,
  0xb8, 0xff, 0xff, 0xff, 0x33, 0x00, 0x00, 0x00, 0x04, 0x00, 0x00, 0x00,
  0x13, 0x00, 0x00, 0x00, 0x43, 0x4f, 0x4e, 0x56, 0x45, 0x52, 0x53, 0x49,
  0x4f, 0x4e, 0x5f, 0x4d, 0x45, 0x54, 0x41, 0x44, 0x41, 0x54, 0x41, 0x00,
  0xdc, 0xff, 0xff, 0xff, 0x32, 0x00, 0x00, 0x00, 0x04, 0x00, 0x00, 0x00,
  0x13, 0x00, 0x00, 0x00, 0x6d, 0x69, 0x6e, 0x5f, 0x72, 0x75, 0x6e, 0x74,
  0x69, 0x6d, 0x65, 0x5f, 0x76, 0x65, 0x72, 0x73, 0x69, 0x6f, 0x6e, 0x00,
  0x08, 0x00, 0x0c, 0x00, 0x08, 0x00, 0x04, 0x00, 0x08, 0x00, 0x00, 0x00,
  0x31, 0x00, 0x00, 0x00, 0x04, 0x00, 0x00, 0x00, 0x13, 0x00, 0x00, 0x00,
  0x6d, 0x69, 0x6e, 0x5f, 0x72, 0x75, 0x6e, 0x74, 0x69, 0x6d, 0x65, 0x5f,
  0x76, 0x65, 0x72, 0x73, 0x69, 0x6f, 0x6e, 0x00, 0x34, 0x00, 0x00, 0x00,
  0xe0, 0x24, 0x00, 0x00, 0xd8, 0x24, 0x00, 0x00, 0xc4, 0x24, 0x00, 0x00,
  0xb0, 0x24, 0x00, 0x00, 0x9c, 0x24, 0x00, 0x00, 0x88, 0x24, 0x00, 0x00,
  0x74, 0x24, 0x00, 0x00, 0x58, 0x24, 0x00, 0x00, 0x50, 0x24, 0x00, 0x00,
  0x34, 0x24, 0x00, 0x00, 0x18, 0x24, 0x00, 0x00, 0x00, 0x24, 0x00, 0x00,
  0xec, 0x23, 0x00, 0x00, 0xbc, 0x23, 0x00, 0x00, 0x2c, 0x23, 0x00, 0x00,
  0x1c, 0x0f, 0x00, 0x00, 0xec, 0x0e, 0x00, 0x00, 0xbc, 0x0e, 0x00, 0x00,
  0x2c, 0x0e, 0x00, 0x00, 0x1c, 0x08, 0x00, 0x00, 0xfc, 0x07, 0x00, 0x00,
  0xdc, 0x07, 0x00, 0x00, 0x8c, 0x07, 0x00, 0x00, 0x7c, 0x01, 0x00, 0x00,
  0x74, 0x01, 0x00, 0x00, 0x6c, 0x01, 0x00, 0x00, 0x64, 0x01, 0x00, 0x00,
  0x5c, 0x01, 0x00, 0x00, 0x54, 0x01, 0x00, 0x00, 0x4c, 0x01, 0x00, 0x00,
  0x44, 0x01, 0x00, 0x00, 0x3c, 0x01, 0x00, 0x00, 0x34, 0x01, 0x00, 0x00,
  0x2c, 0x01, 0x00, 0x00, 0x24, 0x01, 0x00, 0x00, 0x1c, 0x01, 0x00, 0x00,
  0x14, 0x01, 0x00, 0x00, 0x0c, 0x01, 0x00, 0x00, 0x04, 0x01, 0x00, 0x00,
  0xfc, 0x00, 0x00, 0x00, 0xf4, 0x00, 0x00, 0x00, 0xec, 0x00, 0x00, 0x00,
  0xe4, 0x00, 0x00, 0x00, 0xdc, 0x00, 0x00, 0x00, 0xd4, 0x00, 0x00, 0x00,
  0xcc, 0x00, 0x00, 0x00, 0xc4, 0x00, 0x00, 0x00, 0xbc, 0x00, 0x00, 0x00,
  0xb4, 0x00, 0x00, 0x00, 0x94, 0x00, 0x00, 0x00, 0x74, 0x00, 0x00, 0x00,
  0x04, 0x00, 0x00, 0x00, 0x12, 0xd7, 0xff, 0xff, 0x04, 0x00, 0x00, 0x00,
  0x60, 0x00, 0x00, 0x00, 0x0c, 0x00, 0x00, 0x00, 0x08, 0x00, 0x0e, 0x00,
  0x08, 0x00, 0x04, 0x00, 0x08, 0x00, 0x00, 0x00, 0x10, 0x00, 0x00, 0x00,
  0x28, 0x00, 0x00, 0x00, 0x00, 0x00, 0x06, 0x00, 0x08, 0x00, 0x04, 0x00,
  0x06, 0x00, 0x00, 0x00, 0x04, 0x00, 0x00, 0x00, 0x01, 0x00, 0x00, 0x00,
  0xeb, 0x03, 0x00, 0x00, 0x0c, 0x00, 0x18, 0x00, 0x14, 0x00, 0x10, 0x00,
  0x0c, 0x00, 0x04, 0x00, 0x0c, 0x00, 0x00, 0x00, 0xe7, 0xb1, 0xba, 0xd5,
  0xa0, 0x11, 0xa2, 0x37, 0x02, 0x00, 0x00, 0x00, 0x02, 0x00, 0x00, 0x00,
  0x04, 0x00, 0x00, 0x00, 0x06, 0x00, 0x00, 0x00, 0x32, 0x2e, 0x31, 0x38,
  0x2e, 0x30, 0x00, 0x00, 0x7e, 0xd7, 0xff, 0xff, 0x04, 0x00, 0x00, 0x00,
  0x10, 0x00, 0x00, 0x00, 0x00, 0x00, 0x00, 0x00, 0x00, 0x00, 0x00, 0x00,
  0x00, 0x00, 0x00, 0x00, 0x00, 0x00, 0x00, 0x00, 0x9a, 0xd7, 0xff, 0xff,
  0x04, 0x00, 0x00, 0x00, 0x10, 0x00, 0x00, 0x00, 0x31, 0x2e, 0x31, 0x35,
  0x2e, 0x30, 0x00, 0x00, 0x00, 0x00, 0x00, 0x00, 0x00, 0x00, 0x00, 0x00,
  0xf8, 0xb4, 0xff, 0xff, 0xfc, 0xb4, 0xff, 0xff, 0x00, 0xb5, 0xff, 0xff,
  0x04, 0xb5, 0xff, 0xff, 0x08, 0xb5, 0xff, 0xff, 0x0c, 0xb5, 0xff, 0xff,
  0x10, 0xb5, 0xff, 0xff, 0x14, 0xb5, 0xff, 0xff, 0x18, 0xb5, 0xff, 0xff,
  0x1c, 0xb5, 0xff, 0xff, 0x20, 0xb5, 0xff, 0xff, 0x24, 0xb5, 0xff, 0xff,
  0x28, 0xb5, 0xff, 0xff, 0x2c, 0xb5, 0xff, 0xff, 0x30, 0xb5, 0xff, 0xff,
  0x34, 0xb5, 0xff, 0xff, 0x38, 0xb5, 0xff, 0xff, 0x3c, 0xb5, 0xff, 0xff,
  0x40, 0xb5, 0xff, 0xff, 0x44, 0xb5, 0xff, 0xff, 0x48, 0xb5, 0xff, 0xff,
  0x4c, 0xb5, 0xff, 0xff, 0x50, 0xb5, 0xff, 0xff, 0x54, 0xb5, 0xff, 0xff,
  0x58, 0xb5, 0xff, 0xff, 0x1a, 0xd8, 0xff, 0xff, 0x04, 0x00, 0x00, 0x00,
  0x00, 0x06, 0x00, 0x00, 0x46, 0xea, 0xf8, 0xd8, 0xc9, 0x5a, 0xe1, 0x30,
  0xf3, 0xd3, 0x3d, 0xee, 0x4a, 0x98, 0xb1, 0x4f, 0xb2, 0xba, 0xd7, 0x0e,
  0x3f, 0x62, 0xef, 0x27, 0xda, 0x08, 0xe5, 0xae, 0xf6, 0xc4, 0x33, 0x4a,
  0x44, 0xac, 0x09, 0x0e, 0xf3, 0x53, 0xa6, 0x44, 0xb2, 0x21, 0xdb, 0x4d,
  0xdc, 0x05, 0xc5, 0xc2, 0xbd, 0xa6, 0xc0, 0xc0, 0x17, 0xfe, 0x11, 0xbc,
  0xc3, 0xda, 0xe0, 0xb6, 0x04, 0x2d, 0xd2, 0x21, 0x59, 0x24, 0x24, 0xf5,
  0x28, 0xfb, 0xce, 0x6b, 0x7f, 0xea, 0x3d, 0x5a, 0x74, 0xd7, 0xf4, 0x44,
  0x7e, 0x49, 0x1b, 0x31, 0x77, 0xd5, 0xe0, 0x29, 0xe8, 0x4c, 0x3f, 0x63,
  0x2c, 0x5f, 0x10, 0x36, 0xbb, 0xc0, 0xb4, 0xca, 0x16, 0x6d, 0xc2, 0x35,
  0x28, 0x65, 0x53, 0x05, 0xb8, 0x55, 0x7b, 0x32, 0x7f, 0x7c, 0xc1, 0x1e,
  0xda, 0x14, 0xd6, 0x32, 0x07, 0xfa, 0x39, 0x18, 0xf2, 0x42, 0x48, 0x62,
  0x03, 0x3e, 0x42, 0x10, 0x07, 0x23, 0x34, 0x50, 0x47, 0x1f, 0xb2, 0x13,
  0x5d, 0x6c, 0xe0, 0x12, 0x62, 0x40, 0x4f, 0x3d, 0x1b, 0xf5, 0x04, 0xe5,
  0xdc, 0xfd, 0x67, 0x3d, 0xbe, 0x27, 0xe1, 0x3a, 0xd1, 0x62, 0x44, 0x3d,
  0x2d, 0x37, 0xc3, 0x16, 0x6a, 0x68, 0x4c, 0xcf, 0x60, 0xac, 0xc7, 0xdd,
  0xb1, 0x66, 0xec, 0xfc, 0xcd, 0x53, 0x09, 0x0c, 0x39, 0xd0, 0x77, 0xbf,
  0xe2, 0x36, 0xd8, 0xc4, 0x66, 0xb9, 0x65, 0x7a, 0x90, 0xed, 0x40, 0x3e,
  0xce, 0xe6, 0x73, 0x65, 0x95, 0x41, 0xb0, 0x88, 0xaf, 0xc1, 0x9e, 0x71,
  0x77, 0x53, 0xca, 0x57, 0xfa, 0x42, 0x64, 0xa0, 0x0f, 0x1a, 0x4c, 0xff,
  0x8a, 0x94, 0x35, 0xe5, 0x75, 0x5b, 0x94, 0x99, 0xf6, 0x76, 0xa4, 0x7c,
  0xd9, 0xd8, 0xd0, 0x30, 0x53, 0x07, 0xb7, 0x13, 0x04, 0x65, 0x21, 0xdb,
  0x2f, 0x87, 0x7f, 0xd2, 0x2d, 0x45, 0x3b, 0xfe, 0x2d, 0x03, 0x49, 0x75,
  0x90, 0xec, 0x56, 0x43, 0x72, 0x75, 0xab, 0xec, 0x1e, 0x43, 0x18, 0xe4,
  0x69, 0x56, 0x3e, 0xcf, 0xed, 0xef, 0xca, 0x14, 0x06, 0x4c, 0xa3, 0x40,
  0xa3, 0x19, 0xfd, 0x22, 0x54, 0x64, 0x4e, 0xdb, 0x59, 0x4f, 0x65, 0x5c,
  0x3f, 0x47, 0x6c, 0x42, 0x63, 0x55, 0x19, 0x59, 0x0f, 0x63, 0xe8, 0xf1,
  0x13, 0x31, 0x1d, 0xf4, 0xe5, 0x5f, 0x23, 0xfd, 0x0e, 0x6e, 0xf0, 0x7f,
  0x19, 0xc6, 0x02, 0x09, 0xd1, 0xd9, 0x0d, 0x3a, 0x41, 0x1d, 0xf8, 0x2e,
  0x23, 0x17, 0xcc, 0x36, 0x37, 0x28, 0xdb, 0x40, 0x54, 0xe5, 0xa6, 0x85,
  0x04, 0x14, 0x10, 0x3f, 0x30, 0xfb, 0xcf, 0xc7, 0xdc, 0xcc, 0xef, 0xe7,
  0x25, 0xd3, 0xb6, 0xe4, 0x00, 0xce, 0x0e, 0xe7, 0xb8, 0xbc, 0xd6, 0x24,
  0x2f, 0xba, 0xfb, 0x46, 0xbc, 0xff, 0xc7, 0x11, 0xab, 0xcd, 0xea, 0xaa,
  0xe3, 0xc9, 0x17, 0x1b, 0xcf, 0x38, 0x57, 0xf3, 0xf1, 0x2c, 0x33, 0xe1,
  0x30, 0xf7, 0xac, 0xb5, 0xc3, 0xb4, 0x9d, 0xc4, 0xad, 0xd9, 0x20, 0x20,
  0x17, 0xd6, 0x45, 0xfb, 0x09, 0x0d, 0x3a, 0xc8, 0x4c, 0xeb, 0xdd, 0x3d,
  0x1d, 0x26, 0xdd, 0xf1, 0x0d, 0xa8, 0xab, 0x11, 0xe1, 0xf2, 0xb9, 0x1c,
  0xee, 0xf9, 0xec, 0x4b, 0x4c, 0x3c, 0x31, 0xc7, 0xa7, 0xc7, 0x04, 0xf3,
  0x99, 0xc5, 0x81, 0xc2, 0x1d, 0x48, 0xd6, 0x09, 0x2a, 0x37, 0x0b, 0xfd,
  0x39, 0x11, 0xf4, 0xba, 0xaa, 0x01, 0xad, 0xfe, 0xd3, 0xbe, 0xa4, 0x01,
  0x8f, 0x3f, 0x03, 0x02, 0x0c, 0xf0, 0x25, 0xe0, 0xf1, 0x4b, 0x24, 0xba,
  0xf6, 0xb0, 0xd7, 0xd7, 0x19, 0xf3, 0xd6, 0x07, 0xd8, 0xaf, 0xc6, 0x84,
  0x03, 0xd9, 0xbe, 0x1c, 0xca, 0xfa, 0x08, 0xa6, 0x1a, 0x2d, 0x22, 0x99,
  0xb6, 0x2f, 0xeb, 0xe5, 0xcf, 0xe7, 0xda, 0xf3, 0xe4, 0xeb, 0x47, 0x26,
  0xfc, 0x05, 0x2f, 0x24, 0xbf, 0xd3, 0x26, 0xcf, 0x06, 0x1a, 0x0b, 0xf5,
  0x08, 0xd9, 0xf2, 0xdf, 0x1f, 0x81, 0xe2, 0xdd, 0xb5, 0x0c, 0xe2, 0xed,
  0xbb, 0xf2, 0x99, 0x26, 0xc4, 0xb5, 0x0b, 0x3d, 0x2a, 0x36, 0x62, 0x05,
  0x09, 0x11, 0xec, 0x05, 0x12, 0xed, 0x46, 0xd7, 0x44, 0x02, 0xd7, 0xa0,
  0xd3, 0xf6, 0x10, 0xd5, 0x20, 0x22, 0x23, 0xf9, 0x09, 0x22, 0x24, 0x4a,
  0xdf, 0xe6, 0xe5, 0xf6, 0xed, 0xd7, 0xe9, 0xc6, 0x1a, 0xd8, 0x26, 0x07,
  0x3c, 0x23, 0xde, 0xb4, 0x9f, 0xcf, 0x01, 0xbe, 0xb0, 0xdc, 0x9b, 0x9c,
  0xb1, 0xfd, 0x0d, 0xd0, 0xf1, 0x13, 0xfd, 0x12, 0xe9, 0xfa, 0xe7, 0x22,
  0xf4, 0x17, 0x10, 0x2b, 0x03, 0xf6, 0xd9, 0xa1, 0x03, 0x05, 0x2f, 0x4d,
  0xc8, 0xff, 0x18, 0x09, 0x4f, 0xe1, 0x38, 0x32, 0x41, 0xe8, 0x09, 0xd0,
  0x18, 0xe0, 0x18, 0xc0, 0xab, 0x00, 0xd9, 0xe7, 0xc8, 0x2c, 0xcf, 0x5e,
  0x0a, 0x7f, 0x51, 0x12, 0x21, 0x55, 0xcd, 0xfc, 0x1e, 0x03, 0x01, 0xe3,
  0x0d, 0x18, 0x2e, 0xe8, 0xec, 0xfb, 0x1f, 0x00, 0x06, 0x05, 0x00, 0xe5,
  0x2f, 0x5d, 0xf2, 0x17, 0x2b, 0xb5, 0x1f, 0x66, 0x41, 0xf6, 0x27, 0x45,
  0xfa, 0x64, 0x6a, 0xbe, 0x39, 0xed, 0xb5, 0x93, 0x2b, 0x27, 0x19, 0xdc,
  0xb5, 0xf3, 0xa3, 0x13, 0x6f, 0xb7, 0x43, 0x38, 0x75, 0x58, 0xeb, 0x3f,
  0x52, 0x0f, 0x52, 0xb3, 0x58, 0x5d, 0xfc, 0x18, 0x00, 0x74, 0xec, 0xb7,
  0x3a, 0xad, 0x99, 0x33, 0xbf, 0xb2, 0xf2, 0x10, 0x20, 0x3e, 0xf8, 0x1c,
  0xcb, 0x75, 0xb0, 0x0f, 0x7f, 0x2f, 0xde, 0x5c, 0x59, 0xb9, 0x17, 0x75,
  0x22, 0xe3, 0x9e, 0x1e, 0xbd, 0x53, 0x6e, 0xb2, 0x9f, 0xf4, 0x31, 0xd7,
  0x01, 0x54, 0x66, 0x70, 0xcc, 0x33, 0x2f, 0xab, 0xfb, 0x4e, 0x5d, 0xea,
  0x0c, 0xf6, 0x30, 0xbd, 0xe4, 0x40, 0x20, 0xd2, 0x03, 0xf7, 0xe2, 0x47,
  0x4d, 0x16, 0x29, 0xdb, 0x32, 0xf4, 0xe5, 0x04, 0x45, 0xb7, 0xfe, 0xdb,
  0x17, 0x52, 0x2b, 0xd3, 0x56, 0x79, 0x08, 0xe8, 0x39, 0x72, 0xd3, 0xec,
  0xf6, 0x19, 0xbc, 0xc5, 0x32, 0xfd, 0xb5, 0xce, 0xf9, 0xd8, 0x1d, 0x24,
  0xc6, 0xb1, 0x28, 0xc5, 0x36, 0x34, 0x3a, 0xdd, 0xd2, 0x81, 0x9a, 0x2d,
  0xc1, 0x36, 0x3f, 0xb4, 0x28, 0x17, 0x1c, 0xdf, 0xb7, 0xd5, 0xb2, 0xec,
  0xde, 0x20, 0x19, 0xd1, 0xac, 0x25, 0x9b, 0x20, 0x23, 0xa1, 0xc3, 0x47,
  0x2c, 0x20, 0x17, 0xc3, 0xe6, 0x01, 0x2c, 0xfa, 0xe5, 0xfd, 0xb7, 0x16,
  0x3f, 0xe8, 0x35, 0xcb, 0xfe, 0x4a, 0xf3, 0x13, 0xf5, 0x0a, 0x1d, 0x1a,
  0xea, 0x38, 0x18, 0x05, 0xf3, 0x23, 0x09, 0xfc, 0x08, 0xce, 0x7f, 0x2e,
  0xe7, 0xd6, 0xdf, 0x22, 0xbe, 0x25, 0x30, 0xe8, 0x2d, 0xaa, 0xd5, 0xf0,
  0xee, 0xcc, 0x49, 0x33, 0x2d, 0x17, 0x29, 0x1a, 0x13, 0x17, 0xed, 0xe2,
  0xbf, 0xe8, 0x40, 0x29, 0x21, 0x07, 0x9b, 0x59, 0x05, 0xd7, 0xd7, 0xf4,
  0xef, 0xed, 0x0c, 0x2b, 0x22, 0xf9, 0xab, 0xdc, 0xcc, 0xcd, 0x0d, 0x16,
  0x1b, 0xda, 0xcf, 0xa5, 0x06, 0x15, 0xb8, 0x0b, 0xca, 0xd5, 0xd0, 0x02,
  0xcd, 0x06, 0xc1, 0xf6, 0xc2, 0xd5, 0xcf, 0xf6, 0x0b, 0xc7, 0xb0, 0x47,
  0xc4, 0x18, 0xe5, 0xa6, 0xb5, 0x61, 0xe4, 0x10, 0xc1, 0x6d, 0xda, 0x9f,
  0x98, 0x3c, 0x9d, 0xf7, 0xa8, 0xaa, 0xca, 0x55, 0x1d, 0xcc, 0x3a, 0x9f,
  0xa6, 0x40, 0x1a, 0x28, 0xc3, 0x7c, 0x15, 0x40, 0xf4, 0xe8, 0x3e, 0xce,
  0x79, 0x4f, 0x50, 0xa6, 0x77, 0xd5, 0x7f, 0xe5, 0x2b, 0x79, 0xd4, 0x6b,
  0xcb, 0x03, 0xc6, 0x5f, 0x50, 0xf6, 0xf9, 0x11, 0xf7, 0x47, 0xf8, 0x56,
  0xfa, 0x5c, 0xf7, 0x37, 0x6a, 0x2a, 0x34, 0xe2, 0x9f, 0x1f, 0x54, 0xa9,
  0xde, 0xef, 0x9a, 0x10, 0x5a, 0xfd, 0xd5, 0xa1, 0x0b, 0x7e, 0xde, 0x73,
  0x45, 0x4f, 0x90, 0x06, 0x32, 0x6f, 0x39, 0xe5, 0xb2, 0x6b, 0xb6, 0xda,
  0x02, 0x57, 0x6e, 0x1b, 0xe8, 0xe4, 0xf4, 0xb4, 0x30, 0xe7, 0xf5, 0x2a,
  0xdd, 0xe3, 0xf5, 0x38, 0x4f, 0x6d, 0xf7, 0xe2, 0x44, 0xdd, 0xda, 0xe0,
  0xf2, 0x0d, 0xc3, 0xb9, 0x9c, 0x29, 0xd3, 0xf3, 0x2f, 0xdb, 0x30, 0x38,
  0xe7, 0x5d, 0x53, 0x27, 0x2d, 0x24, 0x2b, 0xb9, 0x34, 0xf9, 0x2c, 0xa8,
  0xc3, 0xc2, 0xd7, 0xd3, 0xe4, 0xdb, 0xc6, 0xcb, 0xa7, 0x17, 0x2f, 0x61,
  0x2f, 0x03, 0xf3, 0x1a, 0xe0, 0xee, 0xf0, 0x26, 0xda, 0xc5, 0xef, 0x4c,
  0x27, 0x3c, 0x0c, 0xe0, 0xdc, 0x07, 0xbb, 0x05, 0x76, 0xed, 0xf1, 0xf0,
  0x20, 0xb9, 0xf8, 0xfe, 0x04, 0x81, 0xe6, 0xb1, 0xfd, 0x5f, 0xea, 0x1d,
  0x12, 0xf2, 0xc7, 0x19, 0x08, 0x1f, 0x6d, 0xbf, 0xef, 0x70, 0x02, 0x9d,
  0xfe, 0x2e, 0x02, 0xd6, 0xc8, 0xc2, 0x38, 0xbe, 0xf2, 0x51, 0x7e, 0x27,
  0x0d, 0x50, 0x37, 0xe4, 0x04, 0x73, 0x24, 0x26, 0x81, 0x4a, 0xb0, 0xa3,
  0x5e, 0x9c, 0x34, 0x0b, 0x42, 0x3d, 0x64, 0x62, 0x09, 0x2c, 0x1c, 0xcf,
  0x93, 0xed, 0x42, 0x08, 0xde, 0xb3, 0x4a, 0xea, 0xc0, 0xb3, 0x7c, 0xce,
  0x1b, 0x63, 0x72, 0xe3, 0xf1, 0x00, 0xc7, 0xf9, 0xb9, 0xd0, 0xc8, 0x41,
  0x22, 0x6d, 0x99, 0x6e, 0x43, 0x17, 0xbd, 0x34, 0x0b, 0xcd, 0x2c, 0xe9,
  0xed, 0xe6, 0x3f, 0x3b, 0x04, 0x97, 0xee, 0xfb, 0x70, 0x70, 0xcb, 0xf6,
  0x6f, 0x49, 0x55, 0x52, 0x10, 0x8a, 0xc3, 0xd7, 0x81, 0x0a, 0x26, 0x25,
  0xfa, 0xaf, 0xd8, 0xa6, 0xd0, 0xc8, 0xf2, 0xf1, 0xbe, 0x08, 0x2f, 0xfb,
  0xc3, 0xb2, 0xfd, 0xcb, 0xc1, 0xa1, 0xeb, 0xf7, 0x1a, 0xb9, 0xc1, 0xd6,
  0x09, 0x25, 0xca, 0xeb, 0xea, 0xea, 0xec, 0xf8, 0x19, 0xe3, 0xc1, 0x15,
  0xbe, 0x0d, 0x0a, 0xc9, 0x2f, 0x14, 0xfe, 0x23, 0x28, 0xdb, 0xdd, 0x0c,
  0x2f, 0xee, 0x36, 0xf5, 0xf8, 0x17, 0x2e, 0x41, 0x23, 0x00, 0x35, 0x02,
  0xf8, 0x2b, 0xda, 0x0f, 0xee, 0x13, 0x21, 0x32, 0xe1, 0x33, 0x22, 0x13,
  0x26, 0x42, 0xf2, 0x5d, 0xe8, 0x2f, 0x28, 0x00, 0xc9, 0xad, 0x07, 0x33,
  0x08, 0x08, 0x0f, 0x20, 0x0c, 0x7f, 0x30, 0x16, 0x0a, 0xfd, 0x7e, 0x10,
  0x69, 0x65, 0x20, 0x34, 0x5c, 0x2a, 0x38, 0x16, 0x41, 0x42, 0x11, 0xe6,
  0x2b, 0x1f, 0x2d, 0x40, 0x32, 0x32, 0x0b, 0x54, 0x23, 0x12, 0x32, 0xeb,
  0xb4, 0x94, 0xfc, 0x33, 0xeb, 0xfb, 0x30, 0xf7, 0xba, 0xc3, 0x00, 0xe7,
  0xab, 0x09, 0xb0, 0xb2, 0x05, 0xcf, 0xcb, 0x12, 0x1d, 0xf0, 0xad, 0x19,
  0xdd, 0x21, 0xcd, 0x1c, 0xe7, 0x3e, 0xc3, 0xae, 0xb0, 0x20, 0xf0, 0x11,
  0xbf, 0xdf, 0x1a, 0x15, 0xdc, 0x55, 0xe4, 0xf5, 0xd0, 0x04, 0x13, 0xdc,
  0x01, 0xf2, 0x28, 0xdf, 0x12, 0x4a, 0xea, 0x3a, 0x00, 0x1a, 0x1f, 0x02,
  0x27, 0x4c, 0x10, 0xdc, 0x0f, 0x29, 0x0d, 0x40, 0xfc, 0xcf, 0xdc, 0xe2,
  0x1d, 0x04, 0xfe, 0xa7, 0x11, 0x11, 0xc9, 0x1e, 0x1c, 0x2d, 0x38, 0xbc,
  0x1a, 0x0e, 0xd2, 0x41, 0x3f, 0x2f, 0xb4, 0xb2, 0xd2, 0xbd, 0xaf, 0xd6,
  0xec, 0xc8, 0x07, 0xc6, 0x97, 0x35, 0x15, 0xcc, 0x1c, 0xf6, 0x10, 0x08,
  0x1c, 0x7f, 0x28, 0x0d, 0xfe, 0xc4, 0xcb, 0x11, 0x2c, 0x13, 0xbb, 0xca,
  0x9e, 0xbb, 0x2e, 0xd3, 0x39, 0xc9, 0x3e, 0x2e, 0x2b, 0x1d, 0x2b, 0xeb,
  0xda, 0xe1, 0x17, 0xda, 0x1d, 0x05, 0xc2, 0x04, 0x0f, 0xe0, 0xe8, 0x00,
  0xe7, 0x18, 0x1f, 0xf8, 0xe9, 0x46, 0x4f, 0xf4, 0x2a, 0xd3, 0xa2, 0xd3,
  0xd0, 0x2d, 0x0e, 0xc6, 0x26, 0xde, 0xff, 0xff, 0x04, 0x00, 0x00, 0x00,
  0x40, 0x00, 0x00, 0x00, 0xc2, 0xff, 0xff, 0xff, 0x85, 0xff, 0xff, 0xff,
  0x00, 0x00, 0x00, 0x00, 0x27, 0x00, 0x00, 0x00, 0x90, 0xff, 0xff, 0xff,
  0x91, 0x00, 0x00, 0x00, 0xa6, 0x00, 0x00, 0x00, 0xdf, 0xff, 0xff, 0xff,
  0x7c, 0x00, 0x00, 0x00, 0x84, 0xff, 0xff, 0xff, 0xcf, 0xff, 0xff, 0xff,
  0xea, 0x00, 0x00, 0x00, 0x7d, 0xff, 0xff, 0xff, 0x3d, 0x00, 0x00, 0x00,
  0xe6, 0xff, 0xff, 0xff, 0x55, 0x00, 0x00, 0x00, 0x72, 0xde, 0xff, 0xff,
  0x04, 0x00, 0x00, 0x00, 0x10, 0x00, 0x00, 0x00, 0x81, 0x6a, 0x71, 0x80,
  0x80, 0x80, 0x80, 0x6e, 0x80, 0x80, 0x74, 0x80, 0x7f, 0x80, 0x80, 0x80,
  0x8e, 0xde, 0xff, 0xff, 0x04, 0x00, 0x00, 0x00, 0x10, 0x00, 0x00, 0x00,
  0x66, 0x74, 0x7f, 0x72, 0xce, 0x80, 0x34, 0x72, 0x2a, 0xad, 0x75, 0x28,
  0x78, 0xe2, 0x6e, 0xfa, 0xaa, 0xde, 0xff, 0xff, 0x04, 0x00, 0x00, 0x00,
  0x00, 0x06, 0x00, 0x00, 0x63, 0x37, 0x8a, 0xdf, 0xc9, 0xce, 0x30, 0x2c,
  0xb1, 0xdf, 0xdb, 0xfd, 0x13, 0x1d, 0xfc, 0x46, 0x51, 0xe6, 0x81, 0xb6,
  0x28, 0xe8, 0x0b, 0x5b, 0xb2, 0xcb, 0x01, 0xef, 0xdb, 0xcd, 0xd9, 0xef,
  0xe4, 0x32, 0x26, 0xe0, 0xc4, 0xd9, 0xfc, 0xc7, 0x03, 0x70, 0x1f, 0x19,
  0x24, 0x1d, 0x44, 0xbf, 0x48, 0x37, 0xaa, 0x12, 0x35, 0x2a, 0xd2, 0xfd,
  0xf6, 0x28, 0xcc, 0xdd, 0xf1, 0x0f, 0xc4, 0x18, 0xfd, 0xf8, 0xce, 0x20,
  0xf0, 0x9a, 0xd6, 0xd4, 0x08, 0xf4, 0x2e, 0xdc, 0x0e, 0x43, 0x5f, 0x3b,
  0xab, 0x05, 0xbe, 0xe9, 0xe5, 0x3d, 0xc5, 0x2b, 0x43, 0x2d, 0xfb, 0x2d,
  0x7f, 0x1c, 0x48, 0xd2, 0x3c, 0xff, 0x0b, 0xf7, 0x09, 0x3d, 0x0a, 0x22,
  0xf0, 0xf6, 0xee, 0xc9, 0x19, 0x70, 0x1e, 0x3a, 0x28, 0xd1, 0xaf, 0x2a,
  0xc8, 0xdc, 0xa1, 0xd2, 0xf0, 0x39, 0xe8, 0xeb, 0xc7, 0xc9, 0xd2, 0x41,
  0x1e, 0x2e, 0xd4, 0x36, 0xec, 0x2d, 0x2b, 0x39, 0x1e, 0x02, 0xf0, 0x24,
  0x26, 0x35, 0x0d, 0x81, 0x54, 0xcd, 0x18, 0x9e, 0x44, 0x7f, 0x2a, 0x30,
  0xa9, 0x2c, 0xdf, 0x00, 0xdd, 0x4a, 0x03, 0x16, 0x4c, 0xe8, 0xf9, 0x47,
  0x38, 0x77, 0x46, 0xcc, 0xd9, 0xe8, 0xde, 0xd8, 0xf2, 0x3c, 0xcb, 0x05,
  0xe8, 0xb4, 0x41, 0xfb, 0x13, 0xff, 0xad, 0xc7, 0x58, 0x4a, 0x24, 0xe6,
  0x45, 0x28, 0xf8, 0x15, 0xd1, 0x10, 0xef, 0xe1, 0x52, 0x12, 0x39, 0xde,
  0xea, 0xfb, 0x3c, 0x2b, 0x2c, 0xb3, 0x29, 0x13, 0x1b, 0x3d, 0x0c, 0xf8,
  0x6a, 0x3b, 0xc5, 0x19, 0xbf, 0x49, 0x39, 0x9d, 0x20, 0xf8, 0x08, 0xd9,
  0xb2, 0x0d, 0x27, 0xe0, 0x9f, 0x02, 0xec, 0xe6, 0xc3, 0x1c, 0x1b, 0xa7,
  0xc8, 0x7f, 0xf2, 0x06, 0x45, 0xf2, 0x50, 0x23, 0x16, 0x9f, 0x81, 0x13,
  0x02, 0x40, 0x1c, 0x91, 0x1f, 0x00, 0xe8, 0xe7, 0xed, 0xcb, 0xff, 0xf9,
  0xfa, 0xf3, 0x2a, 0xe0, 0xff, 0xb6, 0x36, 0xc3, 0xdf, 0x2d, 0x2d, 0xe1,
  0xc3, 0x11, 0x66, 0xe3, 0xfd, 0x0c, 0x10, 0x0d, 0x52, 0xd2, 0xf0, 0x1e,
  0x36, 0x27, 0x01, 0x15, 0x10, 0xf7, 0xbd, 0xf8, 0x00, 0xd1, 0xf6, 0xe4,
  0x46, 0x25, 0x18, 0xcf, 0xd1, 0x39, 0xc8, 0x84, 0x5b, 0xd7, 0xb0, 0xb2,
  0xf4, 0xbe, 0x27, 0xff, 0x11, 0x33, 0xd9, 0x0a, 0xcc, 0x6a, 0x39, 0x81,
  0x02, 0xd4, 0xfe, 0x0a, 0xed, 0xc2, 0x50, 0x27, 0x12, 0x1c, 0x49, 0xfb,
  0x3e, 0xed, 0xe3, 0x30, 0x46, 0xd3, 0xdd, 0xf5, 0x0e, 0xef, 0x3e, 0x2d,
  0xf7, 0x65, 0x14, 0x81, 0xb6, 0xd2, 0x20, 0xc5, 0xe7, 0x43, 0x9e, 0x0f,
  0x6d, 0xbc, 0x44, 0xf7, 0x43, 0x41, 0xca, 0xac, 0x6e, 0x3e, 0x9d, 0xb5,
  0xf5, 0xe6, 0xbd, 0x14, 0x27, 0x46, 0x9f, 0x2f, 0x41, 0xd4, 0x1f, 0xa2,
  0x5b, 0x60, 0x14, 0x43, 0x3d, 0xde, 0xef, 0x11, 0x09, 0x16, 0x2a, 0x38,
  0x3e, 0x23, 0xc5, 0x1a, 0x02, 0x1f, 0x7f, 0x1d, 0x17, 0x1e, 0xc2, 0x14,
  0x21, 0x15, 0xcd, 0xd3, 0xee, 0x02, 0xfe, 0xe6, 0xce, 0xcc, 0x23, 0xd2,
  0xf9, 0xbd, 0x17, 0x21, 0xd4, 0x24, 0xbb, 0xf3, 0x19, 0x04, 0xcb, 0xd0,
  0x0e, 0xb8, 0xf7, 0xdf, 0xfc, 0x15, 0xe4, 0x05, 0x08, 0xb9, 0x7f, 0x1d,
  0xb3, 0xac, 0xc0, 0xf4, 0xf6, 0xff, 0xd6, 0x5c, 0xf8, 0x21, 0x8f, 0xd1,
  0x21, 0xbe, 0xf6, 0x25, 0x07, 0x14, 0x34, 0x05, 0x3c, 0xa9, 0xbf, 0x28,
  0xc4, 0x1b, 0xa9, 0x1c, 0xef, 0xb5, 0xed, 0xe6, 0x1a, 0x79, 0xff, 0x44,
  0x3f, 0x0c, 0x02, 0x1c, 0xfb, 0x32, 0xd4, 0xbf, 0xea, 0xfa, 0x7f, 0x3f,
  0xed, 0xfd, 0x00, 0xfb, 0xc3, 0x37, 0xfa, 0x38, 0x18, 0x41, 0x98, 0x06,
  0xf5, 0xd0, 0x13, 0x05, 0x3b, 0xc0, 0xd9, 0x2f, 0x09, 0xdd, 0x35, 0x08,
  0x16, 0xe7, 0x24, 0x0d, 0xdb, 0xa6, 0x52, 0x3e, 0x2f, 0x53, 0x2f, 0x28,
  0x13, 0x18, 0x63, 0x0d, 0xe7, 0x19, 0xd4, 0xc2, 0x58, 0x14, 0xce, 0x1c,
  0xef, 0xf1, 0x1d, 0xf6, 0xbc, 0x01, 0x1f, 0x71, 0x45, 0xd8, 0xb2, 0xca,
  0x1f, 0x46, 0xfa, 0x28, 0xe7, 0x12, 0xf0, 0x08, 0x43, 0x0d, 0x11, 0xe5,
  0xd9, 0xd5, 0xc0, 0x4a, 0x10, 0x36, 0xd8, 0x09, 0x13, 0x0f, 0xfe, 0x0b,
  0x27, 0x24, 0x38, 0x81, 0x40, 0xea, 0xaf, 0x0e, 0x2c, 0xb7, 0x25, 0xd3,
  0xbc, 0x10, 0xf4, 0x07, 0x38, 0xbd, 0xff, 0x1c, 0xd6, 0xe4, 0xf8, 0x42,
  0x06, 0xa5, 0xc2, 0xdb, 0x51, 0x2e, 0x4a, 0xfe, 0x3b, 0xf3, 0x0a, 0x33,
  0x13, 0x21, 0x16, 0x37, 0xb2, 0x6e, 0xc4, 0x0e, 0xb3, 0x17, 0xad, 0x00,
  0x1c, 0xf4, 0xeb, 0x81, 0x59, 0xbe, 0xf9, 0x11, 0xea, 0x58, 0xce, 0xd4,
  0xbe, 0xfb, 0x3a, 0x0c, 0x1c, 0xdb, 0x10, 0x50, 0x36, 0x0b, 0x2f, 0xe9,
  0xcf, 0xac, 0x2f, 0x34, 0x07, 0xc7, 0xdf, 0x7f, 0xf2, 0x58, 0xd3, 0x3a,
  0x13, 0x1a, 0xbc, 0x51, 0xfb, 0x95, 0xf1, 0x3f, 0xce, 0x81, 0x15, 0x0e,
  0xc5, 0x9a, 0x23, 0x14, 0xba, 0x30, 0xe7, 0x00, 0xf9, 0xc1, 0x36, 0xcb,
  0xc1, 0xe8, 0x08, 0x0e, 0xde, 0xd4, 0xe2, 0xe3, 0xcc, 0xeb, 0xf6, 0xcf,
  0xfa, 0x49, 0x2c, 0xd3, 0x7f, 0xff, 0xe5, 0x2e, 0x1e, 0xeb, 0xba, 0x2f,
  0xda, 0x09, 0x09, 0x16, 0x51, 0xf5, 0xff, 0xb9, 0xe9, 0x1a, 0x46, 0xfd,
  0xcc, 0x5a, 0xb3, 0x0d, 0xed, 0x10, 0x3f, 0x0c, 0xf2, 0xd6, 0x32, 0xee,
  0xef, 0xec, 0x07, 0x27, 0x05, 0xfd, 0x06, 0xfe, 0x11, 0x00, 0x37, 0xdb,
  0xf9, 0x20, 0xfc, 0xe8, 0x0d, 0x2b, 0x0e, 0x03, 0x06, 0xdf, 0x16, 0xee,
  0xd2, 0x03, 0x7f, 0xe7, 0xf7, 0xee, 0x0f, 0xb8, 0xed, 0x2b, 0xdd, 0x2e,
  0x19, 0xf8, 0x98, 0xf6, 0xf7, 0x1c, 0x6a, 0xb9, 0xc9, 0xe5, 0xe7, 0x2d,
  0x0b, 0x35, 0x24, 0x04, 0x56, 0xb5, 0xf0, 0x2f, 0xe8, 0xc7, 0x54, 0x2f,
  0xf8, 0xf2, 0x7f, 0xc6, 0xd5, 0xcc, 0xf3, 0x69, 0xcf, 0x52, 0xfa, 0xa8,
  0xd7, 0x26, 0x13, 0x03, 0x37, 0x1c, 0xde, 0xa9, 0x50, 0xdc, 0x48, 0xf9,
  0xf6, 0x1f, 0xc8, 0x05, 0x2c, 0xda, 0x03, 0xf3, 0x45, 0xd6, 0xfe, 0x43,
  0xda, 0x1d, 0x46, 0xcd, 0x2f, 0x51, 0xe2, 0xe5, 0x0c, 0xe4, 0x31, 0xaf,
  0x3c, 0xe7, 0x29, 0x24, 0x40, 0xf9, 0x09, 0x81, 0xfe, 0xf2, 0x03, 0xd4,
  0x3b, 0x21, 0xa6, 0x53, 0xbc, 0xf4, 0x2a, 0x44, 0xcd, 0x09, 0x0a, 0xd2,
  0xff, 0xf3, 0x37, 0x36, 0xe3, 0x0b, 0x7f, 0xe9, 0x65, 0xa4, 0x43, 0x16,
  0x21, 0x1d, 0xd1, 0x46, 0xf1, 0xda, 0x09, 0x53, 0xbc, 0xb8, 0x62, 0x27,
  0xf1, 0xdb, 0xd5, 0xcd, 0x36, 0xfb, 0x1f, 0xc1, 0x75, 0xfd, 0xd9, 0x0c,
  0x23, 0x26, 0xd7, 0xff, 0xd3, 0x33, 0x14, 0xdf, 0xf0, 0xc7, 0xb1, 0x32,
  0xa5, 0x86, 0xbd, 0xc5, 0xc1, 0xe6, 0xec, 0x13, 0xdf, 0xd3, 0xab, 0xd6,
  0xcd, 0xd4, 0xf6, 0xef, 0x84, 0xfd, 0x9c, 0x54, 0x25, 0x26, 0x11, 0x13,
  0x37, 0x2a, 0x2c, 0x15, 0x29, 0x81, 0x4b, 0xfa, 0xcb, 0xac, 0x18, 0xd3,
  0xda, 0x19, 0xf2, 0xcf, 0xe7, 0x37, 0x08, 0xd3, 0x08, 0xdd, 0x2a, 0xa3,
  0x16, 0x20, 0xc9, 0xbb, 0xbe, 0x33, 0x3d, 0xb6, 0x15, 0xee, 0x41, 0xbc,
  0x53, 0xd4, 0x42, 0x0a, 0x21, 0xf3, 0xfd, 0x27, 0xc9, 0x3a, 0x1f, 0xf0,
  0xee, 0x91, 0x05, 0xc5, 0x15, 0x24, 0x48, 0x20, 0x75, 0x56, 0x56, 0xe2,
  0xb6, 0x03, 0x13, 0xd8, 0xfe, 0xd2, 0xe5, 0x82, 0x74, 0x42, 0xad, 0x57,
  0x12, 0x81, 0x12, 0x43, 0x28, 0x14, 0x8c, 0x0a, 0x0f, 0xc3, 0xbc, 0x19,
  0x30, 0x58, 0xc5, 0xe7, 0xd7, 0x2b, 0x3b, 0x1d, 0x05, 0xbc, 0x0b, 0x07,
  0x94, 0xc4, 0x81, 0x24, 0xff, 0x59, 0x1b, 0xda, 0xab, 0xca, 0xf3, 0xf4,
  0x0a, 0x2d, 0xad, 0x1f, 0xe3, 0x5b, 0xeb, 0x30, 0xb3, 0x59, 0x09, 0xda,
  0x5e, 0x34, 0x1f, 0xe5, 0xd8, 0x34, 0xc5, 0x1f, 0x7f, 0xb0, 0xd7, 0xd8,
  0x16, 0x3e, 0xe3, 0x23, 0x58, 0x06, 0x1d, 0x20, 0x14, 0xf6, 0xb2, 0xf2,
  0xe5, 0x35, 0xf9, 0x04, 0x1f, 0xb3, 0x37, 0x19, 0x36, 0x03, 0xed, 0x06,
  0x13, 0xba, 0xe4, 0x2e, 0xea, 0xdf, 0x03, 0x73, 0xec, 0xdd, 0x31, 0x97,
  0x3e, 0x5d, 0x3c, 0x4a, 0xdc, 0x3c, 0x06, 0x10, 0x0e, 0xed, 0xbb, 0xe1,
  0x25, 0x18, 0xdc, 0x12, 0xf1, 0x51, 0xf8, 0x09, 0x26, 0x32, 0xd0, 0x0e,
  0xc6, 0xc6, 0xa9, 0x14, 0xfa, 0xea, 0x2c, 0x81, 0xe8, 0xb2, 0xcc, 0x12,
  0x12, 0xfb, 0xb4, 0xd9, 0x19, 0x33, 0x1d, 0x3e, 0xfb, 0xf4, 0xd4, 0xcc,
  0xd3, 0xf8, 0xef, 0x28, 0x08, 0x13, 0xfe, 0xdf, 0xea, 0x15, 0x81, 0xda,
  0xf5, 0xec, 0xc4, 0x19, 0xd7, 0xda, 0x0b, 0xe7, 0xd0, 0x47, 0x2a, 0x30,
  0x15, 0x5f, 0xd0, 0x45, 0xce, 0x42, 0xdb, 0x16, 0xd7, 0xa4, 0xd5, 0xeb,
  0x2b, 0x1c, 0xaf, 0x3f, 0x11, 0x05, 0xe3, 0x49, 0x40, 0xca, 0x24, 0x2f,
  0xb2, 0xe4, 0x0d, 0x3f, 0x22, 0xf0, 0x9c, 0xaf, 0xda, 0x21, 0xe3, 0x29,
  0xe4, 0xe8, 0xca, 0xd5, 0xc8, 0xb4, 0xd2, 0x65, 0x4c, 0xcb, 0xa6, 0x13,
  0x16, 0x58, 0xf0, 0xed, 0x1e, 0xa5, 0x01, 0x45, 0xfb, 0xc2, 0xf0, 0x0d,
  0x25, 0xf2, 0xeb, 0x0c, 0xf3, 0xce, 0x21, 0x27, 0xd4, 0xe8, 0x14, 0xcb,
  0x81, 0x2d, 0x26, 0x33, 0x13, 0xf0, 0x09, 0x0f, 0x4f, 0xba, 0x09, 0xd5,
  0xdf, 0xdb, 0xcb, 0xde, 0x00, 0xbb, 0x38, 0x81, 0x1a, 0xd0, 0xa3, 0xd2,
  0x05, 0xa7, 0xd8, 0x4a, 0x38, 0x60, 0x18, 0xdb, 0x31, 0xd4, 0xed, 0x22,
  0x3f, 0x08, 0xd6, 0x24, 0x2d, 0xf4, 0x97, 0xf3, 0x0d, 0x9d, 0x40, 0x23,
  0x09, 0x1c, 0x20, 0xfd, 0xc7, 0x1f, 0xd0, 0x21, 0x20, 0x25, 0xfc, 0xde,
  0x2e, 0xcc, 0xa9, 0xc3, 0x17, 0x3c, 0x34, 0xa9, 0x15, 0x2a, 0xae, 0x26,
  0xe1, 0x13, 0x3b, 0x47, 0xf9, 0x35, 0xfb, 0x11, 0xe2, 0xe3, 0xec, 0x0e,
  0xf2, 0xda, 0xd0, 0x1c, 0x52, 0xdb, 0xb5, 0x0e, 0x50, 0xbb, 0xcb, 0xb7,
  0x28, 0x7f, 0xe6, 0xe6, 0xb8, 0xc2, 0x55, 0xfb, 0x7a, 0xfc, 0xb9, 0xc0,
  0x13, 0xc0, 0xea, 0x45, 0xeb, 0x3b, 0x2d, 0xb5, 0x81, 0x54, 0x17, 0x56,
  0xfa, 0xa5, 0x3a, 0xa8, 0x97, 0x3c, 0x0b, 0xba, 0x7f, 0x06, 0x49, 0xfc,
  0x8e, 0xd8, 0x29, 0xd1, 0xda, 0x12, 0x51, 0xe7, 0x04, 0x75, 0xe6, 0x47,
  0xf4, 0xb8, 0x14, 0x9f, 0x09, 0x49, 0x28, 0x52, 0x42, 0xc6, 0x54, 0xcb,
  0x78, 0xf1, 0xb9, 0x67, 0x26, 0xbf, 0x0c, 0xd1, 0x17, 0xbf, 0xcd, 0x25,
  0x0b, 0x3e, 0x45, 0xed, 0xb2, 0xc2, 0x17, 0xf4, 0x0d, 0x72, 0x12, 0xa9,
  0xce, 0x3b, 0xc1, 0xd9, 0xa5, 0x0a, 0xbf, 0xa0, 0x81, 0x00, 0x45, 0x99,
  0xdd, 0x86, 0xf0, 0x13, 0x15, 0x2d, 0xda, 0x12, 0x27, 0xe3, 0x03, 0xed,
  0xd1, 0x1c, 0x14, 0xe6, 0x0f, 0xf9, 0xbb, 0x0c, 0xe1, 0x0f, 0xca, 0xa6,
  0xbe, 0x58, 0x19, 0x1c, 0x25, 0x81, 0x29, 0xec, 0xde, 0x6e, 0x2d, 0x1c,
  0x4a, 0x0a, 0xf9, 0x15, 0x2b, 0x0a, 0x33, 0x36, 0x07, 0xcd, 0x14, 0xe1,
  0x93, 0x78, 0x38, 0x2f, 0x06, 0xf1, 0xbe, 0xc9, 0xca, 0xdc, 0xc1, 0xed,
  0x20, 0xf8, 0xe7, 0x27, 0x1d, 0x27, 0xd8, 0x30, 0x22, 0xdd, 0x8b, 0x34,
  0x2b, 0x4f, 0x03, 0x25, 0xcf, 0xab, 0xcd, 0x5e, 0xe0, 0xd1, 0x03, 0xe1,
  0x31, 0xe1, 0x83, 0x28, 0xba, 0xc8, 0xd1, 0x68, 0xc7, 0xfe, 0x25, 0x34,
  0xb3, 0x15, 0x7f, 0x1b, 0xb6, 0xe4, 0xff, 0xff, 0x04, 0x00, 0x00, 0x00,
  0x80, 0x00, 0x00, 0x00, 0x70, 0xf9, 0xff, 0xff, 0x0c, 0xfe, 0xff, 0xff,
  0xb8, 0xfc, 0xff, 0xff, 0x6b, 0xfc, 0xff, 0xff, 0x15, 0xfd, 0xff, 0xff,
  0x6f, 0x01, 0x00, 0x00, 0xfd, 0xfd, 0xff, 0xff, 0xf0, 0xf5, 0xff, 0xff,
  0x81, 0xff, 0xff, 0xff, 0xb9, 0xf9, 0xff, 0xff, 0x48, 0xf8, 0xff, 0xff,
  0xd0, 0xfb, 0xff, 0xff, 0xf6, 0xfe, 0xff, 0xff, 0x14, 0xfe, 0xff, 0xff,
  0xce, 0x01, 0x00, 0x00, 0xdb, 0x01, 0x00, 0x00, 0xad, 0x01, 0x00, 0x00,
  0xfd, 0xfd, 0xff, 0xff, 0x69, 0x05, 0x00, 0x00, 0xc4, 0xfd, 0xff, 0xff,
  0xd0, 0x05, 0x00, 0x00, 0xcf, 0xfb, 0xff, 0xff, 0x11, 0xfd, 0xff, 0xff,
  0x0b, 0xff, 0xff, 0xff, 0x73, 0xff, 0xff, 0xff, 0x56, 0xfa, 0xff, 0xff,
  0xe1, 0xfb, 0xff, 0xff, 0x5d, 0xfd, 0xff, 0xff, 0xa0, 0x06, 0x00, 0x00,
  0x98, 0xfe, 0xff, 0xff, 0xbb, 0xfd, 0xff, 0xff, 0x1e, 0xfa, 0xff, 0xff,
  0x42, 0xe5, 0xff, 0xff, 0x04, 0x00, 0x00, 0x00, 0x20, 0x00, 0x00, 0x00,
  0x7f, 0xc9, 0x63, 0xb3, 0xec, 0xc5, 0xc3, 0xcb, 0xb4, 0xc9, 0xaa, 0xe5,
  0xee, 0xd1, 0xb1, 0xb7, 0xc8, 0x41, 0xc5, 0xf4, 0xac, 0x32, 0xc8, 0x36,
  0xba, 0x03, 0xd1, 0xc3, 0xaf, 0xba, 0xe5, 0xfa, 0x6e, 0xe5, 0xff, 0xff,
  0x04, 0x00, 0x00, 0x00, 0x20, 0x00, 0x00, 0x00, 0x52, 0x56, 0x48, 0xfb,
  0x2c, 0x4d, 0x3d, 0x4b, 0x6c, 0x06, 0x41, 0x2d, 0x40, 0x3e, 0xd8, 0x80,
  0xd3, 0x5a, 0xdf, 0x55, 0xc5, 0x55, 0x2a, 0x62, 0x26, 0x40, 0x5a, 0x52,
  0x0c, 0x49, 0x3b, 0x53, 0x9a, 0xe5, 0xff, 0xff, 0x04, 0x00, 0x00, 0x00,
  0x00, 0x14, 0x00, 0x00, 0xc6, 0x34, 0xbe, 0x69, 0x14, 0xc2, 0xb0, 0x39,
  0xc3, 0x28, 0xb1, 0x14, 0xa4, 0xba, 0x23, 0xb2, 0xc0, 0xe9, 0x4c, 0xda,
  0xe3, 0xf3, 0xe5, 0xce, 0xe7, 0x2a, 0xe9, 0x81, 0xdb, 0xc5, 0x52, 0xb6,
  0xca, 0x1c, 0xf1, 0x38, 0xde, 0x18, 0xc0, 0x46, 0xfc, 0xa6, 0xfb, 0x35,
  0xc5, 0x3c, 0x15, 0xb6, 0xeb, 0x01, 0x92, 0xcb, 0xc8, 0x14, 0x32, 0x28,
  0x1b, 0x21, 0xf8, 0x33, 0x1b, 0xd7, 0xcb, 0xce, 0xfc, 0x1a, 0xdb, 0xf0,
  0x1d, 0xd9, 0xbc, 0x1e, 0x40, 0x3c, 0xe0, 0xdd, 0x26, 0x2d, 0xfa, 0x05,
  0x10, 0x25, 0xca, 0xb0, 0x60, 0x23, 0xb8, 0xc5, 0x29, 0xbf, 0x31, 0x29,
  0xcb, 0x12, 0xd9, 0x24, 0x2e, 0xd8, 0xfb, 0x20, 0xd8, 0xf0, 0xe9, 0xff,
  0x53, 0xad, 0x0f, 0xcd, 0x1e, 0x1b, 0xf3, 0xf9, 0x18, 0xa0, 0xd9, 0x26,
  0x54, 0xf5, 0x22, 0xe0, 0x43, 0x30, 0xe4, 0x45, 0xc0, 0xb6, 0x12, 0xbc,
  0x2e, 0x43, 0x03, 0x34, 0xf4, 0x27, 0xd9, 0x24, 0xd6, 0x4b, 0x60, 0x23,
  0xf8, 0xf5, 0x4d, 0xef, 0x2c, 0x1a, 0x05, 0x10, 0x09, 0x38, 0x4d, 0x0e,
  0x3f, 0x0e, 0x33, 0xf5, 0xf7, 0x38, 0xf3, 0x09, 0x32, 0x56, 0x2f, 0xe8,
  0xe2, 0xf1, 0xd3, 0x32, 0xd8, 0xeb, 0xe2, 0x11, 0xe5, 0x09, 0xfe, 0x47,
  0x02, 0x21, 0xfa, 0x30, 0xf0, 0x4e, 0x32, 0xfb, 0x28, 0xfa, 0xfa, 0xdc,
  0xf0, 0x08, 0x06, 0xd6, 0x03, 0xc2, 0xc7, 0x01, 0xc0, 0xfd, 0xd7, 0xd5,
  0xf9, 0xba, 0x12, 0xec, 0xb6, 0x57, 0x39, 0xdd, 0xf9, 0x07, 0xfb, 0x51,
  0xf5, 0xc8, 0x22, 0xf3, 0x2e, 0x7d, 0xeb, 0x02, 0xe7, 0x0d, 0x24, 0x76,
  0x21, 0x0d, 0x0f, 0xed, 0xd2, 0xe2, 0x0c, 0xd1, 0x04, 0x7f, 0x4b, 0x4e,
  0x4d, 0x3b, 0x5b, 0x3b, 0xdd, 0x30, 0x55, 0x29, 0x33, 0xca, 0x28, 0x07,
  0x06, 0x0f, 0x1e, 0xc4, 0x5a, 0x2f, 0x22, 0xfa, 0x23, 0x0f, 0xca, 0x45,
  0xe4, 0x35, 0x28, 0xcc, 0x19, 0x24, 0xcd, 0x10, 0x66, 0xdc, 0x04, 0xf6,
  0x15, 0x1a, 0x2d, 0xe1, 0x02, 0xf4, 0x67, 0x42, 0x13, 0xf1, 0x1d, 0x0b,
  0xb8, 0xff, 0x47, 0x35, 0xb2, 0x14, 0x05, 0x01, 0x31, 0x3e, 0x31, 0x5f,
  0x32, 0x44, 0xea, 0xf1, 0x3e, 0x10, 0xe6, 0x9f, 0x05, 0x37, 0x3e, 0x25,
  0x65, 0xf9, 0xf5, 0xf1, 0xba, 0x26, 0x57, 0x4b, 0x58, 0x01, 0xa9, 0x1a,
  0x4a, 0xbf, 0xd2, 0xf9, 0x3e, 0xc8, 0xf7, 0xdd, 0xd7, 0x03, 0xeb, 0x23,
  0xd3, 0x35, 0xdb, 0xf4, 0x07, 0x10, 0xf5, 0x11, 0x08, 0xa6, 0xfa, 0xdc,
  0x20, 0xfa, 0x04, 0x00, 0x13, 0x1c, 0xf5, 0x3f, 0x02, 0x05, 0x29, 0x26,
  0x2d, 0xda, 0xd2, 0x26, 0xea, 0x11, 0x09, 0x32, 0x49, 0xde, 0xd1, 0x1e,
  0xe0, 0xf0, 0x2f, 0xfe, 0x35, 0xe8, 0x2e, 0xf4, 0x00, 0xd1, 0x0f, 0x2a,
  0x0d, 0x02, 0xe4, 0xe5, 0xc0, 0xe9, 0x12, 0x08, 0xf5, 0x10, 0x3c, 0x21,
  0xd4, 0x81, 0x0c, 0x23, 0xf4, 0xfe, 0xf0, 0xea, 0x1f, 0x23, 0x12, 0x15,
  0x2a, 0x01, 0x4a, 0xe2, 0x33, 0xd9, 0xeb, 0x30, 0xea, 0xcb, 0x23, 0xea,
  0x21, 0x22, 0x28, 0xbe, 0xbe, 0x04, 0x09, 0xfb, 0x11, 0xf5, 0xe7, 0x07,
  0x01, 0x27, 0xad, 0x0f, 0x24, 0xe7, 0xf9, 0x30, 0x2e, 0x1c, 0xea, 0xe5,
  0x13, 0xb9, 0xe2, 0xeb, 0x0c, 0x44, 0xa2, 0xe1, 0xff, 0xcc, 0x09, 0xf3,
  0xe7, 0xf8, 0xd8, 0xf2, 0xfe, 0x34, 0x25, 0xf7, 0xbd, 0xe2, 0xc2, 0x55,
  0xd2, 0xff, 0xc0, 0xd6, 0x15, 0x15, 0xa3, 0xed, 0x36, 0xc9, 0x2f, 0x23,
  0x37, 0xdb, 0xfd, 0xa8, 0x06, 0x31, 0x03, 0x01, 0x0c, 0xfb, 0x18, 0x1c,
  0x02, 0xc9, 0x15, 0xf3, 0xfd, 0xe7, 0x0c, 0x06, 0xf1, 0x08, 0x0c, 0xfb,
  0xeb, 0x34, 0x0e, 0x3d, 0xd2, 0xe4, 0xec, 0x0b, 0x0d, 0x0b, 0x17, 0xff,
  0x10, 0x01, 0x03, 0xe0, 0xeb, 0x03, 0x3e, 0x29, 0xff, 0x0c, 0xf5, 0xcc,
  0xc1, 0x01, 0x1e, 0x15, 0x19, 0x1e, 0xec, 0xe5, 0xfc, 0xfc, 0xd0, 0xf6,
  0xe7, 0x23, 0xd0, 0x02, 0x2f, 0xed, 0x13, 0x0f, 0x33, 0x14, 0xde, 0x01,
  0x2d, 0x00, 0xf0, 0x0b, 0xe9, 0x12, 0x12, 0x27, 0x23, 0x03, 0x26, 0x1d,
  0x0a, 0x06, 0x41, 0x0d, 0x11, 0xf5, 0x13, 0xec, 0xc4, 0xbc, 0x3d, 0xea,
  0x06, 0xec, 0x07, 0x09, 0xcf, 0xe8, 0xe3, 0x1e, 0x32, 0xef, 0x15, 0x16,
  0x0b, 0xd8, 0xb2, 0xf3, 0x08, 0xe9, 0x2f, 0xd6, 0xbd, 0x08, 0xcf, 0x1c,
  0xcf, 0xd1, 0xec, 0xe9, 0xfb, 0x17, 0xfb, 0x08, 0xb4, 0xfb, 0x29, 0xf5,
  0xdd, 0x12, 0x1f, 0x3b, 0xf2, 0x05, 0xde, 0x09, 0x14, 0xf1, 0xcd, 0x35,
  0xcd, 0xf4, 0xcf, 0x81, 0xfa, 0x23, 0xf1, 0xf8, 0xe3, 0xe3, 0xd0, 0x07,
  0xe7, 0x1f, 0xe3, 0xf0, 0x20, 0x09, 0x01, 0xea, 0xe0, 0x25, 0x2b, 0xe6,
  0x20, 0xfa, 0x0d, 0x29, 0x12, 0xca, 0x1e, 0xee, 0xfa, 0xe7, 0xf2, 0x1e,
  0xe5, 0xc8, 0x28, 0xe7, 0x36, 0x1f, 0xe6, 0x16, 0x04, 0xf2, 0xfa, 0xdd,
  0x06, 0xe8, 0xe8, 0xee, 0x03, 0xea, 0xea, 0x01, 0x1f, 0xf9, 0x2a, 0x22,
  0xf1, 0xe4, 0xfb, 0x14, 0xed, 0x19, 0x16, 0x24, 0x15, 0x06, 0xf5, 0x1d,
  0x14, 0xe0, 0x11, 0xd7, 0x1c, 0x71, 0xf0, 0xde, 0x18, 0xe2, 0x0c, 0x7f,
  0x3a, 0x17, 0x18, 0x1e, 0x11, 0xaa, 0xe5, 0x3b, 0xce, 0x33, 0x2b, 0x4a,
  0x52, 0x15, 0x05, 0x3d, 0x30, 0xf9, 0xf5, 0x3a, 0x1e, 0xd6, 0xe1, 0xec,
  0x02, 0xe7, 0x29, 0xd9, 0x08, 0x00, 0xd4, 0x27, 0x1b, 0xe6, 0x05, 0x2a,
  0x1e, 0xed, 0x1b, 0x27, 0x32, 0xb3, 0xc6, 0xf4, 0xc2, 0xcd, 0x0b, 0xeb,
  0xd3, 0x1c, 0xa9, 0xf5, 0xa6, 0x00, 0x01, 0xd7, 0x0b, 0x1b, 0xf1, 0xe9,
  0xcf, 0xd3, 0x4b, 0x0e, 0xf2, 0x3f, 0x26, 0x43, 0x07, 0x2f, 0x04, 0x00,
  0xcc, 0xea, 0x0c, 0x12, 0xf6, 0xc1, 0xe0, 0x90, 0x16, 0x2c, 0x27, 0xde,
  0xf2, 0xf1, 0x16, 0x28, 0xe6, 0xf2, 0xee, 0xce, 0x20, 0xbe, 0x53, 0xbe,
  0xca, 0x12, 0x41, 0xda, 0x1d, 0x21, 0x00, 0x10, 0xf9, 0x21, 0xfc, 0xe0,
  0x2b, 0xc1, 0x1b, 0xf9, 0xfa, 0xcd, 0x35, 0x1f, 0x08, 0x64, 0xe2, 0x3a,
  0xd8, 0xff, 0x1d, 0x06, 0xee, 0xff, 0x41, 0x04, 0x1d, 0x16, 0xd9, 0x1a,
  0xf6, 0x0c, 0x3a, 0x3f, 0xed, 0xd6, 0xca, 0xe4, 0xdf, 0x15, 0x20, 0xe7,
  0x10, 0xf4, 0x00, 0x21, 0x08, 0xfd, 0xf9, 0xc5, 0x01, 0x4d, 0x02, 0xe9,
  0x0a, 0x02, 0x28, 0x1a, 0x6a, 0xe9, 0x0f, 0xf5, 0x44, 0x0f, 0xe2, 0x09,
  0xfb, 0x7f, 0xf3, 0x1f, 0x12, 0xe6, 0x06, 0x3f, 0xdd, 0x0f, 0x14, 0xf7,
  0x5b, 0xcf, 0xab, 0xde, 0x2a, 0xc8, 0x30, 0xe4, 0x21, 0xff, 0xb9, 0x24,
  0xab, 0x0c, 0xc9, 0x1d, 0x3a, 0xf2, 0xf5, 0xed, 0x27, 0xc0, 0xbb, 0x24,
  0xe2, 0xfe, 0xfd, 0xc1, 0xd1, 0xe8, 0xf4, 0xe1, 0xe3, 0xbf, 0x08, 0xa9,
  0x32, 0x03, 0xfb, 0x21, 0xaf, 0x01, 0x0e, 0x59, 0x93, 0x14, 0x33, 0x32,
  0xc8, 0x14, 0x05, 0xc2, 0xf3, 0xa0, 0xce, 0x58, 0xea, 0x0c, 0xd7, 0x9c,
  0x42, 0x40, 0xdb, 0xe2, 0xea, 0xd0, 0xe6, 0xf1, 0x14, 0x17, 0xfc, 0x2e,
  0x29, 0xea, 0xf2, 0x1e, 0xfd, 0xd9, 0xcf, 0x27, 0xfa, 0xdd, 0xfb, 0x0b,
  0xc4, 0x24, 0x24, 0xf9, 0xf3, 0x2f, 0x16, 0x19, 0x03, 0x09, 0xfe, 0xf2,
  0x09, 0xb6, 0x05, 0x0b, 0x1f, 0x21, 0xe3, 0x0b, 0xe3, 0x0f, 0x02, 0xe9,
  0x05, 0x0f, 0xc5, 0x04, 0x02, 0x38, 0xa2, 0xee, 0xcb, 0x3d, 0x2d, 0x0e,
  0x29, 0xc0, 0x17, 0x2a, 0xe5, 0x05, 0x04, 0xdf, 0xe7, 0xf4, 0x05, 0x07,
  0xd7, 0xdc, 0xdf, 0xe9, 0xcb, 0x18, 0xd9, 0xc8, 0xcd, 0x04, 0xec, 0x4b,
  0x19, 0x25, 0x0c, 0x1d, 0xf2, 0x81, 0x31, 0xb7, 0xa1, 0xbd, 0xe6, 0xcd,
  0x31, 0x01, 0xe6, 0xf3, 0xc2, 0x0b, 0x61, 0xd9, 0xee, 0xe2, 0x06, 0x29,
  0xef, 0x0e, 0x28, 0x25, 0xf7, 0x30, 0x44, 0xc3, 0xed, 0x41, 0xe2, 0x08,
  0xd6, 0x3f, 0x08, 0xfb, 0xc8, 0xee, 0xf6, 0xfa, 0x0c, 0xe3, 0x0c, 0xe7,
  0x02, 0xea, 0x04, 0xdd, 0x9d, 0xf6, 0xec, 0xf3, 0xf5, 0x38, 0xce, 0xe3,
  0xf4, 0xd5, 0xe9, 0xc3, 0x04, 0xf1, 0xda, 0xa6, 0xe4, 0x2a, 0xfc, 0xdb,
  0x0e, 0x07, 0xfb, 0x14, 0xeb, 0xbd, 0xf0, 0x0e, 0x0b, 0x22, 0xf8, 0xdf,
  0x1d, 0xf7, 0x21, 0xe7, 0x21, 0x3d, 0x1a, 0xd9, 0x09, 0x2a, 0x0e, 0x0b,
  0x07, 0x11, 0x32, 0x1a, 0x24, 0x22, 0x04, 0x14, 0x26, 0xc0, 0x24, 0x1e,
  0x23, 0xcf, 0xe7, 0xdb, 0x08, 0x34, 0x09, 0x2c, 0xea, 0xf3, 0x17, 0xec,
  0x14, 0xd8, 0x2d, 0xd4, 0x0f, 0xcf, 0xe6, 0xd2, 0x11, 0xf8, 0x13, 0xf0,
  0xea, 0x1b, 0xf6, 0xd4, 0xb9, 0x38, 0xf8, 0x0e, 0x1d, 0x36, 0x1a, 0x38,
  0xf9, 0xdb, 0x21, 0x16, 0x2f, 0x7b, 0xda, 0xee, 0xd4, 0xfa, 0x7f, 0x4a,
  0x49, 0x11, 0x23, 0xfd, 0xeb, 0xd2, 0xe9, 0xe7, 0xf0, 0x37, 0x41, 0x3b,
  0x1b, 0x12, 0xf7, 0x29, 0x01, 0xff, 0xfa, 0x09, 0x23, 0x23, 0xee, 0x0e,
  0xd0, 0xd6, 0x12, 0xcb, 0x26, 0xed, 0xed, 0xf3, 0xd2, 0x3a, 0xe3, 0x34,
  0x52, 0x41, 0xdf, 0x25, 0x27, 0xb8, 0x02, 0x1a, 0x13, 0xd9, 0x0e, 0x0b,
  0x08, 0x14, 0xe3, 0xc7, 0x0a, 0xca, 0x44, 0xb6, 0xd8, 0xd8, 0xcf, 0x05,
  0xec, 0x00, 0x10, 0x18, 0xdb, 0x09, 0xea, 0x32, 0x22, 0x04, 0x06, 0x33,
  0xdd, 0xc4, 0xdd, 0x01, 0xfd, 0xe6, 0xf8, 0x0f, 0xd9, 0x2d, 0x15, 0xcf,
  0x36, 0x1e, 0xf1, 0xee, 0x14, 0x2c, 0xe7, 0xda, 0x2b, 0x08, 0xfb, 0x17,
  0xdb, 0x16, 0x18, 0xd1, 0x1e, 0x4a, 0x22, 0x26, 0x16, 0xf7, 0x08, 0x26,
  0x0f, 0xed, 0x29, 0x3d, 0x2e, 0xe7, 0xeb, 0x29, 0x2e, 0x66, 0x15, 0x3c,
  0x17, 0xad, 0x16, 0x02, 0xd9, 0x05, 0x01, 0xe0, 0xd3, 0xce, 0xf4, 0xfc,
  0xee, 0xf5, 0x4e, 0x0a, 0xeb, 0xe1, 0x23, 0xbe, 0xc8, 0x18, 0x44, 0x29,
  0x5d, 0x54, 0xeb, 0x2d, 0xfc, 0x09, 0x19, 0x12, 0x00, 0x7f, 0xdd, 0xfc,
  0xd8, 0x02, 0x39, 0x01, 0x68, 0xe8, 0x53, 0x15, 0x03, 0xb4, 0xf5, 0xe2,
  0xfa, 0x65, 0x29, 0x3a, 0x2d, 0x56, 0x1f, 0x32, 0xe1, 0x0f, 0x0c, 0x22,
  0x3f, 0xfd, 0xfa, 0xe8, 0xc1, 0xe4, 0x06, 0xe9, 0x1a, 0x23, 0xc8, 0xdc,
  0xeb, 0x36, 0xde, 0x25, 0x27, 0x0e, 0xe5, 0x13, 0xf7, 0xbe, 0x02, 0xdc,
  0x26, 0xed, 0x07, 0x01, 0xfe, 0xfa, 0x0c, 0x10, 0xd7, 0xd6, 0x3a, 0xe8,
  0x10, 0x25, 0x03, 0x26, 0xe1, 0xdf, 0x56, 0x34, 0xce, 0x44, 0xee, 0x49,
  0x14, 0xee, 0xf2, 0x30, 0x22, 0xba, 0xda, 0x5e, 0x1c, 0x16, 0xe9, 0xc1,
  0x4a, 0x20, 0xf7, 0x41, 0xeb, 0xc7, 0x12, 0x1c, 0xd7, 0x28, 0x32, 0xd4,
  0xea, 0xe2, 0xf2, 0x2b, 0x0f, 0xed, 0x08, 0x14, 0x02, 0x32, 0xec, 0x00,
  0x1b, 0xe1, 0xdb, 0xeb, 0xf4, 0xe9, 0xe8, 0x2e, 0xeb, 0x16, 0xf1, 0x2d,
  0x1b, 0x32, 0xcf, 0x01, 0x02, 0xfe, 0x21, 0xe2, 0xcd, 0xff, 0x41, 0x1e,
  0x0e, 0xc2, 0xd2, 0x38, 0xc4, 0xcb, 0x7f, 0x2f, 0xe5, 0xed, 0x31, 0xb6,
  0xc4, 0x38, 0x2d, 0x0d, 0x1b, 0x13, 0xcc, 0x3c, 0x01, 0xc7, 0x21, 0x0e,
  0xf6, 0x4a, 0xef, 0xe4, 0xe4, 0xec, 0x2b, 0x03, 0x50, 0xf3, 0x35, 0xd5,
  0x38, 0xee, 0x20, 0xe2, 0x29, 0x73, 0x1b, 0xfd, 0x58, 0x3c, 0x08, 0x63,
  0xf0, 0x15, 0x01, 0xfd, 0x21, 0xf5, 0xcb, 0xb6, 0x17, 0xda, 0x03, 0xb5,
  0xf1, 0x1c, 0xda, 0x0c, 0xea, 0x14, 0xa2, 0x3b, 0x34, 0x38, 0x19, 0x23,
  0x29, 0x1c, 0xea, 0x1b, 0x18, 0xdb, 0x39, 0x1d, 0xce, 0x43, 0x0a, 0x1c,
  0xe6, 0x0f, 0x26, 0xcd, 0x15, 0x2c, 0x08, 0xfa, 0xd8, 0xde, 0x19, 0x31,
  0xd5, 0x54, 0x4b, 0x0d, 0xfe, 0xfc, 0x5a, 0x54, 0xff, 0xd6, 0xeb, 0xee,
  0xfe, 0xf6, 0xe0, 0xc4, 0xe8, 0x61, 0xe4, 0x36, 0x03, 0xd1, 0x2f, 0xf3,
  0x18, 0x4a, 0xd2, 0xda, 0x41, 0xca, 0xd5, 0x34, 0xd4, 0x81, 0xcf, 0xf9,
  0x05, 0xc9, 0x24, 0x07, 0xac, 0x04, 0xf3, 0x06, 0x12, 0x32, 0xd1, 0x26,
  0xf5, 0x2f, 0xdf, 0xe0, 0x06, 0x94, 0xd6, 0xd9, 0xea, 0x11, 0xec, 0xe4,
  0xde, 0x01, 0xe4, 0xe9, 0xf8, 0xf9, 0x00, 0xe3, 0xf9, 0x00, 0xa5, 0x1b,
  0x04, 0xf6, 0xf4, 0x05, 0x34, 0xda, 0x3d, 0x38, 0xed, 0xdf, 0x3c, 0xe4,
  0x12, 0x19, 0x04, 0xaf, 0xc4, 0x02, 0xea, 0x3b, 0xc1, 0x46, 0xbb, 0xdc,
  0x9f, 0xd9, 0xec, 0x33, 0x45, 0xf3, 0xb6, 0xfc, 0xe4, 0xc5, 0xc0, 0xd5,
  0x07, 0xca, 0x17, 0xc0, 0x22, 0x06, 0xc5, 0x17, 0xec, 0xf9, 0x07, 0x58,
  0xf3, 0xeb, 0xbe, 0xfa, 0xc1, 0x02, 0x08, 0x18, 0x02, 0x2d, 0x24, 0x21,
  0xac, 0xdc, 0xcc, 0x04, 0x03, 0x1c, 0xc6, 0xb9, 0xf2, 0xec, 0xe0, 0x0f,
  0x14, 0xe8, 0xe7, 0xb6, 0x3f, 0x20, 0xef, 0xf6, 0xd0, 0x09, 0x15, 0x1a,
  0x16, 0xf1, 0xc6, 0xbf, 0x0d, 0xa0, 0xde, 0xe3, 0x2d, 0xd6, 0x01, 0xa3,
  0xd6, 0x02, 0xfa, 0xd0, 0xdd, 0xe8, 0xd4, 0x2b, 0x40, 0xda, 0x3b, 0xf0,
  0xff, 0x24, 0x28, 0xb3, 0xe7, 0x12, 0x0d, 0xdf, 0x2d, 0x50, 0x05, 0xd5,
  0xc8, 0xd1, 0xe2, 0xd1, 0xb4, 0xf5, 0x26, 0x5a, 0xf6, 0xcc, 0x42, 0xc6,
  0x14, 0xcb, 0x18, 0xed, 0xfd, 0xfd, 0x3c, 0x1d, 0x54, 0x0b, 0x1a, 0x06,
  0x55, 0xeb, 0x2b, 0x19, 0x30, 0x16, 0x38, 0xe5, 0xf2, 0xc6, 0xfe, 0x0d,
  0x18, 0x3d, 0x0a, 0x3f, 0xee, 0xc1, 0x01, 0xa4, 0xc7, 0xe4, 0x2d, 0xd0,
  0xd1, 0x00, 0xe4, 0x44, 0xfe, 0x8c, 0x52, 0xf9, 0x3a, 0x7c, 0x15, 0xcf,
  0xba, 0x27, 0x32, 0x47, 0x6d, 0x12, 0xfc, 0xd7, 0x21, 0xed, 0x47, 0x0a,
  0xe1, 0x5f, 0x6a, 0x29, 0x14, 0x06, 0x56, 0x11, 0x0b, 0xe1, 0x28, 0xc9,
  0x6a, 0x0e, 0xc6, 0x02, 0xfd, 0xff, 0x02, 0xb5, 0x66, 0x2a, 0xe1, 0x50,
  0x19, 0x3f, 0xbd, 0x5a, 0x4b, 0xfe, 0x2a, 0xe2, 0x25, 0xa3, 0xd8, 0x2c,
  0x0a, 0x21, 0x1d, 0x1d, 0x1f, 0x29, 0xf6, 0xff, 0xa7, 0xf7, 0x00, 0x1f,
  0xf3, 0x26, 0x5c, 0x3a, 0x12, 0x0e, 0xfd, 0x73, 0xcb, 0x2a, 0x2f, 0x3c,
  0x44, 0x1a, 0x2b, 0xe1, 0x20, 0xfa, 0xe0, 0x03, 0xd4, 0x0c, 0x06, 0xea,
  0x1c, 0x69, 0xf8, 0x7f, 0x13, 0x06, 0x28, 0x68, 0xac, 0x1a, 0x06, 0x28,
  0x6a, 0xcd, 0xc5, 0x4a, 0xc9, 0x2a, 0x49, 0x04, 0xe3, 0xfd, 0xea, 0x1d,
  0xfd, 0xdd, 0x10, 0x05, 0xea, 0xad, 0xde, 0x16, 0x07, 0x0c, 0x25, 0x12,
  0x0f, 0x5d, 0x29, 0x39, 0x09, 0xbb, 0x3e, 0x1b, 0x22, 0xd5, 0x17, 0xcd,
  0xe5, 0x0d, 0xe3, 0x3e, 0x03, 0x25, 0x1b, 0x3d, 0xcb, 0x04, 0xf3, 0xf0,
  0xce, 0x09, 0x44, 0x2b, 0x70, 0x06, 0xad, 0x44, 0x0b, 0x00, 0xf4, 0xd1,
  0x37, 0x43, 0x06, 0xd2, 0xf3, 0x26, 0x57, 0x2b, 0x59, 0x17, 0x03, 0xf1,
  0xde, 0xe3, 0x0d, 0x37, 0xde, 0x5c, 0x30, 0x12, 0x2f, 0x32, 0xfa, 0x3c,
  0xd0, 0xd6, 0x3d, 0x23, 0x42, 0xdc, 0x0d, 0xd4, 0x1a, 0xd0, 0x15, 0xc4,
  0x3d, 0x31, 0xef, 0x27, 0xed, 0xe7, 0xc6, 0x47, 0x0a, 0x15, 0xf9, 0x07,
  0xe7, 0xbe, 0xb6, 0x0d, 0xcb, 0xd7, 0x0a, 0xfa, 0xf0, 0xdd, 0xfc, 0xcb,
  0xd0, 0x13, 0x14, 0x1b, 0x22, 0xfc, 0x16, 0xfa, 0x9e, 0xe8, 0xfa, 0x19,
  0xf5, 0xe8, 0x00, 0xd1, 0x1b, 0x33, 0x4e, 0x5a, 0x15, 0x18, 0xe4, 0x2f,
  0x2b, 0x31, 0xb2, 0x81, 0x00, 0x52, 0xf5, 0xed, 0x02, 0xff, 0x38, 0x10,
  0xd1, 0x48, 0xce, 0xe4, 0x24, 0xda, 0xf0, 0xdc, 0xc9, 0xfc, 0xe4, 0xec,
  0xe3, 0xfa, 0x08, 0x08, 0x29, 0x1a, 0xeb, 0x06, 0x27, 0xe5, 0xe0, 0xdc,
  0x02, 0xec, 0xc7, 0xf1, 0x3a, 0x68, 0x05, 0x30, 0xfa, 0x09, 0x04, 0xf8,
  0x00, 0xba, 0x34, 0x0b, 0xc6, 0x2c, 0xcd, 0x2a, 0x2d, 0x0b, 0xd4, 0xf2,
  0x21, 0x00, 0x34, 0xb3, 0xe2, 0xfd, 0xc5, 0xb7, 0x42, 0xed, 0xd6, 0x2f,
  0xef, 0x2a, 0x03, 0xdf, 0x23, 0x7f, 0xb6, 0xf8, 0x23, 0xd7, 0x21, 0x6d,
  0x42, 0x32, 0x34, 0xeb, 0xbf, 0xed, 0xf9, 0xdc, 0xe5, 0xec, 0x0b, 0x28,
  0x18, 0x1b, 0x01, 0x3e, 0xb1, 0xd2, 0x3b, 0x1f, 0x18, 0x3f, 0xa1, 0x1a,
  0xe3, 0xe8, 0xb6, 0xc8, 0x4a, 0x62, 0xe9, 0xae, 0x34, 0x27, 0xda, 0x3d,
  0x5e, 0x4c, 0xe3, 0x31, 0x0a, 0x19, 0xb9, 0x01, 0xeb, 0xc4, 0x43, 0x34,
  0xe5, 0x10, 0xe2, 0xd7, 0xdd, 0xf7, 0xdd, 0xf8, 0xe7, 0xf0, 0x1d, 0x36,
  0xd7, 0x02, 0xfa, 0xe9, 0xe8, 0xfc, 0x1f, 0x23, 0xe9, 0x10, 0x62, 0x33,
  0x39, 0xe6, 0xec, 0x54, 0x36, 0x1a, 0xf3, 0xc9, 0x14, 0x2b, 0x19, 0x2f,
  0x31, 0xd0, 0x44, 0x58, 0xac, 0xf5, 0x02, 0xdb, 0xef, 0x33, 0xdd, 0x37,
  0xd4, 0x0b, 0x0f, 0xe9, 0x12, 0x34, 0x3a, 0x11, 0x34, 0xcb, 0xf8, 0x16,
  0xe7, 0xf9, 0x04, 0xe6, 0x39, 0xd9, 0x13, 0xd2, 0x24, 0x0d, 0xde, 0x00,
  0xe7, 0xe2, 0x48, 0xfc, 0xf7, 0xd2, 0x17, 0xed, 0x0d, 0xe4, 0xda, 0x23,
  0x10, 0x0c, 0x30, 0x19, 0xdf, 0x0e, 0x23, 0xd5, 0xfc, 0x08, 0x30, 0x22,
  0x4d, 0x1b, 0xb4, 0xd8, 0xd5, 0x29, 0x1a, 0xfd, 0x3b, 0x35, 0xb7, 0xc8,
  0x1d, 0x2a, 0x64, 0xf2, 0x53, 0xe7, 0x27, 0xfe, 0x0d, 0xf1, 0x33, 0x1e,
  0xdd, 0x63, 0x04, 0x2e, 0x46, 0x29, 0x04, 0x24, 0x01, 0xfc, 0x55, 0x06,
  0x4e, 0xa7, 0xe9, 0xc5, 0xda, 0xdc, 0x02, 0xec, 0xf0, 0x08, 0xd6, 0x38,
  0x28, 0x34, 0xde, 0x23, 0x06, 0x0b, 0x16, 0x18, 0x2e, 0xb2, 0xdc, 0xee,
  0x01, 0xdd, 0x0a, 0xd5, 0x14, 0x2a, 0x08, 0x36, 0x8c, 0x31, 0x29, 0xe0,
  0x16, 0x2c, 0x43, 0x10, 0xee, 0xdb, 0xfa, 0x25, 0xe2, 0x18, 0x09, 0x32,
  0x0b, 0x00, 0x7f, 0x6d, 0xf3, 0xff, 0xfb, 0x35, 0x09, 0x2c, 0xb9, 0xbe,
  0xec, 0x76, 0x16, 0x40, 0x13, 0x04, 0xfe, 0x68, 0x22, 0x35, 0x3b, 0xf1,
  0x73, 0xee, 0xf4, 0x0d, 0x35, 0xb6, 0xf2, 0x05, 0x1b, 0xe0, 0x03, 0xff,
  0x18, 0xe6, 0xf2, 0xfa, 0xc7, 0xe7, 0xa8, 0x0a, 0x1f, 0x03, 0xeb, 0xdb,
  0xcc, 0x91, 0xd5, 0xf1, 0xe3, 0x23, 0xdf, 0xf5, 0xea, 0x1b, 0x0f, 0x25,
  0xed, 0x36, 0x03, 0xe6, 0x05, 0xde, 0x18, 0x06, 0x18, 0x32, 0xdd, 0xef,
  0x45, 0xdb, 0x0d, 0x3e, 0xeb, 0xe3, 0x1d, 0x09, 0x54, 0x49, 0x18, 0x1e,
  0xc7, 0x04, 0x5b, 0x1a, 0xc5, 0x44, 0x01, 0xe6, 0x99, 0x29, 0x06, 0xd3,
  0xd3, 0x56, 0xdf, 0xf0, 0x1e, 0xe8, 0x81, 0xfa, 0xf2, 0x17, 0xd3, 0xbd,
  0xf8, 0xcc, 0xb1, 0x14, 0xd7, 0x48, 0x2b, 0x58, 0x75, 0x32, 0x12, 0x0c,
  0xe6, 0x91, 0x25, 0xd2, 0x12, 0xd8, 0x38, 0x14, 0xd7, 0x2c, 0x1c, 0xce,
  0xe0, 0x13, 0x20, 0x00, 0xe1, 0x03, 0x06, 0xf7, 0xe3, 0xe1, 0xd5, 0xdd,
  0xee, 0x35, 0xc4, 0x17, 0x02, 0x22, 0x16, 0x09, 0xda, 0xd9, 0xf4, 0xd6,
  0x4d, 0x12, 0xdc, 0xc1, 0x0a, 0xc9, 0xda, 0xa1, 0x11, 0x30, 0xf8, 0xd9,
  0xde, 0xc9, 0x12, 0x41, 0x15, 0x96, 0xe6, 0xb4, 0x1a, 0xef, 0xf2, 0xda,
  0x5d, 0xfb, 0xe5, 0xe1, 0x2f, 0xf1, 0x13, 0xec, 0xab, 0x3a, 0x6a, 0x29,
  0xe5, 0x40, 0x8a, 0xa0, 0x06, 0xaf, 0xdf, 0xf7, 0x27, 0xb5, 0xca, 0xde,
  0x2d, 0xf1, 0x29, 0xc9, 0xd0, 0x5f, 0xf2, 0x21, 0x26, 0xae, 0xe3, 0xfb,
  0xc2, 0x02, 0xb3, 0xd1, 0xb2, 0x1e, 0xff, 0x1a, 0xbc, 0x1e, 0xcd, 0x20,
  0x32, 0xb2, 0x09, 0xdd, 0xe1, 0xc4, 0xf3, 0xd5, 0xc5, 0x0f, 0xd2, 0x42,
  0xe9, 0x22, 0xa2, 0xf2, 0xb1, 0xb4, 0xc2, 0x02, 0x51, 0x09, 0xf7, 0x35,
  0xcf, 0xf9, 0x32, 0xaa, 0x0f, 0xc6, 0xe4, 0xf6, 0xcf, 0xc9, 0x26, 0xf8,
  0x07, 0x37, 0xd9, 0xc2, 0xf3, 0xe7, 0x18, 0x34, 0xe4, 0x35, 0xf7, 0x02,
  0xc2, 0xa9, 0xc7, 0xfe, 0x1b, 0x7f, 0xf5, 0xb7, 0x14, 0xdd, 0x1b, 0xfd,
  0xb5, 0xb0, 0xd7, 0x0c, 0x12, 0x17, 0x2a, 0x9f, 0xf2, 0x20, 0x04, 0x2e,
  0xc0, 0x1e, 0x1a, 0x40, 0xf7, 0xb7, 0xb2, 0x40, 0x33, 0xb2, 0x27, 0xeb,
  0xed, 0x07, 0x30, 0x09, 0xe8, 0x07, 0xd2, 0x02, 0x13, 0x13, 0xf3, 0xd1,
  0x15, 0xb1, 0xad, 0xfa, 0x5c, 0x44, 0x3a, 0x00, 0x68, 0xd0, 0x25, 0x7e,
  0x30, 0x1f, 0xe9, 0x2e, 0xfa, 0x43, 0x7e, 0xbf, 0xf8, 0x03, 0xc6, 0x21,
  0xdf, 0x42, 0x48, 0x1a, 0xef, 0x03, 0x4c, 0x21, 0xee, 0xed, 0x0e, 0x05,
  0xeb, 0xda, 0xe5, 0xea, 0x34, 0xfc, 0x0c, 0x07, 0x49, 0x62, 0x1a, 0x35,
  0xf3, 0xf7, 0xf9, 0xfd, 0xfe, 0x16, 0x4b, 0xf7, 0xe6, 0xb4, 0xe2, 0xe8,
  0x00, 0x1f, 0x0b, 0x24, 0xdb, 0xcd, 0xf5, 0xea, 0xdb, 0x37, 0xf8, 0x09,
  0x52, 0x4c, 0x14, 0x40, 0xf2, 0xe4, 0xf2, 0x22, 0x33, 0x7f, 0xd6, 0xd0,
  0x0f, 0x35, 0x5f, 0x04, 0x34, 0xf1, 0x26, 0xd6, 0x42, 0xae, 0xca, 0xfb,
  0x0d, 0x7f, 0x2b, 0x37, 0x2f, 0x24, 0x10, 0x46, 0xe5, 0xe2, 0x41, 0xfe,
  0x21, 0xe1, 0x00, 0xe6, 0xde, 0xbd, 0x2e, 0xea, 0x03, 0x21, 0xf8, 0xe2,
  0xe9, 0xff, 0x05, 0x42, 0x12, 0x09, 0x2f, 0x3c, 0x1c, 0xb3, 0xf0, 0x0d,
  0x47, 0xd1, 0x37, 0xfe, 0xeb, 0x31, 0x09, 0x22, 0xf3, 0x3a, 0x05, 0xe5,
  0xf3, 0x12, 0xe7, 0xff, 0xec, 0x0a, 0x2a, 0xf9, 0xe2, 0x0a, 0x05, 0x19,
  0xf9, 0x40, 0x29, 0x24, 0xef, 0xe6, 0xd5, 0x24, 0xf6, 0xe4, 0xf1, 0xe0,
  0x2e, 0x53, 0x37, 0xef, 0xe6, 0xdf, 0x27, 0xf7, 0x0f, 0xdc, 0x2b, 0xf1,
  0x1e, 0xcc, 0x24, 0x09, 0x08, 0xa6, 0xd9, 0x30, 0x29, 0xaf, 0xd5, 0xf6,
  0xdb, 0x1c, 0x28, 0x11, 0xfd, 0x0e, 0x2d, 0xe2, 0x24, 0x3e, 0xf4, 0x01,
  0xdb, 0x9e, 0x33, 0xc3, 0x34, 0x1c, 0x07, 0x08, 0xf3, 0xf2, 0xc3, 0x10,
  0x1b, 0x05, 0xf0, 0x04, 0x48, 0xe4, 0x95, 0x20, 0x01, 0x1e, 0x0a, 0xfa,
  0x7d, 0xdc, 0xff, 0x2e, 0xb0, 0x0a, 0x0b, 0xf1, 0x0a, 0x27, 0xf6, 0xd5,
  0xfc, 0xa4, 0xfa, 0x13, 0x07, 0x2f, 0xb8, 0xf0, 0xe5, 0xd5, 0xff, 0x1f,
  0x13, 0x0a, 0x33, 0x2c, 0xf5, 0x81, 0xd7, 0xd7, 0x0e, 0xe6, 0x02, 0xc4,
  0x3c, 0xeb, 0x03, 0x17, 0xa0, 0xde, 0x3d, 0x42, 0xe0, 0xe0, 0xca, 0x1e,
  0x0d, 0xd0, 0x2d, 0xfc, 0xe5, 0x49, 0x4f, 0x0d, 0xed, 0xc8, 0xf0, 0xbf,
  0xf2, 0xf8, 0xf3, 0xe7, 0xf0, 0xf8, 0xc0, 0xd8, 0x1f, 0xec, 0x26, 0x37,
  0x16, 0x19, 0xdc, 0x33, 0xff, 0xe4, 0xbc, 0x02, 0x1e, 0xf6, 0xa1, 0xdb,
  0x4a, 0xd2, 0xf4, 0xa1, 0xff, 0xc0, 0xa1, 0x9a, 0x06, 0x1e, 0x1d, 0x9f,
  0xe8, 0xdb, 0xe4, 0x60, 0xfa, 0xcc, 0xfc, 0xdc, 0x0f, 0x12, 0xfe, 0xed,
  0x03, 0x17, 0x19, 0x36, 0xe6, 0xef, 0xc6, 0xc3, 0xf2, 0x03, 0x2c, 0xf3,
  0x06, 0x12, 0x1d, 0xf5, 0x03, 0x06, 0x14, 0x1b, 0x17, 0xc5, 0xee, 0xf6,
  0x15, 0xf3, 0x2a, 0x2f, 0xdc, 0x50, 0xe5, 0x51, 0xe4, 0xf2, 0x26, 0x23,
  0x1f, 0x05, 0xec, 0xde, 0x02, 0xe5, 0xbe, 0xc7, 0x1c, 0x07, 0x43, 0x07,
  0xf0, 0xf7, 0x48, 0xec, 0xde, 0xeb, 0x13, 0x1c, 0x18, 0x20, 0xd6, 0xf6,
  0x3d, 0x24, 0xd7, 0xf2, 0xea, 0x33, 0xd2, 0xd3, 0x19, 0xf7, 0x1f, 0x06,
  0x49, 0xe5, 0xea, 0xdc, 0xeb, 0xea, 0xe7, 0xf6, 0xc7, 0x7f, 0xce, 0x41,
  0x3b, 0x0d, 0xe4, 0x3d, 0xed, 0x27, 0x3b, 0xcf, 0x34, 0xd1, 0xff, 0xca,
  0xff, 0xfc, 0xfc, 0xba, 0xee, 0xf9, 0xc7, 0xde, 0xc9, 0x0c, 0xc9, 0x08,
  0x4f, 0x02, 0xcb, 0x03, 0x29, 0xc5, 0xb9, 0xeb, 0x05, 0x02, 0xf6, 0xcf,
  0xca, 0xcf, 0xe7, 0x02, 0xe6, 0x12, 0x0c, 0x14, 0x50, 0xf8, 0x0c, 0xfd,
  0xc1, 0xe5, 0x23, 0x39, 0xf4, 0xf0, 0x36, 0x29, 0xea, 0xe0, 0xe7, 0xf0,
  0x27, 0xce, 0xf4, 0x4e, 0xe0, 0xe7, 0xc8, 0xd6, 0x24, 0x35, 0xea, 0x26,
  0x08, 0xc1, 0xfb, 0xfa, 0xca, 0x2a, 0xe1, 0xbd, 0xf2, 0xc2, 0x25, 0x2a,
  0x45, 0x28, 0x3e, 0x33, 0xf9, 0xd2, 0xb6, 0x63, 0xea, 0xb9, 0xc7, 0xf4,
  0x94, 0xb8, 0xe7, 0x31, 0xaa, 0xee, 0x05, 0x4d, 0xcd, 0xa6, 0x2e, 0x8e,
  0xe1, 0xdb, 0x81, 0xb3, 0x8f, 0x8d, 0xea, 0xdd, 0x9c, 0x00, 0x07, 0x1b,
  0xcb, 0x47, 0xb5, 0xf8, 0x57, 0xe8, 0x12, 0xc0, 0xd6, 0x41, 0xb6, 0xfa,
  0x42, 0x4d, 0x26, 0x2d, 0xdf, 0xcb, 0xfe, 0x18, 0xd3, 0x0d, 0x22, 0xec,
  0xe9, 0x4c, 0x1f, 0xec, 0x81, 0x4f, 0x3d, 0xfc, 0xa2, 0xca, 0xeb, 0x22,
  0x5b, 0x8d, 0xa5, 0xd5, 0x2a, 0x19, 0xcb, 0x62, 0xc2, 0xdf, 0x02, 0xea,
  0x66, 0xcb, 0x34, 0x26, 0x26, 0x26, 0xd8, 0x52, 0x54, 0xba, 0xc2, 0x13,
  0x22, 0xa9, 0x49, 0x5a, 0xdf, 0x46, 0x44, 0xc5, 0xe0, 0xf1, 0x25, 0xb6,
  0xef, 0xfe, 0xd1, 0xfa, 0xf7, 0xcb, 0x00, 0x06, 0x58, 0x3d, 0x31, 0xb0,
  0x1f, 0x02, 0x28, 0x7f, 0xf9, 0xbc, 0x5a, 0x44, 0xc8, 0x01, 0x00, 0x4b,
  0x03, 0xe8, 0x1c, 0xe1, 0x25, 0x61, 0xcb, 0xe0, 0xce, 0xd8, 0xd3, 0xe5,
  0x5e, 0xec, 0xbf, 0x45, 0x12, 0x07, 0xdf, 0xd5, 0xf3, 0x5f, 0xcb, 0xc3,
  0xb6, 0x1f, 0x18, 0x1d, 0xa6, 0x4f, 0x4e, 0x00, 0xd3, 0x26, 0x0d, 0x08,
  0x26, 0x00, 0x26, 0xeb, 0x04, 0xf1, 0x10, 0x0f, 0xf4, 0xfb, 0x0b, 0x30,
  0xec, 0x4c, 0xee, 0x54, 0x0f, 0xbd, 0x13, 0xfd, 0xd8, 0xfc, 0xec, 0xe5,
  0x03, 0xca, 0x2b, 0x17, 0xd5, 0x29, 0x5c, 0x07, 0x3f, 0x01, 0xd2, 0xd2,
  0xad, 0xfa, 0xf7, 0x25, 0x27, 0x0c, 0xdb, 0x36, 0xff, 0xe8, 0xc2, 0xe7,
  0x4e, 0x40, 0xb2, 0xd1, 0x00, 0xe1, 0x0c, 0xec, 0x1b, 0x13, 0x30, 0xcb,
  0x2d, 0xcd, 0xe4, 0xd9, 0x0c, 0x24, 0xeb, 0x61, 0x27, 0x08, 0xfa, 0x04,
  0xfe, 0xc3, 0x06, 0x2c, 0x12, 0x1b, 0xb8, 0xc0, 0xef, 0x0d, 0xfb, 0xe9,
  0xde, 0x0d, 0xcc, 0xe9, 0x1d, 0x28, 0xe5, 0x1e, 0x4b, 0x3f, 0xea, 0x06,
  0x0b, 0xd7, 0xb3, 0x09, 0x0f, 0xca, 0xfa, 0x1d, 0xa6, 0xfa, 0xbf, 0xce,
  0xc9, 0xca, 0xfb, 0xbc, 0x0d, 0xe9, 0xf7, 0x25, 0xe1, 0x0e, 0x41, 0x2d,
  0xc3, 0x38, 0x28, 0x67, 0x01, 0x27, 0x02, 0x2c, 0x24, 0xe4, 0xf6, 0x7f,
  0x33, 0xdb, 0xfe, 0x86, 0x15, 0x67, 0x1b, 0x0c, 0xe3, 0x07, 0x18, 0xdf,
  0xb5, 0x31, 0x0f, 0xf1, 0xfd, 0x0c, 0x0d, 0x30, 0xd2, 0xff, 0x5e, 0xdf,
  0xe6, 0x32, 0x11, 0xe7, 0xf3, 0xd0, 0x22, 0x0d, 0xc0, 0xf0, 0xff, 0x42,
  0xea, 0x02, 0xe1, 0x4a, 0xfb, 0x56, 0xf2, 0x42, 0xcc, 0xdf, 0xec, 0x4b,
  0x04, 0x23, 0x6d, 0xef, 0x13, 0xae, 0xe5, 0x04, 0xcf, 0xd3, 0x48, 0x53,
  0xf6, 0xd2, 0x53, 0x94, 0xec, 0xf9, 0x26, 0xed, 0x08, 0x3b, 0xde, 0x0c,
  0x1a, 0x02, 0x26, 0x0e, 0x01, 0x73, 0xbd, 0xdd, 0x12, 0x07, 0x3b, 0x52,
  0x4e, 0xfe, 0x42, 0xeb, 0x32, 0xe3, 0xfb, 0xfb, 0x1a, 0x4f, 0x1a, 0x45,
  0x5c, 0x35, 0x00, 0x58, 0x15, 0x01, 0x25, 0x21, 0x5e, 0xcd, 0xed, 0xe2,
  0xf0, 0xe1, 0x19, 0xad, 0x5d, 0xd7, 0xea, 0x01, 0xfd, 0xbc, 0xb4, 0x50,
  0x2a, 0xef, 0xea, 0x22, 0xe3, 0x24, 0x05, 0xe7, 0xf3, 0x26, 0xff, 0x03,
  0xa7, 0x1b, 0xfb, 0x04, 0x97, 0xf6, 0x68, 0xd1, 0x12, 0x35, 0x15, 0x34,
  0xf8, 0x37, 0x2f, 0x7f, 0xcf, 0xe8, 0x40, 0x52, 0x1f, 0x26, 0xf2, 0xef,
  0x15, 0xea, 0xc4, 0xf2, 0x00, 0x26, 0x09, 0xcf, 0xfc, 0x63, 0x18, 0xf3,
  0xda, 0xcf, 0xcd, 0x57, 0xe8, 0x40, 0xfb, 0x19, 0x39, 0xcd, 0xd0, 0x30,
  0x55, 0xf6, 0xe5, 0x18, 0x2f, 0xe5, 0xce, 0x1e, 0xcc, 0xfa, 0xcc, 0x22,
  0xd3, 0x1d, 0xf5, 0xdf, 0x28, 0x12, 0xc9, 0xf4, 0xc4, 0xa2, 0xea, 0xe4,
  0x36, 0x2b, 0xef, 0x20, 0xe4, 0x09, 0xeb, 0x2c, 0xee, 0xef, 0x2b, 0x21,
  0x15, 0xe5, 0x2c, 0x27, 0xf2, 0x14, 0xc6, 0x31, 0x13, 0xbb, 0xd4, 0xf8,
  0xac, 0x03, 0xf8, 0xd8, 0x1f, 0x15, 0xe0, 0x2a, 0xd8, 0xf7, 0x34, 0x22,
  0xd7, 0x26, 0xde, 0x01, 0xc1, 0x02, 0xb8, 0x1c, 0xc4, 0xf6, 0x34, 0x02,
  0x42, 0xa3, 0x1f, 0xe8, 0x17, 0xf3, 0xbb, 0xd4, 0xff, 0x63, 0xaa, 0xe9,
  0xe5, 0x06, 0x4e, 0x2c, 0xcd, 0x00, 0xfe, 0xe2, 0x0b, 0xb0, 0x16, 0x1e,
  0x07, 0x3c, 0x2c, 0xee, 0xe3, 0x24, 0x01, 0xee, 0xda, 0xbd, 0xcf, 0x38,
  0xe6, 0xe5, 0xc1, 0xe0, 0x68, 0x23, 0x21, 0x04, 0x15, 0x3b, 0xd0, 0xfa,
  0xba, 0xf7, 0x18, 0x0e, 0x07, 0x0c, 0xd6, 0x38, 0xf2, 0xb9, 0xed, 0xbe,
  0x12, 0xeb, 0x06, 0xd1, 0xff, 0xfb, 0xdb, 0x90, 0xcf, 0xda, 0xdd, 0x48,
  0xb5, 0xc1, 0x95, 0xef, 0xf0, 0x33, 0xc8, 0x2a, 0x45, 0x09, 0x2a, 0x14,
  0xfe, 0x81, 0xd8, 0xd6, 0xe3, 0x0d, 0xfe, 0xe9, 0x1b, 0x13, 0x30, 0x30,
  0x0f, 0x02, 0xf5, 0x26, 0xf3, 0x0f, 0x18, 0x0f, 0x21, 0x03, 0x20, 0xfd,
  0x35, 0x31, 0xf5, 0x07, 0xff, 0xd9, 0x04, 0x36, 0xe4, 0x10, 0x1e, 0x02,
  0xbf, 0x03, 0xdb, 0x30, 0x0d, 0x06, 0xe6, 0x0b, 0x17, 0x11, 0xeb, 0xa7,
  0xe7, 0x1d, 0x1c, 0x01, 0x40, 0x52, 0xe9, 0xed, 0xc1, 0xc8, 0x03, 0x14,
  0x5c, 0x5d, 0xfe, 0xe7, 0x0f, 0x07, 0x48, 0x45, 0x30, 0xfa, 0x0b, 0xd3,
  0x1e, 0x06, 0xf1, 0x17, 0x01, 0x7f, 0x0f, 0x04, 0x30, 0x4e, 0x1a, 0x14,
  0xf6, 0x1b, 0x4a, 0x35, 0x6b, 0x05, 0xfe, 0xdd, 0xd2, 0xfd, 0xfc, 0x0e,
  0x02, 0x3c, 0xf3, 0x1c, 0x12, 0x0b, 0xff, 0xd9, 0x54, 0x35, 0x26, 0xe1,
  0xe1, 0x01, 0xb8, 0xf4, 0x2e, 0x0f, 0x26, 0x12, 0xf9, 0x05, 0xe9, 0x2e,
  0xf8, 0x0d, 0x3d, 0x31, 0x20, 0xec, 0x60, 0x4b, 0xdd, 0xd7, 0xf7, 0x69,
  0xef, 0xef, 0xf3, 0x06, 0x1b, 0x4e, 0x73, 0x45, 0x0e, 0xfc, 0xec, 0x17,
  0x18, 0x56, 0xeb, 0xe7, 0xfb, 0x5f, 0x17, 0x66, 0x15, 0x3c, 0x39, 0x1a,
  0xe9, 0xf9, 0x04, 0xe8, 0x52, 0x01, 0x0b, 0x45, 0xe3, 0x1e, 0x2b, 0xc0,
  0xf1, 0x16, 0xec, 0x20, 0x35, 0xfd, 0xef, 0x1e, 0x08, 0x08, 0x16, 0xf9,
  0xf6, 0xfa, 0x29, 0x22, 0x0f, 0x37, 0x1f, 0x50, 0xd2, 0xfe, 0xdf, 0x41,
  0x23, 0xe4, 0x3b, 0xd9, 0xc4, 0xeb, 0xd2, 0x29, 0x37, 0x26, 0x51, 0x19,
  0x10, 0xf5, 0x22, 0xf6, 0xdc, 0x37, 0x33, 0x34, 0x23, 0x68, 0xd7, 0x1a,
  0xd6, 0x0a, 0xe0, 0xdf, 0x5a, 0x7f, 0xf9, 0xbb, 0xe1, 0xde, 0x47, 0x19,
  0x58, 0xe3, 0x15, 0x01, 0x2a, 0xbf, 0xcd, 0xff, 0xd6, 0x56, 0x01, 0x3e,
  0x2b, 0x42, 0x08, 0x46, 0x14, 0xd9, 0x40, 0xf2, 0x4b, 0x2a, 0xa0, 0x07,
  0xf0, 0x06, 0x30, 0xc1, 0x14, 0x27, 0xb2, 0xe4, 0x14, 0xdb, 0xe2, 0x14,
  0x7d, 0x07, 0x02, 0x12, 0x28, 0xb6, 0x07, 0x1b, 0xd6, 0xb0, 0x48, 0x00,
  0x93, 0x05, 0x0f, 0xef, 0xce, 0xde, 0xfb, 0xfe, 0x23, 0xe0, 0x3c, 0x32,
  0xee, 0xc5, 0x26, 0x2e, 0xaa, 0x1e, 0x0f, 0x29, 0xed, 0x05, 0x59, 0x39,
  0xe7, 0xa8, 0xed, 0x43, 0x07, 0x1c, 0x2a, 0xc7, 0x22, 0x70, 0x40, 0x3e,
  0x23, 0xad, 0x37, 0x13, 0x15, 0x3f, 0xf1, 0xf2, 0x10, 0xc9, 0x18, 0x44,
  0x28, 0xbf, 0xac, 0x4c, 0xeb, 0x0b, 0xe5, 0xdd, 0x04, 0x12, 0xbd, 0x28,
  0xf1, 0x03, 0x02, 0xcf, 0xe8, 0x27, 0xf3, 0xe6, 0xd2, 0x8f, 0x32, 0xd0,
  0xe6, 0x39, 0xea, 0xf3, 0xbc, 0xf5, 0xe2, 0x29, 0x26, 0xff, 0xef, 0xe2,
  0x2e, 0xbc, 0x0d, 0x0d, 0xe2, 0x26, 0x25, 0x23, 0xe6, 0xce, 0x07, 0xf6,
  0xd5, 0xf3, 0x38, 0x0d, 0x16, 0x1b, 0x2a, 0xf9, 0xef, 0x99, 0x09, 0x2f,
  0xb6, 0x2a, 0xdf, 0xf6, 0xad, 0xfa, 0xe0, 0x54, 0x1a, 0x51, 0x2a, 0x3a,
  0x09, 0xa3, 0xbe, 0xea, 0xf1, 0xee, 0xcf, 0xeb, 0x18, 0xfc, 0xa6, 0x0b,
  0xac, 0xdb, 0x23, 0x54, 0x12, 0x0a, 0x19, 0xed, 0x09, 0xe7, 0x2e, 0xf3,
  0x0b, 0xf7, 0x4a, 0xaf, 0xad, 0x12, 0x05, 0x17, 0x33, 0x14, 0x01, 0x1d,
  0xc9, 0x12, 0xde, 0x02, 0x22, 0x1b, 0x28, 0x03, 0xf3, 0xf1, 0xe5, 0xce,
  0xe3, 0xf8, 0xc6, 0xf2, 0x2c, 0x36, 0xdd, 0xc5, 0x62, 0xc6, 0xcd, 0xae,
  0x2f, 0xac, 0xc0, 0x99, 0x04, 0x09, 0x3d, 0xd7, 0xeb, 0xfa, 0xde, 0x7f,
  0xfa, 0xc2, 0xe1, 0xf5, 0x16, 0x2d, 0xbc, 0xe5, 0x4b, 0xd7, 0xfc, 0xed,
  0xf5, 0x0c, 0x02, 0xe7, 0xdd, 0x0b, 0xf6, 0xfe, 0x03, 0xbd, 0xbc, 0x21,
  0xcd, 0x15, 0x03, 0x36, 0x24, 0xd7, 0xd2, 0xf9, 0xb1, 0x69, 0x13, 0x04,
  0xce, 0x0a, 0xb1, 0x1c, 0x81, 0xd5, 0xb4, 0xdf, 0xaf, 0x23, 0xf6, 0x2e,
  0x09, 0xfe, 0x2d, 0xe1, 0x01, 0x4d, 0x44, 0x2a, 0x30, 0xa7, 0xe4, 0xb5,
  0x2f, 0xba, 0xce, 0x0f, 0xd0, 0x5d, 0xf1, 0x16, 0xe1, 0x54, 0xc5, 0xd8,
  0xc8, 0xdf, 0x13, 0x67, 0x31, 0xd0, 0x2c, 0x23, 0xd3, 0xe1, 0xd1, 0xa4,
  0xff, 0x0c, 0xf5, 0xe0, 0xee, 0xe2, 0xe3, 0xfe, 0x00, 0xe8, 0xd3, 0x2e,
  0xb8, 0x30, 0x98, 0x36, 0x20, 0xfb, 0xcb, 0xcd, 0xde, 0xd3, 0x55, 0x41,
  0x17, 0xcd, 0x0d, 0x0f, 0xfb, 0xa0, 0x22, 0xcb, 0x21, 0x26, 0xe3, 0xd1,
  0xfe, 0x0c, 0x0c, 0xe7, 0x33, 0x30, 0xbd, 0x00, 0x0e, 0x26, 0xf8, 0x2a,
  0xbf, 0x2a, 0x15, 0x38, 0xd4, 0x30, 0xda, 0xfa, 0xea, 0xd0, 0x13, 0xec,
  0x36, 0xcd, 0x13, 0x0f, 0x1d, 0x10, 0xf2, 0x22, 0x0a, 0x36, 0x13, 0xed,
  0x2b, 0x92, 0xca, 0x58, 0xc8, 0x2a, 0xce, 0xf1, 0xdb, 0xec, 0x28, 0x28,
  0x37, 0x0a, 0x19, 0xcf, 0x11, 0x05, 0x19, 0xb4, 0x3f, 0xdc, 0x01, 0x39,
  0x16, 0xfd, 0x0b, 0xea, 0xcf, 0x0a, 0xe3, 0xf5, 0xc1, 0x37, 0xda, 0xe5,
  0x2f, 0x34, 0xdc, 0xee, 0x1e, 0x81, 0x26, 0xf5, 0x0b, 0x3e, 0xe7, 0x23,
  0x06, 0x01, 0xaf, 0x24, 0x18, 0x1e, 0x26, 0xf4, 0x26, 0xd5, 0xca, 0x2e,
  0xd3, 0x2d, 0xca, 0x43, 0x46, 0x04, 0xf9, 0xfe, 0xd3, 0x04, 0x0e, 0xd0,
  0x45, 0xfb, 0xde, 0xf5, 0xf6, 0xc2, 0x38, 0x02, 0xc3, 0x15, 0xba, 0xf3,
  0xb4, 0x16, 0xd9, 0xdd, 0xe5, 0x44, 0xef, 0x07, 0xeb, 0x8c, 0xe8, 0xd8,
  0xe5, 0xc5, 0xf6, 0xc6, 0x12, 0x03, 0x11, 0xea, 0xaf, 0xf3, 0x4d, 0x30,
  0x2a, 0x1d, 0xf0, 0x01, 0xf0, 0xa1, 0x23, 0x17, 0x0a, 0xd5, 0x11, 0x8e,
  0x96, 0xe2, 0xfb, 0x09, 0xf2, 0x16, 0x0b, 0x23, 0xb9, 0xfc, 0xe5, 0xfa,
  0x5b, 0x29, 0x1c, 0x1f, 0xee, 0x36, 0xea, 0xea, 0xd1, 0x00, 0x0a, 0xf6,
  0xe5, 0x21, 0xe6, 0xe5, 0x33, 0xd6, 0xb3, 0xc0, 0x41, 0xd7, 0x06, 0x88,
  0xd2, 0x42, 0x16, 0x92, 0x1a, 0xdb, 0xea, 0x4a, 0xc9, 0xac, 0xdf, 0xf7,
  0x22, 0xf1, 0xa5, 0xd2, 0x49, 0xd9, 0xd8, 0xf9, 0x1e, 0xf0, 0x0c, 0xb3,
  0x3b, 0xe0, 0xfa, 0x1b, 0xf5, 0xb7, 0x0d, 0x00, 0xbb, 0xfa, 0xf9, 0x3c,
  0xe9, 0xff, 0xfe, 0x22, 0x10, 0x34, 0x0e, 0x05, 0xd7, 0x81, 0xcd, 0xe6,
  0xef, 0x05, 0xd1, 0xfb, 0x02, 0x02, 0xef, 0x25, 0xee, 0x41, 0x0b, 0xbc,
  0x3b, 0x31, 0x03, 0x06, 0xf5, 0x28, 0xf4, 0x1d, 0x4b, 0x14, 0x03, 0x30,
  0x06, 0x43, 0x46, 0xcd, 0xed, 0x2e, 0xe9, 0x10, 0x06, 0xdb, 0x0b, 0x72,
  0xc4, 0x42, 0xd9, 0x0d, 0xf7, 0xce, 0xdb, 0x3e, 0xde, 0x0d, 0xfe, 0x2f,
  0xff, 0xa7, 0xfd, 0xb9, 0xd1, 0xb5, 0xbc, 0xc5, 0x2f, 0x14, 0xbf, 0xe1,
  0xec, 0x2c, 0x1a, 0x46, 0x2a, 0x31, 0xe2, 0xf5, 0x39, 0xf9, 0x25, 0x0f,
  0xe7, 0x01, 0x48, 0xae, 0xe7, 0xed, 0xdc, 0xaa, 0x26, 0x26, 0x0d, 0x13,
  0x35, 0x23, 0xae, 0x15, 0x32, 0xb8, 0xd7, 0xfb, 0xd9, 0x35, 0xc6, 0x22,
  0x06, 0xe3, 0x08, 0xcc, 0x07, 0x00, 0xf8, 0xb5, 0x25, 0xea, 0x38, 0xdd,
  0xd2, 0x0e, 0x04, 0xc8, 0xe9, 0x56, 0x54, 0xbf, 0xe3, 0x1f, 0xba, 0x5f,
  0x01, 0xe6, 0x13, 0x23, 0x3f, 0xef, 0xd5, 0x0f, 0xea, 0x04, 0xeb, 0xfb,
  0x17, 0x41, 0xb3, 0x26, 0x1c, 0xc2, 0xd3, 0x39, 0x2f, 0xfa, 0x9b, 0x14,
  0x0c, 0x32, 0xe7, 0xf4, 0xa5, 0x4d, 0xcd, 0xf9, 0xf8, 0x09, 0xf9, 0xf5,
  0xe9, 0xb6, 0x03, 0xcf, 0xff, 0xf6, 0x05, 0xbe, 0xda, 0x11, 0xd1, 0x35,
  0x08, 0x38, 0x0c, 0x14, 0x25, 0x21, 0x23, 0xe5, 0xe7, 0x4c, 0xf0, 0x41,
  0x29, 0xfb, 0x13, 0xeb, 0xc0, 0xcc, 0x22, 0xf3, 0x52, 0x04, 0x1e, 0x27,
  0xc8, 0xbd, 0x37, 0xfc, 0xec, 0x43, 0xf3, 0xbb, 0xf6, 0x07, 0xf8, 0xc7,
  0xee, 0x27, 0xc0, 0x0b, 0xeb, 0xcc, 0x0c, 0xe6, 0xe3, 0xe1, 0xbe, 0xa6,
  0x3f, 0x17, 0x09, 0xbc, 0xbc, 0xd5, 0x71, 0x3b, 0x43, 0x0e, 0xb9, 0x19,
  0xac, 0xd1, 0x29, 0x36, 0x22, 0x07, 0x34, 0xd3, 0xe9, 0xbb, 0xe3, 0x07,
  0x00, 0xdf, 0xff, 0xf0, 0x01, 0x1a, 0xc1, 0xd7, 0x1a, 0xf0, 0xe8, 0x12,
  0xfe, 0x1d, 0xe2, 0xe4, 0xd3, 0x2a, 0xe5, 0xa6, 0x41, 0x06, 0x13, 0xc4,
  0x75, 0xbd, 0xdf, 0xe9, 0xff, 0xa2, 0x0b, 0x96, 0x2f, 0x25, 0x47, 0x81,
  0xe4, 0x93, 0xe6, 0x70, 0x8a, 0x90, 0xbf, 0xcf, 0xdb, 0x32, 0xde, 0xbb,
  0x40, 0xdd, 0x04, 0x11, 0x41, 0x0e, 0x0b, 0xe2, 0x2d, 0xc2, 0x1a, 0x53,
  0x3c, 0xf4, 0xc9, 0x46, 0xbc, 0xe5, 0xb4, 0x64, 0x81, 0x06, 0x0e, 0xd6,
  0xd4, 0x1c, 0x26, 0xd5, 0xfe, 0x07, 0xe0, 0xc1, 0x11, 0xe0, 0xc0, 0x16,
  0xd5, 0xf4, 0x06, 0x9a, 0xb6, 0xd7, 0xd1, 0x08, 0xe0, 0x0b, 0xd0, 0xc4,
  0xd6, 0x1d, 0xc7, 0x30, 0x21, 0x26, 0xf6, 0xfa, 0xc9, 0xf3, 0x13, 0x1b,
  0xfb, 0x02, 0xdb, 0xfc, 0x34, 0xe4, 0xec, 0x3e, 0xae, 0x27, 0xfd, 0xb2,
  0x05, 0xc1, 0xe3, 0xb5, 0xd1, 0x22, 0xf4, 0xcb, 0x4a, 0xff, 0xfd, 0xfc,
  0x25, 0xe8, 0x3c, 0xce, 0x1a, 0xdb, 0xff, 0xd2, 0xec, 0x28, 0xfb, 0x17,
  0x26, 0x33, 0xf1, 0xf2, 0x08, 0x20, 0x23, 0xd1, 0x24, 0xdf, 0x28, 0x19,
  0xff, 0x05, 0x0c, 0x34, 0xfc, 0xd0, 0xc8, 0xdc, 0xe0, 0xc4, 0xf9, 0xcb,
  0xce, 0xcd, 0xff, 0xcb, 0xd0, 0xd6, 0x47, 0xf1, 0x28, 0x2b, 0xfd, 0xf4,
  0x2a, 0x4d, 0x04, 0x49, 0xd8, 0x05, 0x0f, 0x0f, 0xaa, 0x0e, 0x32, 0xf3,
  0x23, 0xf3, 0xe4, 0xea, 0x46, 0xf4, 0xe7, 0x09, 0x2f, 0xc8, 0xe0, 0x3b,
  0xde, 0xdc, 0x45, 0xf9, 0xe5, 0x4c, 0x0e, 0x58, 0x3f, 0x2c, 0x09, 0x69,
  0xa6, 0xf9, 0xff, 0xff, 0x04, 0x00, 0x00, 0x00, 0x80, 0x00, 0x00, 0x00,
  0x74, 0xfb, 0xff, 0xff, 0x6c, 0x00, 0x00, 0x00, 0x42, 0xfe, 0xff, 0xff,
  0xf7, 0x00, 0x00, 0x00, 0x09, 0x01, 0x00, 0x00, 0xce, 0x00, 0x00, 0x00,
  0xfd, 0xfe, 0xff, 0xff, 0xa6, 0x00, 0x00, 0x00, 0x6f, 0x01, 0x00, 0x00,
  0x7f, 0x00, 0x00, 0x00, 0x9f, 0xfe, 0xff, 0xff, 0xe4, 0x01, 0x00, 0x00,
  0x9f, 0x00, 0x00, 0x00, 0xe5, 0x01, 0x00, 0x00, 0x00, 0x01, 0x00, 0x00,
  0xb2, 0xfe, 0xff, 0xff, 0x2f, 0xff, 0xff, 0xff, 0xda, 0x01, 0x00, 0x00,
  0x57, 0xfe, 0xff, 0xff, 0x03, 0x02, 0x00, 0x00, 0x06, 0xfd, 0xff, 0xff,
  0x06, 0x02, 0x00, 0x00, 0xab, 0x00, 0x00, 0x00, 0xfd, 0xfe, 0xff, 0xff,
  0x29, 0x01, 0x00, 0x00, 0x46, 0x02, 0x00, 0x00, 0x85, 0xfd, 0xff, 0xff,
  0xdd, 0xfd, 0xff, 0xff, 0x0b, 0xfe, 0xff, 0xff, 0x80, 0xfd, 0xff, 0xff,
  0x66, 0xfd, 0xff, 0xff, 0x39, 0xfc, 0xff, 0xff, 0x32, 0xfa, 0xff, 0xff,
  0x04, 0x00, 0x00, 0x00, 0x20, 0x00, 0x00, 0x00, 0x2e, 0xb1, 0x56, 0x91,
  0xa0, 0xb5, 0x52, 0x81, 0xca, 0xb6, 0x54, 0x9c, 0xaf, 0xa5, 0xb1, 0x42,
  0xd5, 0xb4, 0x4e, 0x96, 0x42, 0xba, 0xaa, 0x60, 0xbd, 0xb9, 0x4f, 0x65,
  0x5f, 0x66, 0x5d, 0x57, 0x5e, 0xfa, 0xff, 0xff, 0x04, 0x00, 0x00, 0x00,
  0x04, 0x00, 0x00, 0x00, 0x96, 0x02, 0x00, 0x00, 0x6e, 0xfa, 0xff, 0xff,
  0x04, 0x00, 0x00, 0x00, 0x08, 0x00, 0x00, 0x00, 0xff, 0xff, 0xff, 0xff,
  0xa0, 0x00, 0x00, 0x00, 0x82, 0xfa, 0xff, 0xff, 0x04, 0x00, 0x00, 0x00,
  0x0c, 0x00, 0x00, 0x00, 0xff, 0xff, 0xff, 0xff, 0x0a, 0x00, 0x00, 0x00,
  0x20, 0x00, 0x00, 0x00, 0x9a, 0xfa, 0xff, 0xff, 0x04, 0x00, 0x00, 0x00,
  0x0c, 0x00, 0x00, 0x00, 0xff, 0xff, 0xff, 0xff, 0x0a, 0x00, 0x00, 0x00,
  0x10, 0x00, 0x00, 0x00, 0xf4, 0xd7, 0xff, 0xff, 0xb6, 0xfa, 0xff, 0xff,
  0x04, 0x00, 0x00, 0x00, 0x0c, 0x00, 0x00, 0x00, 0xff, 0xff, 0xff, 0xff,
  0x15, 0x00, 0x00, 0x00, 0x10, 0x00, 0x00, 0x00, 0xce, 0xfa, 0xff, 0xff,
  0x04, 0x00, 0x00, 0x00, 0x04, 0x00, 0x00, 0x00, 0xfd, 0xff, 0xff, 0xff,
  0xde, 0xfa, 0xff, 0xff, 0x04, 0x00, 0x00, 0x00, 0x04, 0x00, 0x00, 0x00,
  0x20, 0x00, 0x00, 0x00, 0xee, 0xfa, 0xff, 0xff, 0x04, 0x00, 0x00, 0x00,
  0x04, 0x00, 0x00, 0x00, 0x15, 0x00, 0x00, 0x00, 0xfe, 0xfa, 0xff, 0xff,
  0x04, 0x00, 0x00, 0x00, 0x04, 0x00, 0x00, 0x00, 0x01, 0x00, 0x00, 0x00,
  0x0e, 0xfb, 0xff, 0xff, 0x04, 0x00, 0x00, 0x00, 0x04, 0x00, 0x00, 0x00,
  0x00, 0x00, 0x00, 0x00, 0x60, 0xd8, 0xff, 0xff, 0x64, 0xd8, 0xff, 0xff,
  0x0f, 0x00, 0x00, 0x00, 0x4d, 0x4c, 0x49, 0x52, 0x20, 0x43, 0x6f, 0x6e,
  0x76, 0x65, 0x72, 0x74, 0x65, 0x64, 0x2e, 0x00, 0x01, 0x00, 0x00, 0x00,
  0x14, 0x00, 0x00, 0x00, 0x00, 0x00, 0x0e, 0x00, 0x18, 0x00, 0x14, 0x00,
  0x10, 0x00, 0x0c, 0x00, 0x08, 0x00, 0x04, 0x00, 0x0e, 0x00, 0x00, 0x00,
  0x14, 0x00, 0x00, 0x00, 0x1c, 0x00, 0x00, 0x00, 0x84, 0x05, 0x00, 0x00,
  0x88, 0x05, 0x00, 0x00, 0x8c, 0x05, 0x00, 0x00, 0x04, 0x00, 0x00, 0x00,
  0x6d, 0x61, 0x69, 0x6e, 0x00, 0x00, 0x00, 0x00, 0x19, 0x00, 0x00, 0x00,
  0x4c, 0x05, 0x00, 0x00, 0x04, 0x05, 0x00, 0x00, 0xa4, 0x04, 0x00, 0x00,
  0x60, 0x04, 0x00, 0x00, 0x38, 0x04, 0x00, 0x00, 0xf8, 0x03, 0x00, 0x00,
  0xa8, 0x03, 0x00, 0x00, 0x74, 0x03, 0x00, 0x00, 0x40, 0x03, 0x00, 0x00,
  0x18, 0x03, 0x00, 0x00, 0xe4, 0x02, 0x00, 0x00, 0x90, 0x02, 0x00, 0x00,
  0x68, 0x02, 0x00, 0x00, 0x34, 0x02, 0x00, 0x00, 0xf0, 0x01, 0x00, 0x00,
  0xbc, 0x01, 0x00, 0x00, 0x88, 0x01, 0x00, 0x00, 0x60, 0x01, 0x00, 0x00,
  0x2c, 0x01, 0x00, 0x00, 0xe8, 0x00, 0x00, 0x00, 0xc0, 0x00, 0x00, 0x00,
  0x84, 0x00, 0x00, 0x00, 0x4c, 0x00, 0x00, 0x00, 0x28, 0x00, 0x00, 0x00,
  0x04, 0x00, 0x00, 0x00, 0x26, 0xfc, 0xff, 0xff, 0x0c, 0x00, 0x00, 0x00,
  0x10, 0x00, 0x00, 0x00, 0x0c, 0x00, 0x00, 0x00, 0x01, 0x00, 0x00, 0x00,
  0x2f, 0x00, 0x00, 0x00, 0x01, 0x00, 0x00, 0x00, 0x2e, 0x00, 0x00, 0x00,
  0x46, 0xfc, 0xff, 0xff, 0x0c, 0x00, 0x00, 0x00, 0x10, 0x00, 0x00, 0x00,
  0x0b, 0x00, 0x00, 0x00, 0x01, 0x00, 0x00, 0x00, 0x2e, 0x00, 0x00, 0x00,
  0x01, 0x00, 0x00, 0x00, 0x2d, 0x00, 0x00, 0x00, 0xaa, 0xfb, 0xff, 0xff,
  0x14, 0x00, 0x00, 0x00, 0x00, 0x00, 0x00, 0x08, 0x10, 0x00, 0x00, 0x00,
  0x14, 0x00, 0x00, 0x00, 0x0a, 0x00, 0x00, 0x00, 0x78, 0xd9, 0xff, 0xff,
  0x01, 0x00, 0x00, 0x00, 0x2d, 0x00, 0x00, 0x00, 0x03, 0x00, 0x00, 0x00,
  0x2c, 0x00, 0x00, 0x00, 0x0c, 0x00, 0x00, 0x00, 0x0b, 0x00, 0x00, 0x00,
  0xde, 0xfb, 0xff, 0xff, 0x14, 0x00, 0x00, 0x00, 0x00, 0x00, 0x00, 0x08,
  0x14, 0x00, 0x00, 0x00, 0x18, 0x00, 0x00, 0x00, 0x0a, 0x00, 0x00, 0x00,
  0xce, 0xfb, 0xff, 0xff, 0x00, 0x00, 0x00, 0x01, 0x01, 0x00, 0x00, 0x00,
  0x2c, 0x00, 0x00, 0x00, 0x03, 0x00, 0x00, 0x00, 0x2b, 0x00, 0x00, 0x00,
  0x0e, 0x00, 0x00, 0x00, 0x0d, 0x00, 0x00, 0x00, 0xd2, 0xfc, 0xff, 0xff,
  0x0c, 0x00, 0x00, 0x00, 0x10, 0x00, 0x00, 0x00, 0x04, 0x00, 0x00, 0x00,
  0x01, 0x00, 0x00, 0x00, 0x2b, 0x00, 0x00, 0x00, 0x02, 0x00, 0x00, 0x00,
  0x2a, 0x00, 0x00, 0x00, 0x0a, 0x00, 0x00, 0x00, 0x3a, 0xfc, 0xff, 0xff,
  0x14, 0x00, 0x00, 0x00, 0x00, 0x00, 0x00, 0x05, 0x24, 0x00, 0x00, 0x00,
  0x28, 0x00, 0x00, 0x00, 0x09, 0x00, 0x00, 0x00, 0x76, 0xfe, 0xff, 0xff,
  0x01, 0x00, 0x00, 0x00, 0x02, 0x00, 0x00, 0x00, 0x01, 0x00, 0x00, 0x00,
  0x02, 0x00, 0x00, 0x00, 0x00, 0x00, 0x00, 0x01, 0x01, 0x00, 0x00, 0x00,
  0x2a, 0x00, 0x00, 0x00, 0x01, 0x00, 0x00, 0x00, 0x29, 0x00, 0x00, 0x00,
  0x7a, 0xfc, 0xff, 0xff, 0x14, 0x00, 0x00, 0x00, 0x00, 0x00, 0x00, 0x34,
  0x10, 0x00, 0x00, 0x00, 0x14, 0x00, 0x00, 0x00, 0x05, 0x00, 0x00, 0x00,
  0x48, 0xda, 0xff, 0xff, 0x01, 0x00, 0x00, 0x00, 0x29, 0x00, 0x00, 0x00,
  0x02, 0x00, 0x00, 0x00, 0x28, 0x00, 0x00, 0x00, 0x07, 0x00, 0x00, 0x00,
  0x66, 0xfd, 0xff, 0xff, 0x0c, 0x00, 0x00, 0x00, 0x10, 0x00, 0x00, 0x00,
  0x04, 0x00, 0x00, 0x00, 0x01, 0x00, 0x00, 0x00, 0x28, 0x00, 0x00, 0x00,
  0x02, 0x00, 0x00, 0x00, 0x27, 0x00, 0x00, 0x00, 0x09, 0x00, 0x00, 0x00,
  0xce, 0xfc, 0xff, 0xff, 0x14, 0x00, 0x00, 0x00, 0x00, 0x00, 0x00, 0x0b,
  0x10, 0x00, 0x00, 0x00, 0x14, 0x00, 0x00, 0x00, 0x08, 0x00, 0x00, 0x00,
  0x9c, 0xda, 0xff, 0xff, 0x01, 0x00, 0x00, 0x00, 0x27, 0x00, 0x00, 0x00,
  0x02, 0x00, 0x00, 0x00, 0x26, 0x00, 0x00, 0x00, 0x0f, 0x00, 0x00, 0x00,
  0xfe, 0xfc, 0xff, 0xff, 0x14, 0x00, 0x00, 0x00, 0x00, 0x00, 0x00, 0x15,
  0x10, 0x00, 0x00, 0x00, 0x14, 0x00, 0x00, 0x00, 0x07, 0x00, 0x00, 0x00,
  0xcc, 0xda, 0xff, 0xff, 0x01, 0x00, 0x00, 0x00, 0x26, 0x00, 0x00, 0x00,
  0x02, 0x00, 0x00, 0x00, 0x25, 0x00, 0x00, 0x00, 0x10, 0x00, 0x00, 0x00,
  0x2e, 0xfd, 0xff, 0xff, 0x14, 0x00, 0x00, 0x00, 0x00, 0x00, 0x00, 0x01,
  0x1c, 0x00, 0x00, 0x00, 0x20, 0x00, 0x00, 0x00, 0x06, 0x00, 0x00, 0x00,
  0x68, 0xfe, 0xff, 0xff, 0x00, 0x00, 0x00, 0x01, 0x01, 0x00, 0x00, 0x00,
  0x01, 0x00, 0x00, 0x00, 0x01, 0x00, 0x00, 0x00, 0x25, 0x00, 0x00, 0x00,
  0x03, 0x00, 0x00, 0x00, 0x24, 0x00, 0x00, 0x00, 0x12, 0x00, 0x00, 0x00,
  0x11, 0x00, 0x00, 0x00, 0x6e, 0xfd, 0xff, 0xff, 0x14, 0x00, 0x00, 0x00,
  0x00, 0x00, 0x00, 0x34, 0x10, 0x00, 0x00, 0x00, 0x14, 0x00, 0x00, 0x00,
  0x05, 0x00, 0x00, 0x00, 0x3c, 0xdb, 0xff, 0xff, 0x01, 0x00, 0x00, 0x00,
  0x24, 0x00, 0x00, 0x00, 0x02, 0x00, 0x00, 0x00, 0x23, 0x00, 0x00, 0x00,
  0x05, 0x00, 0x00, 0x00, 0x5a, 0xfe, 0xff, 0xff, 0x0c, 0x00, 0x00, 0x00,
  0x10, 0x00, 0x00, 0x00, 0x04, 0x00, 0x00, 0x00, 0x01, 0x00, 0x00, 0x00,
  0x23, 0x00, 0x00, 0x00, 0x02, 0x00, 0x00, 0x00, 0x22, 0x00, 0x00, 0x00,
  0x08, 0x00, 0x00, 0x00, 0xc2, 0xfd, 0xff, 0xff, 0x24, 0x00, 0x00, 0x00,
  0x00, 0x00, 0x00, 0x05, 0x34, 0x00, 0x00, 0x00, 0x38, 0x00, 0x00, 0x00,
  0x09, 0x00, 0x00, 0x00, 0x00, 0x00, 0x0e, 0x00, 0x18, 0x00, 0x17, 0x00,
  0x10, 0x00, 0x0c, 0x00, 0x08, 0x00, 0x04, 0x00, 0x0e, 0x00, 0x00, 0x00,
  0x01, 0x00, 0x00, 0x00, 0x02, 0x00, 0x00, 0x00, 0x01, 0x00, 0x00, 0x00,
  0x02, 0x00, 0x00, 0x00, 0x00, 0x00, 0x00, 0x01, 0x01, 0x00, 0x00, 0x00,
  0x22, 0x00, 0x00, 0x00, 0x01, 0x00, 0x00, 0x00, 0x21, 0x00, 0x00, 0x00,
  0x12, 0xfe, 0xff, 0xff, 0x14, 0x00, 0x00, 0x00, 0x00, 0x00, 0x00, 0x34,
  0x10, 0x00, 0x00, 0x00, 0x14, 0x00, 0x00, 0x00, 0x05, 0x00, 0x00, 0x00,
  0xe0, 0xdb, 0xff, 0xff, 0x01, 0x00, 0x00, 0x00, 0x21, 0x00, 0x00, 0x00,
  0x02, 0x00, 0x00, 0x00, 0x20, 0x00, 0x00, 0x00, 0x07, 0x00, 0x00, 0x00,
  0xfe, 0xfe, 0xff, 0xff, 0x0c, 0x00, 0x00, 0x00, 0x10, 0x00, 0x00, 0x00,
  0x04, 0x00, 0x00, 0x00, 0x01, 0x00, 0x00, 0x00, 0x20, 0x00, 0x00, 0x00,
  0x02, 0x00, 0x00, 0x00, 0x1f, 0x00, 0x00, 0x00, 0x06, 0x00, 0x00, 0x00,
  0x66, 0xfe, 0xff, 0xff, 0x14, 0x00, 0x00, 0x00, 0x00, 0x00, 0x00, 0x0b,
  0x10, 0x00, 0x00, 0x00, 0x14, 0x00, 0x00, 0x00, 0x08, 0x00, 0x00, 0x00,
  0x34, 0xdc, 0xff, 0xff, 0x01, 0x00, 0x00, 0x00, 0x1f, 0x00, 0x00, 0x00,
  0x02, 0x00, 0x00, 0x00, 0x1e, 0x00, 0x00, 0x00, 0x13, 0x00, 0x00, 0x00,
  0x96, 0xfe, 0xff, 0xff, 0x14, 0x00, 0x00, 0x00, 0x00, 0x00, 0x00, 0x15,
  0x10, 0x00, 0x00, 0x00, 0x14, 0x00, 0x00, 0x00, 0x07, 0x00, 0x00, 0x00,
  0x64, 0xdc, 0xff, 0xff, 0x01, 0x00, 0x00, 0x00, 0x1e, 0x00, 0x00, 0x00,
  0x02, 0x00, 0x00, 0x00, 0x1d, 0x00, 0x00, 0x00, 0x14, 0x00, 0x00, 0x00,
  0xc6, 0xfe, 0xff, 0xff, 0x20, 0x00, 0x00, 0x00, 0x00, 0x00, 0x00, 0x01,
  0x28, 0x00, 0x00, 0x00, 0x2c, 0x00, 0x00, 0x00, 0x06, 0x00, 0x00, 0x00,
  0x0c, 0x00, 0x10, 0x00, 0x00, 0x00, 0x0c, 0x00, 0x08, 0x00, 0x07, 0x00,
  0x0c, 0x00, 0x00, 0x00, 0x00, 0x00, 0x00, 0x01, 0x01, 0x00, 0x00, 0x00,
  0x01, 0x00, 0x00, 0x00, 0x01, 0x00, 0x00, 0x00, 0x1d, 0x00, 0x00, 0x00,
  0x03, 0x00, 0x00, 0x00, 0x1c, 0x00, 0x00, 0x00, 0x16, 0x00, 0x00, 0x00,
  0x15, 0x00, 0x00, 0x00, 0x12, 0xff, 0xff, 0xff, 0x14, 0x00, 0x00, 0x00,
  0x00, 0x00, 0x00, 0x34, 0x10, 0x00, 0x00, 0x00, 0x14, 0x00, 0x00, 0x00,
  0x05, 0x00, 0x00, 0x00, 0xe0, 0xdc, 0xff, 0xff, 0x01, 0x00, 0x00, 0x00,
  0x1c, 0x00, 0x00, 0x00, 0x02, 0x00, 0x00, 0x00, 0x1b, 0x00, 0x00, 0x00,
  0x05, 0x00, 0x00, 0x00, 0x00, 0x00, 0x0a, 0x00, 0x10, 0x00, 0x0c, 0x00,
  0x08, 0x00, 0x04, 0x00, 0x0a, 0x00, 0x00, 0x00, 0x0c, 0x00, 0x00, 0x00,
  0x10, 0x00, 0x00, 0x00, 0x04, 0x00, 0x00, 0x00, 0x01, 0x00, 0x00, 0x00,
  0x1b, 0x00, 0x00, 0x00, 0x02, 0x00, 0x00, 0x00, 0x17, 0x00, 0x00, 0x00,
  0x1a, 0x00, 0x00, 0x00, 0x72, 0xff, 0xff, 0xff, 0x1c, 0x00, 0x00, 0x00,
  0x00, 0x00, 0x00, 0x3b, 0x1c, 0x00, 0x00, 0x00, 0x20, 0x00, 0x00, 0x00,
  0x03, 0x00, 0x00, 0x00, 0x00, 0x00, 0x06, 0x00, 0x08, 0x00, 0x04, 0x00,
  0x06, 0x00, 0x00, 0x00, 0x03, 0x00, 0x00, 0x00, 0x01, 0x00, 0x00, 0x00,
  0x1a, 0x00, 0x00, 0x00, 0x03, 0x00, 0x00, 0x00, 0x19, 0x00, 0x00, 0x00,
  0x03, 0x00, 0x00, 0x00, 0x04, 0x00, 0x00, 0x00, 0xb2, 0xff, 0xff, 0xff,
  0x24, 0x00, 0x00, 0x00, 0x00, 0x00, 0x00, 0x20, 0x24, 0x00, 0x00, 0x00,
  0x28, 0x00, 0x00, 0x00, 0x02, 0x00, 0x00, 0x00, 0x00, 0x00, 0x0e, 0x00,
  0x08, 0x00, 0x00, 0x00, 0x00, 0x00, 0x00, 0x00, 0x00, 0x00, 0x04, 0x00,
  0x0e, 0x00, 0x00, 0x00, 0x01, 0x00, 0x00, 0x00, 0x01, 0x00, 0x00, 0x00,
  0x19, 0x00, 0x00, 0x00, 0x04, 0x00, 0x00, 0x00, 0x18, 0x00, 0x00, 0x00,
  0x01, 0x00, 0x00, 0x00, 0x02, 0x00, 0x00, 0x00, 0x02, 0x00, 0x00, 0x00,
  0x00, 0x00, 0x0e, 0x00, 0x1a, 0x00, 0x14, 0x00, 0x10, 0x00, 0x0c, 0x00,
  0x0b, 0x00, 0x04, 0x00, 0x0e, 0x00, 0x00, 0x00, 0x1c, 0x00, 0x00, 0x00,
  0x00, 0x00, 0x00, 0x37, 0x1c, 0x00, 0x00, 0x00, 0x20, 0x00, 0x00, 0x00,
  0x01, 0x00, 0x00, 0x00, 0x00, 0x00, 0x06, 0x00, 0x08, 0x00, 0x07, 0x00,
  0x06, 0x00, 0x00, 0x00, 0x00, 0x00, 0x00, 0x02, 0x01, 0x00, 0x00, 0x00,
  0x18, 0x00, 0x00, 0x00, 0x01, 0x00, 0x00, 0x00, 0x17, 0x00, 0x00, 0x00,
  0x00, 0x00, 0x0a, 0x00, 0x0c, 0x00, 0x00, 0x00, 0x08, 0x00, 0x04, 0x00,
  0x0a, 0x00, 0x00, 0x00, 0x08, 0x00, 0x00, 0x00, 0x0c, 0x00, 0x00, 0x00,
  0x01, 0x00, 0x00, 0x00, 0x17, 0x00, 0x00, 0x00, 0x01, 0x00, 0x00, 0x00,
  0x00, 0x00, 0x00, 0x00, 0x01, 0x00, 0x00, 0x00, 0x2f, 0x00, 0x00, 0x00,
  0x01, 0x00, 0x00, 0x00, 0x00, 0x00, 0x00, 0x00, 0x30, 0x00, 0x00, 0x00,
  0x9c, 0x21, 0x00, 0x00, 0x44, 0x21, 0x00, 0x00, 0xec, 0x20, 0x00, 0x00,
  0xb0, 0x20, 0x00, 0x00, 0x74, 0x20, 0x00, 0x00, 0x38, 0x20, 0x00, 0x00,
  0xf8, 0x1f, 0x00, 0x00, 0xbc, 0x1f, 0x00, 0x00, 0x7c, 0x1f, 0x00, 0x00,
  0x3c, 0x1f, 0x00, 0x00, 0xfc, 0x1e, 0x00, 0x00, 0x90, 0x1e, 0x00, 0x00,
  0x28, 0x1e, 0x00, 0x00, 0x54, 0x1c, 0x00, 0x00, 0x78, 0x1a, 0x00, 0x00,
  0x14, 0x1a, 0x00, 0x00, 0xb0, 0x19, 0x00, 0x00, 0xdc, 0x17, 0x00, 0x00,
  0xf8, 0x15, 0x00, 0x00, 0x94, 0x15, 0x00, 0x00, 0x30, 0x15, 0x00, 0x00,
  0x1c, 0x14, 0x00, 0x00, 0xf8, 0x12, 0x00, 0x00, 0x80, 0x12, 0x00, 0x00,
  0x14, 0x12, 0x00, 0x00, 0xbc, 0x11, 0x00, 0x00, 0x60, 0x11, 0x00, 0x00,
  0xd0, 0x10, 0x00, 0x00, 0x28, 0x10, 0x00, 0x00, 0x1c, 0x0f, 0x00, 0x00,
  0x00, 0x0e, 0x00, 0x00, 0xac, 0x0c, 0x00, 0x00, 0x64, 0x0b, 0x00, 0x00,
  0xbc, 0x0a, 0x00, 0x00, 0x20, 0x0a, 0x00, 0x00, 0x80, 0x09, 0x00, 0x00,
  0xd8, 0x08, 0x00, 0x00, 0xcc, 0x07, 0x00, 0x00, 0xb0, 0x06, 0x00, 0x00,
  0x5c, 0x05, 0x00, 0x00, 0x14, 0x04, 0x00, 0x00, 0x6c, 0x03, 0x00, 0x00,
  0xd0, 0x02, 0x00, 0x00, 0x4c, 0x02, 0x00, 0x00, 0x88, 0x01, 0x00, 0x00,
  0xe4, 0x00, 0x00, 0x00, 0x60, 0x00, 0x00, 0x00, 0x04, 0x00, 0x00, 0x00,
  0x3a, 0xdf, 0xff, 0xff, 0x00, 0x00, 0x00, 0x01, 0x14, 0x00, 0x00, 0x00,
  0x1c, 0x00, 0x00, 0x00, 0x1c, 0x00, 0x00, 0x00, 0x30, 0x00, 0x00, 0x00,
  0x34, 0x00, 0x00, 0x00, 0x02, 0x00, 0x00, 0x00, 0xff, 0xff, 0xff, 0xff,
  0x01, 0x00, 0x00, 0x00, 0x20, 0xdf, 0xff, 0xff, 0x1b, 0x00, 0x00, 0x00,
  0x53, 0x74, 0x61, 0x74, 0x65, 0x66, 0x75, 0x6c, 0x50, 0x61, 0x72, 0x74,
  0x69, 0x74, 0x69, 0x6f, 0x6e, 0x65, 0x64, 0x43, 0x61, 0x6c, 0x6c, 0x5f,
  0x31, 0x3a, 0x30, 0x00, 0x02, 0x00, 0x00, 0x00, 0x01, 0x00, 0x00, 0x00,
  0x01, 0x00, 0x00, 0x00, 0x52, 0xee, 0xff, 0xff, 0x00, 0x00, 0x00, 0x01,
  0x18, 0x00, 0x00, 0x00, 0x20, 0x00, 0x00, 0x00, 0x40, 0x00, 0x00, 0x00,
  0x2f, 0x00, 0x00, 0x00, 0x00, 0x00, 0x00, 0x09, 0x58, 0x00, 0x00, 0x00,
  0x02, 0x00, 0x00, 0x00, 0xff, 0xff, 0xff, 0xff, 0x01, 0x00, 0x00, 0x00,
  0x6c, 0xe2, 0xff, 0xff, 0x08, 0x00, 0x00, 0x00, 0x14, 0x00, 0x00, 0x00,
  0x01, 0x00, 0x00, 0x00, 0x80, 0xff, 0xff, 0xff, 0xff, 0xff, 0xff, 0xff,
  0x00, 0x00, 0x00, 0x00, 0x01, 0x00, 0x00, 0x00, 0x00, 0x00, 0x80, 0x3b,
  0x1c, 0x00, 0x00, 0x00, 0x53, 0x74, 0x61, 0x74, 0x65, 0x66, 0x75, 0x6c,
  0x50, 0x61, 0x72, 0x74, 0x69, 0x74, 0x69, 0x6f, 0x6e, 0x65, 0x64, 0x43,
  0x61, 0x6c, 0x6c, 0x5f, 0x31, 0x3a, 0x30, 0x31, 0x00, 0x00, 0x00, 0x00,
  0x02, 0x00, 0x00, 0x00, 0x01, 0x00, 0x00, 0x00, 0x01, 0x00, 0x00, 0x00,
  0xd2, 0xee, 0xff, 0xff, 0x00, 0x00, 0x00, 0x01, 0x18, 0x00, 0x00, 0x00,
  0x20, 0x00, 0x00, 0x00, 0x40, 0x00, 0x00, 0x00, 0x2e, 0x00, 0x00, 0x00,
  0x00, 0x00, 0x00, 0x09, 0x78, 0x00, 0x00, 0x00, 0x02, 0x00, 0x00, 0x00,
  0xff, 0xff, 0xff, 0xff, 0x01, 0x00, 0x00, 0x00, 0xec, 0xe2, 0xff, 0xff,
  0x08, 0x00, 0x00, 0x00, 0x14, 0x00, 0x00, 0x00, 0x01, 0x00, 0x00, 0x00,
  0x37, 0x00, 0x00, 0x00, 0x00, 0x00, 0x00, 0x00, 0x00, 0x00, 0x00, 0x00,
  0x01, 0x00, 0x00, 0x00, 0xce, 0x29, 0x62, 0x3e, 0x3c, 0x00, 0x00, 0x00,
  0x73, 0x65, 0x71, 0x75, 0x65, 0x6e, 0x74, 0x69, 0x61, 0x6c, 0x5f, 0x33,
  0x5f, 0x31, 0x2f, 0x64, 0x65, 0x6e, 0x73, 0x65, 0x5f, 0x37, 0x5f, 0x31,
  0x2f, 0x4d, 0x61, 0x74, 0x4d, 0x75, 0x6c, 0x3b, 0x73, 0x65, 0x71, 0x75,
  0x65, 0x6e, 0x74, 0x69, 0x61, 0x6c, 0x5f, 0x33, 0x5f, 0x31, 0x2f, 0x64,
  0x65, 0x6e, 0x73, 0x65, 0x5f, 0x37, 0x5f, 0x31, 0x2f, 0x41, 0x64, 0x64,
  0x00, 0x00, 0x00, 0x00, 0x02, 0x00, 0x00, 0x00, 0x01, 0x00, 0x00, 0x00,
  0x01, 0x00, 0x00, 0x00, 0x72, 0xef, 0xff, 0xff, 0x00, 0x00, 0x00, 0x01,
  0x18, 0x00, 0x00, 0x00, 0x20, 0x00, 0x00, 0x00, 0x40, 0x00, 0x00, 0x00,
  0x2d, 0x00, 0x00, 0x00, 0x00, 0x00, 0x00, 0x09, 0x98, 0x00, 0x00, 0x00,
  0x02, 0x00, 0x00, 0x00, 0xff, 0xff, 0xff, 0xff, 0x20, 0x00, 0x00, 0x00,
  0x8c, 0xe3, 0xff, 0xff, 0x08, 0x00, 0x00, 0x00, 0x14, 0x00, 0x00, 0x00,
  0x01, 0x00, 0x00, 0x00, 0x80, 0xff, 0xff, 0xff, 0xff, 0xff, 0xff, 0xff,
  0x00, 0x00, 0x00, 0x00, 0x01, 0x00, 0x00, 0x00, 0xaa, 0x9b, 0x5e, 0x3d,
  0x5e, 0x00, 0x00, 0x00, 0x73, 0x65, 0x71, 0x75, 0x65, 0x6e, 0x74, 0x69,
  0x61, 0x6c, 0x5f, 0x33, 0x5f, 0x31, 0x2f, 0x64, 0x65, 0x6e, 0x73, 0x65,
  0x5f, 0x36, 0x5f, 0x31, 0x2f, 0x4d, 0x61, 0x74, 0x4d, 0x75, 0x6c, 0x3b,
  0x73, 0x65, 0x71, 0x75, 0x65, 0x6e, 0x74, 0x69, 0x61, 0x6c, 0x5f, 0x33,
  0x5f, 0x31, 0x2f, 0x64, 0x65, 0x6e, 0x73, 0x65, 0x5f, 0x36, 0x5f, 0x31,
  0x2f, 0x52, 0x65, 0x6c, 0x75, 0x3b, 0x73, 0x65, 0x71, 0x75, 0x65, 0x6e,
  0x74, 0x69, 0x61, 0x6c, 0x5f, 0x33, 0x5f, 0x31, 0x2f, 0x64, 0x65, 0x6e,
  0x73, 0x65, 0x5f, 0x36, 0x5f, 0x31, 0x2f, 0x42, 0x69, 0x61, 0x73, 0x41,
  0x64, 0x64, 0x00, 0x00, 0x02, 0x00, 0x00, 0x00, 0x01, 0x00, 0x00, 0x00,
  0x20, 0x00, 0x00, 0x00, 0x32, 0xf0, 0xff, 0xff, 0x00, 0x00, 0x00, 0x01,
  0x18, 0x00, 0x00, 0x00, 0x20, 0x00, 0x00, 0x00, 0x3c, 0x00, 0x00, 0x00,
  0x2c, 0x00, 0x00, 0x00, 0x00, 0x00, 0x00, 0x09, 0x58, 0x00, 0x00, 0x00,
  0x02, 0x00, 0x00, 0x00, 0xff, 0xff, 0xff, 0xff, 0xa0, 0x00, 0x00, 0x00,
  0x4c, 0xe4, 0xff, 0xff, 0x08, 0x00, 0x00, 0x00, 0x10, 0x00, 0x00, 0x00,
  0x01, 0x00, 0x00, 0x00, 0xa6, 0xff, 0xff, 0xff, 0xff, 0xff, 0xff, 0xff,
  0x01, 0x00, 0x00, 0x00, 0x62, 0xad, 0x61, 0x3d, 0x22, 0x00, 0x00, 0x00,
  0x73, 0x65, 0x71, 0x75, 0x65, 0x6e, 0x74, 0x69, 0x61, 0x6c, 0x5f, 0x33,
  0x5f, 0x31, 0x2f, 0x66, 0x6c, 0x61, 0x74, 0x74, 0x65, 0x6e, 0x5f, 0x33,
  0x5f, 0x31, 0x2f, 0x52, 0x65, 0x73, 0x68, 0x61, 0x70, 0x65, 0x00, 0x00,
  0x02, 0x00, 0x00, 0x00, 0x01, 0x00, 0x00, 0x00, 0xa0, 0x00, 0x00, 0x00,
  0xb2, 0xf0, 0xff, 0xff, 0x00, 0x00, 0x00, 0x01, 0x18, 0x00, 0x00, 0x00,
  0x28, 0x00, 0x00, 0x00, 0x44, 0x00, 0x00, 0x00, 0x2b, 0x00, 0x00, 0x00,
  0x00, 0x00, 0x00, 0x09, 0x68, 0x00, 0x00, 0x00, 0x04, 0x00, 0x00, 0x00,
  0xff, 0xff, 0xff, 0xff, 0x01, 0x00, 0x00, 0x00, 0x05, 0x00, 0x00, 0x00,
  0x20, 0x00, 0x00, 0x00, 0xd4, 0xe4, 0xff, 0xff, 0x08, 0x00, 0x00, 0x00,
  0x10, 0x00, 0x00, 0x00, 0x01, 0x00, 0x00, 0x00, 0xa6, 0xff, 0xff, 0xff,
  0xff, 0xff, 0xff, 0xff, 0x01, 0x00, 0x00, 0x00, 0x62, 0xad, 0x61, 0x3d,
  0x2a, 0x00, 0x00, 0x00, 0x73, 0x65, 0x71, 0x75, 0x65, 0x6e, 0x74, 0x69,
  0x61, 0x6c, 0x5f, 0x33, 0x5f, 0x31, 0x2f, 0x6d, 0x61, 0x78, 0x5f, 0x70,
  0x6f, 0x6f, 0x6c, 0x69, 0x6e, 0x67, 0x31, 0x64, 0x5f, 0x37, 0x5f, 0x31,
  0x2f, 0x4d, 0x61, 0x78, 0x50, 0x6f, 0x6f, 0x6c, 0x31, 0x64, 0x00, 0x00,
  0x04, 0x00, 0x00, 0x00, 0x01, 0x00, 0x00, 0x00, 0x01, 0x00, 0x00, 0x00,
  0x05, 0x00, 0x00, 0x00, 0x20, 0x00, 0x00, 0x00, 0x4a, 0xf1, 0xff, 0xff,
  0x00, 0x00, 0x00, 0x01, 0x18, 0x00, 0x00, 0x00, 0x28, 0x00, 0x00, 0x00,
  0x44, 0x00, 0x00, 0x00, 0x2a, 0x00, 0x00, 0x00, 0x00, 0x00, 0x00, 0x09,
  0x74, 0x00, 0x00, 0x00, 0x04, 0x00, 0x00, 0x00, 0xff, 0xff, 0xff, 0xff,
  0x01, 0x00, 0x00, 0x00, 0x0a, 0x00, 0x00, 0x00, 0x20, 0x00, 0x00, 0x00,
  0x6c, 0xe5, 0xff, 0xff, 0x08, 0x00, 0x00, 0x00, 0x10, 0x00, 0x00, 0x00,
  0x01, 0x00, 0x00, 0x00, 0xa6, 0xff, 0xff, 0xff, 0xff, 0xff, 0xff, 0xff,
  0x01, 0x00, 0x00, 0x00, 0x62, 0xad, 0x61, 0x3d, 0x35, 0x00, 0x00, 0x00,
  0x73, 0x65, 0x71, 0x75, 0x65, 0x6e, 0x74, 0x69, 0x61, 0x6c, 0x5f, 0x33,
  0x5f, 0x31, 0x2f, 0x6d, 0x61, 0x78, 0x5f, 0x70, 0x6f, 0x6f, 0x6c, 0x69,
  0x6e, 0x67, 0x31, 0x64, 0x5f, 0x37, 0x5f, 0x31, 0x2f, 0x4d, 0x61, 0x78,
  0x50, 0x6f, 0x6f, 0x6c, 0x31, 0x64, 0x2f, 0x45, 0x78, 0x70, 0x61, 0x6e,
  0x64, 0x44, 0x69, 0x6d, 0x73, 0x00, 0x00, 0x00, 0x04, 0x00, 0x00, 0x00,
  0x01, 0x00, 0x00, 0x00, 0x01, 0x00, 0x00, 0x00, 0x0a, 0x00, 0x00, 0x00,
  0x20, 0x00, 0x00, 0x00, 0xee, 0xf1, 0xff, 0xff, 0x00, 0x00, 0x00, 0x01,
  0x18, 0x00, 0x00, 0x00, 0x24, 0x00, 0x00, 0x00, 0x40, 0x00, 0x00, 0x00,
  0x29, 0x00, 0x00, 0x00, 0x00, 0x00, 0x00, 0x09, 0x18, 0x01, 0x00, 0x00,
  0x03, 0x00, 0x00, 0x00, 0xff, 0xff, 0xff, 0xff, 0x0a, 0x00, 0x00, 0x00,
  0x20, 0x00, 0x00, 0x00, 0x0c, 0xe6, 0xff, 0xff, 0x08, 0x00, 0x00, 0x00,
  0x10, 0x00, 0x00, 0x00, 0x01, 0x00, 0x00, 0x00, 0xa6, 0xff, 0xff, 0xff,
  0xff, 0xff, 0xff, 0xff, 0x01, 0x00, 0x00, 0x00, 0x62, 0xad, 0x61, 0x3d,
  0xde, 0x00, 0x00, 0x00, 0x73, 0x65, 0x71, 0x75, 0x65, 0x6e, 0x74, 0x69,
  0x61, 0x6c, 0x5f, 0x33, 0x5f, 0x31, 0x2f, 0x62, 0x61, 0x74, 0x63, 0x68,
  0x5f, 0x6e, 0x6f, 0x72, 0x6d, 0x61, 0x6c, 0x69, 0x7a, 0x61, 0x74, 0x69,
  0x6f, 0x6e, 0x5f, 0x37, 0x5f, 0x31, 0x2f, 0x62, 0x61, 0x74, 0x63, 0x68,
  0x6e, 0x6f, 0x72, 0x6d, 0x2f, 0x61, 0x64, 0x64, 0x5f, 0x31, 0x3b, 0x73,
  0x65, 0x71, 0x75, 0x65, 0x6e, 0x74, 0x69, 0x61, 0x6c, 0x5f, 0x33, 0x5f,
  0x31, 0x2f, 0x63, 0x6f, 0x6e, 0x76, 0x31, 0x64, 0x5f, 0x37, 0x5f, 0x31,
  0x2f, 0x63, 0x6f, 0x6e, 0x76, 0x6f, 0x6c, 0x75, 0x74, 0x69, 0x6f, 0x6e,
  0x2f, 0x53, 0x71, 0x75, 0x65, 0x65, 0x7a, 0x65, 0x3b, 0x73, 0x65, 0x71,
  0x75, 0x65, 0x6e, 0x74, 0x69, 0x61, 0x6c, 0x5f, 0x33, 0x5f, 0x31, 0x2f,
  0x62, 0x61, 0x74, 0x63, 0x68, 0x5f, 0x6e, 0x6f, 0x72, 0x6d, 0x61, 0x6c,
  0x69, 0x7a, 0x61, 0x74, 0x69, 0x6f, 0x6e, 0x5f, 0x37, 0x5f, 0x31, 0x2f,
  0x62, 0x61, 0x74, 0x63, 0x68, 0x6e, 0x6f, 0x72, 0x6d, 0x2f, 0x6d, 0x75,
  0x6c, 0x5f, 0x31, 0x3b, 0x73, 0x65, 0x71, 0x75, 0x65, 0x6e, 0x74, 0x69,
  0x61, 0x6c, 0x5f, 0x33, 0x5f, 0x31, 0x2f, 0x63, 0x6f, 0x6e, 0x76, 0x31,
  0x64, 0x5f, 0x37, 0x5f, 0x31, 0x2f, 0x52, 0x65, 0x6c, 0x75, 0x3b, 0x73,
  0x65, 0x71, 0x75, 0x65, 0x6e, 0x74, 0x69, 0x61, 0x6c, 0x5f, 0x33, 0x5f,
  0x31, 0x2f, 0x63, 0x6f, 0x6e, 0x76, 0x31, 0x64, 0x5f, 0x37, 0x5f, 0x31,
  0x2f, 0x42, 0x69, 0x61, 0x73, 0x41, 0x64, 0x64, 0x3b, 0x31, 0x00, 0x00,
  0x03, 0x00, 0x00, 0x00, 0x01, 0x00, 0x00, 0x00, 0x0a, 0x00, 0x00, 0x00,
  0x20, 0x00, 0x00, 0x00, 0x32, 0xf3, 0xff, 0xff, 0x00, 0x00, 0x00, 0x01,
  0x18, 0x00, 0x00, 0x00, 0x28, 0x00, 0x00, 0x00, 0x48, 0x00, 0x00, 0x00,
  0x28, 0x00, 0x00, 0x00, 0x00, 0x00, 0x00, 0x09, 0x20, 0x01, 0x00, 0x00,
  0x04, 0x00, 0x00, 0x00, 0xff, 0xff, 0xff, 0xff, 0x01, 0x00, 0x00, 0x00,
  0x0a, 0x00, 0x00, 0x00, 0x20, 0x00, 0x00, 0x00, 0x54, 0xe7, 0xff, 0xff,
  0x08, 0x00, 0x00, 0x00, 0x14, 0x00, 0x00, 0x00, 0x01, 0x00, 0x00, 0x00,
  0xa6, 0xff, 0xff, 0xff, 0xff, 0xff, 0xff, 0xff, 0x00, 0x00, 0x00, 0x00,
  0x01, 0x00, 0x00, 0x00, 0x62, 0xad, 0x61, 0x3d, 0xdd, 0x00, 0x00, 0x00,
  0x73, 0x65, 0x71, 0x75, 0x65, 0x6e, 0x74, 0x69, 0x61, 0x6c, 0x5f, 0x33,
  0x5f, 0x31, 0x2f, 0x62, 0x61, 0x74, 0x63, 0x68, 0x5f, 0x6e, 0x6f, 0x72,
  0x6d, 0x61, 0x6c, 0x69, 0x7a, 0x61, 0x74, 0x69, 0x6f, 0x6e, 0x5f, 0x37,
  0x5f, 0x31, 0x2f, 0x62, 0x61, 0x74, 0x63, 0x68, 0x6e, 0x6f, 0x72, 0x6d,
  0x2f, 0x61, 0x64, 0x64, 0x5f, 0x31, 0x3b, 0x73, 0x65, 0x71, 0x75, 0x65,
  0x6e, 0x74, 0x69, 0x61, 0x6c, 0x5f, 0x33, 0x5f, 0x31, 0x2f, 0x63, 0x6f,
  0x6e, 0x76, 0x31, 0x64, 0x5f, 0x37, 0x5f, 0x31, 0x2f, 0x63, 0x6f, 0x6e,
  0x76, 0x6f, 0x6c, 0x75, 0x74, 0x69, 0x6f, 0x6e, 0x2f, 0x53, 0x71, 0x75,
  0x65, 0x65, 0x7a, 0x65, 0x3b, 0x73, 0x65, 0x71, 0x75, 0x65, 0x6e, 0x74,
  0x69, 0x61, 0x6c, 0x5f, 0x33, 0x5f, 0x31, 0x2f, 0x62, 0x61, 0x74, 0x63,
  0x68, 0x5f, 0x6e, 0x6f, 0x72, 0x6d, 0x61, 0x6c, 0x69, 0x7a, 0x61, 0x74,
  0x69, 0x6f, 0x6e, 0x5f, 0x37, 0x5f, 0x31, 0x2f, 0x62, 0x61, 0x74, 0x63,
  0x68, 0x6e, 0x6f, 0x72, 0x6d, 0x2f, 0x6d, 0x75, 0x6c, 0x5f, 0x31, 0x3b,
  0x73, 0x65, 0x71, 0x75, 0x65, 0x6e, 0x74, 0x69, 0x61, 0x6c, 0x5f, 0x33,
  0x5f, 0x31, 0x2f, 0x63, 0x6f, 0x6e, 0x76, 0x31, 0x64, 0x5f, 0x37, 0x5f,
  0x31, 0x2f, 0x52, 0x65, 0x6c, 0x75, 0x3b, 0x73, 0x65, 0x71, 0x75, 0x65,
  0x6e, 0x74, 0x69, 0x61, 0x6c, 0x5f, 0x33, 0x5f, 0x31, 0x2f, 0x63, 0x6f,
  0x6e, 0x76, 0x31, 0x64, 0x5f, 0x37, 0x5f, 0x31, 0x2f, 0x42, 0x69, 0x61,
  0x73, 0x41, 0x64, 0x64, 0x3b, 0x00, 0x00, 0x00, 0x04, 0x00, 0x00, 0x00,
  0x01, 0x00, 0x00, 0x00, 0x01, 0x00, 0x00, 0x00, 0x0a, 0x00, 0x00, 0x00,
  0x20, 0x00, 0x00, 0x00, 0x82, 0xf4, 0xff, 0xff, 0x00, 0x00, 0x00, 0x01,
  0x18, 0x00, 0x00, 0x00, 0x28, 0x00, 0x00, 0x00, 0x48, 0x00, 0x00, 0x00,
  0x27, 0x00, 0x00, 0x00, 0x00, 0x00, 0x00, 0x09, 0xe8, 0x00, 0x00, 0x00,
  0x04, 0x00, 0x00, 0x00, 0xff, 0xff, 0xff, 0xff, 0x01, 0x00, 0x00, 0x00,
  0x0a, 0x00, 0x00, 0x00, 0x20, 0x00, 0x00, 0x00, 0xa4, 0xe8, 0xff, 0xff,
  0x08, 0x00, 0x00, 0x00, 0x14, 0x00, 0x00, 0x00, 0x01, 0x00, 0x00, 0x00,
  0xa6, 0xff, 0xff, 0xff, 0xff, 0xff, 0xff, 0xff, 0x00, 0x00, 0x00, 0x00,
  0x01, 0x00, 0x00, 0x00, 0x96, 0x90, 0x65, 0x3d, 0xa6, 0x00, 0x00, 0x00,
  0x73, 0x65, 0x71, 0x75, 0x65, 0x6e, 0x74, 0x69, 0x61, 0x6c, 0x5f, 0x33,
  0x5f, 0x31, 0x2f, 0x62, 0x61, 0x74, 0x63, 0x68, 0x5f, 0x6e, 0x6f, 0x72,
  0x6d, 0x61, 0x6c, 0x69, 0x7a, 0x61, 0x74, 0x69, 0x6f, 0x6e, 0x5f, 0x37,
  0x5f, 0x31, 0x2f, 0x62, 0x61, 0x74, 0x63, 0x68, 0x6e, 0x6f, 0x72, 0x6d,
  0x2f, 0x6d, 0x75, 0x6c, 0x5f, 0x31, 0x3b, 0x73, 0x65, 0x71, 0x75, 0x65,
  0x6e, 0x74, 0x69, 0x61, 0x6c, 0x5f, 0x33, 0x5f, 0x31, 0x2f, 0x63, 0x6f,
  0x6e, 0x76, 0x31, 0x64, 0x5f, 0x37, 0x5f, 0x31, 0x2f, 0x63, 0x6f, 0x6e,
  0x76, 0x6f, 0x6c, 0x75, 0x74, 0x69, 0x6f, 0x6e, 0x2f, 0x53, 0x71, 0x75,
  0x65, 0x65, 0x7a, 0x65, 0x3b, 0x73, 0x65, 0x71, 0x75, 0x65, 0x6e, 0x74,
  0x69, 0x61, 0x6c, 0x5f, 0x33, 0x5f, 0x31, 0x2f, 0x63, 0x6f, 0x6e, 0x76,
  0x31, 0x64, 0x5f, 0x37, 0x5f, 0x31, 0x2f, 0x52, 0x65, 0x6c, 0x75, 0x3b,
  0x73, 0x65, 0x71, 0x75, 0x65, 0x6e, 0x74, 0x69, 0x61, 0x6c, 0x5f, 0x33,
  0x5f, 0x31, 0x2f, 0x63, 0x6f, 0x6e, 0x76, 0x31, 0x64, 0x5f, 0x37, 0x5f,
  0x31, 0x2f, 0x42, 0x69, 0x61, 0x73, 0x41, 0x64, 0x64, 0x3b, 0x00, 0x00,
  0x04, 0x00, 0x00, 0x00, 0x01, 0x00, 0x00, 0x00, 0x01, 0x00, 0x00, 0x00,
  0x0a, 0x00, 0x00, 0x00, 0x20, 0x00, 0x00, 0x00, 0x9a, 0xf5, 0xff, 0xff,
  0x00, 0x00, 0x00, 0x01, 0x18, 0x00, 0x00, 0x00, 0x28, 0x00, 0x00, 0x00,
  0x48, 0x00, 0x00, 0x00, 0x26, 0x00, 0x00, 0x00, 0x00, 0x00, 0x00, 0x09,
  0xd8, 0x00, 0x00, 0x00, 0x04, 0x00, 0x00, 0x00, 0xff, 0xff, 0xff, 0xff,
  0x01, 0x00, 0x00, 0x00, 0x0a, 0x00, 0x00, 0x00, 0x20, 0x00, 0x00, 0x00,
  0xbc, 0xe9, 0xff, 0xff, 0x08, 0x00, 0x00, 0x00, 0x14, 0x00, 0x00, 0x00,
  0x01, 0x00, 0x00, 0x00, 0x80, 0xff, 0xff, 0xff, 0xff, 0xff, 0xff, 0xff,
  0x00, 0x00, 0x00, 0x00, 0x01, 0x00, 0x00, 0x00, 0x98, 0xbe, 0x43, 0x3d,
  0x95, 0x00, 0x00, 0x00, 0x73, 0x65, 0x71, 0x75, 0x65, 0x6e, 0x74, 0x69,
  0x61, 0x6c, 0x5f, 0x33, 0x5f, 0x31, 0x2f, 0x63, 0x6f, 0x6e, 0x76, 0x31,
  0x64, 0x5f, 0x37, 0x5f, 0x31, 0x2f, 0x52, 0x65, 0x6c, 0x75, 0x3b, 0x73,
  0x65, 0x71, 0x75, 0x65, 0x6e, 0x74, 0x69, 0x61, 0x6c, 0x5f, 0x33, 0x5f,
  0x31, 0x2f, 0x63, 0x6f, 0x6e, 0x76, 0x31, 0x64, 0x5f, 0x37, 0x5f, 0x31,
  0x2f, 0x42, 0x69, 0x61, 0x73, 0x41, 0x64, 0x64, 0x3b, 0x73, 0x65, 0x71,
  0x75, 0x65, 0x6e, 0x74, 0x69, 0x61, 0x6c, 0x5f, 0x33, 0x5f, 0x31, 0x2f,
  0x63, 0x6f, 0x6e, 0x76, 0x31, 0x64, 0x5f, 0x37, 0x5f, 0x31, 0x2f, 0x63,
  0x6f, 0x6e, 0x76, 0x6f, 0x6c, 0x75, 0x74, 0x69, 0x6f, 0x6e, 0x2f, 0x53,
  0x71, 0x75, 0x65, 0x65, 0x7a, 0x65, 0x3b, 0x3b, 0x73, 0x65, 0x71, 0x75,
  0x65, 0x6e, 0x74, 0x69, 0x61, 0x6c, 0x5f, 0x33, 0x5f, 0x31, 0x2f, 0x63,
  0x6f, 0x6e, 0x76, 0x31, 0x64, 0x5f, 0x37, 0x5f, 0x31, 0x2f, 0x63, 0x6f,
  0x6e, 0x76, 0x6f, 0x6c, 0x75, 0x74, 0x69, 0x6f, 0x6e, 0x00, 0x00, 0x00,
  0x04, 0x00, 0x00, 0x00, 0x01, 0x00, 0x00, 0x00, 0x01, 0x00, 0x00, 0x00,
  0x0a, 0x00, 0x00, 0x00, 0x20, 0x00, 0x00, 0x00, 0xa2, 0xf6, 0xff, 0xff,
  0x00, 0x00, 0x00, 0x01, 0x18, 0x00, 0x00, 0x00, 0x28, 0x00, 0x00, 0x00,
  0x48, 0x00, 0x00, 0x00, 0x25, 0x00, 0x00, 0x00, 0x00, 0x00, 0x00, 0x09,
  0x74, 0x00, 0x00, 0x00, 0x04, 0x00, 0x00, 0x00, 0xff, 0xff, 0xff, 0xff,
  0x01, 0x00, 0x00, 0x00, 0x0a, 0x00, 0x00, 0x00, 0x10, 0x00, 0x00, 0x00,
  0xc4, 0xea, 0xff, 0xff, 0x08, 0x00, 0x00, 0x00, 0x14, 0x00, 0x00, 0x00,
  0x01, 0x00, 0x00, 0x00, 0xe3, 0xff, 0xff, 0xff, 0xff, 0xff, 0xff, 0xff,
  0x00, 0x00, 0x00, 0x00, 0x01, 0x00, 0x00, 0x00, 0xd7, 0x2c, 0x2b, 0x3d,
  0x30, 0x00, 0x00, 0x00, 0x73, 0x65, 0x71, 0x75, 0x65, 0x6e, 0x74, 0x69,
  0x61, 0x6c, 0x5f, 0x33, 0x5f, 0x31, 0x2f, 0x63, 0x6f, 0x6e, 0x76, 0x31,
  0x64, 0x5f, 0x37, 0x5f, 0x31, 0x2f, 0x63, 0x6f, 0x6e, 0x76, 0x6f, 0x6c,
  0x75, 0x74, 0x69, 0x6f, 0x6e, 0x2f, 0x45, 0x78, 0x70, 0x61, 0x6e, 0x64,
  0x44, 0x69, 0x6d, 0x73, 0x00, 0x00, 0x00, 0x00, 0x04, 0x00, 0x00, 0x00,
  0x01, 0x00, 0x00, 0x00, 0x01, 0x00, 0x00, 0x00, 0x0a, 0x00, 0x00, 0x00,
  0x10, 0x00, 0x00, 0x00, 0x46, 0xf7, 0xff, 0xff, 0x00, 0x00, 0x00, 0x01,
  0x18, 0x00, 0x00, 0x00, 0x24, 0x00, 0x00, 0x00, 0x44, 0x00, 0x00, 0x00,
  0x24, 0x00, 0x00, 0x00, 0x00, 0x00, 0x00, 0x09, 0x70, 0x00, 0x00, 0x00,
  0x03, 0x00, 0x00, 0x00, 0xff, 0xff, 0xff, 0xff, 0x0a, 0x00, 0x00, 0x00,
  0x10, 0x00, 0x00, 0x00, 0x64, 0xeb, 0xff, 0xff, 0x08, 0x00, 0x00, 0x00,
  0x14, 0x00, 0x00, 0x00, 0x01, 0x00, 0x00, 0x00, 0xe3, 0xff, 0xff, 0xff,
  0xff, 0xff, 0xff, 0xff, 0x00, 0x00, 0x00, 0x00, 0x01, 0x00, 0x00, 0x00,
  0xd7, 0x2c, 0x2b, 0x3d, 0x32, 0x00, 0x00, 0x00, 0x73, 0x65, 0x71, 0x75,
  0x65, 0x6e, 0x74, 0x69, 0x61, 0x6c, 0x5f, 0x33, 0x5f, 0x31, 0x2f, 0x6d,
  0x61, 0x78, 0x5f, 0x70, 0x6f, 0x6f, 0x6c, 0x69, 0x6e, 0x67, 0x31, 0x64,
  0x5f, 0x36, 0x5f, 0x31, 0x2f, 0x4d, 0x61, 0x78, 0x50, 0x6f, 0x6f, 0x6c,
  0x31, 0x64, 0x2f, 0x53, 0x71, 0x75, 0x65, 0x65, 0x7a, 0x65, 0x00, 0x00,
  0x03, 0x00, 0x00, 0x00, 0x01, 0x00, 0x00, 0x00, 0x0a, 0x00, 0x00, 0x00,
  0x10, 0x00, 0x00, 0x00, 0xe2, 0xf7, 0xff, 0xff, 0x00, 0x00, 0x00, 0x01,
  0x18, 0x00, 0x00, 0x00, 0x28, 0x00, 0x00, 0x00, 0x44, 0x00, 0x00, 0x00,
  0x23, 0x00, 0x00, 0x00, 0x00, 0x00, 0x00, 0x09, 0x68, 0x00, 0x00, 0x00,
  0x04, 0x00, 0x00, 0x00, 0xff, 0xff, 0xff, 0xff, 0x01, 0x00, 0x00, 0x00,
  0x0a, 0x00, 0x00, 0x00, 0x10, 0x00, 0x00, 0x00, 0x04, 0xec, 0xff, 0xff,
  0x08, 0x00, 0x00, 0x00, 0x10, 0x00, 0x00, 0x00, 0x01, 0x00, 0x00, 0x00,
  0xe3, 0xff, 0xff, 0xff, 0xff, 0xff, 0xff, 0xff, 0x01, 0x00, 0x00, 0x00,
  0xd7, 0x2c, 0x2b, 0x3d, 0x2a, 0x00, 0x00, 0x00, 0x73, 0x65, 0x71, 0x75,
  0x65, 0x6e, 0x74, 0x69, 0x61, 0x6c, 0x5f, 0x33, 0x5f, 0x31, 0x2f, 0x6d,
  0x61, 0x78, 0x5f, 0x70, 0x6f, 0x6f, 0x6c, 0x69, 0x6e, 0x67, 0x31, 0x64,
  0x5f, 0x36, 0x5f, 0x31, 0x2f, 0x4d, 0x61, 0x78, 0x50, 0x6f, 0x6f, 0x6c,
  0x31, 0x64, 0x00, 0x00, 0x04, 0x00, 0x00, 0x00, 0x01, 0x00, 0x00, 0x00,
  0x01, 0x00, 0x00, 0x00, 0x0a, 0x00, 0x00, 0x00, 0x10, 0x00, 0x00, 0x00,
  0x7a, 0xf8, 0xff, 0xff, 0x00, 0x00, 0x00, 0x01, 0x18, 0x00, 0x00, 0x00,
  0x28, 0x00, 0x00, 0x00, 0x44, 0x00, 0x00, 0x00, 0x22, 0x00, 0x00, 0x00,
  0x00, 0x00, 0x00, 0x09, 0x74, 0x00, 0x00, 0x00, 0x04, 0x00, 0x00, 0x00,
  0xff, 0xff, 0xff, 0xff, 0x01, 0x00, 0x00, 0x00, 0x15, 0x00, 0x00, 0x00,
  0x10, 0x00, 0x00, 0x00, 0x9c, 0xec, 0xff, 0xff, 0x08, 0x00, 0x00, 0x00,
  0x10, 0x00, 0x00, 0x00, 0x01, 0x00, 0x00, 0x00, 0xe3, 0xff, 0xff, 0xff,
  0xff, 0xff, 0xff, 0xff, 0x01, 0x00, 0x00, 0x00, 0xd7, 0x2c, 0x2b, 0x3d,
  0x35, 0x00, 0x00, 0x00, 0x73, 0x65, 0x71, 0x75, 0x65, 0x6e, 0x74, 0x69,
  0x61, 0x6c, 0x5f, 0x33, 0x5f, 0x31, 0x2f, 0x6d, 0x61, 0x78, 0x5f, 0x70,
  0x6f, 0x6f, 0x6c, 0x69, 0x6e, 0x67, 0x31, 0x64, 0x5f, 0x36, 0x5f, 0x31,
  0x2f, 0x4d, 0x61, 0x78, 0x50, 0x6f, 0x6f, 0x6c, 0x31, 0x64, 0x2f, 0x45,
  0x78, 0x70, 0x61, 0x6e, 0x64, 0x44, 0x69, 0x6d, 0x73, 0x00, 0x00, 0x00,
  0x04, 0x00, 0x00, 0x00, 0x01, 0x00, 0x00, 0x00, 0x01, 0x00, 0x00, 0x00,
  0x15, 0x00, 0x00, 0x00, 0x10, 0x00, 0x00, 0x00, 0x1e, 0xf9, 0xff, 0xff,
  0x00, 0x00, 0x00, 0x01, 0x18, 0x00, 0x00, 0x00, 0x24, 0x00, 0x00, 0x00,
  0x40, 0x00, 0x00, 0x00, 0x21, 0x00, 0x00, 0x00, 0x00, 0x00, 0x00, 0x09,
  0x18, 0x01, 0x00, 0x00, 0x03, 0x00, 0x00, 0x00, 0xff, 0xff, 0xff, 0xff,
  0x15, 0x00, 0x00, 0x00, 0x10, 0x00, 0x00, 0x00, 0x3c, 0xed, 0xff, 0xff,
  0x08, 0x00, 0x00, 0x00, 0x10, 0x00, 0x00, 0x00, 0x01, 0x00, 0x00, 0x00,
  0xe3, 0xff, 0xff, 0xff, 0xff, 0xff, 0xff, 0xff, 0x01, 0x00, 0x00, 0x00,
  0xd7, 0x2c, 0x2b, 0x3d, 0xde, 0x00, 0x00, 0x00, 0x73, 0x65, 0x71, 0x75,
  0x65, 0x6e, 0x74, 0x69, 0x61, 0x6c, 0x5f, 0x33, 0x5f, 0x31, 0x2f, 0x62,
  0x61, 0x74, 0x63, 0x68, 0x5f, 0x6e, 0x6f, 0x72, 0x6d, 0x61, 0x6c, 0x69,
  0x7a, 0x61, 0x74, 0x69, 0x6f, 0x6e, 0x5f, 0x36, 0x5f, 0x31, 0x2f, 0x62,
  0x61, 0x74, 0x63, 0x68, 0x6e, 0x6f, 0x72, 0x6d, 0x2f, 0x61, 0x64, 0x64,
  0x5f, 0x31, 0x3b, 0x73, 0x65, 0x71, 0x75, 0x65, 0x6e, 0x74, 0x69, 0x61,
  0x6c, 0x5f, 0x33, 0x5f, 0x31, 0x2f, 0x63, 0x6f, 0x6e, 0x76, 0x31, 0x64,
  0x5f, 0x36, 0x5f, 0x31, 0x2f, 0x63, 0x6f, 0x6e, 0x76, 0x6f, 0x6c, 0x75,
  0x74, 0x69, 0x6f, 0x6e, 0x2f, 0x53, 0x71, 0x75, 0x65, 0x65, 0x7a, 0x65,
  0x3b, 0x73, 0x65, 0x71, 0x75, 0x65, 0x6e, 0x74, 0x69, 0x61, 0x6c, 0x5f,
  0x33, 0x5f, 0x31, 0x2f, 0x62, 0x61, 0x74, 0x63, 0x68, 0x5f, 0x6e, 0x6f,
  0x72, 0x6d, 0x61, 0x6c, 0x69, 0x7a, 0x61, 0x74, 0x69, 0x6f, 0x6e, 0x5f,
  0x36, 0x5f, 0x31, 0x2f, 0x62, 0x61, 0x74, 0x63, 0x68, 0x6e, 0x6f, 0x72,
  0x6d, 0x2f, 0x6d, 0x75, 0x6c, 0x5f, 0x31, 0x3b, 0x73, 0x65, 0x71, 0x75,
  0x65, 0x6e, 0x74, 0x69, 0x61, 0x6c, 0x5f, 0x33, 0x5f, 0x31, 0x2f, 0x63,
  0x6f, 0x6e, 0x76, 0x31, 0x64, 0x5f, 0x36, 0x5f, 0x31, 0x2f, 0x52, 0x65,
  0x6c, 0x75, 0x3b, 0x73, 0x65, 0x71, 0x75, 0x65, 0x6e, 0x74, 0x69, 0x61,
  0x6c, 0x5f, 0x33, 0x5f, 0x31, 0x2f, 0x63, 0x6f, 0x6e, 0x76, 0x31, 0x64,
  0x5f, 0x36, 0x5f, 0x31, 0x2f, 0x42, 0x69, 0x61, 0x73, 0x41, 0x64, 0x64,
  0x3b, 0x31, 0x00, 0x00, 0x03, 0x00, 0x00, 0x00, 0x01, 0x00, 0x00, 0x00,
  0x15, 0x00, 0x00, 0x00, 0x10, 0x00, 0x00, 0x00, 0x62, 0xfa, 0xff, 0xff,
  0x00, 0x00, 0x00, 0x01, 0x18, 0x00, 0x00, 0x00, 0x28, 0x00, 0x00, 0x00,
  0x48, 0x00, 0x00, 0x00, 0x20, 0x00, 0x00, 0x00, 0x00, 0x00, 0x00, 0x09,
  0x20, 0x01, 0x00, 0x00, 0x04, 0x00, 0x00, 0x00, 0xff, 0xff, 0xff, 0xff,
  0x01, 0x00, 0x00, 0x00, 0x15, 0x00, 0x00, 0x00, 0x10, 0x00, 0x00, 0x00,
  0x84, 0xee, 0xff, 0xff, 0x08, 0x00, 0x00, 0x00, 0x14, 0x00, 0x00, 0x00,
  0x01, 0x00, 0x00, 0x00, 0xe3, 0xff, 0xff, 0xff, 0xff, 0xff, 0xff, 0xff,
  0x00, 0x00, 0x00, 0x00, 0x01, 0x00, 0x00, 0x00, 0xd7, 0x2c, 0x2b, 0x3d,
  0xdd, 0x00, 0x00, 0x00, 0x73, 0x65, 0x71, 0x75, 0x65, 0x6e, 0x74, 0x69,
  0x61, 0x6c, 0x5f, 0x33, 0x5f, 0x31, 0x2f, 0x62, 0x61, 0x74, 0x63, 0x68,
  0x5f, 0x6e, 0x6f, 0x72, 0x6d, 0x61, 0x6c, 0x69, 0x7a, 0x61, 0x74, 0x69,
  0x6f, 0x6e, 0x5f, 0x36, 0x5f, 0x31, 0x2f, 0x62, 0x61, 0x74, 0x63, 0x68,
  0x6e, 0x6f, 0x72, 0x6d, 0x2f, 0x61, 0x64, 0x64, 0x5f, 0x31, 0x3b, 0x73,
  0x65, 0x71, 0x75, 0x65, 0x6e, 0x74, 0x69, 0x61, 0x6c, 0x5f, 0x33, 0x5f,
  0x31, 0x2f, 0x63, 0x6f, 0x6e, 0x76, 0x31, 0x64, 0x5f, 0x36, 0x5f, 0x31,
  0x2f, 0x63, 0x6f, 0x6e, 0x76, 0x6f, 0x6c, 0x75, 0x74, 0x69, 0x6f, 0x6e,
  0x2f, 0x53, 0x71, 0x75, 0x65, 0x65, 0x7a, 0x65, 0x3b, 0x73, 0x65, 0x71,
  0x75, 0x65, 0x6e, 0x74, 0x69, 0x61, 0x6c, 0x5f, 0x33, 0x5f, 0x31, 0x2f,
  0x62, 0x61, 0x74, 0x63, 0x68, 0x5f, 0x6e, 0x6f, 0x72, 0x6d, 0x61, 0x6c,
  0x69, 0x7a, 0x61, 0x74, 0x69, 0x6f, 0x6e, 0x5f, 0x36, 0x5f, 0x31, 0x2f,
  0x62, 0x61, 0x74, 0x63, 0x68, 0x6e, 0x6f, 0x72, 0x6d, 0x2f, 0x6d, 0x75,
  0x6c, 0x5f, 0x31, 0x3b, 0x73, 0x65, 0x71, 0x75, 0x65, 0x6e, 0x74, 0x69,
  0x61, 0x6c, 0x5f, 0x33, 0x5f, 0x31, 0x2f, 0x63, 0x6f, 0x6e, 0x76, 0x31,
  0x64, 0x5f, 0x36, 0x5f, 0x31, 0x2f, 0x52, 0x65, 0x6c, 0x75, 0x3b, 0x73,
  0x65, 0x71, 0x75, 0x65, 0x6e, 0x74, 0x69, 0x61, 0x6c, 0x5f, 0x33, 0x5f,
  0x31, 0x2f, 0x63, 0x6f, 0x6e, 0x76, 0x31, 0x64, 0x5f, 0x36, 0x5f, 0x31,
  0x2f, 0x42, 0x69, 0x61, 0x73, 0x41, 0x64, 0x64, 0x3b, 0x00, 0x00, 0x00,
  0x04, 0x00, 0x00, 0x00, 0x01, 0x00, 0x00, 0x00, 0x01, 0x00, 0x00, 0x00,
  0x15, 0x00, 0x00, 0x00, 0x10, 0x00, 0x00, 0x00, 0xb2, 0xfb, 0xff, 0xff,
  0x00, 0x00, 0x00, 0x01, 0x18, 0x00, 0x00, 0x00, 0x28, 0x00, 0x00, 0x00,
  0x48, 0x00, 0x00, 0x00, 0x1f, 0x00, 0x00, 0x00, 0x00, 0x00, 0x00, 0x09,
  0xe8, 0x00, 0x00, 0x00, 0x04, 0x00, 0x00, 0x00, 0xff, 0xff, 0xff, 0xff,
  0x01, 0x00, 0x00, 0x00, 0x15, 0x00, 0x00, 0x00, 0x10, 0x00, 0x00, 0x00,
  0xd4, 0xef, 0xff, 0xff, 0x08, 0x00, 0x00, 0x00, 0x14, 0x00, 0x00, 0x00,
  0x01, 0x00, 0x00, 0x00, 0xdd, 0xff, 0xff, 0xff, 0xff, 0xff, 0xff, 0xff,
  0x00, 0x00, 0x00, 0x00, 0x01, 0x00, 0x00, 0x00, 0x34, 0x79, 0x36, 0x3d,
  0xa6, 0x00, 0x00, 0x00, 0x73, 0x65, 0x71, 0x75, 0x65, 0x6e, 0x74, 0x69,
  0x61, 0x6c, 0x5f, 0x33, 0x5f, 0x31, 0x2f, 0x62, 0x61, 0x74, 0x63, 0x68,
  0x5f, 0x6e, 0x6f, 0x72, 0x6d, 0x61, 0x6c, 0x69, 0x7a, 0x61, 0x74, 0x69,
  0x6f, 0x6e, 0x5f, 0x36, 0x5f, 0x31, 0x2f, 0x62, 0x61, 0x74, 0x63, 0x68,
  0x6e, 0x6f, 0x72, 0x6d, 0x2f, 0x6d, 0x75, 0x6c, 0x5f, 0x31, 0x3b, 0x73,
  0x65, 0x71, 0x75, 0x65, 0x6e, 0x74, 0x69, 0x61, 0x6c, 0x5f, 0x33, 0x5f,
  0x31, 0x2f, 0x63, 0x6f, 0x6e, 0x76, 0x31, 0x64, 0x5f, 0x36, 0x5f, 0x31,
  0x2f, 0x63, 0x6f, 0x6e, 0x76, 0x6f, 0x6c, 0x75, 0x74, 0x69, 0x6f, 0x6e,
  0x2f, 0x53, 0x71, 0x75, 0x65, 0x65, 0x7a, 0x65, 0x3b, 0x73, 0x65, 0x71,
  0x75, 0x65, 0x6e, 0x74, 0x69, 0x61, 0x6c, 0x5f, 0x33, 0x5f, 0x31, 0x2f,
  0x63, 0x6f, 0x6e, 0x76, 0x31, 0x64, 0x5f, 0x36, 0x5f, 0x31, 0x2f, 0x52,
  0x65, 0x6c, 0x75, 0x3b, 0x73, 0x65, 0x71, 0x75, 0x65, 0x6e, 0x74, 0x69,
  0x61, 0x6c, 0x5f, 0x33, 0x5f, 0x31, 0x2f, 0x63, 0x6f, 0x6e, 0x76, 0x31,
  0x64, 0x5f, 0x36, 0x5f, 0x31, 0x2f, 0x42, 0x69, 0x61, 0x73, 0x41, 0x64,
  0x64, 0x3b, 0x00, 0x00, 0x04, 0x00, 0x00, 0x00, 0x01, 0x00, 0x00, 0x00,
  0x01, 0x00, 0x00, 0x00, 0x15, 0x00, 0x00, 0x00, 0x10, 0x00, 0x00, 0x00,
  0xca, 0xfc, 0xff, 0xff, 0x00, 0x00, 0x00, 0x01, 0x18, 0x00, 0x00, 0x00,
  0x28, 0x00, 0x00, 0x00, 0x48, 0x00, 0x00, 0x00, 0x1e, 0x00, 0x00, 0x00,
  0x00, 0x00, 0x00, 0x09, 0xd8, 0x00, 0x00, 0x00, 0x04, 0x00, 0x00, 0x00,
  0xff, 0xff, 0xff, 0xff, 0x01, 0x00, 0x00, 0x00, 0x15, 0x00, 0x00, 0x00,
  0x10, 0x00, 0x00, 0x00, 0xec, 0xf0, 0xff, 0xff, 0x08, 0x00, 0x00, 0x00,
  0x14, 0x00, 0x00, 0x00, 0x01, 0x00, 0x00, 0x00, 0x80, 0xff, 0xff, 0xff,
  0xff, 0xff, 0xff, 0xff, 0x00, 0x00, 0x00, 0x00, 0x01, 0x00, 0x00, 0x00,
  0x6b, 0x7a, 0x82, 0x3f, 0x95, 0x00, 0x00, 0x00, 0x73, 0x65, 0x71, 0x75,
  0x65, 0x6e, 0x74, 0x69, 0x61, 0x6c, 0x5f, 0x33, 0x5f, 0x31, 0x2f, 0x63,
  0x6f, 0x6e, 0x76, 0x31, 0x64, 0x5f, 0x36, 0x5f, 0x31, 0x2f, 0x52, 0x65,
  0x6c, 0x75, 0x3b, 0x73, 0x65, 0x71, 0x75, 0x65, 0x6e, 0x74, 0x69, 0x61,
  0x6c, 0x5f, 0x33, 0x5f, 0x31, 0x2f, 0x63, 0x6f, 0x6e, 0x76, 0x31, 0x64,
  0x5f, 0x36, 0x5f, 0x31, 0x2f, 0x42, 0x69, 0x61, 0x73, 0x41, 0x64, 0x64,
  0x3b, 0x73, 0x65, 0x71, 0x75, 0x65, 0x6e, 0x74, 0x69, 0x61, 0x6c, 0x5f,
  0x33, 0x5f, 0x31, 0x2f, 0x63, 0x6f, 0x6e, 0x76, 0x31, 0x64, 0x5f, 0x36,
  0x5f, 0x31, 0x2f, 0x63, 0x6f, 0x6e, 0x76, 0x6f, 0x6c, 0x75, 0x74, 0x69,
  0x6f, 0x6e, 0x2f, 0x53, 0x71, 0x75, 0x65, 0x65, 0x7a, 0x65, 0x3b, 0x3b,
  0x73, 0x65, 0x71, 0x75, 0x65, 0x6e, 0x74, 0x69, 0x61, 0x6c, 0x5f, 0x33,
  0x5f, 0x31, 0x2f, 0x63, 0x6f, 0x6e, 0x76, 0x31, 0x64, 0x5f, 0x36, 0x5f,
  0x31, 0x2f, 0x63, 0x6f, 0x6e, 0x76, 0x6f, 0x6c, 0x75, 0x74, 0x69, 0x6f,
  0x6e, 0x00, 0x00, 0x00, 0x04, 0x00, 0x00, 0x00, 0x01, 0x00, 0x00, 0x00,
  0x01, 0x00, 0x00, 0x00, 0x15, 0x00, 0x00, 0x00, 0x10, 0x00, 0x00, 0x00,
  0xd2, 0xfd, 0xff, 0xff, 0x00, 0x00, 0x00, 0x01, 0x18, 0x00, 0x00, 0x00,
  0x28, 0x00, 0x00, 0x00, 0x48, 0x00, 0x00, 0x00, 0x1d, 0x00, 0x00, 0x00,
  0x00, 0x00, 0x00, 0x09, 0x74, 0x00, 0x00, 0x00, 0x04, 0x00, 0x00, 0x00,
  0xff, 0xff, 0xff, 0xff, 0x01, 0x00, 0x00, 0x00, 0x15, 0x00, 0x00, 0x00,
  0x20, 0x00, 0x00, 0x00, 0xf4, 0xf1, 0xff, 0xff, 0x08, 0x00, 0x00, 0x00,
  0x14, 0x00, 0x00, 0x00, 0x01, 0x00, 0x00, 0x00, 0x7f, 0x00, 0x00, 0x00,
  0x00, 0x00, 0x00, 0x00, 0x00, 0x00, 0x00, 0x00, 0x01, 0x00, 0x00, 0x00,
  0xd1, 0xd0, 0x50, 0x3e, 0x30, 0x00, 0x00, 0x00, 0x73, 0x65, 0x71, 0x75,
  0x65, 0x6e, 0x74, 0x69, 0x61, 0x6c, 0x5f, 0x33, 0x5f, 0x31, 0x2f, 0x63,
  0x6f, 0x6e, 0x76, 0x31, 0x64, 0x5f, 0x36, 0x5f, 0x31, 0x2f, 0x63, 0x6f,
  0x6e, 0x76, 0x6f, 0x6c, 0x75, 0x74, 0x69, 0x6f, 0x6e, 0x2f, 0x45, 0x78,
  0x70, 0x61, 0x6e, 0x64, 0x44, 0x69, 0x6d, 0x73, 0x00, 0x00, 0x00, 0x00,
  0x04, 0x00, 0x00, 0x00, 0x01, 0x00, 0x00, 0x00, 0x01, 0x00, 0x00, 0x00,
  0x15, 0x00, 0x00, 0x00, 0x20, 0x00, 0x00, 0x00, 0x76, 0xfe, 0xff, 0xff,
  0x00, 0x00, 0x00, 0x01, 0x18, 0x00, 0x00, 0x00, 0x24, 0x00, 0x00, 0x00,
  0x44, 0x00, 0x00, 0x00, 0x1c, 0x00, 0x00, 0x00, 0x00, 0x00, 0x00, 0x09,
  0x60, 0x00, 0x00, 0x00, 0x03, 0x00, 0x00, 0x00, 0xff, 0xff, 0xff, 0xff,
  0x15, 0x00, 0x00, 0x00, 0x20, 0x00, 0x00, 0x00, 0x94, 0xf2, 0xff, 0xff,
  0x08, 0x00, 0x00, 0x00, 0x14, 0x00, 0x00, 0x00, 0x01, 0x00, 0x00, 0x00,
  0x7f, 0x00, 0x00, 0x00, 0x00, 0x00, 0x00, 0x00, 0x00, 0x00, 0x00, 0x00,
  0x01, 0x00, 0x00, 0x00, 0xd1, 0xd0, 0x50, 0x3e, 0x22, 0x00, 0x00, 0x00,
  0x73, 0x65, 0x71, 0x75, 0x65, 0x6e, 0x74, 0x69, 0x61, 0x6c, 0x5f, 0x33,
  0x5f, 0x31, 0x2f, 0x72, 0x65, 0x73, 0x68, 0x61, 0x70, 0x65, 0x5f, 0x33,
  0x5f, 0x31, 0x2f, 0x52, 0x65, 0x73, 0x68, 0x61, 0x70, 0x65, 0x00, 0x00,
  0x03, 0x00, 0x00, 0x00, 0x01, 0x00, 0x00, 0x00, 0x15, 0x00, 0x00, 0x00,
  0x20, 0x00, 0x00, 0x00, 0x96, 0xf0, 0xff, 0xff, 0x00, 0x00, 0x00, 0x01,
  0x14, 0x00, 0x00, 0x00, 0x14, 0x00, 0x00, 0x00, 0x1b, 0x00, 0x00, 0x00,
  0x00, 0x00, 0x00, 0x02, 0x38, 0x00, 0x00, 0x00, 0x1c, 0xf0, 0xff, 0xff,
  0x28, 0x00, 0x00, 0x00, 0x73, 0x65, 0x71, 0x75, 0x65, 0x6e, 0x74, 0x69,
  0x61, 0x6c, 0x5f, 0x33, 0x5f, 0x31, 0x2f, 0x72, 0x65, 0x73, 0x68, 0x61,
  0x70, 0x65, 0x5f, 0x33, 0x5f, 0x31, 0x2f, 0x52, 0x65, 0x73, 0x68, 0x61,
  0x70, 0x65, 0x2f, 0x73, 0x68, 0x61, 0x70, 0x65, 0x00, 0x00, 0x00, 0x00,
  0x01, 0x00, 0x00, 0x00, 0x03, 0x00, 0x00, 0x00, 0xee, 0xf0, 0xff, 0xff,
  0x00, 0x00, 0x00, 0x01, 0x14, 0x00, 0x00, 0x00, 0x14, 0x00, 0x00, 0x00,
  0x1a, 0x00, 0x00, 0x00, 0x00, 0x00, 0x00, 0x02, 0x38, 0x00, 0x00, 0x00,
  0x74, 0xf0, 0xff, 0xff, 0x28, 0x00, 0x00, 0x00, 0x73, 0x65, 0x71, 0x75,
  0x65, 0x6e, 0x74, 0x69, 0x61, 0x6c, 0x5f, 0x33, 0x5f, 0x31, 0x2f, 0x72,
  0x65, 0x73, 0x68, 0x61, 0x70, 0x65, 0x5f, 0x33, 0x5f, 0x31, 0x2f, 0x73,
  0x74, 0x72, 0x69, 0x64, 0x65, 0x64, 0x5f, 0x73, 0x6c, 0x69, 0x63, 0x65,
  0x00, 0x00, 0x00, 0x00, 0x00, 0x00, 0x00, 0x00, 0x42, 0xf1, 0xff, 0xff,
  0x00, 0x00, 0x00, 0x01, 0x14, 0x00, 0x00, 0x00, 0x14, 0x00, 0x00, 0x00,
  0x19, 0x00, 0x00, 0x00, 0x00, 0x00, 0x00, 0x02, 0x30, 0x00, 0x00, 0x00,
  0xc8, 0xf0, 0xff, 0xff, 0x20, 0x00, 0x00, 0x00, 0x73, 0x65, 0x71, 0x75,
  0x65, 0x6e, 0x74, 0x69, 0x61, 0x6c, 0x5f, 0x33, 0x5f, 0x31, 0x2f, 0x72,
  0x65, 0x73, 0x68, 0x61, 0x70, 0x65, 0x5f, 0x33, 0x5f, 0x31, 0x2f, 0x53,
  0x68, 0x61, 0x70, 0x65, 0x00, 0x00, 0x00, 0x00, 0x01, 0x00, 0x00, 0x00,
  0x03, 0x00, 0x00, 0x00, 0x00, 0x00, 0x16, 0x00, 0x20, 0x00, 0x1c, 0x00,
  0x1b, 0x00, 0x14, 0x00, 0x10, 0x00, 0x0c, 0x00, 0x00, 0x00, 0x00, 0x00,
  0x08, 0x00, 0x07, 0x00, 0x16, 0x00, 0x00, 0x00, 0x00, 0x00, 0x00, 0x01,
  0x18, 0x00, 0x00, 0x00, 0x24, 0x00, 0x00, 0x00, 0x40, 0x00, 0x00, 0x00,
  0x18, 0x00, 0x00, 0x00, 0x00, 0x00, 0x00, 0x09, 0x48, 0x00, 0x00, 0x00,
  0x03, 0x00, 0x00, 0x00, 0xff, 0xff, 0xff, 0xff, 0x20, 0x00, 0x00, 0x00,
  0x15, 0x00, 0x00, 0x00, 0x34, 0xf4, 0xff, 0xff, 0x08, 0x00, 0x00, 0x00,
  0x10, 0x00, 0x00, 0x00, 0x01, 0x00, 0x00, 0x00, 0x7f, 0x00, 0x00, 0x00,
  0x00, 0x00, 0x00, 0x00, 0x01, 0x00, 0x00, 0x00, 0xd1, 0xd0, 0x50, 0x3e,
  0x0c, 0x00, 0x00, 0x00, 0x74, 0x66, 0x6c, 0x2e, 0x71, 0x75, 0x61, 0x6e,
  0x74, 0x69, 0x7a, 0x65, 0x00, 0x00, 0x00, 0x00, 0x03, 0x00, 0x00, 0x00,
  0x01, 0x00, 0x00, 0x00, 0x20, 0x00, 0x00, 0x00, 0x15, 0x00, 0x00, 0x00,
  0x1e, 0xf2, 0xff, 0xff, 0x00, 0x00, 0x00, 0x01, 0x14, 0x00, 0x00, 0x00,
