unsigned char jarvis0_4_16_tflite[] = {
  0x1c, 0x00, 0x00, 0x00, 0x54, 0x46, 0x4c, 0x33, 0x14, 0x00, 0x20, 0x00,
  0x1c, 0x00, 0x18, 0x00, 0x14, 0x00, 0x10, 0x00, 0x0c, 0x00, 0x00, 0x00,
  0x08, 0x00, 0x04, 0x00, 0x14, 0x00, 0x00, 0x00, 0x1c, 0x00, 0x00, 0x00,
  0x8c, 0x00, 0x00, 0x00, 0x0c, 0x01, 0x00, 0x00, 0xf0, 0x25, 0x00, 0x00,
  0x00, 0x26, 0x00, 0x00, 0xc0, 0x4d, 0x00, 0x00, 0x03, 0x00, 0x00, 0x00,
  0x01, 0x00, 0x00, 0x00, 0x04, 0x00, 0x00, 0x00, 0x96, 0xd5, 0xff, 0xff,
  0x0c, 0x00, 0x00, 0x00, 0x1c, 0x00, 0x00, 0x00, 0x3c, 0x00, 0x00, 0x00,
  0x0f, 0x00, 0x00, 0x00, 0x73, 0x65, 0x72, 0x76, 0x69, 0x6e, 0x67, 0x5f,
  0x64, 0x65, 0x66, 0x61, 0x75, 0x6c, 0x74, 0x00, 0x01, 0x00, 0x00, 0x00,
  0x04, 0x00, 0x00, 0x00, 0x68, 0xff, 0xff, 0xff, 0x2f, 0x00, 0x00, 0x00,
  0x04, 0x00, 0x00, 0x00, 0x08, 0x00, 0x00, 0x00, 0x6f, 0x75, 0x74, 0x70,
  0x75, 0x74, 0x5f, 0x30, 0x00, 0x00, 0x00, 0x00, 0x01, 0x00, 0x00, 0x00,
  0x04, 0x00, 0x00, 0x00, 0x9e, 0xd5, 0xff, 0xff, 0x04, 0x00, 0x00, 0x00,
  0x0d, 0x00, 0x00, 0x00, 0x69, 0x6e, 0x70, 0x75, 0x74, 0x5f, 0x6c, 0x61,
  0x79, 0x65, 0x72, 0x5f, 0x33, 0x00, 0x00, 0x00, 0x03, 0x00, 0x00, 0x00,
  0x5c, 0x00, 0x00, 0x00, 0x2c, 0x00, 0x00, 0x00, 0x04, 0x00, 0x00, 0x00,
  0xb8, 0xff, 0xff, 0xff, 0x33, 0x00, 0x00, 0x00, 0x04, 0x00, 0x00, 0x00,
  0x13, 0x00, 0x00, 0x00, 0x43, 0x4f, 0x4e, 0x56, 0x45, 0x52, 0x53, 0x49,
  0x4f, 0x4e, 0x5f, 0x4d, 0x45, 0x54, 0x41, 0x44, 0x41, 0x54, 0x41, 0x00,
  0xdc, 0xff, 0xff, 0xff, 0x32, 0x00, 0x00, 0x00, 0x04, 0x00, 0x00, 0x00,
  0x13, 0x00, 0x00, 0x00, 0x6d, 0x69, 0x6e, 0x5f, 0x72, 0x75, 0x6e, 0x74,
  0x69, 0x6d, 0x65, 0x5f, 0x76, 0x65, 0x72, 0x73, 0x69, 0x6f, 0x6e, 0x00,
  0x08, 0x00, 0x0c, 0x00, 0x08, 0x00, 0x04, 0x00, 0x08, 0x00, 0x00, 0x00,
  0x31, 0x00, 0x00, 0x00, 0x04, 0x00, 0x00, 0x00, 0x13, 0x00, 0x00, 0x00,
  0x6d, 0x69, 0x6e, 0x5f, 0x72, 0x75, 0x6e, 0x74, 0x69, 0x6d, 0x65, 0x5f,
  0x76, 0x65, 0x72, 0x73, 0x69, 0x6f, 0x6e, 0x00, 0x34, 0x00, 0x00, 0x00,
  0xe0, 0x24, 0x00, 0x00, 0xd8, 0x24, 0x00, 0x00, 0xc4, 0x24, 0x00, 0x00,
  0xb0, 0x24, 0x00, 0x00, 0x9c, 0x24, 0x00, 0x00, 0x88, 0x24, 0x00, 0x00,
  0x74, 0x24, 0x00, 0x00, 0x58, 0x24, 0x00, 0x00, 0x50, 0x24, 0x00, 0x00,
  0x34, 0x24, 0x00, 0x00, 0x18, 0x24, 0x00, 0x00, 0x00, 0x24, 0x00, 0x00,
  0xec, 0x23, 0x00, 0x00, 0xbc, 0x23, 0x00, 0x00, 0x2c, 0x23, 0x00, 0x00,
  0x1c, 0x0f, 0x00, 0x00, 0xec, 0x0e, 0x00, 0x00, 0xbc, 0x0e, 0x00, 0x00,
  0x2c, 0x0e, 0x00, 0x00, 0x1c, 0x08, 0x00, 0x00, 0xfc, 0x07, 0x00, 0x00,
  0xdc, 0x07, 0x00, 0x00, 0x8c, 0x07, 0x00, 0x00, 0x7c, 0x01, 0x00, 0x00,
  0x74, 0x01, 0x00, 0x00, 0x6c, 0x01, 0x00, 0x00, 0x64, 0x01, 0x00, 0x00,
  0x5c, 0x01, 0x00, 0x00, 0x54, 0x01, 0x00, 0x00, 0x4c, 0x01, 0x00, 0x00,
  0x44, 0x01, 0x00, 0x00, 0x3c, 0x01, 0x00, 0x00, 0x34, 0x01, 0x00, 0x00,
  0x2c, 0x01, 0x00, 0x00, 0x24, 0x01, 0x00, 0x00, 0x1c, 0x01, 0x00, 0x00,
  0x14, 0x01, 0x00, 0x00, 0x0c, 0x01, 0x00, 0x00, 0x04, 0x01, 0x00, 0x00,
  0xfc, 0x00, 0x00, 0x00, 0xf4, 0x00, 0x00, 0x00, 0xec, 0x00, 0x00, 0x00,
  0xe4, 0x00, 0x00, 0x00, 0xdc, 0x00, 0x00, 0x00, 0xd4, 0x00, 0x00, 0x00,
  0xcc, 0x00, 0x00, 0x00, 0xc4, 0x00, 0x00, 0x00, 0xbc, 0x00, 0x00, 0x00,
  0xb4, 0x00, 0x00, 0x00, 0x94, 0x00, 0x00, 0x00, 0x74, 0x00, 0x00, 0x00,
  0x04, 0x00, 0x00, 0x00, 0x12, 0xd7, 0xff, 0xff, 0x04, 0x00, 0x00, 0x00,
  0x60, 0x00, 0x00, 0x00, 0x0c, 0x00, 0x00, 0x00, 0x08, 0x00, 0x0e, 0x00,
  0x08, 0x00, 0x04, 0x00, 0x08, 0x00, 0x00, 0x00, 0x10, 0x00, 0x00, 0x00,
  0x28, 0x00, 0x00, 0x00, 0x00, 0x00, 0x06, 0x00, 0x08, 0x00, 0x04, 0x00,
  0x06, 0x00, 0x00, 0x00, 0x04, 0x00, 0x00, 0x00, 0x01, 0x00, 0x00, 0x00,
  0xeb, 0x03, 0x00, 0x00, 0x0c, 0x00, 0x18, 0x00, 0x14, 0x00, 0x10, 0x00,
  0x0c, 0x00, 0x04, 0x00, 0x0c, 0x00, 0x00, 0x00, 0xe7, 0xb1, 0xba, 0xd5,
  0xa0, 0x11, 0xa2, 0x37, 0x02, 0x00, 0x00, 0x00, 0x02, 0x00, 0x00, 0x00,
  0x04, 0x00, 0x00, 0x00, 0x06, 0x00, 0x00, 0x00, 0x32, 0x2e, 0x31, 0x38,
  0x2e, 0x30, 0x00, 0x00, 0x7e, 0xd7, 0xff, 0xff, 0x04, 0x00, 0x00, 0x00,
  0x10, 0x00, 0x00, 0x00, 0x00, 0x00, 0x00, 0x00, 0x00, 0x00, 0x00, 0x00,
  0x00, 0x00, 0x00, 0x00, 0x00, 0x00, 0x00, 0x00, 0x9a, 0xd7, 0xff, 0xff,
  0x04, 0x00, 0x00, 0x00, 0x10, 0x00, 0x00, 0x00, 0x31, 0x2e, 0x31, 0x34,
  0x2e, 0x30, 0x00, 0x00, 0x00, 0x00, 0x00, 0x00, 0x00, 0x00, 0x00, 0x00,
  0xf4, 0xb4, 0xff, 0xff, 0xf8, 0xb4, 0xff, 0xff, 0xfc, 0xb4, 0xff, 0xff,
  0x00, 0xb5, 0xff, 0xff, 0x04, 0xb5, 0xff, 0xff, 0x08, 0xb5, 0xff, 0xff,
  0x0c, 0xb5, 0xff, 0xff, 0x10, 0xb5, 0xff, 0xff, 0x14, 0xb5, 0xff, 0xff,
  0x18, 0xb5, 0xff, 0xff, 0x1c, 0xb5, 0xff, 0xff, 0x20, 0xb5, 0xff, 0xff,
  0x24, 0xb5, 0xff, 0xff, 0x28, 0xb5, 0xff, 0xff, 0x2c, 0xb5, 0xff, 0xff,
  0x30, 0xb5, 0xff, 0xff, 0x34, 0xb5, 0xff, 0xff, 0x38, 0xb5, 0xff, 0xff,
  0x3c, 0xb5, 0xff, 0xff, 0x40, 0xb5, 0xff, 0xff, 0x44, 0xb5, 0xff, 0xff,
  0x48, 0xb5, 0xff, 0xff, 0x4c, 0xb5, 0xff, 0xff, 0x50, 0xb5, 0xff, 0xff,
  0x54, 0xb5, 0xff, 0xff, 0x1a, 0xd8, 0xff, 0xff, 0x04, 0x00, 0x00, 0x00,
  0x00, 0x06, 0x00, 0x00, 0x7f, 0x0b, 0xd6, 0x40, 0xb5, 0xab, 0xfc, 0xd0,
  0x09, 0x38, 0xb3, 0xc4, 0xe3, 0xcb, 0x57, 0x00, 0x23, 0xd7, 0x11, 0x6a,
  0x19, 0x79, 0x05, 0x78, 0xb7, 0x52, 0x4f, 0xa1, 0xfb, 0x99, 0x66, 0x35,
  0x54, 0xbd, 0xf5, 0xf5, 0x1d, 0x3e, 0xc9, 0x60, 0xfa, 0x7c, 0xe3, 0x44,
  0x5a, 0x36, 0xed, 0x6f, 0x3d, 0xfe, 0x8e, 0xb7, 0x92, 0x13, 0x8d, 0xbc,
  0x54, 0x06, 0x15, 0xac, 0xbe, 0x31, 0x74, 0x66, 0x37, 0xbc, 0x11, 0xfc,
  0x0d, 0x8f, 0xf5, 0x9c, 0x1a, 0xe5, 0x40, 0x22, 0xe9, 0xa3, 0xc8, 0xee,
  0x01, 0x1b, 0x5a, 0xb1, 0xc8, 0x04, 0xbc, 0x9e, 0xce, 0x06, 0x92, 0x1c,
  0xa9, 0x2a, 0xcf, 0x2c, 0xfb, 0xdc, 0x31, 0x00, 0x2a, 0x71, 0x37, 0xae,
  0x0a, 0xfb, 0xb9, 0xe7, 0xdd, 0x0d, 0xfd, 0xb6, 0xb4, 0xc3, 0xe9, 0x23,
  0x66, 0xbb, 0x15, 0xe5, 0xaa, 0x50, 0xee, 0xf3, 0xff, 0x4a, 0x8f, 0xf0,
  0x44, 0xac, 0xbf, 0x2a, 0xd7, 0xea, 0xf8, 0x57, 0x1a, 0xde, 0xec, 0xee,
  0xce, 0x99, 0xd5, 0xe4, 0x1a, 0xc9, 0x18, 0xf6, 0xd5, 0x48, 0xff, 0x2a,
  0xac, 0x5c, 0xa7, 0xf7, 0x07, 0xf8, 0x09, 0x81, 0x9c, 0x4e, 0x58, 0x5f,
  0x3f, 0xd1, 0x44, 0x15, 0xd8, 0xb9, 0xfb, 0xf0, 0x2b, 0x00, 0xa6, 0x46,
  0xdc, 0xbe, 0x47, 0x3f, 0x10, 0xca, 0x59, 0x12, 0x32, 0x58, 0xcc, 0x53,
  0xd5, 0x2c, 0x2b, 0x89, 0x97, 0x28, 0xd6, 0xf1, 0x47, 0xde, 0xa4, 0xe4,
  0x2b, 0xf3, 0x69, 0xd0, 0x5d, 0xaa, 0x0d, 0x1d, 0x4a, 0x78, 0x12, 0x79,
  0x0b, 0xf1, 0xe5, 0xed, 0xa2, 0x99, 0xbe, 0xa9, 0x1b, 0x1d, 0xac, 0xea,
  0xd1, 0x0b, 0x38, 0x12, 0x5d, 0x28, 0x7f, 0x5d, 0x35, 0xd6, 0x8f, 0xe6,
  0xa5, 0xbb, 0xe9, 0x5f, 0x87, 0x5d, 0x21, 0x4c, 0x3e, 0x50, 0x3d, 0x17,
  0xa1, 0xfa, 0xab, 0xee, 0x38, 0xff, 0x7b, 0x26, 0x24, 0xc8, 0x28, 0xdb,
  0x6d, 0x0e, 0xc8, 0x55, 0xea, 0xcd, 0xc4, 0x8d, 0x8d, 0x12, 0xd8, 0xcd,
  0xb0, 0x13, 0xc3, 0xba, 0x72, 0xdf, 0x00, 0xe7, 0x53, 0x49, 0x2a, 0x97,
  0xc2, 0x7b, 0x21, 0x2e, 0x38, 0xaa, 0xe5, 0x4b, 0x58, 0xd6, 0xad, 0x92,
  0xf5, 0xde, 0x9e, 0x0d, 0xf5, 0x34, 0xf9, 0xa9, 0xb7, 0x21, 0x62, 0x26,
  0xea, 0xda, 0x47, 0x30, 0x32, 0xd2, 0xdc, 0x2b, 0xe1, 0x31, 0x4c, 0x62,
  0x34, 0xe1, 0xa9, 0x3a, 0xfb, 0x60, 0xf8, 0xe3, 0x7a, 0x4b, 0x63, 0x1d,
  0x97, 0x92, 0x2d, 0x07, 0xc1, 0xaa, 0x01, 0x31, 0x34, 0xa4, 0xe2, 0x0b,
  0xd4, 0xee, 0x9c, 0xad, 0xcc, 0x36, 0x5e, 0xe7, 0x33, 0x38, 0x29, 0x0f,
  0x33, 0x4a, 0x18, 0xa1, 0x09, 0x0e, 0xf0, 0x40, 0xe1, 0xd3, 0x4b, 0x98,
  0xaf, 0x2e, 0x5b, 0x1c, 0x11, 0xf3, 0x81, 0xad, 0x22, 0x8c, 0x98, 0x0a,
  0xea, 0xb7, 0x0d, 0x21, 0x91, 0xde, 0x01, 0x2b, 0xd9, 0xd4, 0x14, 0x6c,
  0xe9, 0xc0, 0x59, 0x90, 0x35, 0xba, 0x2d, 0x65, 0xa2, 0xf6, 0xf8, 0x01,
  0x91, 0xcb, 0xa7, 0x4d, 0x7b, 0x7f, 0x2b, 0xdb, 0x37, 0x56, 0xf4, 0x4d,
  0x04, 0xe7, 0x61, 0x47, 0x53, 0x15, 0xce, 0x50, 0x28, 0x7a, 0x53, 0xd2,
  0xb9, 0x58, 0xee, 0x20, 0xc6, 0x70, 0xc4, 0x20, 0xf7, 0xe0, 0x1f, 0xc1,
  0x1e, 0x22, 0xec, 0x5e, 0xd0, 0x5a, 0x74, 0x6e, 0xe6, 0xdf, 0x59, 0xed,
  0xbb, 0x10, 0x51, 0x93, 0x8d, 0xbd, 0x46, 0xfb, 0x8f, 0x1f, 0x42, 0x07,
  0x52, 0x7a, 0x4e, 0x75, 0x4d, 0xbc, 0xb4, 0x50, 0x6e, 0x1c, 0xac, 0xec,
  0xc2, 0xcc, 0x0e, 0x72, 0x8f, 0xe7, 0x0e, 0x32, 0xb2, 0xdc, 0xca, 0xe5,
  0x54, 0x6f, 0x60, 0xbd, 0x03, 0xfb, 0xa5, 0x8f, 0xbe, 0x64, 0x56, 0x46,
  0xbc, 0xa8, 0x17, 0x20, 0xd5, 0xad, 0xda, 0xf7, 0xee, 0xbc, 0xb2, 0xcf,
  0x20, 0x4a, 0xc4, 0xd6, 0xa1, 0xcb, 0xc9, 0x99, 0xf4, 0x91, 0xa2, 0x43,
  0x65, 0xf3, 0x16, 0x0d, 0xb2, 0xce, 0x3f, 0x57, 0xef, 0xad, 0x35, 0x2e,
  0xad, 0xbe, 0xfd, 0xcd, 0x49, 0x53, 0xe3, 0xc0, 0x25, 0xd6, 0xce, 0x48,
  0x10, 0xcf, 0xe8, 0xd1, 0x22, 0xe9, 0x46, 0x51, 0xd9, 0x1d, 0xc7, 0x29,
  0xf2, 0xc9, 0x97, 0xa5, 0xc3, 0x34, 0x12, 0x5d, 0xf8, 0x6c, 0x7f, 0x41,
  0xe8, 0x9f, 0xb6, 0xde, 0x3a, 0xa3, 0x71, 0x03, 0x05, 0xf5, 0xa3, 0x08,
  0x14, 0x9c, 0xef, 0x43, 0xf3, 0xf7, 0x2d, 0x0c, 0x99, 0xd1, 0x51, 0x91,
  0xb3, 0x15, 0x62, 0x42, 0x52, 0x24, 0xae, 0x2e, 0xff, 0xcb, 0x0a, 0x62,
  0x44, 0x9a, 0x9f, 0x2c, 0xd5, 0x0f, 0xf6, 0xda, 0x3c, 0xd4, 0xb3, 0x12,
  0xe8, 0x0f, 0x7f, 0x42, 0x37, 0x14, 0xad, 0xa1, 0x34, 0xc4, 0xb0, 0x3b,
  0xc7, 0xcb, 0xb1, 0x25, 0x39, 0x39, 0x30, 0xe7, 0xeb, 0xa3, 0x38, 0x4c,
  0xee, 0x0b, 0x39, 0x0a, 0x1e, 0x19, 0x3c, 0xe1, 0xc4, 0xc6, 0x11, 0x99,
  0xd7, 0xb4, 0xec, 0x19, 0x21, 0x18, 0x63, 0x72, 0x28, 0xb3, 0xce, 0x5a,
  0xbc, 0xb4, 0x45, 0x39, 0xdb, 0xbf, 0x81, 0xc0, 0x29, 0x85, 0x90, 0x0c,
  0xbf, 0xbc, 0x15, 0xa6, 0x34, 0x55, 0x77, 0x0c, 0x6a, 0x16, 0x53, 0xd6,
  0x33, 0x98, 0xb3, 0x57, 0xa0, 0x50, 0x0a, 0x05, 0x55, 0x11, 0x8b, 0x4c,
  0x1d, 0x70, 0xb1, 0x32, 0x53, 0xf2, 0x34, 0xa9, 0x4c, 0x1b, 0x5b, 0xa3,
  0x31, 0xc8, 0x8f, 0xe9, 0x8f, 0x56, 0xf6, 0xe7, 0x96, 0xe9, 0xb4, 0x3b,
  0x17, 0x67, 0x30, 0x06, 0x83, 0x2d, 0xb5, 0x64, 0x34, 0x00, 0x40, 0xa8,
  0xbd, 0xe6, 0xf5, 0x4b, 0xde, 0xe7, 0x0b, 0xa1, 0x0c, 0xfc, 0xba, 0xe7,
  0xa6, 0x85, 0x2f, 0x48, 0xf9, 0xf5, 0xdc, 0x16, 0xa8, 0xc8, 0x6d, 0x4a,
  0x3d, 0xed, 0x38, 0x79, 0x15, 0x28, 0x64, 0xec, 0xc3, 0x90, 0x44, 0x92,
  0xe3, 0xe4, 0xdf, 0xe6, 0xa2, 0xdc, 0x1b, 0xc7, 0x19, 0xd6, 0x8c, 0x93,
  0xb0, 0xbe, 0x29, 0xe9, 0xb6, 0x9f, 0x32, 0xbd, 0x70, 0x5f, 0xaa, 0x33,
  0xe1, 0x5a, 0xf4, 0xb8, 0xb3, 0x18, 0x5d, 0x51, 0x5d, 0xe3, 0xee, 0x71,
  0x31, 0xe5, 0x9a, 0x01, 0x64, 0xa1, 0x55, 0xc7, 0x3f, 0xa6, 0x3d, 0xf6,
  0xe4, 0xc6, 0xa1, 0x51, 0xbd, 0x22, 0x4b, 0x69, 0x2d, 0xab, 0x38, 0x34,
  0xdd, 0xfb, 0xca, 0xb7, 0x56, 0xb5, 0xfb, 0xdc, 0xa2, 0x99, 0xc6, 0x15,
  0x50, 0x20, 0x04, 0xb2, 0xef, 0x7f, 0x71, 0xde, 0x34, 0x14, 0xde, 0x5e,
  0xdc, 0x31, 0x6f, 0x25, 0x4e, 0xe2, 0x3b, 0xdf, 0xa3, 0xb9, 0x47, 0x47,
  0x42, 0x6a, 0x37, 0xe3, 0x0d, 0x96, 0xd7, 0xb2, 0x9c, 0x2e, 0xff, 0xa6,
  0xc1, 0xc0, 0xc5, 0x15, 0x2b, 0xfb, 0x8b, 0x45, 0xc3, 0xee, 0xd6, 0xd7,
  0x56, 0xc2, 0xb9, 0x5a, 0x68, 0x65, 0xdb, 0xd0, 0xce, 0xe4, 0xdd, 0x1a,
  0x32, 0x06, 0xbc, 0x40, 0x01, 0xe6, 0x3c, 0x29, 0xfb, 0xfd, 0xa3, 0xb6,
  0x07, 0xa7, 0x1f, 0xf2, 0x61, 0xa9, 0xe6, 0xe1, 0xdf, 0xdb, 0xbc, 0x33,
  0x44, 0xd9, 0xaf, 0x79, 0x2a, 0x25, 0x45, 0x8d, 0xeb, 0x96, 0xef, 0xd5,
  0x0e, 0xa6, 0x2d, 0xa1, 0x2c, 0xec, 0x3f, 0x5d, 0xb8, 0xd5, 0xb6, 0xd8,
  0xf5, 0x58, 0x7f, 0xda, 0xaa, 0x41, 0x2d, 0x22, 0xb5, 0x01, 0x58, 0x11,
  0xf7, 0xbe, 0x47, 0x36, 0xa9, 0xfe, 0x23, 0xa6, 0x3d, 0xf0, 0x09, 0x12,
  0xe9, 0x17, 0x44, 0x3a, 0xc7, 0x81, 0xa0, 0xd5, 0xca, 0x5e, 0xcf, 0x18,
  0x6f, 0xd8, 0x9d, 0x16, 0x2d, 0xe6, 0xea, 0xe8, 0xdc, 0xe3, 0x55, 0xf6,
  0xf2, 0x5d, 0x30, 0xdc, 0xbe, 0xdc, 0x45, 0xae, 0x05, 0xec, 0xc7, 0x3f,
  0xa0, 0xa1, 0x70, 0x1e, 0xd9, 0xbd, 0x6b, 0xaa, 0x68, 0x21, 0x99, 0xd2,
  0xc0, 0x96, 0x4d, 0xc1, 0xb7, 0xf9, 0x8f, 0x35, 0x99, 0xc8, 0xd0, 0xb8,
  0x30, 0x1b, 0x44, 0x3a, 0x22, 0xf5, 0xf1, 0xdb, 0xad, 0xda, 0xe6, 0x28,
  0x37, 0xae, 0x9d, 0xf3, 0x99, 0x0e, 0xe2, 0xd8, 0xa5, 0x36, 0xaf, 0xe2,
  0x4b, 0x60, 0x16, 0xef, 0xcf, 0x27, 0x92, 0xd1, 0xaa, 0x6d, 0x3c, 0xc7,
  0x07, 0xbb, 0xe9, 0xaa, 0xfb, 0xa5, 0x2c, 0xc8, 0xa5, 0xfc, 0xd1, 0xe8,
  0x2c, 0xe9, 0x52, 0xbd, 0x30, 0xb9, 0xc4, 0x14, 0x78, 0xbd, 0xe2, 0xd1,
  0xcf, 0x4a, 0x65, 0x02, 0x27, 0xcc, 0x8f, 0x02, 0x3a, 0xf5, 0xe4, 0xa6,
  0xe1, 0x2b, 0xe9, 0xe7, 0x68, 0x2f, 0x69, 0x8c, 0x0f, 0x3a, 0x2a, 0x53,
  0x9f, 0xe1, 0xdd, 0xb1, 0xcf, 0x89, 0xed, 0xea, 0x09, 0x56, 0xbe, 0xc6,
  0x5a, 0xdb, 0xd0, 0xe3, 0xf9, 0x60, 0xa4, 0x6a, 0x3b, 0x7f, 0xff, 0x6a,
  0xad, 0x4c, 0x6d, 0x49, 0x6e, 0xe4, 0x8d, 0x8f, 0x04, 0x9d, 0x4f, 0x63,
  0x5c, 0xfb, 0xe0, 0x0b, 0x8d, 0xe9, 0x18, 0x4a, 0xcc, 0x87, 0x13, 0x48,
  0x14, 0x5b, 0xaf, 0x21, 0xd0, 0xce, 0x9d, 0x3a, 0x64, 0xe1, 0x38, 0x08,
  0x4c, 0xfa, 0xf9, 0xa3, 0x37, 0x44, 0x03, 0xd2, 0xf9, 0x3d, 0x46, 0xbb,
  0xde, 0x07, 0x8d, 0xd9, 0x6a, 0xa8, 0x86, 0x8e, 0x1b, 0xa3, 0xf4, 0x59,
  0xd8, 0xd7, 0x49, 0xb1, 0xce, 0x38, 0x1b, 0x7f, 0x21, 0x45, 0xdb, 0x82,
  0x11, 0x81, 0x27, 0x5e, 0xcd, 0x8f, 0xd5, 0x20, 0xce, 0x1d, 0x5b, 0x05,
  0xca, 0xaf, 0xfe, 0xc9, 0x34, 0xb6, 0x87, 0x11, 0x1c, 0x48, 0x4b, 0xcd,
  0x00, 0xd9, 0xf2, 0x02, 0xa3, 0x5d, 0x4b, 0xfe, 0xa5, 0xf3, 0xe7, 0x1c,
  0xf7, 0x99, 0xae, 0x9c, 0x87, 0xee, 0x46, 0xf3, 0xea, 0x14, 0xca, 0x74,
  0xe1, 0x25, 0xe1, 0xdd, 0xaf, 0xa6, 0xf2, 0x5e, 0x11, 0x81, 0xb7, 0xfb,
  0x07, 0x39, 0xa1, 0x4d, 0xeb, 0x89, 0x6a, 0x7a, 0x2e, 0xda, 0xb2, 0xa1,
  0xd4, 0x77, 0x66, 0xd0, 0x21, 0xb7, 0xb3, 0xce, 0xec, 0x53, 0x96, 0x39,
  0x53, 0x67, 0x01, 0xf0, 0x77, 0xfa, 0x2d, 0x24, 0x57, 0x8b, 0x67, 0xb5,
  0x49, 0xd7, 0xc0, 0x47, 0x9a, 0x21, 0x21, 0xe8, 0xfc, 0xb2, 0xf9, 0x93,
  0xb8, 0x09, 0x71, 0x5a, 0xcf, 0x26, 0xe9, 0xae, 0x44, 0x61, 0xfd, 0xea,
  0x4b, 0x24, 0xe7, 0xc4, 0x3d, 0xe8, 0xfa, 0x2b, 0x46, 0xe7, 0x46, 0xd5,
  0xc7, 0xbb, 0xf4, 0xe5, 0xad, 0xe7, 0xce, 0xbc, 0x24, 0xbc, 0xe8, 0x81,
  0xe5, 0xb6, 0xe7, 0x09, 0xc5, 0xed, 0x08, 0x37, 0xd6, 0x54, 0xba, 0xb7,
  0xad, 0xd2, 0x44, 0xab, 0x2d, 0x02, 0xa9, 0x58, 0xa4, 0x45, 0xc8, 0xf5,
  0xaf, 0x5e, 0xb1, 0x3f, 0x6c, 0xf0, 0x76, 0x70, 0x70, 0x2c, 0x20, 0x5a,
  0x9b, 0xa7, 0xbf, 0xff, 0xa8, 0x46, 0xba, 0x33, 0x40, 0x21, 0x6b, 0xb2,
  0x6e, 0xfe, 0x1f, 0xc7, 0x74, 0x39, 0x43, 0x61, 0x61, 0x2c, 0xb0, 0xb5,
  0xa2, 0xa6, 0x95, 0xab, 0x94, 0x5a, 0x31, 0x53, 0x04, 0x10, 0x0f, 0x3a,
  0xc6, 0x69, 0x17, 0xfc, 0x49, 0x98, 0x86, 0xf4, 0xcf, 0xcd, 0xdf, 0x0c,
  0xdc, 0x23, 0x37, 0x37, 0x44, 0x50, 0x0e, 0x03, 0xec, 0x9d, 0x40, 0xca,
  0x5a, 0x99, 0x35, 0x81, 0xb9, 0x5c, 0xdc, 0x6b, 0x07, 0xef, 0xfb, 0xd1,
  0xf3, 0x3c, 0x0d, 0x95, 0x42, 0xa9, 0xd2, 0xcc, 0x8d, 0x9e, 0xee, 0x06,
  0x5d, 0x09, 0x49, 0x35, 0x57, 0x30, 0xfe, 0x4e, 0xc3, 0xd0, 0xb2, 0x13,
  0x67, 0xc3, 0x43, 0xe9, 0x43, 0x17, 0x61, 0x0f, 0xb8, 0xa2, 0x5a, 0x9e,
  0x1d, 0x17, 0xda, 0x4d, 0x01, 0x5c, 0x67, 0x4a, 0xad, 0xb5, 0x90, 0xa3,
  0x86, 0x90, 0x2a, 0xeb, 0x67, 0x32, 0xba, 0xd4, 0x04, 0x53, 0xb0, 0x1d,
  0xe7, 0xd6, 0x5b, 0x65, 0x26, 0xde, 0xff, 0xff, 0x04, 0x00, 0x00, 0x00,
  0x40, 0x00, 0x00, 0x00, 0x8b, 0xff, 0xff, 0xff, 0x0e, 0x00, 0x00, 0x00,
  0x5f, 0x00, 0x00, 0x00, 0x3d, 0x00, 0x00, 0x00, 0xea, 0xff, 0xff, 0xff,
  0xac, 0xfe, 0xff, 0xff, 0x28, 0x00, 0x00, 0x00, 0x7a, 0x00, 0x00, 0x00,
  0x19, 0x00, 0x00, 0x00, 0xc0, 0x00, 0x00, 0x00, 0xf3, 0xfd, 0xff, 0xff,
  0xa3, 0xff, 0xff, 0xff, 0x21, 0x00, 0x00, 0x00, 0x0c, 0x00, 0x00, 0x00,
  0x62, 0x00, 0x00, 0x00, 0x24, 0x00, 0x00, 0x00, 0x72, 0xde, 0xff, 0xff,
  0x04, 0x00, 0x00, 0x00, 0x10, 0x00, 0x00, 0x00, 0x81, 0x81, 0x82, 0x81,
  0x7f, 0x80, 0x81, 0x81, 0x81, 0x81, 0x81, 0x81, 0x81, 0x81, 0x81, 0x81,
  0x8e, 0xde, 0xff, 0xff, 0x04, 0x00, 0x00, 0x00, 0x10, 0x00, 0x00, 0x00,
  0x54, 0xfb, 0x1a, 0x1d, 0x7f, 0x80, 0x32, 0x05, 0x0f, 0xc8, 0xa7, 0xdf,
  0xc4, 0xfd, 0x30, 0x2d, 0xaa, 0xde, 0xff, 0xff, 0x04, 0x00, 0x00, 0x00,
  0x00, 0x06, 0x00, 0x00, 0x22, 0x4e, 0x5a, 0x19, 0xcb, 0x2c, 0xd3, 0x03,
  0xa7, 0x95, 0xb2, 0x0c, 0xdc, 0xc8, 0xef, 0xbd, 0xa8, 0x57, 0x16, 0x3c,
  0xc6, 0x2a, 0xf3, 0x6d, 0x2c, 0xb8, 0x23, 0x20, 0xf6, 0x81, 0x8b, 0xdc,
  0x17, 0x7b, 0xbd, 0xe0, 0x65, 0x34, 0xe5, 0xc1, 0x20, 0x56, 0x49, 0xcf,
  0xab, 0xdf, 0x12, 0xa3, 0xee, 0xe9, 0xc9, 0x1f, 0x85, 0xfe, 0x4a, 0xad,
  0x31, 0x34, 0xf0, 0xad, 0x2d, 0x19, 0xfa, 0xa0, 0xe8, 0x37, 0x59, 0xb9,
  0xc0, 0xd9, 0xd4, 0x22, 0x21, 0xa3, 0x5b, 0xc7, 0x85, 0xbf, 0x61, 0x4c,
  0x10, 0x0e, 0x62, 0x63, 0x73, 0xab, 0xbc, 0x36, 0x08, 0x10, 0xfa, 0xea,
  0xca, 0xd0, 0xba, 0x81, 0x64, 0xc0, 0x0a, 0xfb, 0x22, 0xe6, 0xe4, 0x3c,
  0xdc, 0xfa, 0x52, 0x0e, 0x48, 0xa0, 0x62, 0xd3, 0xd3, 0x58, 0x44, 0xa9,
  0xef, 0xac, 0xea, 0x2c, 0x13, 0xde, 0xcf, 0xa9, 0xa9, 0x19, 0x64, 0xe8,
  0xd6, 0x34, 0xa8, 0xb9, 0x2a, 0x49, 0xe3, 0x0c, 0x71, 0xef, 0xaf, 0xa2,
  0x5d, 0x39, 0x81, 0x3d, 0xf2, 0xcb, 0x15, 0x81, 0xaa, 0x56, 0xea, 0x53,
  0x4d, 0xbf, 0x55, 0xfc, 0xff, 0xfd, 0x5a, 0x43, 0xb2, 0x37, 0xe9, 0xdb,
  0x21, 0x97, 0x11, 0x19, 0x1a, 0xf5, 0x93, 0x06, 0xd4, 0xc6, 0x26, 0x21,
  0x24, 0x1e, 0x75, 0x5f, 0xec, 0x81, 0xf6, 0x2f, 0xd3, 0x7a, 0xa1, 0xb9,
  0xf4, 0x7f, 0xd3, 0xe7, 0x98, 0x49, 0x9d, 0x4b, 0xeb, 0x1c, 0xc7, 0x18,
  0x77, 0x8e, 0x1b, 0x79, 0x5d, 0xf4, 0x40, 0xcc, 0x17, 0x8f, 0x81, 0x8f,
  0x5a, 0x5d, 0xca, 0x4c, 0x0f, 0x46, 0xd8, 0xec, 0xa1, 0x18, 0xc7, 0x23,
  0x5f, 0x01, 0xa4, 0xb6, 0x10, 0xdd, 0xe4, 0x12, 0x4d, 0x1a, 0xbb, 0xb5,
  0xa5, 0xad, 0x3f, 0xdd, 0x46, 0xca, 0x1d, 0x33, 0x38, 0x3d, 0xee, 0x94,
  0x18, 0x5a, 0xe8, 0xc7, 0x32, 0xc5, 0x48, 0xf1, 0xfc, 0xff, 0xbc, 0xb9,
  0x9f, 0xd6, 0xde, 0x4a, 0x03, 0xa3, 0xf9, 0x96, 0x0b, 0x6d, 0x6c, 0xab,
  0xd1, 0xa9, 0x0b, 0x73, 0x81, 0x39, 0xee, 0xba, 0x08, 0x96, 0x06, 0x75,
  0x3f, 0xf8, 0x1e, 0xc4, 0x6c, 0x14, 0x33, 0x31, 0x9a, 0x09, 0x9d, 0xd1,
  0xad, 0xc2, 0xd2, 0x00, 0x5b, 0x72, 0x81, 0xab, 0xb2, 0x54, 0xba, 0xbf,
  0xe2, 0xd5, 0xcb, 0xc1, 0x4c, 0xf9, 0xe9, 0x43, 0x4d, 0x1b, 0x24, 0x1e,
  0xb1, 0xfa, 0x91, 0x04, 0x5d, 0x19, 0x1e, 0xb3, 0xd8, 0x47, 0xa0, 0xa4,
  0x71, 0xd4, 0x6e, 0x4b, 0x54, 0xf5, 0xc3, 0xf8, 0x4e, 0xcb, 0xef, 0xdb,
  0x15, 0x5c, 0x3c, 0x49, 0x9f, 0xd0, 0xb2, 0x7e, 0x1c, 0x0a, 0x16, 0x06,
  0xeb, 0x52, 0x2c, 0x9d, 0x37, 0x77, 0xce, 0xfc, 0xad, 0x66, 0x59, 0x5c,
  0x63, 0xc8, 0x0a, 0xa7, 0x81, 0xce, 0x09, 0xb3, 0xd4, 0xde, 0x58, 0xdb,
  0x99, 0x56, 0x1d, 0x14, 0xde, 0xef, 0x5b, 0xee, 0xe6, 0x1a, 0x3e, 0xd1,
  0xd7, 0xd9, 0x3e, 0x1e, 0xd0, 0x38, 0x35, 0x2b, 0x29, 0xb0, 0xbf, 0x7f,
  0x29, 0xa8, 0xe1, 0xe6, 0x53, 0xf6, 0xcc, 0xb4, 0x38, 0x31, 0x12, 0x54,
  0x40, 0x5d, 0xee, 0x36, 0xdf, 0x34, 0xdd, 0xba, 0x1f, 0x4d, 0x48, 0xb8,
  0x28, 0x39, 0xf0, 0xdf, 0x67, 0x42, 0x81, 0x97, 0xe8, 0x3a, 0x38, 0x51,
  0xc2, 0xd8, 0x16, 0x10, 0xd6, 0x8a, 0xff, 0x4d, 0x05, 0xb3, 0xdf, 0xca,
  0x12, 0x72, 0x4b, 0xbb, 0x75, 0xeb, 0x2d, 0xd6, 0xae, 0x44, 0x45, 0x07,
  0x5d, 0x25, 0xea, 0x4e, 0xeb, 0xa7, 0x21, 0x14, 0xc6, 0xc8, 0x41, 0x8e,
  0xad, 0x20, 0xb7, 0xab, 0x59, 0x94, 0x15, 0x3a, 0xe6, 0x92, 0x02, 0x98,
  0x8d, 0xdc, 0x3f, 0xb7, 0x0f, 0x51, 0x68, 0x9b, 0x59, 0xca, 0x42, 0xb4,
  0x45, 0x00, 0xa9, 0x9f, 0x38, 0x11, 0xf7, 0x88, 0xf3, 0xce, 0x0c, 0x71,
  0xf8, 0x1c, 0xd2, 0x41, 0xad, 0x7c, 0x73, 0x5b, 0x09, 0x57, 0x2c, 0x8f,
  0xb9, 0x43, 0x08, 0x81, 0x33, 0x61, 0xcb, 0x8c, 0x36, 0x2d, 0x00, 0x15,
  0x75, 0x39, 0x6c, 0xac, 0xe1, 0x25, 0x81, 0x05, 0x4e, 0xa4, 0x14, 0xab,
  0x26, 0x7d, 0x58, 0x5b, 0x70, 0x15, 0x27, 0x8d, 0xe7, 0x38, 0xcf, 0x62,
  0x47, 0x9d, 0x3e, 0x10, 0x2e, 0x24, 0xcd, 0xad, 0x0e, 0xca, 0x14, 0xb9,
  0xbc, 0x8d, 0x2f, 0x70, 0xb9, 0x4a, 0xcb, 0x81, 0x35, 0x49, 0x27, 0xf1,
  0xe5, 0xd3, 0xe9, 0xac, 0x0d, 0x2c, 0x9c, 0x05, 0xd6, 0x2b, 0x96, 0x94,
  0x14, 0x2e, 0x70, 0x37, 0x07, 0xf9, 0x77, 0xf2, 0x3f, 0xef, 0x04, 0x34,
  0xba, 0x0b, 0xf0, 0xf2, 0x0a, 0xc1, 0x47, 0xc2, 0xa9, 0xed, 0xa3, 0x13,
  0x5f, 0x8d, 0xc0, 0x0a, 0x1b, 0x0d, 0xd0, 0x08, 0x56, 0x09, 0xf9, 0xf6,
  0xbd, 0x40, 0x1b, 0x38, 0xc8, 0x7f, 0x14, 0xe6, 0xe9, 0x19, 0x59, 0x11,
  0x29, 0xa2, 0xf6, 0xa7, 0xa9, 0x16, 0x97, 0xfb, 0xac, 0x7d, 0x40, 0xf8,
  0xec, 0x57, 0x51, 0x02, 0x90, 0x70, 0xb8, 0xce, 0xc8, 0xac, 0xb2, 0xe5,
  0xa1, 0xf5, 0xdb, 0x3f, 0xf6, 0x15, 0xa1, 0x03, 0xc2, 0xfd, 0x57, 0x43,
  0xae, 0x2e, 0xd7, 0xc4, 0x2d, 0xb7, 0x1b, 0x11, 0x2f, 0x3a, 0xc9, 0x1b,
  0x81, 0xe3, 0x17, 0x1c, 0x53, 0xd8, 0x12, 0xd7, 0xcc, 0x34, 0xb0, 0x37,
  0x52, 0xf2, 0xcd, 0xcb, 0x1e, 0xd9, 0xec, 0xe6, 0x40, 0xcb, 0xbc, 0x3e,
  0x1b, 0xf0, 0xbf, 0xb8, 0x2a, 0xc8, 0x81, 0xba, 0xf5, 0xe0, 0x40, 0xd9,
  0x21, 0x36, 0x01, 0xc7, 0x54, 0xf9, 0xc0, 0xde, 0xc7, 0x2d, 0x08, 0xec,
  0x0d, 0xbd, 0x6f, 0x0e, 0x47, 0xa5, 0x57, 0x4d, 0x1b, 0x02, 0x25, 0xab,
  0x3b, 0x7e, 0x44, 0x40, 0x5f, 0xdc, 0xbb, 0x5a, 0xbc, 0xe6, 0xa6, 0xcb,
  0xf8, 0xee, 0xdf, 0xca, 0x2c, 0xe8, 0xb5, 0x1e, 0xb9, 0x6a, 0xf9, 0x55,
  0x23, 0x57, 0xd2, 0x21, 0x56, 0x16, 0x24, 0xc4, 0xd6, 0xa6, 0xc1, 0x6b,
  0x6a, 0x9b, 0xbc, 0x81, 0xda, 0xad, 0x39, 0xf4, 0xc7, 0x9b, 0x8a, 0xc5,
  0x45, 0x89, 0x2b, 0xfa, 0xca, 0x10, 0x1a, 0x17, 0x40, 0x2d, 0x73, 0x38,
  0x1f, 0x21, 0x18, 0xe0, 0x3f, 0x58, 0xfd, 0x04, 0xf1, 0x41, 0x60, 0xa6,
  0x2b, 0x35, 0xa6, 0x0e, 0xd4, 0x50, 0x3c, 0x0a, 0x32, 0x82, 0x0e, 0xbf,
  0x32, 0x3b, 0x39, 0x4a, 0x3c, 0x45, 0x70, 0xb6, 0xc5, 0x24, 0xba, 0x19,
  0xf7, 0x0a, 0xa9, 0xd1, 0xad, 0x98, 0x9a, 0xee, 0x81, 0x00, 0x13, 0xd2,
  0x32, 0x17, 0xad, 0x11, 0x20, 0xf0, 0x30, 0x4e, 0x96, 0xa6, 0xcf, 0x09,
  0xf6, 0x56, 0x38, 0xcc, 0x1b, 0x22, 0x56, 0x39, 0x8a, 0xd7, 0x35, 0x60,
  0x1b, 0x83, 0xfe, 0x21, 0xc3, 0xa7, 0xa6, 0xf4, 0xaa, 0x47, 0x64, 0xf7,
  0x67, 0xbc, 0x55, 0xd9, 0x5d, 0x81, 0x79, 0x08, 0xc0, 0xf3, 0xfb, 0xf1,
  0x50, 0x0c, 0x92, 0x29, 0x4a, 0x9f, 0x1c, 0x33, 0x19, 0x3b, 0x28, 0x52,
  0xee, 0x4a, 0xfb, 0x93, 0x26, 0x3a, 0x69, 0x46, 0xd6, 0x37, 0x13, 0x3d,
  0xaf, 0xf6, 0x03, 0xbe, 0xfb, 0x59, 0xaf, 0xe9, 0xd0, 0x47, 0x15, 0x07,
  0x64, 0xcf, 0xbe, 0x7f, 0xf1, 0xeb, 0x3c, 0x06, 0x05, 0x7f, 0xeb, 0x44,
  0xcb, 0xb5, 0x9b, 0xe3, 0x28, 0x22, 0x44, 0x67, 0xa5, 0x56, 0xd9, 0x39,
  0x13, 0xc4, 0xb0, 0x0a, 0x99, 0xde, 0xd3, 0x21, 0x2c, 0xa5, 0x69, 0x7e,
  0xbb, 0xa7, 0xd8, 0x3f, 0xef, 0x46, 0x9b, 0xf4, 0x64, 0xc3, 0xb8, 0x5d,
  0x92, 0x71, 0xa8, 0xb5, 0x81, 0x0f, 0x12, 0xb2, 0x0b, 0xac, 0x6c, 0x0e,
  0xa7, 0x1d, 0x07, 0xfd, 0x26, 0xd0, 0x46, 0x25, 0x94, 0x20, 0x67, 0xcf,
  0x1f, 0x77, 0xc0, 0xa5, 0x33, 0x98, 0x5e, 0x4f, 0x64, 0x4a, 0xbf, 0x52,
  0x20, 0xcf, 0xff, 0x1c, 0xd0, 0xd7, 0xc9, 0xf9, 0x9d, 0x7f, 0x28, 0x17,
  0x5c, 0x9b, 0x71, 0x3a, 0x60, 0xeb, 0xb6, 0x67, 0x8d, 0xf9, 0x0d, 0x75,
  0x47, 0xa4, 0xd6, 0xcf, 0xd6, 0x4c, 0xe3, 0x41, 0x1d, 0x2f, 0xf4, 0x26,
  0xd3, 0xc1, 0x0f, 0xaa, 0xdd, 0x17, 0x19, 0xba, 0x18, 0x21, 0x4d, 0x44,
  0x44, 0xc3, 0xe6, 0xde, 0xac, 0xb3, 0x54, 0x21, 0x95, 0xc1, 0xe0, 0xa3,
  0x39, 0xb3, 0x34, 0xe0, 0xbf, 0x3c, 0x29, 0x1a, 0xbc, 0x5c, 0x7f, 0xf4,
  0x53, 0xe3, 0xbf, 0x34, 0x05, 0x01, 0xa6, 0x1c, 0xdb, 0xbf, 0xf5, 0xef,
  0xa4, 0x45, 0x26, 0x2c, 0x18, 0x31, 0x47, 0xf0, 0xf7, 0x62, 0xfa, 0x3f,
  0x0e, 0x5a, 0xf0, 0xd9, 0xc6, 0xdd, 0x36, 0xf9, 0x2e, 0x2b, 0x58, 0xe8,
  0x7f, 0x27, 0xd6, 0xd8, 0x2d, 0x52, 0xa6, 0x49, 0x47, 0x2d, 0xf5, 0xba,
  0x13, 0x5e, 0xf9, 0x12, 0x3a, 0x74, 0x17, 0x39, 0xa9, 0xeb, 0x29, 0x83,
  0x48, 0x6c, 0x08, 0x32, 0x59, 0x1b, 0x26, 0x03, 0xbb, 0x2b, 0xd4, 0x8c,
  0x28, 0xe2, 0x6a, 0x7f, 0x63, 0xe2, 0x13, 0x16, 0xe5, 0x3a, 0x51, 0x53,
  0x27, 0xcf, 0x34, 0xe8, 0x50, 0xab, 0xbb, 0x1f, 0x8e, 0xf1, 0x17, 0x94,
  0x4c, 0x21, 0xba, 0x21, 0x5a, 0xb8, 0x4b, 0x26, 0x44, 0xd8, 0x6e, 0x68,
  0x19, 0xe9, 0xf1, 0xc3, 0x05, 0xe2, 0x5a, 0x6f, 0x3b, 0xa0, 0xa5, 0x5d,
  0xbf, 0x52, 0xba, 0xe4, 0xa5, 0xf5, 0xe9, 0x11, 0x63, 0x06, 0xe8, 0x0f,
  0xf1, 0xf3, 0x95, 0x3c, 0x81, 0x2b, 0xd8, 0x12, 0xab, 0xbc, 0xb1, 0x59,
  0x59, 0xe3, 0xfb, 0xed, 0xd5, 0xa3, 0x8b, 0xbf, 0xbf, 0xec, 0x16, 0xea,
  0xd6, 0x0c, 0x4d, 0x02, 0x73, 0x8c, 0x39, 0x22, 0xfc, 0x57, 0x4e, 0xc7,
  0xa3, 0xb9, 0x39, 0x1b, 0x4b, 0xba, 0xf1, 0x7f, 0x47, 0xdb, 0x68, 0x6c,
  0xaf, 0x23, 0xe9, 0xd1, 0xf5, 0x2d, 0xd6, 0xd4, 0xe3, 0xb2, 0x4a, 0x45,
  0xaf, 0xef, 0x44, 0x14, 0x21, 0x06, 0x56, 0x12, 0x81, 0xca, 0xd8, 0xc9,
  0x37, 0x0a, 0xd5, 0x56, 0xe4, 0xc1, 0x0a, 0x85, 0x1f, 0xf8, 0x4f, 0x50,
  0xfe, 0x03, 0xc9, 0x45, 0x1d, 0x20, 0xbf, 0x08, 0x2b, 0x2c, 0xf9, 0x30,
  0xa6, 0xff, 0xc0, 0x05, 0x00, 0x21, 0xcd, 0x16, 0x35, 0x1f, 0x76, 0x07,
  0x27, 0xe5, 0xf1, 0xe7, 0xd3, 0x81, 0x60, 0x43, 0xab, 0x48, 0xf4, 0x34,
  0x5a, 0x06, 0xc9, 0x12, 0x03, 0x46, 0xad, 0x91, 0x1a, 0xe3, 0x87, 0x8e,
  0xa4, 0xce, 0x86, 0x95, 0x4f, 0x4a, 0xae, 0x16, 0xce, 0xe4, 0xab, 0xb7,
  0x06, 0xd2, 0x11, 0x1d, 0xfc, 0x21, 0xda, 0xd2, 0x2b, 0x53, 0xbd, 0x16,
  0x52, 0x4a, 0xa0, 0x1f, 0xf0, 0xf2, 0xf1, 0xa3, 0xbc, 0x4c, 0x48, 0xe3,
  0x27, 0xff, 0x0e, 0x39, 0x64, 0x55, 0x5b, 0x0c, 0xca, 0x81, 0xc2, 0xb8,
  0xe0, 0x0c, 0x49, 0x9c, 0x4b, 0x99, 0xa1, 0xf5, 0xf0, 0xc8, 0x22, 0x3a,
  0xf3, 0x05, 0xef, 0x70, 0x59, 0x27, 0xe9, 0x2b, 0xb8, 0x2c, 0xfa, 0xe0,
  0x9d, 0x92, 0xa5, 0x27, 0xf6, 0xf4, 0x2e, 0x41, 0x40, 0x1b, 0xaa, 0xc3,
  0x05, 0x22, 0x50, 0x0c, 0x3c, 0xad, 0xb5, 0xa8, 0xd5, 0xde, 0xdd, 0x15,
  0xe0, 0x71, 0xc2, 0x81, 0xdd, 0x19, 0x4c, 0x39, 0x48, 0x45, 0x45, 0x23,
  0x39, 0x39, 0x4b, 0x04, 0x05, 0xf8, 0xfe, 0xb9, 0x02, 0xe2, 0x09, 0xf0,
  0xca, 0xa4, 0x34, 0xa5, 0xf5, 0x02, 0x1e, 0x4b, 0x1b, 0x78, 0x3c, 0x1d,
  0x31, 0xc4, 0xe4, 0xb6, 0x25, 0xfe, 0x7f, 0x14, 0x12, 0x12, 0xab, 0x11,
  0xe2, 0xfd, 0x17, 0x1e, 0x3c, 0xdd, 0x48, 0x3d, 0x05, 0x4f, 0x06, 0xa8,
  0xaa, 0xd9, 0x2e, 0xe3, 0x9c, 0xb2, 0xbd, 0xb4, 0xf5, 0xad, 0xee, 0xf3,
  0xde, 0x20, 0xab, 0xd9, 0xb6, 0xe4, 0xff, 0xff, 0x04, 0x00, 0x00, 0x00,
  0x80, 0x00, 0x00, 0x00, 0x18, 0x00, 0x00, 0x00, 0x0a, 0x00, 0x00, 0x00,
  0xeb, 0xff, 0xff, 0xff, 0xc8, 0xff, 0xff, 0xff, 0x21, 0x00, 0x00, 0x00,
  0x7f, 0xff, 0xff, 0xff, 0x7b, 0x00, 0x00, 0x00, 0xc9, 0xff, 0xff, 0xff,
  0xed, 0xff, 0xff, 0xff, 0x87, 0xff, 0xff, 0xff, 0x20, 0x00, 0x00, 0x00,
  0xe4, 0xff, 0xff, 0xff, 0xa9, 0xff, 0xff, 0xff, 0x86, 0xff, 0xff, 0xff,
  0x34, 0xff, 0xff, 0xff, 0x82, 0xff, 0xff, 0xff, 0x3c, 0x00, 0x00, 0x00,
  0xe1, 0xff, 0xff, 0xff, 0x7d, 0xff, 0xff, 0xff, 0x97, 0xff, 0xff, 0xff,
  0xb0, 0xff, 0xff, 0xff, 0xc7, 0xff, 0xff, 0xff, 0xbb, 0xff, 0xff, 0xff,
  0x42, 0x00, 0x00, 0x00, 0xad, 0xff, 0xff, 0xff, 0x3a, 0xff, 0xff, 0xff,
  0xca, 0xff, 0xff, 0xff, 0xc6, 0xff, 0xff, 0xff, 0xdc, 0xff, 0xff, 0xff,
  0x8e, 0xff, 0xff, 0xff, 0x4c, 0xff, 0xff, 0xff, 0x10, 0x00, 0x00, 0x00,
  0x42, 0xe5, 0xff, 0xff, 0x04, 0x00, 0x00, 0x00, 0x20, 0x00, 0x00, 0x00,
  0x66, 0x17, 0x09, 0x08, 0x3c, 0x7f, 0x46, 0xc9, 0xc4, 0x18, 0x06, 0xd3,
  0x2c, 0x2d, 0x2d, 0x49, 0x43, 0x2b, 0xfa, 0xcb, 0x1d, 0xd4, 0x37, 0xd4,
  0xd8, 0xf1, 0x10, 0xfe, 0x6b, 0x22, 0x05, 0x46, 0x6e, 0xe5, 0xff, 0xff,
  0x04, 0x00, 0x00, 0x00, 0x20, 0x00, 0x00, 0x00, 0x0a, 0x0e, 0xd8, 0xcd,
  0x20, 0x13, 0xfa, 0xec, 0xdf, 0xff, 0xfb, 0xd7, 0x02, 0x18, 0x0f, 0x0d,
  0x10, 0xda, 0xec, 0xac, 0xe8, 0xdb, 0x02, 0x81, 0x80, 0xf6, 0xe7, 0xc6,
  0x2b, 0x1c, 0xe9, 0xfb, 0x9a, 0xe5, 0xff, 0xff, 0x04, 0x00, 0x00, 0x00,
  0x00, 0x14, 0x00, 0x00, 0x43, 0x2b, 0xfc, 0xad, 0xbb, 0xf3, 0xf3, 0x24,
  0xd0, 0x1d, 0x41, 0x05, 0x7a, 0xf8, 0x9f, 0x3d, 0x3b, 0xf9, 0x11, 0xb1,
  0xda, 0xb4, 0x25, 0xf6, 0x81, 0xa6, 0xcf, 0xfc, 0x30, 0xb2, 0xd0, 0x46,
  0xe6, 0xdf, 0x1d, 0x07, 0xe9, 0x06, 0x47, 0xf8, 0xe1, 0xea, 0xba, 0x0c,
  0xf6, 0x63, 0xd5, 0x03, 0xdc, 0xa8, 0xbc, 0xc4, 0xf5, 0xb9, 0x23, 0xf8,
  0xee, 0x99, 0x00, 0xb5, 0xe6, 0x46, 0xe5, 0xb9, 0x03, 0xbe, 0x2e, 0x24,
  0x02, 0x00, 0xa9, 0xf1, 0xb3, 0x26, 0xea, 0xee, 0x0f, 0xf3, 0xf2, 0xd1,
  0xe3, 0xe9, 0xd0, 0x20, 0x23, 0xd4, 0x51, 0x48, 0x26, 0xfb, 0x3d, 0xee,
  0xfb, 0x24, 0x2e, 0x46, 0xee, 0xa1, 0x11, 0xf9, 0x05, 0x13, 0x1a, 0x02,
  0xe3, 0x10, 0xd9, 0x08, 0x0b, 0x10, 0xce, 0xf0, 0x35, 0xdf, 0x16, 0x44,
  0xcd, 0xdd, 0x01, 0x4e, 0xd6, 0x4a, 0xf7, 0xf6, 0x07, 0x3b, 0x59, 0x05,
  0x35, 0xe1, 0xcf, 0x0b, 0xf4, 0xf4, 0xdd, 0xe4, 0xfd, 0xf4, 0x24, 0x3d,
  0xcb, 0x1c, 0xdd, 0x17, 0x21, 0x0d, 0xed, 0x1c, 0x08, 0xe4, 0xeb, 0x11,
  0xdc, 0xeb, 0xcc, 0x20, 0xd5, 0xe9, 0x06, 0x07, 0xca, 0xb1, 0xbe, 0xfd,
  0x15, 0xd1, 0x61, 0x08, 0xfb, 0x1f, 0xa9, 0x00, 0xf6, 0x57, 0xb1, 0x11,
  0x4a, 0xb0, 0xaa, 0xb0, 0xd7, 0xb7, 0xfc, 0x1b, 0x81, 0xa1, 0xdf, 0xda,
  0xee, 0xfc, 0x0b, 0x01, 0x41, 0x37, 0x5c, 0xea, 0x12, 0x40, 0xd4, 0x29,
  0x49, 0x62, 0xd0, 0x52, 0x67, 0x6f, 0x06, 0x01, 0x22, 0x2d, 0x11, 0xb1,
  0xe8, 0xc2, 0x32, 0x2a, 0x4c, 0x19, 0x1c, 0xed, 0x01, 0x0b, 0x19, 0xed,
  0x02, 0x07, 0x05, 0x53, 0xed, 0xce, 0xc4, 0xea, 0xce, 0x4b, 0xfb, 0xfb,
  0x22, 0x24, 0x08, 0x19, 0xe7, 0x15, 0xf4, 0x53, 0x3d, 0x16, 0x4d, 0xcc,
  0xfe, 0x37, 0xee, 0x05, 0x32, 0xed, 0xe4, 0x22, 0x53, 0x1b, 0xff, 0xd7,
  0x1e, 0xd6, 0x04, 0xba, 0xea, 0x26, 0x15, 0xc8, 0xf2, 0xec, 0x1c, 0xc4,
  0xfb, 0xbf, 0x3f, 0xca, 0xce, 0x29, 0x07, 0x23, 0xbe, 0xd9, 0x08, 0x09,
  0xf5, 0xd2, 0x41, 0xa8, 0xed, 0x11, 0xd9, 0xd6, 0x3b, 0x2e, 0xe3, 0x00,
  0xf3, 0x1d, 0xca, 0xff, 0x12, 0xe3, 0xc7, 0xfa, 0xe1, 0xf4, 0x06, 0x06,
  0x01, 0xe6, 0xf4, 0x0b, 0xff, 0xee, 0xde, 0x4a, 0xda, 0x10, 0x47, 0xf2,
  0xef, 0x0a, 0x23, 0xf4, 0xe1, 0x67, 0xc0, 0x17, 0x1e, 0x2b, 0x28, 0x07,
  0x0b, 0xe9, 0x5a, 0x6a, 0xc3, 0xd3, 0x0b, 0xe7, 0x2c, 0x3a, 0x17, 0xd7,
  0x5c, 0xda, 0x13, 0xce, 0xe6, 0xfb, 0x04, 0xdb, 0x0f, 0xf8, 0xfe, 0x8e,
  0xf1, 0xb6, 0x05, 0xb3, 0x1b, 0xc6, 0x02, 0x21, 0xb9, 0xd8, 0xf7, 0xa7,
  0x07, 0x0b, 0x31, 0x45, 0x21, 0xf9, 0x39, 0x3a, 0x55, 0x15, 0xf4, 0x6e,
  0x01, 0x0a, 0xf2, 0x30, 0xe2, 0x38, 0xda, 0x20, 0x29, 0xc0, 0x40, 0x4e,
  0x01, 0x14, 0xce, 0x10, 0x38, 0x10, 0x0d, 0x24, 0x27, 0xf1, 0xf8, 0x24,
  0x05, 0xca, 0xa3, 0xfb, 0x32, 0xe4, 0xe4, 0xc1, 0x1b, 0x54, 0x41, 0x0b,
  0xbd, 0x2a, 0x35, 0x5a, 0xe4, 0x25, 0x2f, 0xe8, 0xfa, 0x1d, 0xda, 0x11,
  0xe5, 0x95, 0x01, 0x21, 0x06, 0x7f, 0xdc, 0xf4, 0x36, 0xe4, 0x27, 0xc6,
  0x39, 0x09, 0x0a, 0x46, 0x26, 0x01, 0xbb, 0x41, 0x19, 0x16, 0xd8, 0x13,
  0x16, 0x0b, 0x17, 0xed, 0xe7, 0xa4, 0xf7, 0xb2, 0xdd, 0x08, 0xda, 0x06,
  0xfe, 0xa9, 0xe3, 0xe7, 0xef, 0x0c, 0x1d, 0xed, 0xf6, 0xdd, 0x1a, 0x21,
  0xf5, 0xe4, 0xfd, 0xba, 0xe6, 0x4b, 0x2a, 0xba, 0x9f, 0x64, 0x16, 0xe9,
  0xee, 0x01, 0x1d, 0x08, 0xb6, 0xdf, 0x43, 0x3c, 0xed, 0xeb, 0x2a, 0xf5,
  0x21, 0x12, 0xd1, 0x31, 0x51, 0xe6, 0x7a, 0xf5, 0xbf, 0x95, 0xef, 0x2c,
  0xf5, 0xf1, 0x39, 0xb9, 0xd9, 0x27, 0xfb, 0xb8, 0xe4, 0x81, 0xc9, 0xdb,
  0xc1, 0xb6, 0xe8, 0xe9, 0x5d, 0xdb, 0x30, 0x28, 0xca, 0xe3, 0x45, 0xfb,
  0xdf, 0x5c, 0xcf, 0x10, 0xe3, 0x1e, 0xe4, 0x34, 0xca, 0xd3, 0xcf, 0x09,
  0x3c, 0x2f, 0xfe, 0xd1, 0x27, 0x3b, 0xd3, 0x2f, 0x21, 0xf5, 0x10, 0x03,
  0xdd, 0xd5, 0xe4, 0x34, 0xfa, 0x06, 0xb4, 0x02, 0xd2, 0x38, 0xf6, 0x31,
  0x24, 0x50, 0x45, 0x0e, 0xee, 0x16, 0x14, 0x2c, 0x10, 0xfa, 0x40, 0x0d,
  0xf9, 0x01, 0x00, 0x09, 0xdb, 0xce, 0xfe, 0x32, 0xc9, 0x45, 0xe2, 0xc5,
  0x31, 0x01, 0xf1, 0xe5, 0xfb, 0xf7, 0x09, 0x31, 0x31, 0x01, 0xbf, 0x3c,
  0x33, 0xe6, 0x1f, 0xe6, 0xfd, 0xf7, 0x14, 0xfc, 0x02, 0x15, 0x16, 0xc6,
  0x2a, 0xea, 0xf1, 0xfb, 0xc7, 0xe2, 0xdb, 0x09, 0xec, 0xf6, 0xfb, 0x11,
  0xe6, 0x15, 0x27, 0xd9, 0xf6, 0xe7, 0xcf, 0xb6, 0xc7, 0xb0, 0x0e, 0xef,
  0xc0, 0x35, 0xf6, 0x3d, 0x06, 0xb4, 0x0d, 0xe2, 0xec, 0x2c, 0xf5, 0xca,
  0x9a, 0xe7, 0xfc, 0x07, 0xf7, 0x55, 0x47, 0x3a, 0x17, 0x03, 0xee, 0xf9,
  0xe8, 0x24, 0xc9, 0xcb, 0x16, 0xca, 0x20, 0x81, 0xb7, 0xc6, 0x0a, 0xba,
  0x05, 0x8c, 0xe4, 0xf1, 0xf3, 0x9e, 0x07, 0xb0, 0xca, 0x15, 0xb3, 0xf7,
  0x2d, 0x1e, 0xd4, 0x2a, 0xf5, 0x41, 0x34, 0xdc, 0xd1, 0x93, 0xae, 0x21,
  0x21, 0x1a, 0x04, 0x13, 0x6b, 0xfe, 0x2f, 0xd1, 0x1a, 0x62, 0xcc, 0x2d,
  0x49, 0xb9, 0x5f, 0x55, 0x1d, 0x6a, 0x9b, 0xb9, 0x9e, 0xc4, 0xf8, 0x18,
  0x17, 0xc5, 0x06, 0x97, 0xda, 0x48, 0xed, 0x03, 0xb6, 0x12, 0x13, 0x76,
  0xd4, 0xfd, 0xef, 0x00, 0x08, 0x17, 0xe0, 0xe4, 0xd8, 0x0c, 0x03, 0x3a,
  0x07, 0xea, 0x18, 0x10, 0x45, 0x24, 0x31, 0x0d, 0xf3, 0x0a, 0xfc, 0x11,
  0x02, 0xdf, 0xae, 0x4d, 0x0a, 0x2f, 0x1d, 0xea, 0xcd, 0x0b, 0x31, 0x03,
  0xf3, 0x01, 0x09, 0xd8, 0xe1, 0x35, 0xd8, 0xfe, 0xed, 0x25, 0xf5, 0x12,
  0x5a, 0xfd, 0x09, 0x1a, 0x0b, 0xcf, 0xc5, 0x25, 0x11, 0x0d, 0xec, 0xab,
  0xd1, 0xc2, 0x93, 0xad, 0x75, 0xc2, 0x45, 0x24, 0x48, 0xcd, 0xc6, 0xed,
  0x00, 0x0e, 0x2d, 0xab, 0x17, 0xcf, 0x0f, 0x91, 0x37, 0xc5, 0x71, 0xd8,
  0x81, 0x5b, 0xd4, 0x5f, 0x68, 0x29, 0x2a, 0x1b, 0xbb, 0x0d, 0x24, 0xef,
  0x02, 0x62, 0x32, 0x60, 0x3a, 0x2b, 0x0b, 0xf7, 0xfa, 0x0c, 0xa5, 0x0f,
  0xf4, 0xa4, 0x2c, 0x58, 0x99, 0x6c, 0xee, 0x4a, 0xae, 0xf0, 0xc8, 0x08,
  0x1a, 0xe8, 0x05, 0x12, 0xc4, 0xc8, 0xfa, 0xc3, 0xe5, 0x34, 0xc4, 0xea,
  0x24, 0xc8, 0x61, 0x2e, 0xe6, 0x65, 0xc8, 0xb6, 0x2b, 0x25, 0x7a, 0x34,
  0x22, 0x23, 0x42, 0xfb, 0xe1, 0x19, 0xdb, 0x57, 0xd2, 0xf2, 0xf7, 0xe1,
  0x4d, 0xe0, 0x46, 0xab, 0xfe, 0xf2, 0x4c, 0x01, 0xb7, 0x17, 0x0c, 0x1b,
  0xf1, 0x2a, 0x00, 0xfc, 0xbf, 0xa8, 0x2d, 0xdc, 0x05, 0x12, 0xee, 0xd0,
  0x12, 0xdc, 0x21, 0xcb, 0xf1, 0x04, 0x16, 0xc4, 0xf2, 0xf2, 0x39, 0xdc,
  0x3a, 0xc9, 0x04, 0x1c, 0xff, 0x37, 0xe6, 0x0e, 0x54, 0xc1, 0x29, 0x1a,
  0x3a, 0x72, 0xe2, 0xe7, 0x1f, 0xe9, 0xe0, 0xfc, 0xf2, 0x2e, 0xe7, 0xc9,
  0xdd, 0x5e, 0xb9, 0x2f, 0xec, 0x2e, 0x0a, 0xe9, 0xe3, 0x44, 0xfe, 0x30,
  0x3c, 0x47, 0x44, 0x30, 0xad, 0x2e, 0x12, 0x01, 0x00, 0xd5, 0xfb, 0x48,
  0x23, 0x49, 0x31, 0x60, 0x1d, 0x4c, 0x78, 0xff, 0xd8, 0x50, 0xd5, 0x2c,
  0xfc, 0xd5, 0x4a, 0x9b, 0xf4, 0xd9, 0xc1, 0x81, 0x3b, 0xf8, 0x1c, 0x09,
  0xde, 0xfa, 0x21, 0xcb, 0x05, 0xc0, 0xe1, 0xda, 0x0e, 0xcf, 0x35, 0x46,
  0xc4, 0x1a, 0xd7, 0x24, 0xf4, 0xed, 0x03, 0x39, 0x0e, 0x4a, 0x31, 0x43,
  0x17, 0x08, 0x25, 0x3a, 0x47, 0x2c, 0xbe, 0x45, 0xff, 0xd3, 0x44, 0x65,
  0x17, 0x0d, 0xbe, 0xbd, 0xa2, 0xd2, 0x85, 0x29, 0xf9, 0x0a, 0x05, 0xfa,
  0x02, 0x1c, 0x36, 0x14, 0xe8, 0x07, 0x2d, 0x6b, 0x08, 0x19, 0x50, 0xf3,
  0xf0, 0xe0, 0xe6, 0x05, 0xf4, 0xd6, 0x09, 0x27, 0x27, 0x3c, 0xd1, 0x1f,
  0x40, 0x0c, 0xf6, 0xe4, 0x3b, 0xfc, 0xe9, 0x0f, 0x17, 0xcf, 0xde, 0x38,
  0xf0, 0xf4, 0xfc, 0xee, 0xf1, 0x0e, 0xfe, 0x08, 0xf1, 0xbf, 0xf2, 0xdc,
  0xc5, 0x26, 0xe6, 0xfe, 0xd0, 0xc0, 0xfe, 0xf5, 0xfc, 0xfc, 0xe0, 0xe9,
  0xe2, 0xea, 0x0d, 0xde, 0xec, 0xdc, 0xe3, 0xe4, 0x56, 0x1a, 0x59, 0xea,
  0x1a, 0x1e, 0x6a, 0x16, 0xa7, 0x02, 0xcd, 0xc6, 0x56, 0x57, 0xa4, 0x40,
  0x0b, 0x35, 0xd8, 0xc3, 0x30, 0xfd, 0x4c, 0x22, 0xc3, 0xf6, 0x1d, 0x3b,
  0x4c, 0xeb, 0x12, 0x40, 0x00, 0x14, 0xf3, 0x39, 0x1e, 0xd4, 0xfe, 0xbd,
  0xc5, 0x18, 0x0b, 0xc1, 0x2f, 0x7b, 0x5a, 0xdf, 0x12, 0xe7, 0x22, 0xa0,
  0x1f, 0xd7, 0x2b, 0xfa, 0xd8, 0xa4, 0xe9, 0x15, 0x01, 0x22, 0x02, 0xff,
  0x28, 0xf5, 0xef, 0x18, 0xff, 0xc4, 0xb8, 0xdd, 0xd9, 0xa9, 0x04, 0xdb,
  0x0a, 0xf5, 0x26, 0x1b, 0xe6, 0xc4, 0xf2, 0xc9, 0xee, 0xf8, 0x03, 0x07,
  0xee, 0xea, 0x20, 0xda, 0xda, 0x41, 0xc3, 0x06, 0x27, 0xfd, 0xcf, 0xc5,
  0x31, 0xce, 0xb9, 0xf6, 0xe6, 0xfc, 0xd6, 0x00, 0xf2, 0x0f, 0x11, 0xde,
  0x2b, 0xf5, 0xb8, 0xd3, 0x9f, 0xc4, 0xcf, 0xcb, 0xe1, 0xe9, 0xf4, 0xc9,
  0x1a, 0x18, 0x16, 0x17, 0xce, 0xf9, 0xb5, 0x06, 0x18, 0xc6, 0xf3, 0xe7,
  0xf2, 0x03, 0xec, 0x0f, 0xde, 0xe8, 0x02, 0x0c, 0x4c, 0xe3, 0xe7, 0xc4,
  0xe2, 0xf4, 0x05, 0xf5, 0xd8, 0x14, 0xe9, 0x23, 0x28, 0x0c, 0x4b, 0x7f,
  0xe1, 0x4f, 0x5e, 0xbb, 0x9a, 0xc5, 0xf8, 0x51, 0xf0, 0xef, 0xd9, 0xd2,
  0xc9, 0xef, 0x71, 0x54, 0xd3, 0xc1, 0x2a, 0xe8, 0x1f, 0x0a, 0xea, 0x49,
  0x31, 0x35, 0xd9, 0xfa, 0xcf, 0x40, 0xcc, 0x26, 0xac, 0x2b, 0x0c, 0xa1,
  0xe7, 0xf4, 0x1f, 0x0c, 0x4e, 0xdc, 0x0f, 0x13, 0xd6, 0xec, 0xc5, 0x19,
  0xe3, 0x55, 0x91, 0xc7, 0xf0, 0x5f, 0x48, 0xcf, 0x38, 0xe0, 0x0a, 0xf4,
  0x1d, 0x29, 0xc7, 0x21, 0x3f, 0x2c, 0x40, 0x3e, 0x1d, 0xf2, 0x4c, 0xea,
  0x06, 0x3c, 0xca, 0x0b, 0x19, 0x27, 0xfb, 0x11, 0x0c, 0xfa, 0x00, 0x96,
  0x2d, 0xc5, 0x16, 0x49, 0xf5, 0x16, 0x41, 0xd9, 0xfa, 0xbf, 0x7f, 0x2f,
  0xee, 0xf7, 0x59, 0x26, 0xcf, 0x35, 0x24, 0xd7, 0x13, 0x35, 0x0c, 0xd1,
  0xcf, 0xe5, 0xae, 0x4a, 0x00, 0x45, 0xde, 0xd6, 0xf0, 0x03, 0xf4, 0x3a,
  0xfc, 0x9c, 0xe5, 0xd0, 0xd6, 0x16, 0xc8, 0x4c, 0x28, 0xfb, 0x08, 0x2a,
  0x11, 0x22, 0xfe, 0xe0, 0x0d, 0xed, 0xdc, 0xc8, 0xda, 0xf9, 0xe5, 0xfa,
  0xf5, 0x1f, 0xf6, 0xe1, 0xd2, 0x29, 0x00, 0xd0, 0x2a, 0xda, 0xf7, 0xec,
  0x1a, 0xeb, 0x15, 0xb0, 0x47, 0xdd, 0x09, 0xa5, 0x2e, 0xbf, 0x28, 0xdc,
  0xc2, 0xd4, 0xe4, 0xef, 0x06, 0x45, 0xfc, 0x2a, 0x54, 0xd8, 0x3c, 0xe3,
  0x1f, 0x9a, 0x49, 0xd8, 0x81, 0xfb, 0x30, 0x1e, 0x06, 0x30, 0x00, 0xdf,
  0xd7, 0xd6, 0xbf, 0xfe, 0x19, 0xc5, 0x27, 0x2b, 0xfd, 0x46, 0x1b, 0xe8,
  0x3d, 0x18, 0x3c, 0x11, 0xc9, 0xcd, 0xcf, 0x1d, 0x94, 0xe7, 0x1a, 0x2b,
  0xd4, 0xfe, 0x02, 0x0c, 0x25, 0xc6, 0xec, 0xfe, 0xed, 0xe2, 0x01, 0xea,
  0x0f, 0x50, 0x1e, 0x17, 0xd4, 0x38, 0x40, 0xe7, 0xde, 0x10, 0x3c, 0xd7,
  0x45, 0x42, 0x33, 0xe4, 0x33, 0x10, 0xea, 0xf4, 0xde, 0x3f, 0x10, 0x24,
  0xe5, 0x45, 0x02, 0xdc, 0x06, 0x0c, 0xbc, 0xc0, 0xf2, 0x11, 0xd3, 0x27,
  0x0e, 0x0d, 0xf7, 0xe3, 0xf9, 0x0a, 0x35, 0xd0, 0x3e, 0xa7, 0xf5, 0x0c,
  0x13, 0xef, 0x37, 0xd1, 0x12, 0x2a, 0x11, 0xe0, 0xda, 0x30, 0x1b, 0xd4,
  0x19, 0xf2, 0x0c, 0xfc, 0xf5, 0xc6, 0x1e, 0xf2, 0xe6, 0x13, 0xf0, 0x2d,
  0xee, 0x1e, 0x00, 0xf4, 0x10, 0x04, 0x1e, 0xd8, 0xed, 0xf2, 0x2e, 0xf4,
  0xcf, 0x06, 0xc0, 0xf7, 0x0e, 0x1d, 0x22, 0x1a, 0xf3, 0x3e, 0x5b, 0x6b,
  0xba, 0xdf, 0xd6, 0x01, 0xee, 0x33, 0x41, 0x1e, 0xb1, 0xe2, 0x6f, 0x11,
  0xaa, 0xd5, 0xe9, 0xf3, 0xd7, 0x82, 0x2f, 0x2b, 0xf1, 0xed, 0xf1, 0xe1,
  0x07, 0x1c, 0xd1, 0xe5, 0xf4, 0x2d, 0xbd, 0xcf, 0x23, 0xe3, 0xe6, 0x6b,
  0x10, 0x9a, 0xc5, 0x2c, 0xaa, 0xb7, 0x4e, 0xf0, 0xe3, 0xe0, 0xba, 0xcf,
  0x38, 0xd4, 0x0d, 0xf4, 0xe7, 0x19, 0x2a, 0xf0, 0x21, 0x0a, 0xda, 0x08,
  0xc0, 0x40, 0xf4, 0xcf, 0x30, 0x18, 0x70, 0xfe, 0xe3, 0xc9, 0x9b, 0xba,
  0x5a, 0x39, 0xd7, 0x2d, 0xa4, 0x49, 0xed, 0xb7, 0xc2, 0xfc, 0xd4, 0x5c,
  0x7a, 0xae, 0x4f, 0xb4, 0x49, 0x05, 0x01, 0xd2, 0x2c, 0x09, 0x45, 0x43,
  0x16, 0x16, 0xe2, 0xea, 0xe8, 0xbe, 0xd0, 0xca, 0xfb, 0xe6, 0x27, 0x22,
  0xf8, 0xe3, 0xec, 0xfb, 0xf7, 0x08, 0x26, 0xed, 0xd6, 0xd2, 0x31, 0x27,
  0x34, 0x1b, 0xea, 0x7f, 0x06, 0x44, 0xf7, 0x0c, 0xc8, 0x03, 0xe7, 0x95,
  0xdb, 0xcf, 0xe8, 0xe7, 0xde, 0xcf, 0xc0, 0x24, 0xf5, 0xbf, 0x1b, 0x08,
  0x03, 0xe3, 0x21, 0xee, 0x2d, 0xe0, 0x0b, 0x11, 0xf4, 0xdf, 0x0f, 0xda,
  0x2c, 0xbd, 0xc0, 0xe9, 0x53, 0x8b, 0x14, 0x00, 0x04, 0xce, 0xeb, 0x00,
  0x16, 0x11, 0xec, 0x81, 0x4d, 0xec, 0xfc, 0xeb, 0x1f, 0xd2, 0x2e, 0xd3,
  0x93, 0x16, 0xed, 0x0b, 0x30, 0x29, 0xdb, 0xef, 0xc5, 0x00, 0xc6, 0x26,
  0x30, 0x23, 0xf5, 0x59, 0x29, 0x7e, 0x30, 0x2d, 0x30, 0xfa, 0x26, 0x3e,
  0xfd, 0xf6, 0x22, 0x3a, 0xd5, 0x3e, 0xd4, 0x19, 0xe7, 0x30, 0x10, 0xcb,
  0x32, 0x07, 0x06, 0xd2, 0xc4, 0x16, 0xec, 0x04, 0xd6, 0x67, 0xe5, 0x1b,
  0x1e, 0x27, 0x6d, 0xfe, 0xec, 0x23, 0x09, 0xfc, 0x1f, 0x34, 0x39, 0x3c,
  0x3e, 0x4c, 0x17, 0xfa, 0xdd, 0x54, 0xf4, 0x23, 0xe8, 0xf9, 0x03, 0xfb,
  0x31, 0x0b, 0xec, 0xc2, 0xe8, 0xfa, 0x1b, 0x09, 0xe5, 0xfe, 0x1f, 0xe6,
  0x20, 0x6d, 0x14, 0xe4, 0x0a, 0xc3, 0x5e, 0x02, 0x27, 0x2d, 0x1c, 0x00,
  0xef, 0xf0, 0x04, 0xf3, 0xfe, 0xfa, 0x4a, 0xf1, 0x38, 0x21, 0x12, 0xfb,
  0x17, 0xe6, 0xe9, 0xf2, 0xf0, 0x31, 0x0b, 0x16, 0x5e, 0x02, 0x36, 0x1a,
  0x0b, 0x1c, 0x16, 0xda, 0xfd, 0xed, 0x10, 0xf2, 0x08, 0xe3, 0xed, 0xdd,
  0xfb, 0x12, 0xea, 0x36, 0x05, 0x12, 0x07, 0x45, 0x01, 0x22, 0xbc, 0x21,
  0x10, 0x4c, 0x64, 0x5f, 0xb6, 0xff, 0xf8, 0x3f, 0xeb, 0x02, 0x1a, 0x5e,
  0x2c, 0xe3, 0x2d, 0xed, 0x11, 0xcb, 0x7f, 0x00, 0xdb, 0x22, 0x2c, 0x1f,
  0x1b, 0xe8, 0x3e, 0xd1, 0xc1, 0xb5, 0x09, 0xa3, 0x0f, 0x9a, 0xdd, 0x2c,
  0x8c, 0xa3, 0x27, 0xa6, 0xfa, 0x44, 0xf2, 0x2c, 0x49, 0xff, 0x50, 0x30,
  0xb5, 0xdb, 0xdc, 0x32, 0xf7, 0x10, 0xb3, 0x50, 0xf1, 0x14, 0xdb, 0xf4,
  0x55, 0xdf, 0x2c, 0xe5, 0xf8, 0x3e, 0xbd, 0xd9, 0x23, 0xdc, 0xe9, 0x14,
  0x41, 0xd7, 0x03, 0xf3, 0xd3, 0xc0, 0xbb, 0x1a, 0x63, 0xc7, 0x26, 0x20,
  0xf7, 0x36, 0xee, 0xe8, 0xe0, 0x43, 0xf7, 0x65, 0xf1, 0xfb, 0x5f, 0x0e,
  0xea, 0x0f, 0xff, 0xf0, 0xe7, 0xba, 0x03, 0x22, 0x3f, 0x3e, 0xe6, 0xd7,
  0x57, 0xfe, 0x1f, 0xec, 0x2f, 0xf8, 0x00, 0x5a, 0x16, 0xcf, 0xd4, 0x4d,
  0x12, 0x03, 0x0c, 0x19, 0x06, 0xec, 0x00, 0xef, 0xe6, 0xf2, 0x1c, 0xd0,
  0xf4, 0xd5, 0xd8, 0x05, 0xb0, 0xbd, 0xe0, 0x20, 0xe7, 0xe8, 0x0c, 0x05,
  0xf4, 0xde, 0xfe, 0x0f, 0xfa, 0xe6, 0xbc, 0x8f, 0xda, 0xf9, 0x2d, 0x30,
  0x40, 0x44, 0x22, 0xf1, 0xf2, 0xf3, 0xc5, 0xf4, 0x57, 0x4b, 0x08, 0xb1,
  0x48, 0x22, 0xf1, 0x01, 0x03, 0x29, 0x25, 0x0f, 0x0c, 0x0c, 0xf4, 0x22,
  0x25, 0x1a, 0x0d, 0x4b, 0x0d, 0x28, 0x37, 0x60, 0x21, 0x13, 0x2f, 0xf8,
  0xc5, 0x0e, 0x35, 0xc4, 0x34, 0x6b, 0x12, 0x35, 0xda, 0xcd, 0x7f, 0x0a,
  0xf9, 0xef, 0x06, 0xfc, 0x11, 0xb3, 0x03, 0x10, 0x41, 0x30, 0xf6, 0xda,
  0x09, 0x1a, 0x2f, 0xfd, 0xb7, 0xec, 0xe7, 0xe6, 0xee, 0xe6, 0x26, 0x00,
  0x22, 0x26, 0x03, 0x2a, 0xe8, 0xf8, 0x35, 0x12, 0xf6, 0x0b, 0x4b, 0xed,
  0xfe, 0x04, 0x10, 0x00, 0xf2, 0x14, 0xbd, 0xd9, 0x29, 0xe9, 0xfa, 0xc4,
  0x1a, 0xdb, 0xdc, 0x0d, 0x0d, 0x16, 0x11, 0x38, 0x00, 0x02, 0x20, 0xd0,
  0x20, 0x08, 0x0e, 0xfd, 0xde, 0xf1, 0xed, 0xf0, 0xe7, 0x22, 0xee, 0xf0,
  0x09, 0xf8, 0x20, 0xf5, 0x00, 0xf2, 0xd9, 0xf6, 0x03, 0xf3, 0xf3, 0x15,
  0x0d, 0x0c, 0x06, 0x1c, 0x09, 0x0c, 0x21, 0x1c, 0x2d, 0x02, 0x14, 0xfd,
  0xe4, 0xf4, 0xe6, 0xdf, 0xf0, 0x24, 0x0d, 0x01, 0x21, 0x02, 0x30, 0x34,
  0xef, 0x00, 0xd1, 0x54, 0x19, 0x12, 0x37, 0x32, 0x19, 0x92, 0xda, 0xed,
  0xdc, 0x11, 0x9d, 0xee, 0x51, 0x0e, 0xed, 0xd8, 0x24, 0xd1, 0xf8, 0x09,
  0xd5, 0xed, 0xe3, 0x3c, 0x1d, 0x12, 0x5d, 0xde, 0xb4, 0xd0, 0x39, 0x0e,
  0x07, 0x5b, 0x2d, 0xe6, 0x29, 0x12, 0x3a, 0xbe, 0x0a, 0x66, 0x01, 0x1f,
  0xdf, 0xff, 0x56, 0x2c, 0x18, 0xf3, 0xe2, 0x40, 0x45, 0xd8, 0xed, 0x18,
  0x1d, 0xf8, 0x26, 0xcc, 0x13, 0xfd, 0x41, 0xe3, 0xe0, 0x19, 0x0b, 0x1d,
  0xde, 0x04, 0x42, 0x06, 0x28, 0x45, 0xe4, 0xfb, 0xdf, 0xc4, 0x38, 0x43,
  0xf8, 0x29, 0x08, 0x26, 0xec, 0x26, 0xf2, 0xfa, 0xd5, 0xea, 0xd7, 0xf4,
  0x42, 0xe5, 0x03, 0xd0, 0x03, 0xff, 0x13, 0xe8, 0xef, 0x3b, 0x18, 0xff,
  0x1a, 0xfc, 0x1d, 0xdc, 0xf8, 0xbd, 0x08, 0xee, 0xb8, 0x11, 0x26, 0xf0,
  0xff, 0x0e, 0xf5, 0xd6, 0xf9, 0x18, 0x0e, 0xc6, 0xfe, 0xfb, 0xf5, 0xf2,
  0x1a, 0xfc, 0xdf, 0x10, 0x12, 0x4a, 0x0b, 0x43, 0x05, 0xf6, 0x27, 0x20,
  0xf7, 0x1d, 0x0a, 0xfc, 0xf4, 0xfd, 0xf9, 0xf5, 0xea, 0x2b, 0xf6, 0xf6,
  0x0c, 0x26, 0x08, 0x7f, 0xd8, 0x53, 0x5c, 0xc0, 0x11, 0x4b, 0xdb, 0x33,
  0xf2, 0x4a, 0xb6, 0xbe, 0x0c, 0xe3, 0xe1, 0x48, 0xb0, 0xf9, 0x3f, 0xf8,
  0x38, 0x06, 0x1e, 0x36, 0x20, 0x14, 0xc5, 0xd2, 0x12, 0xb7, 0x0a, 0xdf,
  0x1d, 0x15, 0xe6, 0xc8, 0x2e, 0x37, 0x98, 0xd0, 0x44, 0x82, 0xbd, 0x60,
  0xdb, 0x0e, 0xf1, 0x32, 0xf4, 0xc0, 0x82, 0x39, 0x3d, 0xbd, 0x36, 0xea,
  0x10, 0x0b, 0xbf, 0xf6, 0xd3, 0x57, 0xcf, 0x5c, 0xef, 0xfe, 0x20, 0xfd,
  0xe9, 0x07, 0xf5, 0x49, 0x18, 0xaf, 0xed, 0x36, 0xfc, 0xe5, 0xe6, 0x08,
  0x3b, 0xa4, 0x21, 0xff, 0xc5, 0x03, 0xbd, 0xe3, 0xcc, 0xfb, 0x13, 0xf9,
  0xd4, 0xf3, 0x57, 0xfb, 0xd2, 0x30, 0xf5, 0x2a, 0xed, 0x26, 0x4f, 0xc5,
  0xd1, 0x2c, 0xed, 0x19, 0xe5, 0xbc, 0xe4, 0xd9, 0x82, 0x7f, 0x12, 0xc8,
  0xba, 0xe2, 0x35, 0xd6, 0x66, 0xcc, 0x34, 0xd4, 0xf3, 0x16, 0xd6, 0xfa,
  0x08, 0x3f, 0xf4, 0x55, 0xf9, 0x37, 0xdd, 0xf8, 0xdf, 0xde, 0x45, 0xa4,
  0xfa, 0x04, 0xf7, 0xef, 0x00, 0xc7, 0xe1, 0x3f, 0x3d, 0x15, 0xc4, 0xff,
  0xd3, 0x49, 0x41, 0xee, 0xf4, 0x14, 0xfa, 0xeb, 0x16, 0x7f, 0x27, 0x8e,
  0x23, 0x1e, 0xf4, 0x48, 0xf4, 0x1d, 0xd1, 0x41, 0xfb, 0xd3, 0x47, 0x0f,
  0x3a, 0x06, 0x5c, 0x18, 0x25, 0x00, 0xc6, 0x08, 0x1b, 0xe9, 0x42, 0x21,
  0x1f, 0xc7, 0x32, 0xf3, 0x50, 0xec, 0xec, 0x1d, 0xbb, 0x2b, 0xf3, 0xcb,
  0xe6, 0xa0, 0xca, 0xb4, 0xc9, 0xae, 0xeb, 0xbc, 0xfe, 0xe1, 0xde, 0xcb,
  0x72, 0x77, 0x28, 0xf9, 0x1c, 0x6e, 0x16, 0x30, 0xb8, 0x1f, 0x09, 0x25,
  0x02, 0x0b, 0xcb, 0xe0, 0x62, 0xdd, 0x33, 0x16, 0x04, 0x56, 0xb8, 0x1c,
  0x5d, 0xc4, 0x0a, 0xfd, 0x0d, 0x24, 0xd7, 0xea, 0xd5, 0x0c, 0xd5, 0x09,
  0x12, 0xd8, 0xe3, 0xe4, 0x01, 0x31, 0xf1, 0x3b, 0xe6, 0x5f, 0x1b, 0x62,
  0xf1, 0x1a, 0x4f, 0xe9, 0x2e, 0x18, 0xe3, 0x09, 0xe7, 0xee, 0xf8, 0x26,
  0xbc, 0x3c, 0xd1, 0x40, 0x39, 0x0c, 0x2c, 0xd5, 0x14, 0x03, 0xe8, 0x4f,
  0xeb, 0xce, 0xb8, 0xce, 0x63, 0xe3, 0x14, 0xc2, 0xfa, 0xfe, 0x29, 0xea,
  0xd2, 0xed, 0x02, 0xcc, 0xee, 0x25, 0xef, 0xe2, 0xb9, 0x07, 0xd8, 0xf5,
  0xdd, 0xdc, 0x52, 0x46, 0x1b, 0xe2, 0xf2, 0x1c, 0xd8, 0xde, 0xef, 0xc1,
  0xe5, 0x58, 0x48, 0x1f, 0xd1, 0x7c, 0xee, 0xf0, 0xf7, 0x5d, 0x56, 0x1f,
  0xc4, 0xef, 0x74, 0x4c, 0xdf, 0x01, 0x24, 0x3c, 0x10, 0x43, 0xf1, 0x06,
  0x5a, 0xf6, 0x15, 0xe6, 0xeb, 0xf9, 0xe1, 0x44, 0x0a, 0x1e, 0x09, 0xea,
  0xf2, 0xe3, 0xad, 0xcc, 0x24, 0x99, 0xd4, 0x28, 0x90, 0xdd, 0xe5, 0xc5,
  0x4a, 0x49, 0xe7, 0xff, 0x2e, 0x2d, 0x46, 0xee, 0xf6, 0x2f, 0xc5, 0x4f,
  0xe8, 0xe2, 0xee, 0x44, 0xe5, 0xf5, 0xef, 0x1d, 0x29, 0xb4, 0x5c, 0x25,
  0x09, 0xef, 0xad, 0x18, 0xfc, 0xe4, 0x0c, 0xf3, 0x11, 0xfb, 0xda, 0xe4,
  0x05, 0xdd, 0xac, 0x18, 0x2c, 0xea, 0xda, 0x2d, 0x44, 0xe5, 0x40, 0x03,
  0xd3, 0x1a, 0x21, 0x0c, 0xf3, 0x2f, 0x43, 0xfe, 0xfa, 0x11, 0xec, 0xf8,
  0xf9, 0xbd, 0xf0, 0x45, 0xdb, 0x7f, 0xca, 0xec, 0x16, 0xee, 0xe6, 0x01,
  0x26, 0x09, 0x04, 0x22, 0x14, 0xee, 0xe0, 0x28, 0x12, 0x04, 0x0f, 0xf5,
  0x07, 0x12, 0x44, 0xe0, 0xdf, 0xbd, 0xff, 0xbe, 0x01, 0xe3, 0xd5, 0xf5,
  0xec, 0xc0, 0xcc, 0xeb, 0xfd, 0xf5, 0x2f, 0x03, 0xe5, 0xff, 0x23, 0xea,
  0x02, 0xd7, 0x0e, 0xc6, 0xb3, 0xe1, 0x26, 0xb6, 0x24, 0x18, 0x1e, 0x6d,
  0x51, 0xec, 0xeb, 0x25, 0xa0, 0xed, 0xbc, 0x35, 0xaa, 0xc4, 0x62, 0x5b,
  0x21, 0x9c, 0xec, 0x66, 0x09, 0x54, 0x6f, 0xfe, 0xdd, 0xd8, 0x06, 0x0c,
  0xbd, 0x31, 0x01, 0xf4, 0xd2, 0xd1, 0x0a, 0x25, 0x11, 0x2e, 0xec, 0x3e,
  0xc8, 0x94, 0xde, 0x89, 0xc9, 0x7e, 0x81, 0xe5, 0xd5, 0x9d, 0xbc, 0x1d,
  0xc0, 0x17, 0xe4, 0x9b, 0xf9, 0x92, 0x05, 0x50, 0xd8, 0x4d, 0x36, 0x47,
  0x17, 0x24, 0x43, 0xd3, 0xd1, 0x7b, 0xc1, 0xec, 0xf8, 0x0f, 0xf5, 0xf5,
  0xf4, 0x3f, 0xda, 0xb1, 0xfe, 0xcd, 0x8e, 0x34, 0xe2, 0xb7, 0x51, 0x82,
  0xf9, 0x7e, 0x52, 0xf3, 0x1c, 0xe9, 0x55, 0x24, 0xb6, 0x62, 0x40, 0x14,
  0xd9, 0x57, 0x10, 0x0f, 0xc6, 0x25, 0xe7, 0x36, 0x04, 0xee, 0x07, 0xda,
  0x51, 0x2c, 0x1e, 0x16, 0xfb, 0xd9, 0xc4, 0x3b, 0xe5, 0xd6, 0xa5, 0x7a,
  0xce, 0xe0, 0x3a, 0x71, 0xea, 0xf3, 0x1e, 0x9a, 0xbd, 0x94, 0x0e, 0xb8,
  0xec, 0x09, 0xda, 0x21, 0xf9, 0x1d, 0x15, 0x06, 0x33, 0xf1, 0xca, 0xe8,
  0x35, 0x9a, 0x40, 0xe9, 0x6a, 0xee, 0xcd, 0xcf, 0x4d, 0xe0, 0xd3, 0xd1,
  0x17, 0x4a, 0xf2, 0x34, 0xb2, 0x3b, 0xb7, 0xe1, 0x5b, 0x39, 0xc2, 0x2e,
  0x56, 0xf4, 0x20, 0xfc, 0x2e, 0xaf, 0x2d, 0xd4, 0x0f, 0x9e, 0xfe, 0xb5,
  0x35, 0xe6, 0xc0, 0x1c, 0xc8, 0x4a, 0xfe, 0x5b, 0x08, 0x17, 0x55, 0xe8,
  0xff, 0xdf, 0x12, 0xb8, 0x62, 0x7b, 0x51, 0x5b, 0x9d, 0xb5, 0x20, 0xee,
  0x02, 0x19, 0xd3, 0x17, 0x18, 0x87, 0x42, 0xdd, 0xc1, 0x41, 0xdd, 0x2c,
  0x42, 0xfb, 0xe7, 0xda, 0xde, 0xeb, 0x93, 0xab, 0xf9, 0x44, 0x18, 0xeb,
  0xc8, 0xe4, 0xa7, 0x23, 0xff, 0x19, 0x1a, 0xf3, 0x91, 0xcc, 0x67, 0x1f,
  0xbf, 0xdb, 0x30, 0xa5, 0xfe, 0xdb, 0xdf, 0xdf, 0x0d, 0x03, 0xa4, 0xd5,
  0xc1, 0xd9, 0x99, 0xcc, 0x1a, 0xf9, 0xe9, 0x0a, 0xdc, 0x07, 0xf8, 0xda,
  0x5d, 0xad, 0xe9, 0x18, 0x20, 0x41, 0x16, 0xe0, 0xf4, 0xd4, 0xee, 0x01,
  0x1f, 0x1b, 0xf6, 0xe8, 0x1f, 0xe8, 0xab, 0xe3, 0xcd, 0x1f, 0xdb, 0xe9,
  0x17, 0xc2, 0x17, 0x02, 0x09, 0x16, 0x0d, 0x03, 0x07, 0xfa, 0x3b, 0x3d,
  0x13, 0x0b, 0x37, 0xdf, 0x01, 0x11, 0x8c, 0x48, 0x1f, 0x15, 0x7f, 0xf7,
  0x2a, 0xbb, 0x9a, 0x18, 0x1b, 0x81, 0xff, 0x27, 0x27, 0xdb, 0xc6, 0xff,
  0x07, 0xfc, 0xc4, 0xa0, 0x39, 0x1e, 0xe2, 0xd4, 0x32, 0xf6, 0x33, 0xc6,
  0x9c, 0x45, 0xa3, 0x0b, 0x37, 0x21, 0x27, 0x00, 0xce, 0xfb, 0xd8, 0x1d,
  0x0d, 0x54, 0xf1, 0x30, 0x34, 0x2a, 0x19, 0x0b, 0x21, 0x01, 0xfa, 0x31,
  0x19, 0x16, 0x0d, 0x21, 0xec, 0x32, 0xe8, 0x20, 0x0f, 0x44, 0x06, 0xe9,
  0x4c, 0xdf, 0x20, 0xd0, 0xfa, 0x01, 0xe8, 0xe2, 0xdd, 0x5f, 0x07, 0x21,
  0x23, 0xfe, 0x4e, 0xea, 0xe7, 0x31, 0xf9, 0xe3, 0x4a, 0x0f, 0x36, 0x3d,
  0x44, 0x47, 0x20, 0x06, 0xb9, 0x52, 0xa8, 0x2c, 0x05, 0xe6, 0x11, 0xf7,
  0x59, 0x06, 0xc8, 0xbd, 0xff, 0xdf, 0x35, 0x03, 0xdd, 0xfc, 0x1a, 0xe8,
  0x23, 0x4a, 0x19, 0xec, 0xf9, 0xb4, 0x3f, 0xee, 0x34, 0x2f, 0xff, 0xef,
  0xee, 0xe7, 0xf0, 0xf7, 0x25, 0xe8, 0x41, 0xc7, 0x34, 0xfd, 0x2f, 0xf2,
  0x27, 0xe2, 0xf5, 0xf3, 0xf1, 0x3e, 0x15, 0x30, 0x76, 0x1d, 0x3a, 0x22,
  0xfd, 0x2d, 0x11, 0xca, 0xc1, 0xe4, 0x11, 0x19, 0x05, 0xe7, 0xfb, 0xb7,
  0xf0, 0x27, 0xd9, 0x40, 0xf2, 0x06, 0x4c, 0x3b, 0x7f, 0x0d, 0x71, 0xe1,
  0xef, 0xc8, 0x93, 0xb1, 0x1b, 0x52, 0xd5, 0x7f, 0xe2, 0xfc, 0xfb, 0xd0,
  0xd3, 0xb0, 0xb1, 0xc6, 0xf6, 0xa7, 0x06, 0xd6, 0xe0, 0x77, 0x31, 0xf4,
  0x37, 0xd1, 0xb2, 0x06, 0xf7, 0xe9, 0xbd, 0xee, 0xf2, 0x30, 0xed, 0xe7,
  0x78, 0x75, 0x2f, 0x63, 0xdc, 0x06, 0xe8, 0x16, 0x23, 0x1c, 0x2b, 0xff,
  0xbd, 0x9d, 0x5d, 0x9a, 0x40, 0xf3, 0xcd, 0x1c, 0x6f, 0x1c, 0xce, 0xec,
  0xf9, 0x23, 0x1a, 0xc1, 0x13, 0x01, 0x36, 0xfd, 0xf7, 0xca, 0x2b, 0xe1,
  0x09, 0xfb, 0x36, 0x2d, 0xd2, 0x3e, 0x76, 0xd0, 0xfd, 0xbf, 0xda, 0xf8,
  0xcf, 0x0e, 0xe3, 0x10, 0x12, 0xfe, 0xb7, 0x0d, 0x05, 0x04, 0xe3, 0x34,
  0xfc, 0xea, 0x2a, 0xee, 0xf7, 0x5d, 0xe9, 0xb3, 0x24, 0xc3, 0x50, 0xf0,
  0x0e, 0xed, 0xe0, 0x35, 0xbb, 0x30, 0xfa, 0xc2, 0xb8, 0x2f, 0x23, 0x18,
  0x57, 0xe5, 0xfb, 0x37, 0xdd, 0xd4, 0x22, 0x29, 0xf1, 0xe6, 0xdf, 0x36,
  0x0a, 0x42, 0x00, 0x04, 0x19, 0x29, 0xf1, 0xc2, 0x25, 0x0a, 0x4b, 0xe0,
  0x20, 0xd5, 0xcb, 0x39, 0xd5, 0x0f, 0xe3, 0x0b, 0xd8, 0x1d, 0xcd, 0x4f,
  0x3a, 0x20, 0x67, 0x54, 0xea, 0x05, 0x2b, 0x0d, 0xcd, 0xff, 0x41, 0x86,
  0x1f, 0xd8, 0xdc, 0xc0, 0x12, 0x29, 0x12, 0xc2, 0xa3, 0xbd, 0xbe, 0xdb,
  0x69, 0xd7, 0x21, 0x5f, 0xd3, 0x11, 0x14, 0xf9, 0x22, 0x28, 0xf4, 0x5f,
  0x12, 0xf4, 0x0f, 0x99, 0x12, 0x21, 0x04, 0x10, 0xe5, 0xd2, 0x42, 0x35,
  0xfa, 0xe1, 0xb2, 0x56, 0xd6, 0xe0, 0xf6, 0xe9, 0x47, 0x1a, 0x23, 0xd7,
  0x18, 0xce, 0x17, 0xbc, 0xd4, 0x48, 0x03, 0xd6, 0x0f, 0xda, 0x0e, 0xf4,
  0x2c, 0x10, 0x22, 0xe4, 0x17, 0x11, 0x73, 0xed, 0x3e, 0x39, 0x55, 0xcb,
  0x0f, 0x07, 0x2c, 0xea, 0xfa, 0x1e, 0x08, 0x31, 0x36, 0x24, 0x23, 0xc9,
  0x02, 0xf2, 0xfd, 0xde, 0xde, 0x34, 0xfe, 0x24, 0x21, 0xec, 0xfb, 0xd9,
  0xcf, 0xff, 0x2e, 0xc4, 0xef, 0x08, 0x0f, 0xba, 0x14, 0xc1, 0x1e, 0xb4,
  0x0c, 0x09, 0x10, 0xcc, 0x13, 0x04, 0xe5, 0xff, 0x59, 0xfc, 0xe5, 0xf7,
  0x28, 0x4b, 0x19, 0x39, 0x2c, 0x0d, 0x38, 0xfb, 0x27, 0x0b, 0xe2, 0xe3,
  0xfa, 0x04, 0x29, 0xd3, 0xdc, 0x50, 0x06, 0xef, 0xd3, 0x25, 0xf4, 0x7f,
  0x2f, 0xf0, 0xf6, 0x01, 0x40, 0xf8, 0x30, 0xe7, 0x0a, 0xe1, 0x15, 0xeb,
  0x2d, 0x00, 0xa4, 0x99, 0x58, 0xdc, 0xd3, 0xe4, 0x39, 0xfc, 0x2f, 0xe8,
  0xc6, 0xdc, 0x8e, 0x3a, 0xf5, 0x2d, 0x03, 0x32, 0xb6, 0xff, 0xc1, 0x36,
  0xda, 0x31, 0x5b, 0xf6, 0xf6, 0x3b, 0xe3, 0x2e, 0x46, 0xca, 0x17, 0xf0,
  0x42, 0x16, 0x4a, 0xc3, 0xa6, 0x20, 0x15, 0x06, 0x38, 0xf3, 0x1c, 0x0e,
  0x48, 0xd3, 0x6b, 0xaf, 0xec, 0xe6, 0xf0, 0xc8, 0xd8, 0x46, 0xdf, 0x0b,
  0xea, 0xfc, 0x0d, 0xff, 0x01, 0x05, 0x19, 0xeb, 0x66, 0x0e, 0xf6, 0x03,
  0x1b, 0x21, 0x19, 0x0a, 0x3b, 0x3a, 0x0e, 0x09, 0xf0, 0xfc, 0xbe, 0xd6,
  0x59, 0x0f, 0xd1, 0xd4, 0x22, 0xe0, 0x0e, 0xfe, 0xec, 0xba, 0xea, 0xf4,
  0xf3, 0x28, 0x0a, 0xdf, 0xd9, 0x81, 0x1a, 0xe4, 0xf7, 0xe7, 0xfc, 0xca,
  0xc7, 0xeb, 0xcf, 0x02, 0xd6, 0x15, 0xf9, 0xbf, 0x30, 0xcd, 0x17, 0x17,
  0x48, 0x1d, 0x29, 0xed, 0xbe, 0x05, 0x15, 0x01, 0x49, 0xf1, 0x1e, 0xf2,
  0x4d, 0x3a, 0xf2, 0xb7, 0xb9, 0x0b, 0xda, 0xf7, 0xde, 0x04, 0x2a, 0xd9,
  0xf0, 0xf6, 0x06, 0x23, 0xcf, 0x20, 0xfb, 0x13, 0x11, 0x23, 0x28, 0x42,
  0x08, 0xfb, 0x1a, 0x33, 0xc7, 0x36, 0xc0, 0xc4, 0x3c, 0xeb, 0xbc, 0x2b,
  0x1a, 0xcf, 0x3a, 0xd2, 0xea, 0xfd, 0x81, 0x45, 0x24, 0xc4, 0x24, 0xd6,
  0xd7, 0xce, 0xc1, 0x41, 0x21, 0x0e, 0x0e, 0xe9, 0x30, 0x38, 0x51, 0x27,
  0x06, 0x0e, 0xb4, 0xe1, 0x20, 0xae, 0x60, 0x3d, 0x08, 0xf7, 0x02, 0xe8,
  0xe3, 0x31, 0x27, 0xc6, 0xfc, 0x2e, 0x24, 0xde, 0x20, 0x0b, 0x38, 0xf8,
  0xea, 0x39, 0x0c, 0xea, 0xe2, 0x03, 0x57, 0xb7, 0x11, 0x20, 0xd5, 0xfd,
  0x0c, 0xfa, 0x48, 0x36, 0xdb, 0x23, 0x09, 0x21, 0xa7, 0x35, 0xca, 0xf5,
  0xbd, 0xe4, 0xec, 0x3c, 0xe2, 0xfd, 0x1a, 0xb3, 0x10, 0x10, 0x1a, 0xe1,
  0xe4, 0xf4, 0xfb, 0x12, 0xf1, 0xfc, 0x2a, 0xec, 0xde, 0xc5, 0x01, 0xd4,
  0xc9, 0xd1, 0x11, 0x08, 0x15, 0xf9, 0xed, 0x10, 0xfc, 0xe1, 0xe4, 0xdf,
  0x08, 0xef, 0x05, 0xfc, 0x43, 0x03, 0xc3, 0x07, 0x1a, 0x46, 0x1a, 0x38,
  0x3f, 0xf3, 0x17, 0x02, 0x39, 0x2d, 0xd9, 0xef, 0xcc, 0xfb, 0xdb, 0x06,
  0x0d, 0x13, 0x04, 0xd7, 0xf1, 0x33, 0x04, 0x47, 0xaa, 0x0f, 0xdf, 0xdf,
  0xa8, 0x6c, 0xe9, 0x5b, 0x0a, 0x25, 0xc3, 0xe6, 0xc8, 0xc6, 0x37, 0x12,
  0xa6, 0xca, 0x7d, 0x5a, 0xef, 0x7f, 0x23, 0x50, 0x16, 0x29, 0x04, 0x55,
  0xe4, 0x32, 0x0c, 0xd3, 0x30, 0xfc, 0xf5, 0xc9, 0xec, 0xec, 0xc7, 0xe3,
  0x21, 0x02, 0x05, 0x18, 0xb5, 0xd3, 0xf4, 0xd0, 0x6c, 0xad, 0xd9, 0x48,
  0xc3, 0xe9, 0x66, 0x02, 0x06, 0x3c, 0x07, 0x41, 0xdf, 0xcc, 0xd1, 0xeb,
  0x46, 0x11, 0xe2, 0x00, 0x24, 0xeb, 0x0c, 0x0e, 0xdf, 0x54, 0xd8, 0xf2,
  0x27, 0xee, 0x14, 0x04, 0x2c, 0xe5, 0xb3, 0x2d, 0x4f, 0xe6, 0x07, 0xec,
  0xe7, 0x05, 0xf3, 0x01, 0x6b, 0x65, 0xed, 0x53, 0xc8, 0x1a, 0xfb, 0x61,
  0x07, 0xf8, 0x2d, 0x2c, 0xd8, 0xf6, 0xf1, 0xdb, 0xed, 0xc5, 0x28, 0x12,
  0x12, 0x2d, 0x0e, 0xf7, 0x51, 0x02, 0x39, 0xfe, 0x15, 0xf6, 0x0d, 0x47,
  0x20, 0x0a, 0xd3, 0x0b, 0x28, 0x07, 0x0f, 0xf1, 0x44, 0xfe, 0xfa, 0xe2,
  0xe4, 0xe2, 0xf8, 0xf0, 0x09, 0xf7, 0xe3, 0xdc, 0xc6, 0xcb, 0xca, 0x01,
  0x24, 0xe9, 0x2a, 0x04, 0xf6, 0xf3, 0x12, 0xda, 0xfa, 0xe7, 0xa6, 0xc4,
  0x34, 0x33, 0x0b, 0x4d, 0x2c, 0x94, 0x78, 0x3e, 0xf3, 0x5c, 0xe1, 0x26,
  0xdb, 0x43, 0xb0, 0xb4, 0x3f, 0x2c, 0x35, 0xbd, 0xc6, 0x81, 0x18, 0xba,
  0xdf, 0x92, 0x6b, 0x0e, 0x38, 0xdd, 0x23, 0x1b, 0xdf, 0xd5, 0x4d, 0x10,
  0x3f, 0xdf, 0xd6, 0x1a, 0xe5, 0xe8, 0x4c, 0xc9, 0x66, 0x48, 0x32, 0x3d,
  0x3b, 0xc8, 0xb7, 0xcf, 0xfc, 0xb9, 0x24, 0xdf, 0x40, 0x9f, 0xfa, 0xb0,
  0x33, 0x1c, 0xc2, 0x2f, 0x37, 0x37, 0xf1, 0x2d, 0x06, 0xc8, 0x1e, 0xbe,
  0x22, 0xdc, 0x26, 0x36, 0xff, 0x2f, 0x2d, 0x15, 0xf5, 0xbd, 0x47, 0xc6,
  0xff, 0xeb, 0x74, 0xda, 0xd1, 0xe3, 0x17, 0x21, 0x02, 0xd8, 0xdd, 0x0c,
  0xc4, 0x0b, 0xc9, 0x9e, 0x0b, 0xd9, 0xad, 0x47, 0xd3, 0x28, 0x1e, 0xcc,
  0xea, 0xdb, 0x42, 0xb8, 0x0c, 0x96, 0xce, 0xef, 0xe4, 0xb3, 0x21, 0x19,
  0xe6, 0xeb, 0xd4, 0x26, 0xe4, 0xf1, 0x6a, 0xea, 0xdc, 0xe1, 0xc0, 0x0d,
  0x1e, 0xed, 0x16, 0x0b, 0xf4, 0x01, 0xdf, 0xf4, 0x00, 0x1f, 0xfb, 0xeb,
  0x26, 0x2b, 0x0b, 0x33, 0xfc, 0x0c, 0x1b, 0xf0, 0xd3, 0xc6, 0xba, 0x5d,
  0xe3, 0xe1, 0x57, 0x5b, 0xd4, 0x18, 0x21, 0xc4, 0xbd, 0x24, 0x03, 0xf4,
  0xec, 0x2e, 0x13, 0x52, 0xfc, 0xa4, 0x3d, 0xf8, 0xbe, 0x91, 0x14, 0x2c,
  0x37, 0x30, 0x09, 0x58, 0x19, 0x3b, 0xe7, 0xdc, 0xcf, 0xe6, 0xe6, 0xce,
  0x39, 0xc8, 0x40, 0xa4, 0xe1, 0xe2, 0xb7, 0xdc, 0x15, 0xb3, 0xfc, 0x04,
  0xad, 0xcf, 0xe6, 0xa2, 0x02, 0x54, 0x8c, 0x02, 0x32, 0xda, 0xf9, 0x1a,
  0xca, 0x7f, 0x2f, 0xfd, 0xd5, 0xa5, 0xd5, 0x1e, 0xfe, 0x55, 0xef, 0x50,
  0x2e, 0xe2, 0x2c, 0xda, 0x2a, 0x30, 0x95, 0x2f, 0x05, 0xe2, 0x1c, 0x5a,
  0x23, 0x18, 0xcc, 0xc9, 0x9a, 0xbf, 0xd3, 0x02, 0x57, 0xb8, 0x06, 0xaf,
  0x2b, 0x0e, 0x23, 0x43, 0xd0, 0x26, 0x3e, 0x73, 0xc6, 0x1b, 0x35, 0xec,
  0x05, 0x30, 0xef, 0xb7, 0xce, 0xda, 0xff, 0x60, 0x01, 0x18, 0xf3, 0x10,
  0x5a, 0x20, 0x23, 0xf4, 0x19, 0x0e, 0xf0, 0x2a, 0x0d, 0xfe, 0xb2, 0x6f,
  0x10, 0x0e, 0x43, 0x09, 0xe7, 0xf7, 0x21, 0xd4, 0xdc, 0xb5, 0x11, 0xda,
  0xdc, 0xf9, 0xd5, 0xfb, 0xf0, 0xca, 0xde, 0xdf, 0x2f, 0xe3, 0x30, 0x04,
  0x0e, 0xb0, 0x10, 0xf0, 0x0d, 0xd2, 0x06, 0x8e, 0x28, 0xdc, 0xb4, 0x11,
  0x09, 0xb6, 0xff, 0x1f, 0x54, 0x02, 0x3e, 0x23, 0xfa, 0x12, 0xb3, 0x81,
  0x4e, 0x18, 0xfe, 0x24, 0x43, 0x8e, 0x49, 0xe2, 0xb3, 0x25, 0x1a, 0x43,
  0x51, 0xe5, 0x27, 0xcf, 0xdb, 0xe0, 0xf3, 0x38, 0xf2, 0x4e, 0xf6, 0xf6,
  0x28, 0x13, 0x25, 0xb1, 0x09, 0x1a, 0xf9, 0xf7, 0x24, 0x10, 0x29, 0x4d,
  0xb6, 0x33, 0xf9, 0x1a, 0xc7, 0xbe, 0xed, 0x0c, 0x30, 0xdc, 0xf8, 0xc3,
  0xcb, 0x0e, 0xe5, 0xc7, 0xed, 0x51, 0xfe, 0x0e, 0xfd, 0x0d, 0x44, 0xda,
  0x10, 0x21, 0xfd, 0xda, 0x01, 0xf6, 0x1f, 0x1d, 0x25, 0x10, 0x00, 0xf0,
  0xae, 0x23, 0xed, 0x29, 0xfa, 0xff, 0xff, 0xdf, 0x4d, 0x00, 0xf6, 0xf0,
  0x21, 0xf4, 0x19, 0xeb, 0xd0, 0x18, 0x0c, 0xfc, 0x3f, 0x10, 0x20, 0xf8,
  0xfb, 0xad, 0xff, 0xdc, 0xf5, 0x04, 0xcb, 0xd4, 0xdb, 0xea, 0x1d, 0xa8,
  0x29, 0x11, 0x07, 0xd4, 0x16, 0xfa, 0x14, 0xf3, 0x3d, 0xed, 0xef, 0x14,
  0xf0, 0x4c, 0x0e, 0x37, 0x62, 0x08, 0x5e, 0x2d, 0x0c, 0x5b, 0xee, 0xd5,
  0xb8, 0xe9, 0x09, 0x0d, 0xfa, 0xf1, 0xfc, 0xa6, 0xf6, 0x3c, 0xe5, 0x3a,
  0x12, 0xb9, 0xed, 0xe6, 0x4b, 0xb2, 0x33, 0x09, 0x23, 0x9a, 0xbd, 0xe9,
  0x1f, 0x33, 0x94, 0x81, 0x1e, 0x01, 0xf1, 0xd9, 0x38, 0xf2, 0x2b, 0xfe,
  0xd6, 0x0b, 0xe3, 0x67, 0x31, 0x02, 0x48, 0xba, 0xf7, 0xee, 0x14, 0x52,
  0x12, 0x1d, 0x48, 0x35, 0x00, 0x45, 0x0c, 0x0e, 0x28, 0x53, 0xf1, 0xe7,
  0xfd, 0x19, 0x26, 0x47, 0xfd, 0x29, 0xe3, 0xfb, 0x42, 0xee, 0x23, 0x08,
  0x20, 0xfb, 0x3c, 0xbd, 0x2f, 0xe0, 0x13, 0xd4, 0xe8, 0x3c, 0xc2, 0x16,
  0x26, 0xee, 0x43, 0xf5, 0x04, 0x17, 0xfb, 0xd9, 0x25, 0x0c, 0x34, 0x40,
  0x23, 0x3c, 0x21, 0x20, 0xed, 0x46, 0xe5, 0x13, 0xdf, 0xe8, 0x0d, 0xec,
  0x54, 0xeb, 0xec, 0xa0, 0x1d, 0xea, 0x0e, 0xec, 0xc9, 0xe2, 0x05, 0x19,
  0x1a, 0x13, 0x08, 0xde, 0x1e, 0xb3, 0x06, 0xde, 0xf2, 0xf6, 0xf2, 0xf7,
  0xeb, 0xf2, 0x10, 0xe4, 0x1a, 0x11, 0x58, 0xc6, 0x26, 0xdf, 0x04, 0xd7,
  0x46, 0xdd, 0xf9, 0xfa, 0xf3, 0x3e, 0xe6, 0x31, 0x4a, 0xea, 0x1b, 0x03,
  0x1c, 0x30, 0xc3, 0xd3, 0xa0, 0xdb, 0xf5, 0x10, 0xeb, 0x26, 0xf0, 0xd5,
  0xee, 0x28, 0x1e, 0x64, 0xd7, 0x4b, 0x30, 0xa6, 0x09, 0x61, 0x87, 0xe4,
  0xc9, 0xfa, 0x3d, 0x01, 0xda, 0xda, 0xdc, 0xf0, 0x09, 0xf0, 0x32, 0xf7,
  0xe5, 0x26, 0x15, 0xcc, 0x12, 0xac, 0x5b, 0x1f, 0xb4, 0x81, 0xce, 0xf0,
  0x5d, 0x65, 0xfa, 0xeb, 0xe8, 0xee, 0xe1, 0x1c, 0x56, 0x98, 0xfa, 0xaf,
  0xc7, 0x85, 0xce, 0xc3, 0xff, 0x59, 0xcb, 0x1c, 0xe4, 0x42, 0x1c, 0xe9,
  0xf1, 0x03, 0xfa, 0x5b, 0xc2, 0x47, 0xbc, 0xd2, 0xf8, 0x01, 0xcf, 0x3d,
  0x4e, 0xaf, 0x2c, 0x3d, 0x00, 0xcd, 0x06, 0x5f, 0x20, 0xc9, 0x2e, 0xde,
  0xb8, 0xa7, 0xfc, 0x0f, 0x4a, 0xe5, 0xb5, 0x1b, 0x32, 0xb9, 0xe0, 0xa6,
  0x32, 0x05, 0x60, 0x13, 0x14, 0x0f, 0xde, 0x54, 0xcf, 0x4f, 0x41, 0x1b,
  0x1e, 0xcb, 0xdb, 0xc7, 0xfd, 0xb3, 0x27, 0x16, 0x93, 0x7a, 0xf4, 0xd6,
  0x3d, 0xdb, 0xd8, 0x2c, 0xdf, 0xcc, 0x23, 0xd9, 0xc0, 0xe0, 0xc8, 0x10,
  0xbc, 0xe1, 0xd2, 0xfb, 0x1c, 0x1f, 0x4a, 0xfa, 0x0c, 0xf4, 0x03, 0xcf,
  0xfc, 0x49, 0xcc, 0xf8, 0x28, 0xca, 0xd5, 0x20, 0x1b, 0x0b, 0x31, 0x10,
  0xf7, 0x27, 0x42, 0x13, 0xe3, 0x12, 0x38, 0xc1, 0x30, 0x1f, 0xc9, 0x05,
  0xa1, 0x3d, 0xb2, 0x22, 0x05, 0x17, 0xf2, 0x0f, 0xd9, 0xa6, 0x7a, 0x33,
  0xf5, 0xf6, 0x2e, 0x74, 0x06, 0xd5, 0x4d, 0x27, 0xf6, 0xc9, 0x52, 0x1a,
  0xe6, 0xd2, 0xd7, 0xcb, 0x38, 0xe8, 0xf9, 0xc8, 0x0f, 0xce, 0x06, 0xc0,
  0xd9, 0x86, 0xe9, 0xf1, 0xf4, 0xc1, 0x12, 0xc6, 0x10, 0x10, 0xcf, 0xb3,
  0x44, 0x6c, 0xdb, 0x61, 0x20, 0x23, 0x19, 0xf1, 0xb7, 0xad, 0xe8, 0xf6,
  0x17, 0xf1, 0x10, 0xe5, 0x09, 0xd9, 0x58, 0x38, 0xee, 0x36, 0xad, 0xe7,
  0x38, 0xc6, 0x3d, 0x53, 0xaf, 0x25, 0xc0, 0xad, 0xed, 0xee, 0xde, 0xd4,
  0x57, 0x0b, 0x16, 0xeb, 0x44, 0xef, 0x02, 0x46, 0xda, 0x01, 0x21, 0x31,
  0xcc, 0x4a, 0x44, 0x1c, 0x0c, 0xdb, 0x1f, 0xd5, 0xf5, 0xe7, 0xec, 0x30,
  0xef, 0x00, 0xda, 0x01, 0x5f, 0x3a, 0x04, 0x00, 0xdc, 0x06, 0xef, 0x72,
  0x23, 0x22, 0x8b, 0x2f, 0x24, 0x2b, 0x0e, 0xff, 0x3b, 0xe0, 0x41, 0x14,
  0xff, 0xf1, 0x05, 0xc3, 0xf1, 0x02, 0xbb, 0xf9, 0x11, 0x0f, 0xe7, 0xe0,
  0x4b, 0xd0, 0x1e, 0xed, 0xe3, 0xfe, 0x1a, 0x22, 0xde, 0xf4, 0xe8, 0x81,
  0xa6, 0xf9, 0xff, 0xff, 0x04, 0x00, 0x00, 0x00, 0x80, 0x00, 0x00, 0x00,
  0x8d, 0x00, 0x00, 0x00, 0xdf, 0x00, 0x00, 0x00, 0x2c, 0x00, 0x00, 0x00,
  0xc1, 0xfe, 0xff, 0xff, 0x0f, 0xfc, 0xff, 0xff, 0x35, 0x01, 0x00, 0x00,
  0xbe, 0xfe, 0xff, 0xff, 0x8b, 0x02, 0x00, 0x00, 0x6f, 0xff, 0xff, 0xff,
  0x78, 0x00, 0x00, 0x00, 0x0e, 0xff, 0xff, 0xff, 0x6f, 0x03, 0x00, 0x00,
  0xf6, 0xff, 0xff, 0xff, 0x88, 0x02, 0x00, 0x00, 0x81, 0x01, 0x00, 0x00,
  0xb6, 0xfe, 0xff, 0xff, 0xbc, 0xfe, 0xff, 0xff, 0x6e, 0x00, 0x00, 0x00,
  0x4f, 0xff, 0xff, 0xff, 0x26, 0x01, 0x00, 0x00, 0x4e, 0x02, 0x00, 0x00,
  0x01, 0x02, 0x00, 0x00, 0xf7, 0x00, 0x00, 0x00, 0x34, 0x01, 0x00, 0x00,
  0xfb, 0xff, 0xff, 0xff, 0x38, 0xff, 0xff, 0xff, 0x71, 0x00, 0x00, 0x00,
  0x82, 0xff, 0xff, 0xff, 0x73, 0x00, 0x00, 0x00, 0x60, 0x02, 0x00, 0x00,
  0x94, 0xfe, 0xff, 0xff, 0xb2, 0xfe, 0xff, 0xff, 0x32, 0xfa, 0xff, 0xff,
  0x04, 0x00, 0x00, 0x00, 0x20, 0x00, 0x00, 0x00, 0x8a, 0x92, 0x37, 0x49,
  0x11, 0xb4, 0x24, 0xa7, 0x67, 0xa0, 0x60, 0xd7, 0x3f, 0xd1, 0xcd, 0x7f,
  0x55, 0x24, 0x76, 0x84, 0xb6, 0xa6, 0xc2, 0x81, 0xc7, 0x3c, 0x8f, 0x29,
  0xd2, 0xc3, 0x64, 0x5a, 0x5e, 0xfa, 0xff, 0xff, 0x04, 0x00, 0x00, 0x00,
  0x04, 0x00, 0x00, 0x00, 0xfe, 0xfe, 0xff, 0xff, 0x6e, 0xfa, 0xff, 0xff,
  0x04, 0x00, 0x00, 0x00, 0x08, 0x00, 0x00, 0x00, 0xff, 0xff, 0xff, 0xff,
  0xa0, 0x00, 0x00, 0x00, 0x82, 0xfa, 0xff, 0xff, 0x04, 0x00, 0x00, 0x00,
  0x0c, 0x00, 0x00, 0x00, 0xff, 0xff, 0xff, 0xff, 0x0a, 0x00, 0x00, 0x00,
  0x20, 0x00, 0x00, 0x00, 0x9a, 0xfa, 0xff, 0xff, 0x04, 0x00, 0x00, 0x00,
  0x0c, 0x00, 0x00, 0x00, 0xff, 0xff, 0xff, 0xff, 0x0a, 0x00, 0x00, 0x00,
  0x10, 0x00, 0x00, 0x00, 0xf0, 0xd7, 0xff, 0xff, 0xb6, 0xfa, 0xff, 0xff,
  0x04, 0x00, 0x00, 0x00, 0x0c, 0x00, 0x00, 0x00, 0xff, 0xff, 0xff, 0xff,
  0x15, 0x00, 0x00, 0x00, 0x10, 0x00, 0x00, 0x00, 0xce, 0xfa, 0xff, 0xff,
  0x04, 0x00, 0x00, 0x00, 0x04, 0x00, 0x00, 0x00, 0xfd, 0xff, 0xff, 0xff,
  0xde, 0xfa, 0xff, 0xff, 0x04, 0x00, 0x00, 0x00, 0x04, 0x00, 0x00, 0x00,
  0x20, 0x00, 0x00, 0x00, 0xee, 0xfa, 0xff, 0xff, 0x04, 0x00, 0x00, 0x00,
  0x04, 0x00, 0x00, 0x00, 0x15, 0x00, 0x00, 0x00, 0xfe, 0xfa, 0xff, 0xff,
  0x04, 0x00, 0x00, 0x00, 0x04, 0x00, 0x00, 0x00, 0x01, 0x00, 0x00, 0x00,
  0x0e, 0xfb, 0xff, 0xff, 0x04, 0x00, 0x00, 0x00, 0x04, 0x00, 0x00, 0x00,
  0x00, 0x00, 0x00, 0x00, 0x5c, 0xd8, 0xff, 0xff, 0x60, 0xd8, 0xff, 0xff,
  0x0f, 0x00, 0x00, 0x00, 0x4d, 0x4c, 0x49, 0x52, 0x20, 0x43, 0x6f, 0x6e,
  0x76, 0x65, 0x72, 0x74, 0x65, 0x64, 0x2e, 0x00, 0x01, 0x00, 0x00, 0x00,
  0x14, 0x00, 0x00, 0x00, 0x00, 0x00, 0x0e, 0x00, 0x18, 0x00, 0x14, 0x00,
  0x10, 0x00, 0x0c, 0x00, 0x08, 0x00, 0x04, 0x00, 0x0e, 0x00, 0x00, 0x00,
  0x14, 0x00, 0x00, 0x00, 0x1c, 0x00, 0x00, 0x00, 0x84, 0x05, 0x00, 0x00,
  0x88, 0x05, 0x00, 0x00, 0x8c, 0x05, 0x00, 0x00, 0x04, 0x00, 0x00, 0x00,
  0x6d, 0x61, 0x69, 0x6e, 0x00, 0x00, 0x00, 0x00, 0x19, 0x00, 0x00, 0x00,
  0x4c, 0x05, 0x00, 0x00, 0x04, 0x05, 0x00, 0x00, 0xa4, 0x04, 0x00, 0x00,
  0x60, 0x04, 0x00, 0x00, 0x38, 0x04, 0x00, 0x00, 0xf8, 0x03, 0x00, 0x00,
  0xa8, 0x03, 0x00, 0x00, 0x74, 0x03, 0x00, 0x00, 0x40, 0x03, 0x00, 0x00,
  0x18, 0x03, 0x00, 0x00, 0xe4, 0x02, 0x00, 0x00, 0x90, 0x02, 0x00, 0x00,
  0x68, 0x02, 0x00, 0x00, 0x34, 0x02, 0x00, 0x00, 0xf0, 0x01, 0x00, 0x00,
  0xbc, 0x01, 0x00, 0x00, 0x88, 0x01, 0x00, 0x00, 0x60, 0x01, 0x00, 0x00,
  0x2c, 0x01, 0x00, 0x00, 0xe8, 0x00, 0x00, 0x00, 0xc0, 0x00, 0x00, 0x00,
  0x84, 0x00, 0x00, 0x00, 0x4c, 0x00, 0x00, 0x00, 0x28, 0x00, 0x00, 0x00,
  0x04, 0x00, 0x00, 0x00, 0x26, 0xfc, 0xff, 0xff, 0x0c, 0x00, 0x00, 0x00,
  0x10, 0x00, 0x00, 0x00, 0x0c, 0x00, 0x00, 0x00, 0x01, 0x00, 0x00, 0x00,
  0x2f, 0x00, 0x00, 0x00, 0x01, 0x00, 0x00, 0x00, 0x2e, 0x00, 0x00, 0x00,
  0x46, 0xfc, 0xff, 0xff, 0x0c, 0x00, 0x00, 0x00, 0x10, 0x00, 0x00, 0x00,
  0x0b, 0x00, 0x00, 0x00, 0x01, 0x00, 0x00, 0x00, 0x2e, 0x00, 0x00, 0x00,
  0x01, 0x00, 0x00, 0x00, 0x2d, 0x00, 0x00, 0x00, 0xaa, 0xfb, 0xff, 0xff,
  0x14, 0x00, 0x00, 0x00, 0x00, 0x00, 0x00, 0x08, 0x10, 0x00, 0x00, 0x00,
  0x14, 0x00, 0x00, 0x00, 0x0a, 0x00, 0x00, 0x00, 0x74, 0xd9, 0xff, 0xff,
  0x01, 0x00, 0x00, 0x00, 0x2d, 0x00, 0x00, 0x00, 0x03, 0x00, 0x00, 0x00,
  0x2c, 0x00, 0x00, 0x00, 0x0c, 0x00, 0x00, 0x00, 0x0b, 0x00, 0x00, 0x00,
  0xde, 0xfb, 0xff, 0xff, 0x14, 0x00, 0x00, 0x00, 0x00, 0x00, 0x00, 0x08,
  0x14, 0x00, 0x00, 0x00, 0x18, 0x00, 0x00, 0x00, 0x0a, 0x00, 0x00, 0x00,
  0xce, 0xfb, 0xff, 0xff, 0x00, 0x00, 0x00, 0x01, 0x01, 0x00, 0x00, 0x00,
  0x2c, 0x00, 0x00, 0x00, 0x03, 0x00, 0x00, 0x00, 0x2b, 0x00, 0x00, 0x00,
  0x0e, 0x00, 0x00, 0x00, 0x0d, 0x00, 0x00, 0x00, 0xd2, 0xfc, 0xff, 0xff,
  0x0c, 0x00, 0x00, 0x00, 0x10, 0x00, 0x00, 0x00, 0x04, 0x00, 0x00, 0x00,
  0x01, 0x00, 0x00, 0x00, 0x2b, 0x00, 0x00, 0x00, 0x02, 0x00, 0x00, 0x00,
  0x2a, 0x00, 0x00, 0x00, 0x0a, 0x00, 0x00, 0x00, 0x3a, 0xfc, 0xff, 0xff,
  0x14, 0x00, 0x00, 0x00, 0x00, 0x00, 0x00, 0x05, 0x24, 0x00, 0x00, 0x00,
  0x28, 0x00, 0x00, 0x00, 0x09, 0x00, 0x00, 0x00, 0x76, 0xfe, 0xff, 0xff,
  0x01, 0x00, 0x00, 0x00, 0x02, 0x00, 0x00, 0x00, 0x01, 0x00, 0x00, 0x00,
  0x02, 0x00, 0x00, 0x00, 0x00, 0x00, 0x00, 0x01, 0x01, 0x00, 0x00, 0x00,
  0x2a, 0x00, 0x00, 0x00, 0x01, 0x00, 0x00, 0x00, 0x29, 0x00, 0x00, 0x00,
  0x7a, 0xfc, 0xff, 0xff, 0x14, 0x00, 0x00, 0x00, 0x00, 0x00, 0x00, 0x34,
  0x10, 0x00, 0x00, 0x00, 0x14, 0x00, 0x00, 0x00, 0x05, 0x00, 0x00, 0x00,
  0x44, 0xda, 0xff, 0xff, 0x01, 0x00, 0x00, 0x00, 0x29, 0x00, 0x00, 0x00,
  0x02, 0x00, 0x00, 0x00, 0x28, 0x00, 0x00, 0x00, 0x07, 0x00, 0x00, 0x00,
  0x66, 0xfd, 0xff, 0xff, 0x0c, 0x00, 0x00, 0x00, 0x10, 0x00, 0x00, 0x00,
  0x04, 0x00, 0x00, 0x00, 0x01, 0x00, 0x00, 0x00, 0x28, 0x00, 0x00, 0x00,
  0x02, 0x00, 0x00, 0x00, 0x27, 0x00, 0x00, 0x00, 0x09, 0x00, 0x00, 0x00,
  0xce, 0xfc, 0xff, 0xff, 0x14, 0x00, 0x00, 0x00, 0x00, 0x00, 0x00, 0x0b,
  0x10, 0x00, 0x00, 0x00, 0x14, 0x00, 0x00, 0x00, 0x08, 0x00, 0x00, 0x00,
  0x98, 0xda, 0xff, 0xff, 0x01, 0x00, 0x00, 0x00, 0x27, 0x00, 0x00, 0x00,
  0x02, 0x00, 0x00, 0x00, 0x26, 0x00, 0x00, 0x00, 0x0f, 0x00, 0x00, 0x00,
  0xfe, 0xfc, 0xff, 0xff, 0x14, 0x00, 0x00, 0x00, 0x00, 0x00, 0x00, 0x15,
  0x10, 0x00, 0x00, 0x00, 0x14, 0x00, 0x00, 0x00, 0x07, 0x00, 0x00, 0x00,
  0xc8, 0xda, 0xff, 0xff, 0x01, 0x00, 0x00, 0x00, 0x26, 0x00, 0x00, 0x00,
  0x02, 0x00, 0x00, 0x00, 0x25, 0x00, 0x00, 0x00, 0x10, 0x00, 0x00, 0x00,
  0x2e, 0xfd, 0xff, 0xff, 0x14, 0x00, 0x00, 0x00, 0x00, 0x00, 0x00, 0x01,
  0x1c, 0x00, 0x00, 0x00, 0x20, 0x00, 0x00, 0x00, 0x06, 0x00, 0x00, 0x00,
  0x68, 0xfe, 0xff, 0xff, 0x00, 0x00, 0x00, 0x01, 0x01, 0x00, 0x00, 0x00,
  0x01, 0x00, 0x00, 0x00, 0x01, 0x00, 0x00, 0x00, 0x25, 0x00, 0x00, 0x00,
  0x03, 0x00, 0x00, 0x00, 0x24, 0x00, 0x00, 0x00, 0x12, 0x00, 0x00, 0x00,
  0x11, 0x00, 0x00, 0x00, 0x6e, 0xfd, 0xff, 0xff, 0x14, 0x00, 0x00, 0x00,
  0x00, 0x00, 0x00, 0x34, 0x10, 0x00, 0x00, 0x00, 0x14, 0x00, 0x00, 0x00,
  0x05, 0x00, 0x00, 0x00, 0x38, 0xdb, 0xff, 0xff, 0x01, 0x00, 0x00, 0x00,
  0x24, 0x00, 0x00, 0x00, 0x02, 0x00, 0x00, 0x00, 0x23, 0x00, 0x00, 0x00,
  0x05, 0x00, 0x00, 0x00, 0x5a, 0xfe, 0xff, 0xff, 0x0c, 0x00, 0x00, 0x00,
  0x10, 0x00, 0x00, 0x00, 0x04, 0x00, 0x00, 0x00, 0x01, 0x00, 0x00, 0x00,
  0x23, 0x00, 0x00, 0x00, 0x02, 0x00, 0x00, 0x00, 0x22, 0x00, 0x00, 0x00,
  0x08, 0x00, 0x00, 0x00, 0xc2, 0xfd, 0xff, 0xff, 0x24, 0x00, 0x00, 0x00,
  0x00, 0x00, 0x00, 0x05, 0x34, 0x00, 0x00, 0x00, 0x38, 0x00, 0x00, 0x00,
  0x09, 0x00, 0x00, 0x00, 0x00, 0x00, 0x0e, 0x00, 0x18, 0x00, 0x17, 0x00,
  0x10, 0x00, 0x0c, 0x00, 0x08, 0x00, 0x04, 0x00, 0x0e, 0x00, 0x00, 0x00,
  0x01, 0x00, 0x00, 0x00, 0x02, 0x00, 0x00, 0x00, 0x01, 0x00, 0x00, 0x00,
  0x02, 0x00, 0x00, 0x00, 0x00, 0x00, 0x00, 0x01, 0x01, 0x00, 0x00, 0x00,
  0x22, 0x00, 0x00, 0x00, 0x01, 0x00, 0x00, 0x00, 0x21, 0x00, 0x00, 0x00,
  0x12, 0xfe, 0xff, 0xff, 0x14, 0x00, 0x00, 0x00, 0x00, 0x00, 0x00, 0x34,
  0x10, 0x00, 0x00, 0x00, 0x14, 0x00, 0x00, 0x00, 0x05, 0x00, 0x00, 0x00,
  0xdc, 0xdb, 0xff, 0xff, 0x01, 0x00, 0x00, 0x00, 0x21, 0x00, 0x00, 0x00,
  0x02, 0x00, 0x00, 0x00, 0x20, 0x00, 0x00, 0x00, 0x07, 0x00, 0x00, 0x00,
  0xfe, 0xfe, 0xff, 0xff, 0x0c, 0x00, 0x00, 0x00, 0x10, 0x00, 0x00, 0x00,
  0x04, 0x00, 0x00, 0x00, 0x01, 0x00, 0x00, 0x00, 0x20, 0x00, 0x00, 0x00,
  0x02, 0x00, 0x00, 0x00, 0x1f, 0x00, 0x00, 0x00, 0x06, 0x00, 0x00, 0x00,
  0x66, 0xfe, 0xff, 0xff, 0x14, 0x00, 0x00, 0x00, 0x00, 0x00, 0x00, 0x0b,
  0x10, 0x00, 0x00, 0x00, 0x14, 0x00, 0x00, 0x00, 0x08, 0x00, 0x00, 0x00,
  0x30, 0xdc, 0xff, 0xff, 0x01, 0x00, 0x00, 0x00, 0x1f, 0x00, 0x00, 0x00,
  0x02, 0x00, 0x00, 0x00, 0x1e, 0x00, 0x00, 0x00, 0x13, 0x00, 0x00, 0x00,
  0x96, 0xfe, 0xff, 0xff, 0x14, 0x00, 0x00, 0x00, 0x00, 0x00, 0x00, 0x15,
  0x10, 0x00, 0x00, 0x00, 0x14, 0x00, 0x00, 0x00, 0x07, 0x00, 0x00, 0x00,
  0x60, 0xdc, 0xff, 0xff, 0x01, 0x00, 0x00, 0x00, 0x1e, 0x00, 0x00, 0x00,
  0x02, 0x00, 0x00, 0x00, 0x1d, 0x00, 0x00, 0x00, 0x14, 0x00, 0x00, 0x00,
  0xc6, 0xfe, 0xff, 0xff, 0x20, 0x00, 0x00, 0x00, 0x00, 0x00, 0x00, 0x01,
  0x28, 0x00, 0x00, 0x00, 0x2c, 0x00, 0x00, 0x00, 0x06, 0x00, 0x00, 0x00,
  0x0c, 0x00, 0x10, 0x00, 0x00, 0x00, 0x0c, 0x00, 0x08, 0x00, 0x07, 0x00,
  0x0c, 0x00, 0x00, 0x00, 0x00, 0x00, 0x00, 0x01, 0x01, 0x00, 0x00, 0x00,
  0x01, 0x00, 0x00, 0x00, 0x01, 0x00, 0x00, 0x00, 0x1d, 0x00, 0x00, 0x00,
  0x03, 0x00, 0x00, 0x00, 0x1c, 0x00, 0x00, 0x00, 0x16, 0x00, 0x00, 0x00,
  0x15, 0x00, 0x00, 0x00, 0x12, 0xff, 0xff, 0xff, 0x14, 0x00, 0x00, 0x00,
  0x00, 0x00, 0x00, 0x34, 0x10, 0x00, 0x00, 0x00, 0x14, 0x00, 0x00, 0x00,
  0x05, 0x00, 0x00, 0x00, 0xdc, 0xdc, 0xff, 0xff, 0x01, 0x00, 0x00, 0x00,
  0x1c, 0x00, 0x00, 0x00, 0x02, 0x00, 0x00, 0x00, 0x1b, 0x00, 0x00, 0x00,
  0x05, 0x00, 0x00, 0x00, 0x00, 0x00, 0x0a, 0x00, 0x10, 0x00, 0x0c, 0x00,
  0x08, 0x00, 0x04, 0x00, 0x0a, 0x00, 0x00, 0x00, 0x0c, 0x00, 0x00, 0x00,
  0x10, 0x00, 0x00, 0x00, 0x04, 0x00, 0x00, 0x00, 0x01, 0x00, 0x00, 0x00,
  0x1b, 0x00, 0x00, 0x00, 0x02, 0x00, 0x00, 0x00, 0x17, 0x00, 0x00, 0x00,
  0x1a, 0x00, 0x00, 0x00, 0x72, 0xff, 0xff, 0xff, 0x1c, 0x00, 0x00, 0x00,
  0x00, 0x00, 0x00, 0x3b, 0x1c, 0x00, 0x00, 0x00, 0x20, 0x00, 0x00, 0x00,
  0x03, 0x00, 0x00, 0x00, 0x00, 0x00, 0x06, 0x00, 0x08, 0x00, 0x04, 0x00,
  0x06, 0x00, 0x00, 0x00, 0x03, 0x00, 0x00, 0x00, 0x01, 0x00, 0x00, 0x00,
  0x1a, 0x00, 0x00, 0x00, 0x03, 0x00, 0x00, 0x00, 0x19, 0x00, 0x00, 0x00,
  0x03, 0x00, 0x00, 0x00, 0x04, 0x00, 0x00, 0x00, 0xb2, 0xff, 0xff, 0xff,
  0x24, 0x00, 0x00, 0x00, 0x00, 0x00, 0x00, 0x20, 0x24, 0x00, 0x00, 0x00,
  0x28, 0x00, 0x00, 0x00, 0x02, 0x00, 0x00, 0x00, 0x00, 0x00, 0x0e, 0x00,
  0x08, 0x00, 0x00, 0x00, 0x00, 0x00, 0x00, 0x00, 0x00, 0x00, 0x04, 0x00,
  0x0e, 0x00, 0x00, 0x00, 0x01, 0x00, 0x00, 0x00, 0x01, 0x00, 0x00, 0x00,
  0x19, 0x00, 0x00, 0x00, 0x04, 0x00, 0x00, 0x00, 0x18, 0x00, 0x00, 0x00,
  0x01, 0x00, 0x00, 0x00, 0x02, 0x00, 0x00, 0x00, 0x02, 0x00, 0x00, 0x00,
  0x00, 0x00, 0x0e, 0x00, 0x1a, 0x00, 0x14, 0x00, 0x10, 0x00, 0x0c, 0x00,
  0x0b, 0x00, 0x04, 0x00, 0x0e, 0x00, 0x00, 0x00, 0x1c, 0x00, 0x00, 0x00,
  0x00, 0x00, 0x00, 0x37, 0x1c, 0x00, 0x00, 0x00, 0x20, 0x00, 0x00, 0x00,
  0x01, 0x00, 0x00, 0x00, 0x00, 0x00, 0x06, 0x00, 0x08, 0x00, 0x07, 0x00,
  0x06, 0x00, 0x00, 0x00, 0x00, 0x00, 0x00, 0x02, 0x01, 0x00, 0x00, 0x00,
  0x18, 0x00, 0x00, 0x00, 0x01, 0x00, 0x00, 0x00, 0x17, 0x00, 0x00, 0x00,
  0x00, 0x00, 0x0a, 0x00, 0x0c, 0x00, 0x00, 0x00, 0x08, 0x00, 0x04, 0x00,
  0x0a, 0x00, 0x00, 0x00, 0x08, 0x00, 0x00, 0x00, 0x0c, 0x00, 0x00, 0x00,
  0x01, 0x00, 0x00, 0x00, 0x17, 0x00, 0x00, 0x00, 0x01, 0x00, 0x00, 0x00,
  0x00, 0x00, 0x00, 0x00, 0x01, 0x00, 0x00, 0x00, 0x2f, 0x00, 0x00, 0x00,
  0x01, 0x00, 0x00, 0x00, 0x00, 0x00, 0x00, 0x00, 0x30, 0x00, 0x00, 0x00,
  0xa0, 0x21, 0x00, 0x00, 0x48, 0x21, 0x00, 0x00, 0xf0, 0x20, 0x00, 0x00,
  0xb4, 0x20, 0x00, 0x00, 0x78, 0x20, 0x00, 0x00, 0x3c, 0x20, 0x00, 0x00,
  0xfc, 0x1f, 0x00, 0x00, 0xc0, 0x1f, 0x00, 0x00, 0x80, 0x1f, 0x00, 0x00,
  0x40, 0x1f, 0x00, 0x00, 0x00, 0x1f, 0x00, 0x00, 0x90, 0x1e, 0x00, 0x00,
  0x28, 0x1e, 0x00, 0x00, 0x54, 0x1c, 0x00, 0x00, 0x78, 0x1a, 0x00, 0x00,
  0x14, 0x1a, 0x00, 0x00, 0xb0, 0x19, 0x00, 0x00, 0xdc, 0x17, 0x00, 0x00,
  0xf8, 0x15, 0x00, 0x00, 0x94, 0x15, 0x00, 0x00, 0x30, 0x15, 0x00, 0x00,
  0x1c, 0x14, 0x00, 0x00, 0xf8, 0x12, 0x00, 0x00, 0x80, 0x12, 0x00, 0x00,
  0x14, 0x12, 0x00, 0x00, 0xbc, 0x11, 0x00, 0x00, 0x60, 0x11, 0x00, 0x00,
  0xd0, 0x10, 0x00, 0x00, 0x28, 0x10, 0x00, 0x00, 0x1c, 0x0f, 0x00, 0x00,
  0x00, 0x0e, 0x00, 0x00, 0xac, 0x0c, 0x00, 0x00, 0x64, 0x0b, 0x00, 0x00,
  0xbc, 0x0a, 0x00, 0x00, 0x20, 0x0a, 0x00, 0x00, 0x80, 0x09, 0x00, 0x00,
  0xd8, 0x08, 0x00, 0x00, 0xcc, 0x07, 0x00, 0x00, 0xb0, 0x06, 0x00, 0x00,
  0x5c, 0x05, 0x00, 0x00, 0x14, 0x04, 0x00, 0x00, 0x6c, 0x03, 0x00, 0x00,
  0xd0, 0x02, 0x00, 0x00, 0x4c, 0x02, 0x00, 0x00, 0x88, 0x01, 0x00, 0x00,
  0xe4, 0x00, 0x00, 0x00, 0x60, 0x00, 0x00, 0x00, 0x04, 0x00, 0x00, 0x00,
  0x36, 0xdf, 0xff, 0xff, 0x00, 0x00, 0x00, 0x01, 0x14, 0x00, 0x00, 0x00,
  0x1c, 0x00, 0x00, 0x00, 0x1c, 0x00, 0x00, 0x00, 0x30, 0x00, 0x00, 0x00,
  0x34, 0x00, 0x00, 0x00, 0x02, 0x00, 0x00, 0x00, 0xff, 0xff, 0xff, 0xff,
  0x01, 0x00, 0x00, 0x00, 0x1c, 0xdf, 0xff, 0xff, 0x1b, 0x00, 0x00, 0x00,
  0x53, 0x74, 0x61, 0x74, 0x65, 0x66, 0x75, 0x6c, 0x50, 0x61, 0x72, 0x74,
  0x69, 0x74, 0x69, 0x6f, 0x6e, 0x65, 0x64, 0x43, 0x61, 0x6c, 0x6c, 0x5f,
  0x31, 0x3a, 0x30, 0x00, 0x02, 0x00, 0x00, 0x00, 0x01, 0x00, 0x00, 0x00,
  0x01, 0x00, 0x00, 0x00, 0x52, 0xee, 0xff, 0xff, 0x00, 0x00, 0x00, 0x01,
  0x18, 0x00, 0x00, 0x00, 0x20, 0x00, 0x00, 0x00, 0x40, 0x00, 0x00, 0x00,
  0x2f, 0x00, 0x00, 0x00, 0x00, 0x00, 0x00, 0x09, 0x58, 0x00, 0x00, 0x00,
  0x02, 0x00, 0x00, 0x00, 0xff, 0xff, 0xff, 0xff, 0x01, 0x00, 0x00, 0x00,
  0x6c, 0xe2, 0xff, 0xff, 0x08, 0x00, 0x00, 0x00, 0x14, 0x00, 0x00, 0x00,
  0x01, 0x00, 0x00, 0x00, 0x80, 0xff, 0xff, 0xff, 0xff, 0xff, 0xff, 0xff,
  0x00, 0x00, 0x00, 0x00, 0x01, 0x00, 0x00, 0x00, 0x00, 0x00, 0x80, 0x3b,
  0x1c, 0x00, 0x00, 0x00, 0x53, 0x74, 0x61, 0x74, 0x65, 0x66, 0x75, 0x6c,
  0x50, 0x61, 0x72, 0x74, 0x69, 0x74, 0x69, 0x6f, 0x6e, 0x65, 0x64, 0x43,
  0x61, 0x6c, 0x6c, 0x5f, 0x31, 0x3a, 0x30, 0x31, 0x00, 0x00, 0x00, 0x00,
  0x02, 0x00, 0x00, 0x00, 0x01, 0x00, 0x00, 0x00, 0x01, 0x00, 0x00, 0x00,
  0xd2, 0xee, 0xff, 0xff, 0x00, 0x00, 0x00, 0x01, 0x18, 0x00, 0x00, 0x00,
  0x20, 0x00, 0x00, 0x00, 0x40, 0x00, 0x00, 0x00, 0x2e, 0x00, 0x00, 0x00,
  0x00, 0x00, 0x00, 0x09, 0x78, 0x00, 0x00, 0x00, 0x02, 0x00, 0x00, 0x00,
  0xff, 0xff, 0xff, 0xff, 0x01, 0x00, 0x00, 0x00, 0xec, 0xe2, 0xff, 0xff,
  0x08, 0x00, 0x00, 0x00, 0x14, 0x00, 0x00, 0x00, 0x01, 0x00, 0x00, 0x00,
  0x22, 0x00, 0x00, 0x00, 0x00, 0x00, 0x00, 0x00, 0x00, 0x00, 0x00, 0x00,
  0x01, 0x00, 0x00, 0x00, 0xf5, 0xee, 0xd4, 0x3d, 0x3c, 0x00, 0x00, 0x00,
  0x73, 0x65, 0x71, 0x75, 0x65, 0x6e, 0x74, 0x69, 0x61, 0x6c, 0x5f, 0x33,
  0x5f, 0x31, 0x2f, 0x64, 0x65, 0x6e, 0x73, 0x65, 0x5f, 0x37, 0x5f, 0x31,
  0x2f, 0x4d, 0x61, 0x74, 0x4d, 0x75, 0x6c, 0x3b, 0x73, 0x65, 0x71, 0x75,
  0x65, 0x6e, 0x74, 0x69, 0x61, 0x6c, 0x5f, 0x33, 0x5f, 0x31, 0x2f, 0x64,
  0x65, 0x6e, 0x73, 0x65, 0x5f, 0x37, 0x5f, 0x31, 0x2f, 0x41, 0x64, 0x64,
  0x00, 0x00, 0x00, 0x00, 0x02, 0x00, 0x00, 0x00, 0x01, 0x00, 0x00, 0x00,
  0x01, 0x00, 0x00, 0x00, 0x72, 0xef, 0xff, 0xff, 0x00, 0x00, 0x00, 0x01,
  0x18, 0x00, 0x00, 0x00, 0x20, 0x00, 0x00, 0x00, 0x40, 0x00, 0x00, 0x00,
  0x2d, 0x00, 0x00, 0x00, 0x00, 0x00, 0x00, 0x09, 0x98, 0x00, 0x00, 0x00,
  0x02, 0x00, 0x00, 0x00, 0xff, 0xff, 0xff, 0xff, 0x20, 0x00, 0x00, 0x00,
  0x8c, 0xe3, 0xff, 0xff, 0x08, 0x00, 0x00, 0x00, 0x14, 0x00, 0x00, 0x00,
  0x01, 0x00, 0x00, 0x00, 0x80, 0xff, 0xff, 0xff, 0xff, 0xff, 0xff, 0xff,
  0x00, 0x00, 0x00, 0x00, 0x01, 0x00, 0x00, 0x00, 0xf3, 0xf5, 0x38, 0x3d,
  0x5e, 0x00, 0x00, 0x00, 0x73, 0x65, 0x71, 0x75, 0x65, 0x6e, 0x74, 0x69,
  0x61, 0x6c, 0x5f, 0x33, 0x5f, 0x31, 0x2f, 0x64, 0x65, 0x6e, 0x73, 0x65,
  0x5f, 0x36, 0x5f, 0x31, 0x2f, 0x4d, 0x61, 0x74, 0x4d, 0x75, 0x6c, 0x3b,
  0x73, 0x65, 0x71, 0x75, 0x65, 0x6e, 0x74, 0x69, 0x61, 0x6c, 0x5f, 0x33,
  0x5f, 0x31, 0x2f, 0x64, 0x65, 0x6e, 0x73, 0x65, 0x5f, 0x36, 0x5f, 0x31,
  0x2f, 0x52, 0x65, 0x6c, 0x75, 0x3b, 0x73, 0x65, 0x71, 0x75, 0x65, 0x6e,
  0x74, 0x69, 0x61, 0x6c, 0x5f, 0x33, 0x5f, 0x31, 0x2f, 0x64, 0x65, 0x6e,
  0x73, 0x65, 0x5f, 0x36, 0x5f, 0x31, 0x2f, 0x42, 0x69, 0x61, 0x73, 0x41,
  0x64, 0x64, 0x00, 0x00, 0x02, 0x00, 0x00, 0x00, 0x01, 0x00, 0x00, 0x00,
  0x20, 0x00, 0x00, 0x00, 0x32, 0xf0, 0xff, 0xff, 0x00, 0x00, 0x00, 0x01,
  0x18, 0x00, 0x00, 0x00, 0x20, 0x00, 0x00, 0x00, 0x3c, 0x00, 0x00, 0x00,
  0x2c, 0x00, 0x00, 0x00, 0x00, 0x00, 0x00, 0x09, 0x58, 0x00, 0x00, 0x00,
  0x02, 0x00, 0x00, 0x00, 0xff, 0xff, 0xff, 0xff, 0xa0, 0x00, 0x00, 0x00,
  0x4c, 0xe4, 0xff, 0xff, 0x08, 0x00, 0x00, 0x00, 0x10, 0x00, 0x00, 0x00,
  0x01, 0x00, 0x00, 0x00, 0x87, 0xff, 0xff, 0xff, 0xff, 0xff, 0xff, 0xff,
  0x01, 0x00, 0x00, 0x00, 0xa5, 0x57, 0x37, 0x3e, 0x22, 0x00, 0x00, 0x00,
  0x73, 0x65, 0x71, 0x75, 0x65, 0x6e, 0x74, 0x69, 0x61, 0x6c, 0x5f, 0x33,
  0x5f, 0x31, 0x2f, 0x66, 0x6c, 0x61, 0x74, 0x74, 0x65, 0x6e, 0x5f, 0x33,
  0x5f, 0x31, 0x2f, 0x52, 0x65, 0x73, 0x68, 0x61, 0x70, 0x65, 0x00, 0x00,
  0x02, 0x00, 0x00, 0x00, 0x01, 0x00, 0x00, 0x00, 0xa0, 0x00, 0x00, 0x00,
  0xb2, 0xf0, 0xff, 0xff, 0x00, 0x00, 0x00, 0x01, 0x18, 0x00, 0x00, 0x00,
  0x28, 0x00, 0x00, 0x00, 0x44, 0x00, 0x00, 0x00, 0x2b, 0x00, 0x00, 0x00,
  0x00, 0x00, 0x00, 0x09, 0x68, 0x00, 0x00, 0x00, 0x04, 0x00, 0x00, 0x00,
  0xff, 0xff, 0xff, 0xff, 0x01, 0x00, 0x00, 0x00, 0x05, 0x00, 0x00, 0x00,
  0x20, 0x00, 0x00, 0x00, 0xd4, 0xe4, 0xff, 0xff, 0x08, 0x00, 0x00, 0x00,
  0x10, 0x00, 0x00, 0x00, 0x01, 0x00, 0x00, 0x00, 0x87, 0xff, 0xff, 0xff,
  0xff, 0xff, 0xff, 0xff, 0x01, 0x00, 0x00, 0x00, 0xa5, 0x57, 0x37, 0x3e,
  0x2a, 0x00, 0x00, 0x00, 0x73, 0x65, 0x71, 0x75, 0x65, 0x6e, 0x74, 0x69,
  0x61, 0x6c, 0x5f, 0x33, 0x5f, 0x31, 0x2f, 0x6d, 0x61, 0x78, 0x5f, 0x70,
  0x6f, 0x6f, 0x6c, 0x69, 0x6e, 0x67, 0x31, 0x64, 0x5f, 0x37, 0x5f, 0x31,
  0x2f, 0x4d, 0x61, 0x78, 0x50, 0x6f, 0x6f, 0x6c, 0x31, 0x64, 0x00, 0x00,
  0x04, 0x00, 0x00, 0x00, 0x01, 0x00, 0x00, 0x00, 0x01, 0x00, 0x00, 0x00,
  0x05, 0x00, 0x00, 0x00, 0x20, 0x00, 0x00, 0x00, 0x4a, 0xf1, 0xff, 0xff,
  0x00, 0x00, 0x00, 0x01, 0x18, 0x00, 0x00, 0x00, 0x28, 0x00, 0x00, 0x00,
  0x44, 0x00, 0x00, 0x00, 0x2a, 0x00, 0x00, 0x00, 0x00, 0x00, 0x00, 0x09,
  0x74, 0x00, 0x00, 0x00, 0x04, 0x00, 0x00, 0x00, 0xff, 0xff, 0xff, 0xff,
  0x01, 0x00, 0x00, 0x00, 0x0a, 0x00, 0x00, 0x00, 0x20, 0x00, 0x00, 0x00,
  0x6c, 0xe5, 0xff, 0xff, 0x08, 0x00, 0x00, 0x00, 0x10, 0x00, 0x00, 0x00,
  0x01, 0x00, 0x00, 0x00, 0x87, 0xff, 0xff, 0xff, 0xff, 0xff, 0xff, 0xff,
  0x01, 0x00, 0x00, 0x00, 0xa5, 0x57, 0x37, 0x3e, 0x35, 0x00, 0x00, 0x00,
  0x73, 0x65, 0x71, 0x75, 0x65, 0x6e, 0x74, 0x69, 0x61, 0x6c, 0x5f, 0x33,
  0x5f, 0x31, 0x2f, 0x6d, 0x61, 0x78, 0x5f, 0x70, 0x6f, 0x6f, 0x6c, 0x69,
  0x6e, 0x67, 0x31, 0x64, 0x5f, 0x37, 0x5f, 0x31, 0x2f, 0x4d, 0x61, 0x78,
  0x50, 0x6f, 0x6f, 0x6c, 0x31, 0x64, 0x2f, 0x45, 0x78, 0x70, 0x61, 0x6e,
  0x64, 0x44, 0x69, 0x6d, 0x73, 0x00, 0x00, 0x00, 0x04, 0x00, 0x00, 0x00,
  0x01, 0x00, 0x00, 0x00, 0x01, 0x00, 0x00, 0x00, 0x0a, 0x00, 0x00, 0x00,
  0x20, 0x00, 0x00, 0x00, 0xee, 0xf1, 0xff, 0xff, 0x00, 0x00, 0x00, 0x01,
  0x18, 0x00, 0x00, 0x00, 0x24, 0x00, 0x00, 0x00, 0x40, 0x00, 0x00, 0x00,
  0x29, 0x00, 0x00, 0x00, 0x00, 0x00, 0x00, 0x09, 0x18, 0x01, 0x00, 0x00,
  0x03, 0x00, 0x00, 0x00, 0xff, 0xff, 0xff, 0xff, 0x0a, 0x00, 0x00, 0x00,
  0x20, 0x00, 0x00, 0x00, 0x0c, 0xe6, 0xff, 0xff, 0x08, 0x00, 0x00, 0x00,
  0x10, 0x00, 0x00, 0x00, 0x01, 0x00, 0x00, 0x00, 0x87, 0xff, 0xff, 0xff,
  0xff, 0xff, 0xff, 0xff, 0x01, 0x00, 0x00, 0x00, 0xa5, 0x57, 0x37, 0x3e,
  0xde, 0x00, 0x00, 0x00, 0x73, 0x65, 0x71, 0x75, 0x65, 0x6e, 0x74, 0x69,
  0x61, 0x6c, 0x5f, 0x33, 0x5f, 0x31, 0x2f, 0x62, 0x61, 0x74, 0x63, 0x68,
  0x5f, 0x6e, 0x6f, 0x72, 0x6d, 0x61, 0x6c, 0x69, 0x7a, 0x61, 0x74, 0x69,
  0x6f, 0x6e, 0x5f, 0x37, 0x5f, 0x31, 0x2f, 0x62, 0x61, 0x74, 0x63, 0x68,
  0x6e, 0x6f, 0x72, 0x6d, 0x2f, 0x61, 0x64, 0x64, 0x5f, 0x31, 0x3b, 0x73,
  0x65, 0x71, 0x75, 0x65, 0x6e, 0x74, 0x69, 0x61, 0x6c, 0x5f, 0x33, 0x5f,
  0x31, 0x2f, 0x63, 0x6f, 0x6e, 0x76, 0x31, 0x64, 0x5f, 0x37, 0x5f, 0x31,
  0x2f, 0x63, 0x6f, 0x6e, 0x76, 0x6f, 0x6c, 0x75, 0x74, 0x69, 0x6f, 0x6e,
  0x2f, 0x53, 0x71, 0x75, 0x65, 0x65, 0x7a, 0x65, 0x3b, 0x73, 0x65, 0x71,
  0x75, 0x65, 0x6e, 0x74, 0x69, 0x61, 0x6c, 0x5f, 0x33, 0x5f, 0x31, 0x2f,
  0x62, 0x61, 0x74, 0x63, 0x68, 0x5f, 0x6e, 0x6f, 0x72, 0x6d, 0x61, 0x6c,
  0x69, 0x7a, 0x61, 0x74, 0x69, 0x6f, 0x6e, 0x5f, 0x37, 0x5f, 0x31, 0x2f,
  0x62, 0x61, 0x74, 0x63, 0x68, 0x6e, 0x6f, 0x72, 0x6d, 0x2f, 0x6d, 0x75,
  0x6c, 0x5f, 0x31, 0x3b, 0x73, 0x65, 0x71, 0x75, 0x65, 0x6e, 0x74, 0x69,
  0x61, 0x6c, 0x5f, 0x33, 0x5f, 0x31, 0x2f, 0x63, 0x6f, 0x6e, 0x76, 0x31,
  0x64, 0x5f, 0x37, 0x5f, 0x31, 0x2f, 0x52, 0x65, 0x6c, 0x75, 0x3b, 0x73,
  0x65, 0x71, 0x75, 0x65, 0x6e, 0x74, 0x69, 0x61, 0x6c, 0x5f, 0x33, 0x5f,
  0x31, 0x2f, 0x63, 0x6f, 0x6e, 0x76, 0x31, 0x64, 0x5f, 0x37, 0x5f, 0x31,
  0x2f, 0x42, 0x69, 0x61, 0x73, 0x41, 0x64, 0x64, 0x3b, 0x31, 0x00, 0x00,
  0x03, 0x00, 0x00, 0x00, 0x01, 0x00, 0x00, 0x00, 0x0a, 0x00, 0x00, 0x00,
  0x20, 0x00, 0x00, 0x00, 0x32, 0xf3, 0xff, 0xff, 0x00, 0x00, 0x00, 0x01,
  0x18, 0x00, 0x00, 0x00, 0x28, 0x00, 0x00, 0x00, 0x48, 0x00, 0x00, 0x00,
  0x28, 0x00, 0x00, 0x00, 0x00, 0x00, 0x00, 0x09, 0x20, 0x01, 0x00, 0x00,
  0x04, 0x00, 0x00, 0x00, 0xff, 0xff, 0xff, 0xff, 0x01, 0x00, 0x00, 0x00,
  0x0a, 0x00, 0x00, 0x00, 0x20, 0x00, 0x00, 0x00, 0x54, 0xe7, 0xff, 0xff,
  0x08, 0x00, 0x00, 0x00, 0x14, 0x00, 0x00, 0x00, 0x01, 0x00, 0x00, 0x00,
  0x87, 0xff, 0xff, 0xff, 0xff, 0xff, 0xff, 0xff, 0x00, 0x00, 0x00, 0x00,
  0x01, 0x00, 0x00, 0x00, 0xa5, 0x57, 0x37, 0x3e, 0xdd, 0x00, 0x00, 0x00,
  0x73, 0x65, 0x71, 0x75, 0x65, 0x6e, 0x74, 0x69, 0x61, 0x6c, 0x5f, 0x33,
  0x5f, 0x31, 0x2f, 0x62, 0x61, 0x74, 0x63, 0x68, 0x5f, 0x6e, 0x6f, 0x72,
  0x6d, 0x61, 0x6c, 0x69, 0x7a, 0x61, 0x74, 0x69, 0x6f, 0x6e, 0x5f, 0x37,
  0x5f, 0x31, 0x2f, 0x62, 0x61, 0x74, 0x63, 0x68, 0x6e, 0x6f, 0x72, 0x6d,
  0x2f, 0x61, 0x64, 0x64, 0x5f, 0x31, 0x3b, 0x73, 0x65, 0x71, 0x75, 0x65,
  0x6e, 0x74, 0x69, 0x61, 0x6c, 0x5f, 0x33, 0x5f, 0x31, 0x2f, 0x63, 0x6f,
  0x6e, 0x76, 0x31, 0x64, 0x5f, 0x37, 0x5f, 0x31, 0x2f, 0x63, 0x6f, 0x6e,
  0x76, 0x6f, 0x6c, 0x75, 0x74, 0x69, 0x6f, 0x6e, 0x2f, 0x53, 0x71, 0x75,
  0x65, 0x65, 0x7a, 0x65, 0x3b, 0x73, 0x65, 0x71, 0x75, 0x65, 0x6e, 0x74,
  0x69, 0x61, 0x6c, 0x5f, 0x33, 0x5f, 0x31, 0x2f, 0x62, 0x61, 0x74, 0x63,
  0x68, 0x5f, 0x6e, 0x6f, 0x72, 0x6d, 0x61, 0x6c, 0x69, 0x7a, 0x61, 0x74,
  0x69, 0x6f, 0x6e, 0x5f, 0x37, 0x5f, 0x31, 0x2f, 0x62, 0x61, 0x74, 0x63,
  0x68, 0x6e, 0x6f, 0x72, 0x6d, 0x2f, 0x6d, 0x75, 0x6c, 0x5f, 0x31, 0x3b,
  0x73, 0x65, 0x71, 0x75, 0x65, 0x6e, 0x74, 0x69, 0x61, 0x6c, 0x5f, 0x33,
  0x5f, 0x31, 0x2f, 0x63, 0x6f, 0x6e, 0x76, 0x31, 0x64, 0x5f, 0x37, 0x5f,
  0x31, 0x2f, 0x52, 0x65, 0x6c, 0x75, 0x3b, 0x73, 0x65, 0x71, 0x75, 0x65,
  0x6e, 0x74, 0x69, 0x61, 0x6c, 0x5f, 0x33, 0x5f, 0x31, 0x2f, 0x63, 0x6f,
  0x6e, 0x76, 0x31, 0x64, 0x5f, 0x37, 0x5f, 0x31, 0x2f, 0x42, 0x69, 0x61,
  0x73, 0x41, 0x64, 0x64, 0x3b, 0x00, 0x00, 0x00, 0x04, 0x00, 0x00, 0x00,
  0x01, 0x00, 0x00, 0x00, 0x01, 0x00, 0x00, 0x00, 0x0a, 0x00, 0x00, 0x00,
  0x20, 0x00, 0x00, 0x00, 0x82, 0xf4, 0xff, 0xff, 0x00, 0x00, 0x00, 0x01,
  0x18, 0x00, 0x00, 0x00, 0x28, 0x00, 0x00, 0x00, 0x48, 0x00, 0x00, 0x00,
  0x27, 0x00, 0x00, 0x00, 0x00, 0x00, 0x00, 0x09, 0xe8, 0x00, 0x00, 0x00,
  0x04, 0x00, 0x00, 0x00, 0xff, 0xff, 0xff, 0xff, 0x01, 0x00, 0x00, 0x00,
  0x0a, 0x00, 0x00, 0x00, 0x20, 0x00, 0x00, 0x00, 0xa4, 0xe8, 0xff, 0xff,
  0x08, 0x00, 0x00, 0x00, 0x14, 0x00, 0x00, 0x00, 0x01, 0x00, 0x00, 0x00,
  0x87, 0xff, 0xff, 0xff, 0xff, 0xff, 0xff, 0xff, 0x00, 0x00, 0x00, 0x00,
  0x01, 0x00, 0x00, 0x00, 0x44, 0x8d, 0x39, 0x3e, 0xa6, 0x00, 0x00, 0x00,
  0x73, 0x65, 0x71, 0x75, 0x65, 0x6e, 0x74, 0x69, 0x61, 0x6c, 0x5f, 0x33,
  0x5f, 0x31, 0x2f, 0x62, 0x61, 0x74, 0x63, 0x68, 0x5f, 0x6e, 0x6f, 0x72,
  0x6d, 0x61, 0x6c, 0x69, 0x7a, 0x61, 0x74, 0x69, 0x6f, 0x6e, 0x5f, 0x37,
  0x5f, 0x31, 0x2f, 0x62, 0x61, 0x74, 0x63, 0x68, 0x6e, 0x6f, 0x72, 0x6d,
  0x2f, 0x6d, 0x75, 0x6c, 0x5f, 0x31, 0x3b, 0x73, 0x65, 0x71, 0x75, 0x65,
  0x6e, 0x74, 0x69, 0x61, 0x6c, 0x5f, 0x33, 0x5f, 0x31, 0x2f, 0x63, 0x6f,
  0x6e, 0x76, 0x31, 0x64, 0x5f, 0x37, 0x5f, 0x31, 0x2f, 0x63, 0x6f, 0x6e,
  0x76, 0x6f, 0x6c, 0x75, 0x74, 0x69, 0x6f, 0x6e, 0x2f, 0x53, 0x71, 0x75,
  0x65, 0x65, 0x7a, 0x65, 0x3b, 0x73, 0x65, 0x71, 0x75, 0x65, 0x6e, 0x74,
  0x69, 0x61, 0x6c, 0x5f, 0x33, 0x5f, 0x31, 0x2f, 0x63, 0x6f, 0x6e, 0x76,
  0x31, 0x64, 0x5f, 0x37, 0x5f, 0x31, 0x2f, 0x52, 0x65, 0x6c, 0x75, 0x3b,
  0x73, 0x65, 0x71, 0x75, 0x65, 0x6e, 0x74, 0x69, 0x61, 0x6c, 0x5f, 0x33,
  0x5f, 0x31, 0x2f, 0x63, 0x6f, 0x6e, 0x76, 0x31, 0x64, 0x5f, 0x37, 0x5f,
  0x31, 0x2f, 0x42, 0x69, 0x61, 0x73, 0x41, 0x64, 0x64, 0x3b, 0x00, 0x00,
  0x04, 0x00, 0x00, 0x00, 0x01, 0x00, 0x00, 0x00, 0x01, 0x00, 0x00, 0x00,
  0x0a, 0x00, 0x00, 0x00, 0x20, 0x00, 0x00, 0x00, 0x9a, 0xf5, 0xff, 0xff,
  0x00, 0x00, 0x00, 0x01, 0x18, 0x00, 0x00, 0x00, 0x28, 0x00, 0x00, 0x00,
  0x48, 0x00, 0x00, 0x00, 0x26, 0x00, 0x00, 0x00, 0x00, 0x00, 0x00, 0x09,
  0xd8, 0x00, 0x00, 0x00, 0x04, 0x00, 0x00, 0x00, 0xff, 0xff, 0xff, 0xff,
  0x01, 0x00, 0x00, 0x00, 0x0a, 0x00, 0x00, 0x00, 0x20, 0x00, 0x00, 0x00,
  0xbc, 0xe9, 0xff, 0xff, 0x08, 0x00, 0x00, 0x00, 0x14, 0x00, 0x00, 0x00,
  0x01, 0x00, 0x00, 0x00, 0x80, 0xff, 0xff, 0xff, 0xff, 0xff, 0xff, 0xff,
  0x00, 0x00, 0x00, 0x00, 0x01, 0x00, 0x00, 0x00, 0x4f, 0x7c, 0x34, 0x3e,
  0x95, 0x00, 0x00, 0x00, 0x73, 0x65, 0x71, 0x75, 0x65, 0x6e, 0x74, 0x69,
  0x61, 0x6c, 0x5f, 0x33, 0x5f, 0x31, 0x2f, 0x63, 0x6f, 0x6e, 0x76, 0x31,
  0x64, 0x5f, 0x37, 0x5f, 0x31, 0x2f, 0x52, 0x65, 0x6c, 0x75, 0x3b, 0x73,
  0x65, 0x71, 0x75, 0x65, 0x6e, 0x74, 0x69, 0x61, 0x6c, 0x5f, 0x33, 0x5f,
  0x31, 0x2f, 0x63, 0x6f, 0x6e, 0x76, 0x31, 0x64, 0x5f, 0x37, 0x5f, 0x31,
  0x2f, 0x42, 0x69, 0x61, 0x73, 0x41, 0x64, 0x64, 0x3b, 0x73, 0x65, 0x71,
  0x75, 0x65, 0x6e, 0x74, 0x69, 0x61, 0x6c, 0x5f, 0x33, 0x5f, 0x31, 0x2f,
  0x63, 0x6f, 0x6e, 0x76, 0x31, 0x64, 0x5f, 0x37, 0x5f, 0x31, 0x2f, 0x63,
  0x6f, 0x6e, 0x76, 0x6f, 0x6c, 0x75, 0x74, 0x69, 0x6f, 0x6e, 0x2f, 0x53,
  0x71, 0x75, 0x65, 0x65, 0x7a, 0x65, 0x3b, 0x3b, 0x73, 0x65, 0x71, 0x75,
  0x65, 0x6e, 0x74, 0x69, 0x61, 0x6c, 0x5f, 0x33, 0x5f, 0x31, 0x2f, 0x63,
  0x6f, 0x6e, 0x76, 0x31, 0x64, 0x5f, 0x37, 0x5f, 0x31, 0x2f, 0x63, 0x6f,
  0x6e, 0x76, 0x6f, 0x6c, 0x75, 0x74, 0x69, 0x6f, 0x6e, 0x00, 0x00, 0x00,
  0x04, 0x00, 0x00, 0x00, 0x01, 0x00, 0x00, 0x00, 0x01, 0x00, 0x00, 0x00,
  0x0a, 0x00, 0x00, 0x00, 0x20, 0x00, 0x00, 0x00, 0xa2, 0xf6, 0xff, 0xff,
  0x00, 0x00, 0x00, 0x01, 0x18, 0x00, 0x00, 0x00, 0x28, 0x00, 0x00, 0x00,
  0x48, 0x00, 0x00, 0x00, 0x25, 0x00, 0x00, 0x00, 0x00, 0x00, 0x00, 0x09,
  0x74, 0x00, 0x00, 0x00, 0x04, 0x00, 0x00, 0x00, 0xff, 0xff, 0xff, 0xff,
  0x01, 0x00, 0x00, 0x00, 0x0a, 0x00, 0x00, 0x00, 0x10, 0x00, 0x00, 0x00,
  0xc4, 0xea, 0xff, 0xff, 0x08, 0x00, 0x00, 0x00, 0x14, 0x00, 0x00, 0x00,
  0x01, 0x00, 0x00, 0x00, 0x8a, 0xff, 0xff, 0xff, 0xff, 0xff, 0xff, 0xff,
  0x00, 0x00, 0x00, 0x00, 0x01, 0x00, 0x00, 0x00, 0xd4, 0x80, 0x83, 0x3e,
  0x30, 0x00, 0x00, 0x00, 0x73, 0x65, 0x71, 0x75, 0x65, 0x6e, 0x74, 0x69,
  0x61, 0x6c, 0x5f, 0x33, 0x5f, 0x31, 0x2f, 0x63, 0x6f, 0x6e, 0x76, 0x31,
  0x64, 0x5f, 0x37, 0x5f, 0x31, 0x2f, 0x63, 0x6f, 0x6e, 0x76, 0x6f, 0x6c,
  0x75, 0x74, 0x69, 0x6f, 0x6e, 0x2f, 0x45, 0x78, 0x70, 0x61, 0x6e, 0x64,
  0x44, 0x69, 0x6d, 0x73, 0x00, 0x00, 0x00, 0x00, 0x04, 0x00, 0x00, 0x00,
  0x01, 0x00, 0x00, 0x00, 0x01, 0x00, 0x00, 0x00, 0x0a, 0x00, 0x00, 0x00,
  0x10, 0x00, 0x00, 0x00, 0x46, 0xf7, 0xff, 0xff, 0x00, 0x00, 0x00, 0x01,
  0x18, 0x00, 0x00, 0x00, 0x24, 0x00, 0x00, 0x00, 0x44, 0x00, 0x00, 0x00,
  0x24, 0x00, 0x00, 0x00, 0x00, 0x00, 0x00, 0x09, 0x70, 0x00, 0x00, 0x00,
  0x03, 0x00, 0x00, 0x00, 0xff, 0xff, 0xff, 0xff, 0x0a, 0x00, 0x00, 0x00,
  0x10, 0x00, 0x00, 0x00, 0x64, 0xeb, 0xff, 0xff, 0x08, 0x00, 0x00, 0x00,
  0x14, 0x00, 0x00, 0x00, 0x01, 0x00, 0x00, 0x00, 0x8a, 0xff, 0xff, 0xff,
  0xff, 0xff, 0xff, 0xff, 0x00, 0x00, 0x00, 0x00, 0x01, 0x00, 0x00, 0x00,
  0xd4, 0x80, 0x83, 0x3e, 0x32, 0x00, 0x00, 0x00, 0x73, 0x65, 0x71, 0x75,
  0x65, 0x6e, 0x74, 0x69, 0x61, 0x6c, 0x5f, 0x33, 0x5f, 0x31, 0x2f, 0x6d,
  0x61, 0x78, 0x5f, 0x70, 0x6f, 0x6f, 0x6c, 0x69, 0x6e, 0x67, 0x31, 0x64,
  0x5f, 0x36, 0x5f, 0x31, 0x2f, 0x4d, 0x61, 0x78, 0x50, 0x6f, 0x6f, 0x6c,
  0x31, 0x64, 0x2f, 0x53, 0x71, 0x75, 0x65, 0x65, 0x7a, 0x65, 0x00, 0x00,
  0x03, 0x00, 0x00, 0x00, 0x01, 0x00, 0x00, 0x00, 0x0a, 0x00, 0x00, 0x00,
  0x10, 0x00, 0x00, 0x00, 0xe2, 0xf7, 0xff, 0xff, 0x00, 0x00, 0x00, 0x01,
  0x18, 0x00, 0x00, 0x00, 0x28, 0x00, 0x00, 0x00, 0x44, 0x00, 0x00, 0x00,
  0x23, 0x00, 0x00, 0x00, 0x00, 0x00, 0x00, 0x09, 0x68, 0x00, 0x00, 0x00,
  0x04, 0x00, 0x00, 0x00, 0xff, 0xff, 0xff, 0xff, 0x01, 0x00, 0x00, 0x00,
  0x0a, 0x00, 0x00, 0x00, 0x10, 0x00, 0x00, 0x00, 0x04, 0xec, 0xff, 0xff,
  0x08, 0x00, 0x00, 0x00, 0x10, 0x00, 0x00, 0x00, 0x01, 0x00, 0x00, 0x00,
  0x8a, 0xff, 0xff, 0xff, 0xff, 0xff, 0xff, 0xff, 0x01, 0x00, 0x00, 0x00,
  0xd4, 0x80, 0x83, 0x3e, 0x2a, 0x00, 0x00, 0x00, 0x73, 0x65, 0x71, 0x75,
  0x65, 0x6e, 0x74, 0x69, 0x61, 0x6c, 0x5f, 0x33, 0x5f, 0x31, 0x2f, 0x6d,
  0x61, 0x78, 0x5f, 0x70, 0x6f, 0x6f, 0x6c, 0x69, 0x6e, 0x67, 0x31, 0x64,
  0x5f, 0x36, 0x5f, 0x31, 0x2f, 0x4d, 0x61, 0x78, 0x50, 0x6f, 0x6f, 0x6c,
  0x31, 0x64, 0x00, 0x00, 0x04, 0x00, 0x00, 0x00, 0x01, 0x00, 0x00, 0x00,
  0x01, 0x00, 0x00, 0x00, 0x0a, 0x00, 0x00, 0x00, 0x10, 0x00, 0x00, 0x00,
  0x7a, 0xf8, 0xff, 0xff, 0x00, 0x00, 0x00, 0x01, 0x18, 0x00, 0x00, 0x00,
  0x28, 0x00, 0x00, 0x00, 0x44, 0x00, 0x00, 0x00, 0x22, 0x00, 0x00, 0x00,
  0x00, 0x00, 0x00, 0x09, 0x74, 0x00, 0x00, 0x00, 0x04, 0x00, 0x00, 0x00,
  0xff, 0xff, 0xff, 0xff, 0x01, 0x00, 0x00, 0x00, 0x15, 0x00, 0x00, 0x00,
  0x10, 0x00, 0x00, 0x00, 0x9c, 0xec, 0xff, 0xff, 0x08, 0x00, 0x00, 0x00,
  0x10, 0x00, 0x00, 0x00, 0x01, 0x00, 0x00, 0x00, 0x8a, 0xff, 0xff, 0xff,
  0xff, 0xff, 0xff, 0xff, 0x01, 0x00, 0x00, 0x00, 0xd4, 0x80, 0x83, 0x3e,
  0x35, 0x00, 0x00, 0x00, 0x73, 0x65, 0x71, 0x75, 0x65, 0x6e, 0x74, 0x69,
  0x61, 0x6c, 0x5f, 0x33, 0x5f, 0x31, 0x2f, 0x6d, 0x61, 0x78, 0x5f, 0x70,
  0x6f, 0x6f, 0x6c, 0x69, 0x6e, 0x67, 0x31, 0x64, 0x5f, 0x36, 0x5f, 0x31,
  0x2f, 0x4d, 0x61, 0x78, 0x50, 0x6f, 0x6f, 0x6c, 0x31, 0x64, 0x2f, 0x45,
  0x78, 0x70, 0x61, 0x6e, 0x64, 0x44, 0x69, 0x6d, 0x73, 0x00, 0x00, 0x00,
  0x04, 0x00, 0x00, 0x00, 0x01, 0x00, 0x00, 0x00, 0x01, 0x00, 0x00, 0x00,
  0x15, 0x00, 0x00, 0x00, 0x10, 0x00, 0x00, 0x00, 0x1e, 0xf9, 0xff, 0xff,
  0x00, 0x00, 0x00, 0x01, 0x18, 0x00, 0x00, 0x00, 0x24, 0x00, 0x00, 0x00,
  0x40, 0x00, 0x00, 0x00, 0x21, 0x00, 0x00, 0x00, 0x00, 0x00, 0x00, 0x09,
  0x18, 0x01, 0x00, 0x00, 0x03, 0x00, 0x00, 0x00, 0xff, 0xff, 0xff, 0xff,
  0x15, 0x00, 0x00, 0x00, 0x10, 0x00, 0x00, 0x00, 0x3c, 0xed, 0xff, 0xff,
  0x08, 0x00, 0x00, 0x00, 0x10, 0x00, 0x00, 0x00, 0x01, 0x00, 0x00, 0x00,
  0x8a, 0xff, 0xff, 0xff, 0xff, 0xff, 0xff, 0xff, 0x01, 0x00, 0x00, 0x00,
  0xd4, 0x80, 0x83, 0x3e, 0xde, 0x00, 0x00, 0x00, 0x73, 0x65, 0x71, 0x75,
  0x65, 0x6e, 0x74, 0x69, 0x61, 0x6c, 0x5f, 0x33, 0x5f, 0x31, 0x2f, 0x62,
  0x61, 0x74, 0x63, 0x68, 0x5f, 0x6e, 0x6f, 0x72, 0x6d, 0x61, 0x6c, 0x69,
  0x7a, 0x61, 0x74, 0x69, 0x6f, 0x6e, 0x5f, 0x36, 0x5f, 0x31, 0x2f, 0x62,
  0x61, 0x74, 0x63, 0x68, 0x6e, 0x6f, 0x72, 0x6d, 0x2f, 0x61, 0x64, 0x64,
  0x5f, 0x31, 0x3b, 0x73, 0x65, 0x71, 0x75, 0x65, 0x6e, 0x74, 0x69, 0x61,
  0x6c, 0x5f, 0x33, 0x5f, 0x31, 0x2f, 0x63, 0x6f, 0x6e, 0x76, 0x31, 0x64,
  0x5f, 0x36, 0x5f, 0x31, 0x2f, 0x63, 0x6f, 0x6e, 0x76, 0x6f, 0x6c, 0x75,
  0x74, 0x69, 0x6f, 0x6e, 0x2f, 0x53, 0x71, 0x75, 0x65, 0x65, 0x7a, 0x65,
  0x3b, 0x73, 0x65, 0x71, 0x75, 0x65, 0x6e, 0x74, 0x69, 0x61, 0x6c, 0x5f,
  0x33, 0x5f, 0x31, 0x2f, 0x62, 0x61, 0x74, 0x63, 0x68, 0x5f, 0x6e, 0x6f,
  0x72, 0x6d, 0x61, 0x6c, 0x69, 0x7a, 0x61, 0x74, 0x69, 0x6f, 0x6e, 0x5f,
  0x36, 0x5f, 0x31, 0x2f, 0x62, 0x61, 0x74, 0x63, 0x68, 0x6e, 0x6f, 0x72,
  0x6d, 0x2f, 0x6d, 0x75, 0x6c, 0x5f, 0x31, 0x3b, 0x73, 0x65, 0x71, 0x75,
  0x65, 0x6e, 0x74, 0x69, 0x61, 0x6c, 0x5f, 0x33, 0x5f, 0x31, 0x2f, 0x63,
  0x6f, 0x6e, 0x76, 0x31, 0x64, 0x5f, 0x36, 0x5f, 0x31, 0x2f, 0x52, 0x65,
  0x6c, 0x75, 0x3b, 0x73, 0x65, 0x71, 0x75, 0x65, 0x6e, 0x74, 0x69, 0x61,
  0x6c, 0x5f, 0x33, 0x5f, 0x31, 0x2f, 0x63, 0x6f, 0x6e, 0x76, 0x31, 0x64,
  0x5f, 0x36, 0x5f, 0x31, 0x2f, 0x42, 0x69, 0x61, 0x73, 0x41, 0x64, 0x64,
  0x3b, 0x31, 0x00, 0x00, 0x03, 0x00, 0x00, 0x00, 0x01, 0x00, 0x00, 0x00,
  0x15, 0x00, 0x00, 0x00, 0x10, 0x00, 0x00, 0x00, 0x62, 0xfa, 0xff, 0xff,
  0x00, 0x00, 0x00, 0x01, 0x18, 0x00, 0x00, 0x00, 0x28, 0x00, 0x00, 0x00,
  0x48, 0x00, 0x00, 0x00, 0x20, 0x00, 0x00, 0x00, 0x00, 0x00, 0x00, 0x09,
  0x20, 0x01, 0x00, 0x00, 0x04, 0x00, 0x00, 0x00, 0xff, 0xff, 0xff, 0xff,
  0x01, 0x00, 0x00, 0x00, 0x15, 0x00, 0x00, 0x00, 0x10, 0x00, 0x00, 0x00,
  0x84, 0xee, 0xff, 0xff, 0x08, 0x00, 0x00, 0x00, 0x14, 0x00, 0x00, 0x00,
  0x01, 0x00, 0x00, 0x00, 0x8a, 0xff, 0xff, 0xff, 0xff, 0xff, 0xff, 0xff,
  0x00, 0x00, 0x00, 0x00, 0x01, 0x00, 0x00, 0x00, 0xd4, 0x80, 0x83, 0x3e,
  0xdd, 0x00, 0x00, 0x00, 0x73, 0x65, 0x71, 0x75, 0x65, 0x6e, 0x74, 0x69,
  0x61, 0x6c, 0x5f, 0x33, 0x5f, 0x31, 0x2f, 0x62, 0x61, 0x74, 0x63, 0x68,
  0x5f, 0x6e, 0x6f, 0x72, 0x6d, 0x61, 0x6c, 0x69, 0x7a, 0x61, 0x74, 0x69,
  0x6f, 0x6e, 0x5f, 0x36, 0x5f, 0x31, 0x2f, 0x62, 0x61, 0x74, 0x63, 0x68,
  0x6e, 0x6f, 0x72, 0x6d, 0x2f, 0x61, 0x64, 0x64, 0x5f, 0x31, 0x3b, 0x73,
  0x65, 0x71, 0x75, 0x65, 0x6e, 0x74, 0x69, 0x61, 0x6c, 0x5f, 0x33, 0x5f,
  0x31, 0x2f, 0x63, 0x6f, 0x6e, 0x76, 0x31, 0x64, 0x5f, 0x36, 0x5f, 0x31,
  0x2f, 0x63, 0x6f, 0x6e, 0x76, 0x6f, 0x6c, 0x75, 0x74, 0x69, 0x6f, 0x6e,
  0x2f, 0x53, 0x71, 0x75, 0x65, 0x65, 0x7a, 0x65, 0x3b, 0x73, 0x65, 0x71,
  0x75, 0x65, 0x6e, 0x74, 0x69, 0x61, 0x6c, 0x5f, 0x33, 0x5f, 0x31, 0x2f,
  0x62, 0x61, 0x74, 0x63, 0x68, 0x5f, 0x6e, 0x6f, 0x72, 0x6d, 0x61, 0x6c,
  0x69, 0x7a, 0x61, 0x74, 0x69, 0x6f, 0x6e, 0x5f, 0x36, 0x5f, 0x31, 0x2f,
  0x62, 0x61, 0x74, 0x63, 0x68, 0x6e, 0x6f, 0x72, 0x6d, 0x2f, 0x6d, 0x75,
  0x6c, 0x5f, 0x31, 0x3b, 0x73, 0x65, 0x71, 0x75, 0x65, 0x6e, 0x74, 0x69,
  0x61, 0x6c, 0x5f, 0x33, 0x5f, 0x31, 0x2f, 0x63, 0x6f, 0x6e, 0x76, 0x31,
  0x64, 0x5f, 0x36, 0x5f, 0x31, 0x2f, 0x52, 0x65, 0x6c, 0x75, 0x3b, 0x73,
  0x65, 0x71, 0x75, 0x65, 0x6e, 0x74, 0x69, 0x61, 0x6c, 0x5f, 0x33, 0x5f,
  0x31, 0x2f, 0x63, 0x6f, 0x6e, 0x76, 0x31, 0x64, 0x5f, 0x36, 0x5f, 0x31,
  0x2f, 0x42, 0x69, 0x61, 0x73, 0x41, 0x64, 0x64, 0x3b, 0x00, 0x00, 0x00,
  0x04, 0x00, 0x00, 0x00, 0x01, 0x00, 0x00, 0x00, 0x01, 0x00, 0x00, 0x00,
  0x15, 0x00, 0x00, 0x00, 0x10, 0x00, 0x00, 0x00, 0xb2, 0xfb, 0xff, 0xff,
  0x00, 0x00, 0x00, 0x01, 0x18, 0x00, 0x00, 0x00, 0x28, 0x00, 0x00, 0x00,
  0x48, 0x00, 0x00, 0x00, 0x1f, 0x00, 0x00, 0x00, 0x00, 0x00, 0x00, 0x09,
  0xe8, 0x00, 0x00, 0x00, 0x04, 0x00, 0x00, 0x00, 0xff, 0xff, 0xff, 0xff,
  0x01, 0x00, 0x00, 0x00, 0x15, 0x00, 0x00, 0x00, 0x10, 0x00, 0x00, 0x00,
  0xd4, 0xef, 0xff, 0xff, 0x08, 0x00, 0x00, 0x00, 0x14, 0x00, 0x00, 0x00,
  0x01, 0x00, 0x00, 0x00, 0x8a, 0xff, 0xff, 0xff, 0xff, 0xff, 0xff, 0xff,
  0x00, 0x00, 0x00, 0x00, 0x01, 0x00, 0x00, 0x00, 0xd4, 0x80, 0x83, 0x3e,
  0xa6, 0x00, 0x00, 0x00, 0x73, 0x65, 0x71, 0x75, 0x65, 0x6e, 0x74, 0x69,
  0x61, 0x6c, 0x5f, 0x33, 0x5f, 0x31, 0x2f, 0x62, 0x61, 0x74, 0x63, 0x68,
  0x5f, 0x6e, 0x6f, 0x72, 0x6d, 0x61, 0x6c, 0x69, 0x7a, 0x61, 0x74, 0x69,
  0x6f, 0x6e, 0x5f, 0x36, 0x5f, 0x31, 0x2f, 0x62, 0x61, 0x74, 0x63, 0x68,
  0x6e, 0x6f, 0x72, 0x6d, 0x2f, 0x6d, 0x75, 0x6c, 0x5f, 0x31, 0x3b, 0x73,
  0x65, 0x71, 0x75, 0x65, 0x6e, 0x74, 0x69, 0x61, 0x6c, 0x5f, 0x33, 0x5f,
  0x31, 0x2f, 0x63, 0x6f, 0x6e, 0x76, 0x31, 0x64, 0x5f, 0x36, 0x5f, 0x31,
  0x2f, 0x63, 0x6f, 0x6e, 0x76, 0x6f, 0x6c, 0x75, 0x74, 0x69, 0x6f, 0x6e,
  0x2f, 0x53, 0x71, 0x75, 0x65, 0x65, 0x7a, 0x65, 0x3b, 0x73, 0x65, 0x71,
  0x75, 0x65, 0x6e, 0x74, 0x69, 0x61, 0x6c, 0x5f, 0x33, 0x5f, 0x31, 0x2f,
  0x63, 0x6f, 0x6e, 0x76, 0x31, 0x64, 0x5f, 0x36, 0x5f, 0x31, 0x2f, 0x52,
  0x65, 0x6c, 0x75, 0x3b, 0x73, 0x65, 0x71, 0x75, 0x65, 0x6e, 0x74, 0x69,
  0x61, 0x6c, 0x5f, 0x33, 0x5f, 0x31, 0x2f, 0x63, 0x6f, 0x6e, 0x76, 0x31,
  0x64, 0x5f, 0x36, 0x5f, 0x31, 0x2f, 0x42, 0x69, 0x61, 0x73, 0x41, 0x64,
  0x64, 0x3b, 0x00, 0x00, 0x04, 0x00, 0x00, 0x00, 0x01, 0x00, 0x00, 0x00,
  0x01, 0x00, 0x00, 0x00, 0x15, 0x00, 0x00, 0x00, 0x10, 0x00, 0x00, 0x00,
  0xca, 0xfc, 0xff, 0xff, 0x00, 0x00, 0x00, 0x01, 0x18, 0x00, 0x00, 0x00,
  0x28, 0x00, 0x00, 0x00, 0x48, 0x00, 0x00, 0x00, 0x1e, 0x00, 0x00, 0x00,
  0x00, 0x00, 0x00, 0x09, 0xd8, 0x00, 0x00, 0x00, 0x04, 0x00, 0x00, 0x00,
  0xff, 0xff, 0xff, 0xff, 0x01, 0x00, 0x00, 0x00, 0x15, 0x00, 0x00, 0x00,
  0x10, 0x00, 0x00, 0x00, 0xec, 0xf0, 0xff, 0xff, 0x08, 0x00, 0x00, 0x00,
  0x14, 0x00, 0x00, 0x00, 0x01, 0x00, 0x00, 0x00, 0x80, 0xff, 0xff, 0xff,
  0xff, 0xff, 0xff, 0xff, 0x00, 0x00, 0x00, 0x00, 0x01, 0x00, 0x00, 0x00,
  0x02, 0x3a, 0x07, 0x3f, 0x95, 0x00, 0x00, 0x00, 0x73, 0x65, 0x71, 0x75,
  0x65, 0x6e, 0x74, 0x69, 0x61, 0x6c, 0x5f, 0x33, 0x5f, 0x31, 0x2f, 0x63,
  0x6f, 0x6e, 0x76, 0x31, 0x64, 0x5f, 0x36, 0x5f, 0x31, 0x2f, 0x52, 0x65,
  0x6c, 0x75, 0x3b, 0x73, 0x65, 0x71, 0x75, 0x65, 0x6e, 0x74, 0x69, 0x61,
  0x6c, 0x5f, 0x33, 0x5f, 0x31, 0x2f, 0x63, 0x6f, 0x6e, 0x76, 0x31, 0x64,
  0x5f, 0x36, 0x5f, 0x31, 0x2f, 0x42, 0x69, 0x61, 0x73, 0x41, 0x64, 0x64,
  0x3b, 0x73, 0x65, 0x71, 0x75, 0x65, 0x6e, 0x74, 0x69, 0x61, 0x6c, 0x5f,
  0x33, 0x5f, 0x31, 0x2f, 0x63, 0x6f, 0x6e, 0x76, 0x31, 0x64, 0x5f, 0x36,
  0x5f, 0x31, 0x2f, 0x63, 0x6f, 0x6e, 0x76, 0x6f, 0x6c, 0x75, 0x74, 0x69,
  0x6f, 0x6e, 0x2f, 0x53, 0x71, 0x75, 0x65, 0x65, 0x7a, 0x65, 0x3b, 0x3b,
  0x73, 0x65, 0x71, 0x75, 0x65, 0x6e, 0x74, 0x69, 0x61, 0x6c, 0x5f, 0x33,
  0x5f, 0x31, 0x2f, 0x63, 0x6f, 0x6e, 0x76, 0x31, 0x64, 0x5f, 0x36, 0x5f,
  0x31, 0x2f, 0x63, 0x6f, 0x6e, 0x76, 0x6f, 0x6c, 0x75, 0x74, 0x69, 0x6f,
  0x6e, 0x00, 0x00, 0x00, 0x04, 0x00, 0x00, 0x00, 0x01, 0x00, 0x00, 0x00,
  0x01, 0x00, 0x00, 0x00, 0x15, 0x00, 0x00, 0x00, 0x10, 0x00, 0x00, 0x00,
  0xd2, 0xfd, 0xff, 0xff, 0x00, 0x00, 0x00, 0x01, 0x18, 0x00, 0x00, 0x00,
  0x28, 0x00, 0x00, 0x00, 0x48, 0x00, 0x00, 0x00, 0x1d, 0x00, 0x00, 0x00,
  0x00, 0x00, 0x00, 0x09, 0x74, 0x00, 0x00, 0x00, 0x04, 0x00, 0x00, 0x00,
  0xff, 0xff, 0xff, 0xff, 0x01, 0x00, 0x00, 0x00, 0x15, 0x00, 0x00, 0x00,
  0x20, 0x00, 0x00, 0x00, 0xf4, 0xf1, 0xff, 0xff, 0x08, 0x00, 0x00, 0x00,
  0x14, 0x00, 0x00, 0x00, 0x01, 0x00, 0x00, 0x00, 0x7f, 0x00, 0x00, 0x00,
  0x00, 0x00, 0x00, 0x00, 0x00, 0x00, 0x00, 0x00, 0x01, 0x00, 0x00, 0x00,
  0xd1, 0xd0, 0x50, 0x3e, 0x30, 0x00, 0x00, 0x00, 0x73, 0x65, 0x71, 0x75,
  0x65, 0x6e, 0x74, 0x69, 0x61, 0x6c, 0x5f, 0x33, 0x5f, 0x31, 0x2f, 0x63,
  0x6f, 0x6e, 0x76, 0x31, 0x64, 0x5f, 0x36, 0x5f, 0x31, 0x2f, 0x63, 0x6f,
  0x6e, 0x76, 0x6f, 0x6c, 0x75, 0x74, 0x69, 0x6f, 0x6e, 0x2f, 0x45, 0x78,
  0x70, 0x61, 0x6e, 0x64, 0x44, 0x69, 0x6d, 0x73, 0x00, 0x00, 0x00, 0x00,
  0x04, 0x00, 0x00, 0x00, 0x01, 0x00, 0x00, 0x00, 0x01, 0x00, 0x00, 0x00,
  0x15, 0x00, 0x00, 0x00, 0x20, 0x00, 0x00, 0x00, 0x76, 0xfe, 0xff, 0xff,
  0x00, 0x00, 0x00, 0x01, 0x18, 0x00, 0x00, 0x00, 0x24, 0x00, 0x00, 0x00,
  0x44, 0x00, 0x00, 0x00, 0x1c, 0x00, 0x00, 0x00, 0x00, 0x00, 0x00, 0x09,
  0x60, 0x00, 0x00, 0x00, 0x03, 0x00, 0x00, 0x00, 0xff, 0xff, 0xff, 0xff,
  0x15, 0x00, 0x00, 0x00, 0x20, 0x00, 0x00, 0x00, 0x94, 0xf2, 0xff, 0xff,
  0x08, 0x00, 0x00, 0x00, 0x14, 0x00, 0x00, 0x00, 0x01, 0x00, 0x00, 0x00,
  0x7f, 0x00, 0x00, 0x00, 0x00, 0x00, 0x00, 0x00, 0x00, 0x00, 0x00, 0x00,
  0x01, 0x00, 0x00, 0x00, 0xd1, 0xd0, 0x50, 0x3e, 0x22, 0x00, 0x00, 0x00,
  0x73, 0x65, 0x71, 0x75, 0x65, 0x6e, 0x74, 0x69, 0x61, 0x6c, 0x5f, 0x33,
  0x5f, 0x31, 0x2f, 0x72, 0x65, 0x73, 0x68, 0x61, 0x70, 0x65, 0x5f, 0x33,
  0x5f, 0x31, 0x2f, 0x52, 0x65, 0x73, 0x68, 0x61, 0x70, 0x65, 0x00, 0x00,
  0x03, 0x00, 0x00, 0x00, 0x01, 0x00, 0x00, 0x00, 0x15, 0x00, 0x00, 0x00,
  0x20, 0x00, 0x00, 0x00, 0x92, 0xf0, 0xff, 0xff, 0x00, 0x00, 0x00, 0x01,
  0x14, 0x00, 0x00, 0x00, 0x14, 0x00, 0x00, 0x00, 0x1b, 0x00, 0x00, 0x00,
  0x00, 0x00, 0x00, 0x02, 0x38, 0x00, 0x00, 0x00, 0x18, 0xf0, 0xff, 0xff,
  0x28, 0x00, 0x00, 0x00, 0x73, 0x65, 0x71, 0x75, 0x65, 0x6e, 0x74, 0x69,
  0x61, 0x6c, 0x5f, 0x33, 0x5f, 0x31, 0x2f, 0x72, 0x65, 0x73, 0x68, 0x61,
  0x70, 0x65, 0x5f, 0x33, 0x5f, 0x31, 0x2f, 0x52, 0x65, 0x73, 0x68, 0x61,
  0x70, 0x65, 0x2f, 0x73, 0x68, 0x61, 0x70, 0x65, 0x00, 0x00, 0x00, 0x00,
  0x01, 0x00, 0x00, 0x00, 0x03, 0x00, 0x00, 0x00, 0xea, 0xf0, 0xff, 0xff,
  0x00, 0x00, 0x00, 0x01, 0x14, 0x00, 0x00, 0x00, 0x14, 0x00, 0x00, 0x00,
  0x1a, 0x00, 0x00, 0x00, 0x00, 0x00, 0x00, 0x02, 0x38, 0x00, 0x00, 0x00,
  0x70, 0xf0, 0xff, 0xff, 0x28, 0x00, 0x00, 0x00, 0x73, 0x65, 0x71, 0x75,
  0x65, 0x6e, 0x74, 0x69, 0x61, 0x6c, 0x5f, 0x33, 0x5f, 0x31, 0x2f, 0x72,
  0x65, 0x73, 0x68, 0x61, 0x70, 0x65, 0x5f, 0x33, 0x5f, 0x31, 0x2f, 0x73,
  0x74, 0x72, 0x69, 0x64, 0x65, 0x64, 0x5f, 0x73, 0x6c, 0x69, 0x63, 0x65,
  0x00, 0x00, 0x00, 0x00, 0x00, 0x00, 0x00, 0x00, 0x3e, 0xf1, 0xff, 0xff,
  0x00, 0x00, 0x00, 0x01, 0x14, 0x00, 0x00, 0x00, 0x14, 0x00, 0x00, 0x00,
  0x19, 0x00, 0x00, 0x00, 0x00, 0x00, 0x00, 0x02, 0x30, 0x00, 0x00, 0x00,
  0xc4, 0xf0, 0xff, 0xff, 0x20, 0x00, 0x00, 0x00, 0x73, 0x65, 0x71, 0x75,
  0x65, 0x6e, 0x74, 0x69, 0x61, 0x6c, 0x5f, 0x33, 0x5f, 0x31, 0x2f, 0x72,
  0x65, 0x73, 0x68, 0x61, 0x70, 0x65, 0x5f, 0x33, 0x5f, 0x31, 0x2f, 0x53,
  0x68, 0x61, 0x70, 0x65, 0x00, 0x00, 0x00, 0x00, 0x01, 0x00, 0x00, 0x00,
  0x03, 0x00, 0x00, 0x00, 0x00, 0x00, 0x16, 0x00, 0x20, 0x00, 0x1c, 0x00,
  0x1b, 0x00, 0x14, 0x00, 0x10, 0x00, 0x0c, 0x00, 0x00, 0x00, 0x00, 0x00,
  0x08, 0x00, 0x07, 0x00, 0x16, 0x00, 0x00, 0x00, 0x00, 0x00, 0x00, 0x01,
  0x18, 0x00, 0x00, 0x00, 0x24, 0x00, 0x00, 0x00, 0x40, 0x00, 0x00, 0x00,
  0x18, 0x00, 0x00, 0x00, 0x00, 0x00, 0x00, 0x09, 0x48, 0x00, 0x00, 0x00,
  0x03, 0x00, 0x00, 0x00, 0xff, 0xff, 0xff, 0xff, 0x20, 0x00, 0x00, 0x00,
  0x15, 0x00, 0x00, 0x00, 0x34, 0xf4, 0xff, 0xff, 0x08, 0x00, 0x00, 0x00,
  0x10, 0x00, 0x00, 0x00, 0x01, 0x00, 0x00, 0x00, 0x7f, 0x00, 0x00, 0x00,
  0x00, 0x00, 0x00, 0x00, 0x01, 0x00, 0x00, 0x00, 0xd1, 0xd0, 0x50, 0x3e,
  0x0c, 0x00, 0x00, 0x00, 0x74, 0x66, 0x6c, 0x2e, 0x71, 0x75, 0x61, 0x6e,
  0x74, 0x69, 0x7a, 0x65, 0x00, 0x00, 0x00, 0x00, 0x03, 0x00, 0x00, 0x00,
  0x01, 0x00, 0x00, 0x00, 0x20, 0x00, 0x00, 0x00, 0x15, 0x00, 0x00, 0x00,
  0x1a, 0xf2, 0xff, 0xff, 0x00, 0x00, 0x00, 0x01, 0x14, 0x00, 0x00, 0x00,
