unsigned char jarvis0_4_4_tflite[] = {
  0x1c, 0x00, 0x00, 0x00, 0x54, 0x46, 0x4c, 0x33, 0x14, 0x00, 0x20, 0x00,
  0x1c, 0x00, 0x18, 0x00, 0x14, 0x00, 0x10, 0x00, 0x0c, 0x00, 0x00, 0x00,
  0x08, 0x00, 0x04, 0x00, 0x14, 0x00, 0x00, 0x00, 0x1c, 0x00, 0x00, 0x00,
  0x8c, 0x00, 0x00, 0x00, 0x0c, 0x01, 0x00, 0x00, 0xf0, 0x25, 0x00, 0x00,
  0x00, 0x26, 0x00, 0x00, 0xc0, 0x4d, 0x00, 0x00, 0x03, 0x00, 0x00, 0x00,
  0x01, 0x00, 0x00, 0x00, 0x04, 0x00, 0x00, 0x00, 0x96, 0xd5, 0xff, 0xff,
  0x0c, 0x00, 0x00, 0x00, 0x1c, 0x00, 0x00, 0x00, 0x3c, 0x00, 0x00, 0x00,
  0x0f, 0x00, 0x00, 0x00, 0x73, 0x65, 0x72, 0x76, 0x69, 0x6e, 0x67, 0x5f,
  0x64, 0x65, 0x66, 0x61, 0x75, 0x6c, 0x74, 0x00, 0x01, 0x00, 0x00, 0x00,
  0x04, 0x00, 0x00, 0x00, 0x68, 0xff, 0xff, 0xff, 0x2f, 0x00, 0x00, 0x00,
  0x04, 0x00, 0x00, 0x00, 0x08, 0x00, 0x00, 0x00, 0x6f, 0x75, 0x74, 0x70,
  0x75, 0x74, 0x5f, 0x30, 0x00, 0x00, 0x00, 0x00, 0x01, 0x00, 0x00, 0x00,
  0x04, 0x00, 0x00, 0x00, 0x9e, 0xd5, 0xff, 0xff, 0x04, 0x00, 0x00, 0x00,
  0x0f, 0x00, 0x00, 0x00, 0x6b, 0x65, 0x72, 0x61, 0x73, 0x5f, 0x74, 0x65,
  0x6e, 0x73, 0x6f, 0x72, 0x5f, 0x34, 0x38, 0x00, 0x03, 0x00, 0x00, 0x00,
  0x5c, 0x00, 0x00, 0x00, 0x2c, 0x00, 0x00, 0x00, 0x04, 0x00, 0x00, 0x00,
  0xb8, 0xff, 0xff, 0xff, 0x33, 0x00, 0x00, 0x00, 0x04, 0x00, 0x00, 0x00,
  0x13, 0x00, 0x00, 0x00, 0x43, 0x4f, 0x4e, 0x56, 0x45, 0x52, 0x53, 0x49,
  0x4f, 0x4e, 0x5f, 0x4d, 0x45, 0x54, 0x41, 0x44, 0x41, 0x54, 0x41, 0x00,
  0xdc, 0xff, 0xff, 0xff, 0x32, 0x00, 0x00, 0x00, 0x04, 0x00, 0x00, 0x00,
  0x13, 0x00, 0x00, 0x00, 0x6d, 0x69, 0x6e, 0x5f, 0x72, 0x75, 0x6e, 0x74,
  0x69, 0x6d, 0x65, 0x5f, 0x76, 0x65, 0x72, 0x73, 0x69, 0x6f, 0x6e, 0x00,
  0x08, 0x00, 0x0c, 0x00, 0x08, 0x00, 0x04, 0x00, 0x08, 0x00, 0x00, 0x00,
  0x31, 0x00, 0x00, 0x00, 0x04, 0x00, 0x00, 0x00, 0x13, 0x00, 0x00, 0x00,
  0x6d, 0x69, 0x6e, 0x5f, 0x72, 0x75, 0x6e, 0x74, 0x69, 0x6d, 0x65, 0x5f,
  0x76, 0x65, 0x72, 0x73, 0x69, 0x6f, 0x6e, 0x00, 0x34, 0x00, 0x00, 0x00,
  0xe0, 0x24, 0x00, 0x00, 0xd8, 0x24, 0x00, 0x00, 0xc4, 0x24, 0x00, 0x00,
  0xb0, 0x24, 0x00, 0x00, 0x9c, 0x24, 0x00, 0x00, 0x88, 0x24, 0x00, 0x00,
  0x74, 0x24, 0x00, 0x00, 0x58, 0x24, 0x00, 0x00, 0x50, 0x24, 0x00, 0x00,
  0x34, 0x24, 0x00, 0x00, 0x18, 0x24, 0x00, 0x00, 0x00, 0x24, 0x00, 0x00,
  0xec, 0x23, 0x00, 0x00, 0xbc, 0x23, 0x00, 0x00, 0x2c, 0x23, 0x00, 0x00,
  0x1c, 0x0f, 0x00, 0x00, 0xec, 0x0e, 0x00, 0x00, 0xbc, 0x0e, 0x00, 0x00,
  0x2c, 0x0e, 0x00, 0x00, 0x1c, 0x08, 0x00, 0x00, 0xfc, 0x07, 0x00, 0x00,
  0xdc, 0x07, 0x00, 0x00, 0x8c, 0x07, 0x00, 0x00, 0x7c, 0x01, 0x00, 0x00,
  0x74, 0x01, 0x00, 0x00, 0x6c, 0x01, 0x00, 0x00, 0x64, 0x01, 0x00, 0x00,
  0x5c, 0x01, 0x00, 0x00, 0x54, 0x01, 0x00, 0x00, 0x4c, 0x01, 0x00, 0x00,
  0x44, 0x01, 0x00, 0x00, 0x3c, 0x01, 0x00, 0x00, 0x34, 0x01, 0x00, 0x00,
  0x2c, 0x01, 0x00, 0x00, 0x24, 0x01, 0x00, 0x00, 0x1c, 0x01, 0x00, 0x00,
  0x14, 0x01, 0x00, 0x00, 0x0c, 0x01, 0x00, 0x00, 0x04, 0x01, 0x00, 0x00,
  0xfc, 0x00, 0x00, 0x00, 0xf4, 0x00, 0x00, 0x00, 0xec, 0x00, 0x00, 0x00,
  0xe4, 0x00, 0x00, 0x00, 0xdc, 0x00, 0x00, 0x00, 0xd4, 0x00, 0x00, 0x00,
  0xcc, 0x00, 0x00, 0x00, 0xc4, 0x00, 0x00, 0x00, 0xbc, 0x00, 0x00, 0x00,
  0xb4, 0x00, 0x00, 0x00, 0x94, 0x00, 0x00, 0x00, 0x74, 0x00, 0x00, 0x00,
  0x04, 0x00, 0x00, 0x00, 0x12, 0xd7, 0xff, 0xff, 0x04, 0x00, 0x00, 0x00,
  0x60, 0x00, 0x00, 0x00, 0x0c, 0x00, 0x00, 0x00, 0x08, 0x00, 0x0e, 0x00,
  0x08, 0x00, 0x04, 0x00, 0x08, 0x00, 0x00, 0x00, 0x10, 0x00, 0x00, 0x00,
  0x28, 0x00, 0x00, 0x00, 0x00, 0x00, 0x06, 0x00, 0x08, 0x00, 0x04, 0x00,
  0x06, 0x00, 0x00, 0x00, 0x04, 0x00, 0x00, 0x00, 0x01, 0x00, 0x00, 0x00,
  0xeb, 0x03, 0x00, 0x00, 0x0c, 0x00, 0x18, 0x00, 0x14, 0x00, 0x10, 0x00,
  0x0c, 0x00, 0x04, 0x00, 0x0c, 0x00, 0x00, 0x00, 0xe7, 0xb1, 0xba, 0xd5,
  0xa0, 0x11, 0xa2, 0x37, 0x02, 0x00, 0x00, 0x00, 0x02, 0x00, 0x00, 0x00,
  0x04, 0x00, 0x00, 0x00, 0x06, 0x00, 0x00, 0x00, 0x32, 0x2e, 0x31, 0x38,
  0x2e, 0x30, 0x00, 0x00, 0x7e, 0xd7, 0xff, 0xff, 0x04, 0x00, 0x00, 0x00,
  0x10, 0x00, 0x00, 0x00, 0x00, 0x00, 0x00, 0x00, 0x00, 0x00, 0x00, 0x00,
  0x00, 0x00, 0x00, 0x00, 0x00, 0x00, 0x00, 0x00, 0x9a, 0xd7, 0xff, 0xff,
  0x04, 0x00, 0x00, 0x00, 0x10, 0x00, 0x00, 0x00, 0x31, 0x2e, 0x31, 0x34,
  0x2e, 0x30, 0x00, 0x00, 0x00, 0x00, 0x00, 0x00, 0x00, 0x00, 0x00, 0x00,
  0xf8, 0xb4, 0xff, 0xff, 0xfc, 0xb4, 0xff, 0xff, 0x00, 0xb5, 0xff, 0xff,
  0x04, 0xb5, 0xff, 0xff, 0x08, 0xb5, 0xff, 0xff, 0x0c, 0xb5, 0xff, 0xff,
  0x10, 0xb5, 0xff, 0xff, 0x14, 0xb5, 0xff, 0xff, 0x18, 0xb5, 0xff, 0xff,
  0x1c, 0xb5, 0xff, 0xff, 0x20, 0xb5, 0xff, 0xff, 0x24, 0xb5, 0xff, 0xff,
  0x28, 0xb5, 0xff, 0xff, 0x2c, 0xb5, 0xff, 0xff, 0x30, 0xb5, 0xff, 0xff,
  0x34, 0xb5, 0xff, 0xff, 0x38, 0xb5, 0xff, 0xff, 0x3c, 0xb5, 0xff, 0xff,
  0x40, 0xb5, 0xff, 0xff, 0x44, 0xb5, 0xff, 0xff, 0x48, 0xb5, 0xff, 0xff,
  0x4c, 0xb5, 0xff, 0xff, 0x50, 0xb5, 0xff, 0xff, 0x54, 0xb5, 0xff, 0xff,
  0x58, 0xb5, 0xff, 0xff, 0x1a, 0xd8, 0xff, 0xff, 0x04, 0x00, 0x00, 0x00,
  0x00, 0x06, 0x00, 0x00, 0xad, 0xc8, 0xe1, 0x2d, 0xcf, 0x5d, 0xd1, 0x5d,
  0x98, 0xd2, 0xa5, 0x9a, 0x47, 0x58, 0xb1, 0x1f, 0xa9, 0x47, 0x3c, 0x95,
  0x46, 0x72, 0xe1, 0x3c, 0x15, 0x29, 0x56, 0x6f, 0xfd, 0x0b, 0xb6, 0x12,
  0xf2, 0x4a, 0xeb, 0x6a, 0xc5, 0xf3, 0xee, 0x01, 0xf7, 0x32, 0x09, 0x2a,
  0x9c, 0x5b, 0xfe, 0x49, 0x32, 0x09, 0xfe, 0x1e, 0x22, 0x2d, 0x97, 0x65,
  0xf2, 0x94, 0x7f, 0x31, 0x2b, 0x33, 0xbe, 0x67, 0xdc, 0x99, 0x21, 0x41,
  0x24, 0x42, 0x66, 0x88, 0xf8, 0xdf, 0x03, 0x3c, 0x41, 0x60, 0x30, 0x21,
  0x1b, 0x08, 0x4c, 0x36, 0x92, 0x3a, 0x29, 0xb9, 0xfb, 0x49, 0xce, 0xf0,
  0x1a, 0x4f, 0x23, 0x27, 0x32, 0x21, 0x53, 0xde, 0xab, 0xef, 0x54, 0x10,
  0xee, 0xaa, 0x19, 0x9d, 0xd7, 0x48, 0xc0, 0x36, 0xa9, 0x73, 0xcd, 0xbb,
  0xa4, 0x98, 0x96, 0x9d, 0x74, 0x27, 0x1c, 0x10, 0xc0, 0x38, 0x31, 0xd1,
  0xe9, 0x32, 0x82, 0xe3, 0x11, 0xce, 0xf3, 0x74, 0x53, 0x1b, 0x00, 0xcb,
  0xd0, 0x9b, 0xcd, 0x72, 0xca, 0xfd, 0xa0, 0xc7, 0x81, 0xdf, 0x91, 0xce,
  0x50, 0x6a, 0xf4, 0x41, 0xaa, 0xa0, 0x34, 0x15, 0x8c, 0xb8, 0xc9, 0x0c,
  0x25, 0xfd, 0xae, 0xc1, 0xe4, 0xda, 0xf0, 0x5d, 0x13, 0x39, 0xe4, 0xee,
  0x9c, 0x49, 0x34, 0x41, 0x52, 0xb1, 0x5e, 0x90, 0x4e, 0xcd, 0xfe, 0xd9,
  0xd2, 0x2e, 0x15, 0x87, 0x09, 0x2e, 0xab, 0x24, 0xc4, 0x10, 0x43, 0xaa,
  0xb9, 0x2a, 0xef, 0xb4, 0xbb, 0xa0, 0x11, 0x6b, 0xa1, 0xa9, 0xb3, 0x21,
  0x0c, 0x12, 0x81, 0xb4, 0xaf, 0x29, 0x1c, 0xf3, 0xf8, 0xbf, 0x9f, 0xb6,
  0x21, 0x6d, 0x46, 0xfa, 0x3d, 0xcf, 0xbc, 0x57, 0x13, 0x0f, 0xb1, 0xea,
  0xc8, 0xec, 0xe6, 0xe4, 0x43, 0xe9, 0xa5, 0x86, 0xa5, 0x6a, 0x0b, 0xff,
  0xec, 0xa1, 0x26, 0x05, 0x11, 0xa0, 0xfb, 0x6f, 0xf1, 0x33, 0x5e, 0x5b,
  0x44, 0x1e, 0x24, 0x95, 0x56, 0x3d, 0x2b, 0x96, 0x3c, 0x56, 0x43, 0x03,
  0x75, 0x9f, 0xfe, 0xcc, 0x55, 0x5d, 0xf0, 0x57, 0xe7, 0x85, 0xb6, 0xe7,
  0xe9, 0xec, 0x4a, 0x03, 0x23, 0x6a, 0xd3, 0x3b, 0x61, 0x12, 0xf5, 0x54,
  0x60, 0x98, 0xec, 0xfd, 0x87, 0x1e, 0x8a, 0xc4, 0x8c, 0x2e, 0xf4, 0xcd,
  0x33, 0x9b, 0x8f, 0x2e, 0x33, 0x04, 0xda, 0xc1, 0x67, 0xb6, 0xd4, 0xc7,
  0x67, 0xa7, 0xa4, 0x39, 0xc8, 0x34, 0xeb, 0xf9, 0x61, 0x3b, 0x0c, 0x37,
  0xc0, 0x81, 0xb5, 0xec, 0xf9, 0x68, 0x6b, 0x16, 0x10, 0xdb, 0xc8, 0xb4,
  0x47, 0x25, 0xd5, 0x21, 0xbe, 0xda, 0x29, 0x6d, 0xad, 0xa3, 0x0f, 0x31,
  0xd0, 0x41, 0xe0, 0xd6, 0x4e, 0xe3, 0x83, 0x91, 0xff, 0xb8, 0x66, 0x07,
  0x13, 0x23, 0xb5, 0xd3, 0x6e, 0xd6, 0xe4, 0x47, 0xd3, 0x3c, 0xf4, 0x39,
  0xd3, 0xa7, 0x5d, 0x4b, 0xd9, 0xa2, 0x94, 0xd4, 0xb1, 0x44, 0xfd, 0x86,
  0x14, 0xae, 0x02, 0x49, 0xd1, 0x5c, 0x62, 0x81, 0x25, 0xf0, 0x01, 0xfa,
  0x1a, 0x59, 0xcb, 0x6c, 0xb5, 0xe4, 0x43, 0x2d, 0x04, 0x4b, 0xc5, 0x5a,
  0xb5, 0x88, 0xf6, 0xe6, 0x38, 0x4f, 0x93, 0x9c, 0xc6, 0xc5, 0x8d, 0x45,
  0xe4, 0xd7, 0xb0, 0xaf, 0x40, 0x1d, 0x19, 0xe9, 0x40, 0xaf, 0x13, 0xfe,
  0x1f, 0xd8, 0x90, 0xda, 0xc4, 0xb9, 0xc4, 0x5c, 0x1e, 0x3d, 0xd8, 0x91,
  0x14, 0xc1, 0x2c, 0x0d, 0x65, 0x10, 0x5a, 0x63, 0xaf, 0x76, 0xea, 0x45,
  0x14, 0x15, 0x0e, 0x34, 0x2c, 0x3e, 0xe6, 0x63, 0x09, 0xab, 0x61, 0xbf,
  0xb6, 0xee, 0xd9, 0xdb, 0x09, 0x67, 0xdf, 0x09, 0x07, 0xe2, 0xf0, 0xb2,
  0x3c, 0xc5, 0xe4, 0x32, 0x8d, 0xbe, 0x14, 0x01, 0xe0, 0x9e, 0xeb, 0x61,
  0x56, 0x5e, 0x7f, 0xdf, 0xdf, 0x9d, 0xcb, 0xb9, 0x2d, 0x0e, 0x0b, 0xf2,
  0xe9, 0xe2, 0xbf, 0x29, 0x64, 0x12, 0x91, 0xf8, 0x36, 0x60, 0x61, 0xfa,
  0xfb, 0xdb, 0x5e, 0xbd, 0xa7, 0x0e, 0xea, 0x7c, 0xf3, 0xf8, 0x35, 0x5b,
  0xe3, 0x5e, 0x03, 0x97, 0x73, 0x28, 0x08, 0x6c, 0xae, 0x9c, 0x32, 0xe8,
  0x47, 0x2f, 0x26, 0x61, 0x00, 0xc4, 0xba, 0xd6, 0xe7, 0x05, 0xa3, 0xa6,
  0xf6, 0xad, 0x04, 0xba, 0xb3, 0xef, 0x17, 0x23, 0x9d, 0xfe, 0xf7, 0x01,
  0xa9, 0x69, 0xb3, 0xaf, 0xb2, 0xce, 0x41, 0x0b, 0xe7, 0x18, 0x55, 0x04,
  0x62, 0x1b, 0x92, 0xcb, 0x08, 0x42, 0x07, 0xf1, 0x42, 0xc8, 0x85, 0xcd,
  0xfa, 0x07, 0xd0, 0xd7, 0x8b, 0xb4, 0x65, 0x28, 0x43, 0xf7, 0x54, 0x07,
  0x6c, 0xf5, 0xef, 0x61, 0x2e, 0x18, 0xd6, 0x2f, 0x03, 0x81, 0x52, 0x16,
  0x8a, 0xbc, 0x09, 0x20, 0xaa, 0xd9, 0x63, 0x37, 0x36, 0xb0, 0xa8, 0x21,
  0xeb, 0xb6, 0xb1, 0x3b, 0x35, 0x0e, 0xd3, 0x76, 0xbe, 0x03, 0xca, 0x9d,
  0xfd, 0x1f, 0xf0, 0xdb, 0xa3, 0xaa, 0xab, 0x1a, 0xf0, 0xb1, 0x44, 0x98,
  0xaa, 0x94, 0xd2, 0x17, 0x03, 0xf1, 0x23, 0x67, 0x23, 0xb7, 0x77, 0xd4,
  0x5c, 0x73, 0x35, 0x33, 0x81, 0x0d, 0x93, 0x0a, 0xd2, 0xb5, 0xa1, 0x3c,
  0x4c, 0xf9, 0x8a, 0x4f, 0x81, 0x5f, 0xa0, 0xe6, 0xb0, 0x37, 0xc6, 0x45,
  0xa0, 0x3a, 0xa7, 0x45, 0x15, 0x89, 0x1b, 0x13, 0x8b, 0xd1, 0xa0, 0x1e,
  0x14, 0x3e, 0x85, 0x2f, 0x3b, 0xb9, 0x5a, 0x10, 0xbd, 0x13, 0xf5, 0x76,
  0xe2, 0x33, 0x57, 0x60, 0x86, 0x4e, 0x01, 0xb1, 0xf8, 0xf7, 0x4d, 0x2a,
  0x6e, 0x6d, 0x5f, 0x67, 0x0f, 0x6b, 0x2e, 0xd5, 0xd0, 0x33, 0xc2, 0x44,
  0x9e, 0x41, 0xe2, 0x9b, 0xcf, 0x01, 0xd7, 0xd0, 0x5e, 0x0e, 0xcf, 0xf7,
  0x15, 0x09, 0x4b, 0x47, 0x98, 0x0a, 0x0d, 0x90, 0xc9, 0xda, 0x35, 0x19,
  0xee, 0x0c, 0xef, 0xa4, 0x6e, 0xbc, 0x08, 0xeb, 0xbb, 0xa6, 0x35, 0xdf,
  0x11, 0xd3, 0x7b, 0x6f, 0x7f, 0xe1, 0xc3, 0xec, 0x78, 0x1a, 0xe5, 0x41,
  0xc4, 0xa8, 0x2f, 0x47, 0x4a, 0x93, 0x8a, 0x07, 0xa4, 0x12, 0xb9, 0x40,
  0x9a, 0x3f, 0xf4, 0xc1, 0xe5, 0x45, 0xf8, 0xed, 0x29, 0xb8, 0x00, 0xb8,
  0xe5, 0xe2, 0xc2, 0x99, 0xbf, 0x04, 0x13, 0x38, 0xff, 0xb7, 0xb0, 0xb9,
  0x51, 0x17, 0x24, 0x1e, 0xae, 0x0b, 0x62, 0x8c, 0x4b, 0x61, 0x47, 0x9a,
  0xeb, 0x47, 0xb0, 0x2c, 0x51, 0xe4, 0xd8, 0x9f, 0x1a, 0x23, 0xa5, 0x42,
  0x88, 0x70, 0xfe, 0xfe, 0x1f, 0x6c, 0xef, 0x9c, 0x14, 0x1d, 0x62, 0xc8,
  0x61, 0x03, 0x22, 0x05, 0x34, 0xe3, 0xcc, 0x29, 0x9e, 0xbf, 0xdd, 0x7a,
  0x16, 0x4c, 0xf4, 0x82, 0xbb, 0xf1, 0x86, 0xbd, 0x15, 0x83, 0xf7, 0xb3,
  0xdc, 0xcf, 0xb2, 0x27, 0xc9, 0x30, 0x20, 0x7f, 0xc6, 0xc0, 0x35, 0x08,
  0xa2, 0x0a, 0x66, 0xf3, 0xb0, 0xaf, 0x25, 0xac, 0x99, 0x25, 0x3c, 0x04,
  0x11, 0x4c, 0xa8, 0x76, 0xde, 0x39, 0x25, 0xc7, 0x2b, 0xad, 0x5f, 0x55,
  0x61, 0xa4, 0xcc, 0x4d, 0xde, 0xb2, 0x34, 0x46, 0x30, 0xb8, 0x60, 0x35,
  0x27, 0x1b, 0x15, 0x10, 0x54, 0x5b, 0x0b, 0x9f, 0xe4, 0x10, 0x94, 0x9c,
  0xbc, 0x3f, 0xfd, 0x34, 0xe6, 0xb0, 0x40, 0x02, 0xe6, 0x45, 0x05, 0x22,
  0x53, 0x40, 0xe1, 0x8e, 0xfa, 0xc3, 0x54, 0x52, 0xb8, 0xf8, 0x55, 0x23,
  0xc4, 0xac, 0x02, 0x35, 0xd9, 0x7f, 0x40, 0x78, 0xfa, 0xc2, 0x22, 0x5e,
  0xd1, 0x42, 0x2e, 0x32, 0x24, 0x41, 0x00, 0x40, 0x9d, 0x27, 0x65, 0x62,
  0x25, 0xbf, 0xad, 0x41, 0x94, 0xb0, 0xdf, 0xe5, 0xc0, 0xb6, 0x52, 0x3e,
  0xbc, 0xb3, 0x24, 0xce, 0xb5, 0x14, 0x43, 0xd1, 0x6c, 0x90, 0x0c, 0xcf,
  0xeb, 0xe9, 0x2e, 0x4d, 0xb8, 0x18, 0xbe, 0xa2, 0x04, 0xb5, 0x02, 0xeb,
  0x2a, 0x44, 0x23, 0xd0, 0xbd, 0xa8, 0x3b, 0x0e, 0x62, 0x4b, 0x4a, 0xe8,
  0x25, 0xf8, 0xdc, 0xe5, 0xba, 0x66, 0xb7, 0x5c, 0x62, 0x0e, 0x97, 0x2b,
  0xd0, 0x22, 0x06, 0xe6, 0x02, 0x3d, 0x53, 0x82, 0x11, 0x28, 0x39, 0x93,
  0xef, 0xaf, 0x74, 0x4c, 0xc5, 0x0c, 0x72, 0x44, 0x5a, 0x2c, 0x2e, 0xbf,
  0xe0, 0x45, 0x1b, 0x4a, 0x5d, 0x7f, 0x77, 0x37, 0x2d, 0x52, 0x42, 0x36,
  0x41, 0xd7, 0xfe, 0x21, 0x00, 0x1d, 0x6b, 0x78, 0x7b, 0xc9, 0x09, 0x02,
  0xda, 0x00, 0xb9, 0x6b, 0x16, 0x89, 0x02, 0x28, 0x68, 0xff, 0xfb, 0xf5,
  0xa5, 0x0d, 0xc4, 0x1a, 0x94, 0x8b, 0xf5, 0x3d, 0x2f, 0x15, 0xc0, 0xb2,
  0xbd, 0x55, 0x55, 0x0b, 0xd2, 0x5e, 0xd0, 0xab, 0xc4, 0xfd, 0xb0, 0x4f,
  0x57, 0xf8, 0x59, 0x7c, 0xab, 0x9e, 0x34, 0xae, 0x5f, 0x51, 0x6d, 0x65,
  0x17, 0x32, 0xe3, 0xee, 0xec, 0xd6, 0x36, 0x2a, 0xbb, 0x2f, 0x41, 0x58,
  0xd0, 0x81, 0x4d, 0x52, 0x56, 0x51, 0xc0, 0x58, 0xfa, 0xec, 0xff, 0x16,
  0x22, 0xc4, 0x3f, 0x25, 0x26, 0x3f, 0x6a, 0x3a, 0x6c, 0x48, 0x12, 0x10,
  0x9d, 0x0b, 0xd0, 0x2d, 0x60, 0x7c, 0x73, 0x9c, 0x44, 0xae, 0x16, 0x53,
  0x4f, 0xac, 0x7d, 0x69, 0xe1, 0xbb, 0x77, 0xc4, 0x29, 0xc3, 0x36, 0x0d,
  0x2c, 0x96, 0x99, 0x30, 0x5b, 0x56, 0x7e, 0x89, 0xf1, 0x0c, 0xa8, 0x0c,
  0x44, 0x83, 0x7c, 0x9b, 0xbb, 0xd2, 0x3a, 0x6f, 0x65, 0x55, 0x55, 0x6f,
  0x9d, 0x92, 0x7e, 0x55, 0x9a, 0x31, 0x4c, 0xb0, 0x8c, 0xb2, 0x3a, 0x27,
  0x6f, 0xdd, 0x63, 0x6d, 0x72, 0x79, 0xd6, 0xdd, 0x31, 0x5a, 0xc0, 0x4c,
  0x04, 0x76, 0xc8, 0xfc, 0x08, 0xfc, 0x0b, 0xa7, 0xd5, 0xd1, 0x2a, 0x2f,
  0x5c, 0xeb, 0x31, 0xbe, 0x21, 0x7a, 0x47, 0xf3, 0x9f, 0x61, 0xa8, 0x78,
  0x2e, 0xb9, 0x94, 0x81, 0x1d, 0xdf, 0x04, 0x0a, 0x1b, 0x83, 0x36, 0x08,
  0x25, 0x98, 0x31, 0x38, 0x00, 0xbf, 0x05, 0x70, 0x94, 0xac, 0x09, 0x46,
  0xea, 0x2d, 0xfd, 0x5f, 0x23, 0xcc, 0x8e, 0x36, 0xc1, 0x32, 0xe9, 0x2f,
  0xbb, 0x07, 0xaa, 0x8c, 0xec, 0x2e, 0x3d, 0xac, 0x67, 0x1f, 0x4d, 0x48,
  0xe9, 0x2c, 0x6d, 0xc8, 0xce, 0xdb, 0x1a, 0x60, 0xe8, 0xbb, 0xbb, 0xce,
  0xd9, 0xfa, 0x16, 0x8a, 0x7f, 0x70, 0x0d, 0x1a, 0x90, 0x35, 0x64, 0x92,
  0x13, 0x02, 0x22, 0x83, 0x2d, 0x94, 0x90, 0xf5, 0x87, 0xee, 0x0c, 0x2a,
  0x4c, 0x3a, 0xd9, 0x21, 0x55, 0x37, 0x35, 0xfc, 0x32, 0xd2, 0xcf, 0x78,
  0x9d, 0xac, 0x43, 0xc6, 0x3e, 0xbc, 0xa7, 0x1a, 0x0d, 0x4f, 0xe8, 0x23,
  0x3c, 0xd3, 0xc6, 0x59, 0xcb, 0xd9, 0x8f, 0x9d, 0x40, 0x27, 0x3f, 0xa6,
  0xc1, 0x4a, 0x0b, 0x20, 0x9d, 0xba, 0x2c, 0xbf, 0xc7, 0xf5, 0xfa, 0x24,
  0x2a, 0xdc, 0x97, 0xf0, 0x9a, 0xc6, 0x29, 0x0f, 0x61, 0x3b, 0x47, 0x47,
  0x52, 0x11, 0x26, 0x57, 0xd8, 0xce, 0x0e, 0xcc, 0x36, 0xd0, 0x0d, 0xa6,
  0xf5, 0xf1, 0xd9, 0x07, 0x97, 0x9d, 0x26, 0x90, 0xd1, 0xb1, 0xc5, 0x66,
  0x54, 0xf5, 0x79, 0x55, 0x0a, 0x9a, 0x11, 0xa4, 0x9b, 0x72, 0x9c, 0x54,
  0x55, 0x03, 0xfd, 0xea, 0x65, 0x0c, 0x9b, 0x5c, 0x00, 0xed, 0xc7, 0x15,
  0xb9, 0x60, 0x03, 0x26, 0xab, 0xa1, 0x11, 0xef, 0x7f, 0xcb, 0x0e, 0x9c,
  0xb1, 0xb3, 0x70, 0x45, 0x6d, 0x54, 0xe5, 0x53, 0xf0, 0x05, 0xf1, 0x6f,
  0xfa, 0x73, 0x9a, 0xce, 0x43, 0xca, 0xd6, 0x9e, 0x0f, 0x37, 0x54, 0x4e,
  0x34, 0xe7, 0x95, 0xf2, 0xa9, 0x2d, 0xd6, 0x7b, 0xc6, 0x17, 0x77, 0xa3,
  0x6f, 0xe3, 0x1b, 0xdc, 0x39, 0x59, 0x40, 0x46, 0xbd, 0x40, 0xc7, 0x2e,
  0xd2, 0x56, 0x2b, 0x46, 0x26, 0xde, 0xff, 0xff, 0x04, 0x00, 0x00, 0x00,
  0x40, 0x00, 0x00, 0x00, 0xcc, 0xff, 0xff, 0xff, 0xf0, 0xff, 0xff, 0xff,
  0x48, 0x00, 0x00, 0x00, 0x2a, 0x00, 0x00, 0x00, 0x29, 0x00, 0x00, 0x00,
  0x0b, 0x00, 0x00, 0x00, 0x00, 0x00, 0x00, 0x00, 0x1f, 0x00, 0x00, 0x00,
  0x30, 0x00, 0x00, 0x00, 0xf0, 0xff, 0xff, 0xff, 0xdc, 0xff, 0xff, 0xff,
  0xe5, 0xff, 0xff, 0xff, 0x00, 0x00, 0x00, 0x00, 0x28, 0x00, 0x00, 0x00,
  0x58, 0x00, 0x00, 0x00, 0xd1, 0xff, 0xff, 0xff, 0x72, 0xde, 0xff, 0xff,
  0x04, 0x00, 0x00, 0x00, 0x10, 0x00, 0x00, 0x00, 0x7d, 0x81, 0x81, 0x81,
  0x81, 0x81, 0x81, 0x81, 0x81, 0x81, 0x82, 0xc6, 0x7f, 0x81, 0x81, 0x85,
  0x8e, 0xde, 0xff, 0xff, 0x04, 0x00, 0x00, 0x00, 0x10, 0x00, 0x00, 0x00,
  0x7e, 0x80, 0x08, 0x1e, 0xd8, 0x34, 0x1c, 0x38, 0x2e, 0x2f, 0x75, 0x7a,
  0x7f, 0x6e, 0x34, 0x75, 0xaa, 0xde, 0xff, 0xff, 0x04, 0x00, 0x00, 0x00,
  0x00, 0x06, 0x00, 0x00, 0x15, 0x58, 0x00, 0xe5, 0x42, 0x6d, 0xaa, 0xa1,
  0xf2, 0xf3, 0xe2, 0x2d, 0x07, 0xed, 0xe5, 0x21, 0x14, 0x39, 0x56, 0x27,
  0x14, 0x10, 0xf5, 0x36, 0xd6, 0x41, 0x30, 0xea, 0x06, 0x3f, 0xbd, 0xfb,
  0x55, 0xbe, 0xf3, 0xc8, 0x65, 0x7f, 0x1d, 0x43, 0xc2, 0x93, 0x5b, 0x3d,
  0xc5, 0x3b, 0xf0, 0x60, 0x65, 0x0a, 0x5a, 0xd0, 0x79, 0xba, 0xc4, 0x55,
  0xc3, 0x16, 0xd0, 0xc4, 0x69, 0xe6, 0xc9, 0x2c, 0x42, 0xb1, 0x64, 0xa6,
  0x0f, 0x46, 0x10, 0x2e, 0xd5, 0xb7, 0x28, 0x81, 0x0b, 0xd0, 0xee, 0x19,
  0xad, 0x4a, 0xb7, 0x15, 0x24, 0xeb, 0x2f, 0x2b, 0x9c, 0xda, 0x17, 0xec,
  0x03, 0x4c, 0x25, 0x22, 0x34, 0x31, 0x9f, 0x68, 0x24, 0xd3, 0x0e, 0x43,
  0xbe, 0x84, 0x41, 0xac, 0x4a, 0xd9, 0x1c, 0xc4, 0xb2, 0x3d, 0xc9, 0xb1,
  0x9d, 0x16, 0xcd, 0x4c, 0x00, 0xc1, 0x3c, 0xdf, 0x98, 0xbf, 0x4a, 0xb7,
  0xaa, 0x45, 0x4c, 0xd6, 0xe5, 0x65, 0x9c, 0x4a, 0xa2, 0xb0, 0xbd, 0x61,
  0x3d, 0xa4, 0x7f, 0x2b, 0xda, 0x12, 0x84, 0x90, 0xb9, 0x1f, 0x41, 0xec,
  0xc6, 0xbf, 0xc3, 0x3d, 0x44, 0xa0, 0x77, 0x9a, 0xbe, 0x62, 0xc9, 0x4a,
  0xd1, 0xcf, 0x19, 0x70, 0x5e, 0xd1, 0x06, 0x1a, 0x5f, 0x3d, 0xd1, 0x33,
  0xa5, 0x0a, 0x7f, 0xfd, 0xd4, 0x00, 0x4b, 0xd1, 0x1a, 0x5d, 0x41, 0xec,
  0x66, 0xd1, 0xe6, 0x1a, 0xf4, 0x5f, 0x50, 0xc2, 0x2d, 0x4c, 0x1c, 0xf4,
  0xcc, 0x5a, 0xe7, 0xcd, 0x3c, 0x2c, 0xbd, 0x5d, 0xa1, 0xdc, 0x4b, 0x1f,
  0xe2, 0x5b, 0xb6, 0x31, 0xd1, 0x7f, 0x0b, 0xfe, 0x44, 0xd3, 0x6b, 0x39,
  0xef, 0xd5, 0x0c, 0x29, 0x92, 0x1d, 0x26, 0xbf, 0xba, 0x1c, 0x13, 0x9c,
  0xee, 0x4b, 0x24, 0x08, 0x12, 0xd0, 0x55, 0x16, 0x18, 0x35, 0xfb, 0xf6,
  0x59, 0xb1, 0xf4, 0xda, 0x81, 0x06, 0xd2, 0xbe, 0xbb, 0x3f, 0xa7, 0xb4,
  0xe4, 0xbf, 0xf7, 0x0b, 0x48, 0x15, 0x0d, 0xdd, 0x8c, 0x3f, 0x23, 0x3f,
  0x1b, 0xa3, 0x57, 0x32, 0xe8, 0x0b, 0x2f, 0x9f, 0xe1, 0x4c, 0xe2, 0x22,
  0x29, 0x0c, 0x91, 0x90, 0x44, 0x4d, 0x1f, 0x08, 0x11, 0xcb, 0x13, 0x9a,
  0xac, 0xac, 0x37, 0x08, 0x24, 0x12, 0x66, 0x90, 0x63, 0x34, 0x59, 0xf2,
  0x56, 0xfd, 0xaf, 0xea, 0x94, 0xca, 0x24, 0xb6, 0x7a, 0x28, 0xd0, 0xd2,
  0xd9, 0xb2, 0x27, 0x7f, 0x41, 0x37, 0xe8, 0x71, 0x6e, 0x44, 0x15, 0x21,
  0x39, 0xc9, 0xcb, 0x8b, 0x40, 0xc0, 0xb2, 0x0a, 0xda, 0x02, 0x64, 0x2d,
  0x22, 0x45, 0xb0, 0x1b, 0xf0, 0xe1, 0xfc, 0xcb, 0xdf, 0x4c, 0xb9, 0x2f,
  0x19, 0xce, 0x5d, 0xdf, 0xc2, 0xe6, 0xeb, 0xe2, 0x2d, 0xf1, 0x13, 0xf9,
  0x56, 0xa9, 0xbb, 0x39, 0xcf, 0x9a, 0xfc, 0xd5, 0x1c, 0xc7, 0xa4, 0x63,
  0x81, 0xba, 0x2f, 0x1b, 0xb9, 0xbc, 0x7a, 0x1e, 0x32, 0xba, 0xf5, 0x11,
  0x95, 0xa0, 0xf2, 0xa9, 0xbc, 0x78, 0xe0, 0x12, 0xa0, 0xb2, 0x43, 0x64,
  0xdd, 0xea, 0x79, 0x5a, 0x5e, 0xe6, 0x0f, 0xb0, 0xd8, 0xed, 0xea, 0x39,
  0xf4, 0x81, 0x17, 0x10, 0x61, 0x62, 0x90, 0xa9, 0x1b, 0xd7, 0x3d, 0x51,
  0xda, 0x65, 0x63, 0x6e, 0x75, 0xad, 0x1c, 0xe2, 0xdf, 0x13, 0xe2, 0x68,
  0x67, 0x5f, 0x4d, 0xc9, 0xca, 0xe9, 0x7f, 0x75, 0x98, 0xff, 0xe6, 0xf8,
  0xe2, 0xd8, 0xf8, 0xcc, 0xa1, 0xec, 0x14, 0x06, 0xdf, 0xca, 0xe1, 0xb1,
  0xe5, 0xd5, 0xa0, 0xbf, 0x86, 0x20, 0xaf, 0x16, 0x77, 0xb8, 0x18, 0x0b,
  0x8e, 0x00, 0x01, 0x21, 0xcd, 0xcb, 0xb0, 0x36, 0x00, 0x55, 0x03, 0xf4,
  0x5a, 0x78, 0x49, 0x1c, 0x81, 0x2e, 0x5a, 0xde, 0x2e, 0x9c, 0xe2, 0xfd,
  0x29, 0x6b, 0xd8, 0x17, 0x79, 0x3b, 0xea, 0x4b, 0x9f, 0xaf, 0xa7, 0x73,
  0xd9, 0xaa, 0xa5, 0x51, 0xd0, 0xf2, 0xa3, 0x4b, 0x31, 0xf7, 0xf0, 0xde,
  0xfa, 0x61, 0x06, 0xa2, 0x35, 0x26, 0xe2, 0x54, 0x3c, 0xfe, 0x47, 0x23,
  0x5c, 0x49, 0xa9, 0x19, 0xf9, 0x27, 0xbf, 0x90, 0x45, 0xf1, 0x09, 0xc0,
  0xaa, 0xa4, 0x11, 0x23, 0x25, 0x43, 0x2d, 0x2b, 0x64, 0x49, 0x28, 0xad,
  0xd6, 0x3f, 0x81, 0x99, 0xe1, 0x2d, 0xfe, 0x1f, 0xba, 0xc7, 0x0d, 0x2d,
  0xbe, 0x05, 0x0c, 0x28, 0x50, 0xb4, 0x06, 0x54, 0xd8, 0xed, 0xc3, 0xaf,
  0x39, 0x5f, 0x25, 0xe9, 0xab, 0x00, 0x70, 0xac, 0x37, 0xdc, 0x81, 0x05,
  0x05, 0x58, 0xfc, 0xe8, 0xeb, 0x09, 0xca, 0x16, 0xf3, 0x63, 0xb2, 0x1f,
  0xc7, 0x36, 0x1b, 0xa4, 0x12, 0xfa, 0xd7, 0xf2, 0xce, 0x27, 0xcf, 0x44,
  0x98, 0xd7, 0xf0, 0x49, 0x64, 0xf3, 0xdd, 0x46, 0x35, 0x72, 0x09, 0xa6,
  0x0d, 0x5a, 0xdb, 0x2a, 0x19, 0x17, 0xa2, 0xa8, 0xdc, 0x0a, 0x1a, 0x39,
  0xfc, 0x24, 0x37, 0x88, 0xad, 0xf8, 0x41, 0x08, 0xed, 0xc8, 0x09, 0x27,
  0xdd, 0x41, 0x12, 0xf2, 0x0a, 0x12, 0x55, 0xa3, 0xd9, 0xae, 0xef, 0x5f,
  0x81, 0x6b, 0x00, 0x4c, 0x4c, 0x04, 0xef, 0x47, 0x29, 0xe4, 0x00, 0x64,
  0x3b, 0x5b, 0xa0, 0xc3, 0xa2, 0x2e, 0xba, 0xf9, 0x35, 0x19, 0x81, 0xcb,
  0x48, 0xde, 0x6b, 0x56, 0x4b, 0x67, 0xc4, 0x70, 0x5c, 0x1f, 0x05, 0xd8,
  0x33, 0x98, 0x0f, 0xd7, 0x8a, 0xa5, 0x90, 0x2b, 0x16, 0x0a, 0x2f, 0xf2,
  0xbd, 0xae, 0x97, 0x96, 0x76, 0x24, 0x3e, 0xb7, 0xa9, 0x6f, 0x07, 0x32,
  0xc3, 0xa2, 0xd3, 0xdd, 0x46, 0x1c, 0x5d, 0x71, 0xee, 0x7a, 0x1d, 0x53,
  0xd3, 0x82, 0xf2, 0xe5, 0x98, 0x5f, 0x24, 0x6b, 0xfa, 0xac, 0x76, 0xe2,
  0x37, 0xa4, 0x19, 0x48, 0x0d, 0x41, 0x26, 0x04, 0x54, 0x42, 0x7f, 0x17,
  0x0b, 0x1f, 0xe3, 0x16, 0x97, 0x0e, 0x29, 0x34, 0xe5, 0x1c, 0xff, 0x21,
  0xe3, 0x8b, 0x5d, 0xdc, 0x24, 0x3e, 0x67, 0x14, 0xaf, 0x29, 0x81, 0xef,
  0xb9, 0x4e, 0x33, 0x81, 0x1c, 0xad, 0x13, 0x46, 0xbb, 0xa9, 0xe9, 0x17,
  0x23, 0x42, 0x2b, 0x17, 0xbf, 0x95, 0xc4, 0x71, 0x52, 0xdf, 0xa7, 0xa6,
  0xc8, 0xdd, 0xad, 0x64, 0x0e, 0x7f, 0x40, 0xbf, 0xe0, 0xeb, 0xda, 0x48,
  0xfb, 0x4c, 0x4b, 0x0d, 0xae, 0x07, 0x21, 0x30, 0xb4, 0xd5, 0x2f, 0x13,
  0xe7, 0x2b, 0x9f, 0x13, 0x06, 0xcb, 0x27, 0x23, 0x5c, 0x14, 0xa3, 0x27,
  0xdb, 0x01, 0xe4, 0xd8, 0x64, 0x23, 0xf8, 0x00, 0xce, 0xa5, 0xb2, 0xd7,
  0x73, 0xcb, 0xe0, 0x95, 0xf8, 0x0d, 0xff, 0xa4, 0x4d, 0xc5, 0xaf, 0xed,
  0xf2, 0xbe, 0x6e, 0x17, 0xd2, 0xbd, 0xfa, 0x6a, 0x8e, 0xb6, 0x65, 0x2c,
  0xbd, 0x28, 0x09, 0xcb, 0xfa, 0x0f, 0xa4, 0x4e, 0xa5, 0xdb, 0xaf, 0x4f,
  0xd0, 0x3a, 0x39, 0x81, 0x1b, 0x3e, 0xd1, 0x13, 0x6c, 0xb3, 0x3d, 0xf8,
  0xea, 0xf7, 0xa4, 0xf0, 0x60, 0x4b, 0xb1, 0xc9, 0xf7, 0xa6, 0xb0, 0x99,
  0x2a, 0xdb, 0xd1, 0x47, 0xdf, 0xae, 0x50, 0x2d, 0xc5, 0x2c, 0x4b, 0xde,
  0x99, 0x25, 0xc9, 0xc1, 0xab, 0xa5, 0xc5, 0xb1, 0xc8, 0xba, 0x27, 0x61,
  0x23, 0x6d, 0x36, 0x46, 0xbf, 0x9c, 0x3c, 0xeb, 0xa7, 0x33, 0xa2, 0xad,
  0x5c, 0x0a, 0x81, 0xff, 0x9e, 0xd5, 0x0f, 0x6d, 0x14, 0x92, 0xde, 0xdd,
  0x7b, 0xfc, 0x11, 0xbe, 0x92, 0x5e, 0x51, 0xba, 0x55, 0xf5, 0xe7, 0x0a,
  0xce, 0x7d, 0xdb, 0xae, 0x02, 0xd9, 0x24, 0x4c, 0xdd, 0x0c, 0xd4, 0x53,
  0x9a, 0xac, 0x42, 0xc4, 0xf9, 0x3b, 0x23, 0x58, 0x95, 0xc7, 0xd3, 0xb4,
  0x81, 0x8b, 0xa9, 0xce, 0xda, 0x09, 0x16, 0xaa, 0x4f, 0x1f, 0x7f, 0xf0,
  0xe6, 0x53, 0xc0, 0xcc, 0xd2, 0x04, 0xd5, 0x23, 0xef, 0xf4, 0x9e, 0xdc,
  0x40, 0x28, 0xf2, 0x47, 0xc0, 0xd1, 0xde, 0x11, 0xdc, 0xba, 0xbb, 0xb1,
  0xb2, 0xde, 0x9e, 0xef, 0x02, 0x9c, 0x32, 0xdb, 0xb5, 0x4f, 0xa2, 0xc8,
  0xbf, 0xa6, 0xd3, 0xf0, 0xe3, 0xb0, 0x9d, 0x47, 0x39, 0x1b, 0xa2, 0xb9,
  0x5e, 0xb0, 0x35, 0xb6, 0x51, 0xfd, 0x4d, 0xa6, 0x26, 0x1c, 0xd8, 0x4a,
  0xba, 0x43, 0xc8, 0xad, 0x48, 0xc5, 0xf9, 0xc7, 0xff, 0x0b, 0x0f, 0xbf,
  0xf5, 0x4b, 0x7f, 0x3a, 0x41, 0xf8, 0x49, 0xe6, 0x0b, 0x23, 0x24, 0xf2,
  0x64, 0x43, 0x3f, 0x17, 0xa8, 0x44, 0x71, 0xeb, 0xfa, 0x85, 0x1e, 0x64,
  0xca, 0x20, 0xfb, 0x02, 0x1c, 0x0f, 0x89, 0x06, 0x69, 0xe3, 0x25, 0x9b,
  0x58, 0xdd, 0x06, 0xd8, 0xfe, 0x4f, 0x2d, 0x2f, 0x2f, 0xbd, 0x64, 0x6f,
  0xec, 0x61, 0x0a, 0xaf, 0x74, 0xe8, 0xd6, 0xfb, 0xba, 0x5b, 0xa0, 0xf0,
  0x69, 0x7f, 0x94, 0x39, 0xde, 0x33, 0xc4, 0x4e, 0x97, 0x3e, 0xc8, 0x0c,
  0x53, 0x7f, 0xfc, 0xd4, 0xb3, 0x0c, 0x6e, 0x17, 0x08, 0x19, 0x11, 0x50,
  0x0e, 0x74, 0x81, 0xfe, 0x93, 0x4c, 0x9e, 0x6c, 0x18, 0xf8, 0xaa, 0x49,
  0x55, 0xbf, 0xa6, 0x9c, 0xe9, 0x1d, 0x56, 0x92, 0xa1, 0xc3, 0xaa, 0x04,
  0x3a, 0x00, 0x6b, 0xd3, 0xae, 0xe8, 0xf7, 0xaa, 0x1a, 0x5f, 0xee, 0x1b,
  0x0e, 0x5c, 0x39, 0xbd, 0xe8, 0xc0, 0xbd, 0x9e, 0x47, 0x2a, 0x40, 0x28,
  0xc9, 0x49, 0x2e, 0xf2, 0x7f, 0xc6, 0x2f, 0xa2, 0x39, 0xdf, 0x70, 0xed,
  0x44, 0xe2, 0x38, 0xc8, 0xd3, 0x00, 0x2f, 0xc0, 0xb3, 0x32, 0x03, 0x54,
  0x5d, 0xbb, 0xe9, 0xee, 0xa7, 0xda, 0x27, 0xe9, 0xde, 0x5d, 0x76, 0x54,
  0x07, 0x35, 0xd5, 0x21, 0x74, 0x1f, 0x5f, 0x95, 0x5e, 0x81, 0x60, 0xf2,
  0x4b, 0xa0, 0x45, 0xe2, 0xa1, 0x3c, 0xbb, 0x60, 0xad, 0x2b, 0x3b, 0x2f,
  0x65, 0xe4, 0x81, 0xa9, 0xca, 0x60, 0x09, 0x05, 0x0e, 0x5a, 0x58, 0xfe,
  0x78, 0xa7, 0xfb, 0x50, 0xe8, 0xa5, 0x0d, 0x51, 0xf7, 0xba, 0xf4, 0x13,
  0x39, 0xab, 0x51, 0xc9, 0xcd, 0x30, 0xbc, 0xbd, 0xf8, 0x44, 0xb6, 0xe8,
  0x52, 0x6d, 0xfa, 0x57, 0x37, 0x81, 0x2b, 0xd3, 0xee, 0xcd, 0x8d, 0x53,
  0x6e, 0xc5, 0x09, 0xef, 0x11, 0x3c, 0x2b, 0x38, 0x93, 0xb0, 0x3f, 0xdb,
  0x30, 0x91, 0x15, 0x5d, 0x47, 0x23, 0x9c, 0xd8, 0xad, 0x56, 0x1f, 0x34,
  0x57, 0x51, 0xaf, 0x5d, 0xc3, 0xa7, 0x06, 0xeb, 0xdd, 0xe1, 0xd1, 0xd5,
  0x81, 0xca, 0xc3, 0x34, 0x0a, 0xcd, 0xe7, 0x09, 0xbf, 0x32, 0x98, 0xea,
  0xdb, 0x5b, 0xa8, 0x54, 0xe5, 0x4a, 0xf1, 0xf5, 0xe5, 0x00, 0xa7, 0x38,
  0xbe, 0xdd, 0x20, 0x02, 0x88, 0x7f, 0x05, 0xac, 0xce, 0xf0, 0x92, 0xc1,
  0x08, 0xb1, 0x1d, 0x2d, 0xc6, 0xde, 0x08, 0xd5, 0x98, 0x6a, 0x9f, 0x2f,
  0xdd, 0xd3, 0x69, 0x41, 0xd1, 0x2c, 0x67, 0xce, 0x04, 0x16, 0xd3, 0x1f,
  0xc7, 0xb5, 0x90, 0x38, 0xc8, 0xc8, 0x5b, 0x5c, 0x5e, 0x5d, 0x74, 0xc9,
  0x71, 0x9e, 0x79, 0x50, 0xc7, 0x4e, 0x26, 0x91, 0xb6, 0xa9, 0xe6, 0x36,
  0x51, 0x42, 0xeb, 0x43, 0x9d, 0x65, 0x33, 0x0e, 0x5f, 0xa5, 0xcf, 0xe2,
  0xfe, 0xa2, 0xf9, 0xc4, 0x68, 0xe0, 0x20, 0xcf, 0x2d, 0x1d, 0x69, 0xc2,
  0xd7, 0x1b, 0x1e, 0x48, 0x2f, 0xa1, 0xe3, 0x7f, 0xe2, 0xe4, 0xf5, 0xc4,
  0x24, 0xc6, 0x61, 0x4f, 0x1f, 0x0b, 0x00, 0x33, 0x24, 0x99, 0xeb, 0x72,
  0x96, 0x5a, 0x14, 0xc5, 0x0f, 0xe2, 0xbf, 0x01, 0xd3, 0x57, 0xa0, 0x53,
  0x01, 0xde, 0x81, 0x8d, 0x51, 0x9c, 0x11, 0x0a, 0x2d, 0x0e, 0x3d, 0xb0,
  0x17, 0xd5, 0xaa, 0x31, 0xe6, 0xd2, 0x56, 0xd0, 0x13, 0x44, 0xe9, 0x65,
  0x15, 0x3b, 0xa8, 0x6c, 0xb6, 0xe4, 0xff, 0xff, 0x04, 0x00, 0x00, 0x00,
  0x80, 0x00, 0x00, 0x00, 0x08, 0x00, 0x00, 0x00, 0x9f, 0x00, 0x00, 0x00,
  0x43, 0x00, 0x00, 0x00, 0xc7, 0xff, 0xff, 0xff, 0x27, 0x00, 0x00, 0x00,
  0xf5, 0xff, 0xff, 0xff, 0x4e, 0x00, 0x00, 0x00, 0x06, 0x00, 0x00, 0x00,
  0xf5, 0xff, 0xff, 0xff, 0x32, 0x00, 0x00, 0x00, 0xd4, 0xff, 0xff, 0xff,
  0xe9, 0xff, 0xff, 0xff, 0xb0, 0xff, 0xff, 0xff, 0x8f, 0xff, 0xff, 0xff,
  0xba, 0xff, 0xff, 0xff, 0x3c, 0x00, 0x00, 0x00, 0x37, 0x00, 0x00, 0x00,
  0x6e, 0x00, 0x00, 0x00, 0xcc, 0xff, 0xff, 0xff, 0xe4, 0xff, 0xff, 0xff,
  0xd8, 0xff, 0xff, 0xff, 0xaf, 0xff, 0xff, 0xff, 0x27, 0x00, 0x00, 0x00,
  0xc8, 0xff, 0xff, 0xff, 0xbf, 0xff, 0xff, 0xff, 0x38, 0x00, 0x00, 0x00,
  0x13, 0x00, 0x00, 0x00, 0x05, 0x00, 0x00, 0x00, 0xc9, 0xff, 0xff, 0xff,
  0x07, 0x00, 0x00, 0x00, 0xf7, 0xff, 0xff, 0xff, 0xb9, 0xff, 0xff, 0xff,
  0x42, 0xe5, 0xff, 0xff, 0x04, 0x00, 0x00, 0x00, 0x20, 0x00, 0x00, 0x00,
  0xcb, 0xc7, 0xbe, 0xc5, 0xb4, 0xe2, 0xb4, 0xc7, 0xbf, 0xe4, 0xa6, 0xb6,
  0xd2, 0xde, 0xb3, 0xc3, 0xca, 0xce, 0x11, 0x7f, 0xc3, 0xf3, 0xaa, 0xce,
  0xcb, 0xc4, 0xba, 0xd1, 0xc4, 0xab, 0xab, 0x09, 0x6e, 0xe5, 0xff, 0xff,
  0x04, 0x00, 0x00, 0x00, 0x20, 0x00, 0x00, 0x00, 0xc2, 0xe9, 0xae, 0xc2,
  0x93, 0x1d, 0xbf, 0x02, 0x15, 0x2b, 0xd4, 0xd6, 0x18, 0x01, 0xed, 0x80,
  0x06, 0xf4, 0x4d, 0x59, 0xf3, 0x09, 0xcf, 0xd7, 0xec, 0x96, 0x88, 0x16,
  0xf2, 0xf0, 0xec, 0x27, 0x9a, 0xe5, 0xff, 0xff, 0x04, 0x00, 0x00, 0x00,
  0x00, 0x14, 0x00, 0x00, 0xad, 0x0c, 0xb8, 0x06, 0xe3, 0x5c, 0xf2, 0x1e,
  0xc2, 0xfc, 0x56, 0xc7, 0x82, 0xb3, 0x52, 0xf2, 0x28, 0xb5, 0x22, 0xe5,
  0x81, 0x39, 0x43, 0xd5, 0x07, 0x45, 0xd1, 0xe5, 0xed, 0xda, 0x3d, 0x01,
  0x8d, 0x06, 0xe0, 0x43, 0x02, 0x53, 0x0e, 0xda, 0x44, 0x15, 0xfb, 0xcb,
  0xce, 0x2f, 0xa8, 0x04, 0xe0, 0x2f, 0xba, 0xb5, 0xc2, 0x95, 0xff, 0x33,
  0x3a, 0x60, 0xc2, 0x42, 0xef, 0xce, 0x00, 0xb5, 0xd9, 0xff, 0x05, 0xb7,
  0xed, 0xdd, 0xf4, 0x22, 0xd2, 0xcc, 0xe6, 0xd3, 0xf1, 0x1a, 0x22, 0x43,
  0x59, 0xa5, 0xd7, 0x37, 0x08, 0x89, 0x46, 0xe4, 0x17, 0xec, 0xba, 0xda,
  0xb6, 0x12, 0x24, 0xab, 0x38, 0x2c, 0xb1, 0x05, 0xbf, 0x27, 0x25, 0x05,
  0xe9, 0xd0, 0x21, 0x39, 0x02, 0x60, 0xc5, 0xd6, 0x1c, 0xa4, 0xf3, 0x0d,
  0x6a, 0xdf, 0x18, 0x41, 0xfb, 0xce, 0xf7, 0x1f, 0xe7, 0x5a, 0xf7, 0xfe,
  0x1f, 0x5a, 0xfc, 0x14, 0xcd, 0x24, 0xa0, 0xc4, 0xfb, 0xab, 0x3b, 0x27,
  0x22, 0xc1, 0xe8, 0x04, 0x0e, 0x50, 0xf1, 0x17, 0xc7, 0x64, 0xd9, 0x42,
  0xcf, 0x39, 0xf2, 0xaa, 0xcc, 0xcc, 0x5e, 0xaf, 0xb4, 0x24, 0x45, 0x9f,
  0x62, 0xd3, 0xba, 0x56, 0x65, 0x9d, 0x06, 0x0f, 0x2f, 0xc4, 0xca, 0xc3,
  0x92, 0x14, 0xd1, 0x0c, 0xe7, 0xe2, 0x0b, 0xe8, 0x4f, 0xe1, 0x79, 0xcc,
  0x9f, 0x2d, 0xbf, 0x9e, 0x98, 0x1e, 0x36, 0x05, 0xb5, 0x14, 0x36, 0xf2,
  0x3e, 0xca, 0x47, 0xed, 0x6b, 0xca, 0x34, 0xbe, 0x35, 0xc8, 0x08, 0xe9,
  0x16, 0x32, 0x10, 0xc8, 0xdb, 0x34, 0x10, 0xd5, 0xd4, 0xef, 0xed, 0x14,
  0x44, 0xd6, 0x3d, 0x43, 0xcc, 0x49, 0x67, 0xc5, 0xc3, 0xba, 0x53, 0xee,
  0x26, 0xc2, 0xed, 0x4c, 0x5d, 0xf8, 0xa3, 0xe9, 0xec, 0xad, 0xf2, 0x46,
  0x4c, 0x90, 0x28, 0xb9, 0x32, 0xcb, 0xb5, 0xbe, 0x41, 0xb6, 0xfb, 0xb5,
  0x5b, 0x23, 0x18, 0xd3, 0x31, 0x63, 0x0b, 0xca, 0x5a, 0x51, 0x5e, 0xcb,
  0xd0, 0x56, 0x55, 0x2d, 0x75, 0x05, 0xe0, 0x11, 0xca, 0x08, 0x55, 0x2a,
  0xe7, 0x61, 0xe2, 0x32, 0xdc, 0xdd, 0x4a, 0x2a, 0x9d, 0x3a, 0x0f, 0xb5,
  0x1d, 0x81, 0xba, 0xb4, 0x33, 0x16, 0x06, 0x90, 0xab, 0x8c, 0x56, 0x0d,
  0xf3, 0x3a, 0xc6, 0xc5, 0xea, 0xd4, 0x20, 0xd7, 0xb7, 0xc8, 0xe8, 0xb6,
  0xf3, 0xd1, 0x09, 0xe3, 0x55, 0xc7, 0xca, 0xd8, 0x5d, 0xde, 0x25, 0xb1,
  0xd5, 0xcd, 0x10, 0x18, 0x81, 0x0b, 0x2a, 0x1b, 0xb3, 0xbc, 0x3b, 0xcb,
  0xe9, 0x02, 0xf5, 0xd9, 0xdc, 0x0b, 0xde, 0xe0, 0x0c, 0x4b, 0x30, 0xed,
  0x53, 0x41, 0x04, 0xfc, 0xeb, 0xf8, 0xf6, 0x38, 0x0e, 0x13, 0x26, 0xcb,
  0x2b, 0xf8, 0x2c, 0xad, 0x57, 0x16, 0x25, 0xf7, 0xe9, 0x37, 0xe8, 0x0e,
  0xec, 0x31, 0xd8, 0x1f, 0x2f, 0x3c, 0xd5, 0xbd, 0xa0, 0xef, 0x51, 0x4a,
  0xc2, 0xde, 0x3e, 0x24, 0x08, 0x0b, 0xb4, 0xe9, 0x13, 0x42, 0x1d, 0x2f,
  0xda, 0x9e, 0x01, 0xf4, 0x0b, 0xc2, 0x16, 0xfb, 0x0f, 0x1c, 0xd9, 0x08,
  0x5e, 0xb5, 0xd2, 0xe1, 0x2a, 0x1e, 0x3e, 0xbe, 0xdd, 0x16, 0x2e, 0x23,
  0xd4, 0x47, 0xb9, 0x40, 0x18, 0xdc, 0xe1, 0x58, 0xd9, 0x0d, 0x0f, 0xf7,
  0x43, 0x05, 0xa1, 0xcb, 0x4c, 0xd7, 0x37, 0xb3, 0x23, 0x14, 0xdb, 0x07,
  0x02, 0xdb, 0x07, 0xe1, 0x35, 0x12, 0x3a, 0x18, 0xc3, 0xed, 0x2a, 0x06,
  0x16, 0xc2, 0x25, 0xc4, 0xbe, 0x1c, 0xbe, 0x08, 0xc6, 0xda, 0xad, 0xc8,
  0x0a, 0xe3, 0x44, 0xe5, 0x17, 0x4d, 0xdc, 0xc7, 0x43, 0x3a, 0xea, 0xe3,
  0x1f, 0xe6, 0x2e, 0x17, 0x44, 0x00, 0x0c, 0xfb, 0xb0, 0xfe, 0xc0, 0x28,
  0xab, 0xab, 0xff, 0xd2, 0x55, 0x23, 0xf8, 0x0b, 0xf1, 0xc4, 0x26, 0x27,
  0xb5, 0xd4, 0xc7, 0x2c, 0x4b, 0x38, 0x33, 0x3d, 0xf2, 0x7f, 0x18, 0xa6,
  0x2a, 0x16, 0xa6, 0x06, 0x4c, 0x43, 0xf1, 0x01, 0x67, 0xab, 0x16, 0x97,
  0x1b, 0x37, 0x01, 0x20, 0x3d, 0x20, 0xf0, 0xdc, 0x2a, 0x40, 0x0e, 0xc5,
  0xcc, 0x53, 0xea, 0xe2, 0xe0, 0x31, 0x4e, 0x16, 0x32, 0x23, 0x90, 0x3f,
  0x1d, 0xd9, 0x50, 0x49, 0x15, 0xca, 0xcd, 0x06, 0x20, 0xbf, 0xce, 0x21,
  0x10, 0x24, 0x1f, 0xa0, 0xf9, 0xce, 0x0e, 0xfb, 0xf2, 0x13, 0xfd, 0xb2,
  0xd8, 0x00, 0x37, 0xb2, 0xb0, 0xe9, 0x0c, 0xe7, 0x21, 0xfb, 0xe9, 0x39,
  0xd0, 0x07, 0x22, 0xf3, 0xa7, 0xda, 0xfc, 0xcf, 0xbb, 0xf3, 0x0f, 0x24,
  0x01, 0x16, 0x1c, 0x3b, 0x50, 0x40, 0xc6, 0x28, 0xe1, 0x94, 0x35, 0x58,
  0x2d, 0x26, 0x1f, 0x1e, 0x19, 0x16, 0x1c, 0xcf, 0xdd, 0x4a, 0xca, 0x39,
  0xd9, 0xa7, 0xf0, 0xe5, 0x51, 0x18, 0xbd, 0x4d, 0x27, 0x1f, 0x55, 0xf6,
  0xb5, 0x42, 0x2d, 0x42, 0x09, 0x24, 0x28, 0x0d, 0xcc, 0x11, 0x09, 0xa8,
  0x15, 0xc9, 0xdf, 0x63, 0xf7, 0x0d, 0x12, 0xe7, 0xde, 0x57, 0x43, 0x3d,
  0x00, 0x9f, 0xbe, 0xdb, 0x67, 0x0f, 0x01, 0xb8, 0x5c, 0x35, 0x22, 0xe9,
  0x28, 0x33, 0x00, 0x26, 0x98, 0x60, 0x3b, 0xf4, 0x82, 0x16, 0x44, 0x3f,
  0xbb, 0x05, 0x6b, 0x40, 0xa9, 0xca, 0xd6, 0x01, 0xb6, 0xf5, 0x2f, 0xe2,
  0xb6, 0x2a, 0xc3, 0x4a, 0xe5, 0x3d, 0x8f, 0x7f, 0xc5, 0x63, 0x70, 0x44,
  0x34, 0x31, 0x7d, 0x30, 0xd7, 0x97, 0xae, 0xe1, 0xe2, 0x2e, 0xda, 0xaf,
  0x00, 0x3b, 0x73, 0xc0, 0x68, 0xc5, 0x57, 0xc8, 0x3f, 0xd2, 0x5d, 0xc8,
  0x9f, 0x37, 0x31, 0xdc, 0xe1, 0x0c, 0xf9, 0xed, 0x16, 0xc5, 0xff, 0xd2,
  0x7f, 0xbd, 0xca, 0xaa, 0xfd, 0x2f, 0x8e, 0xb0, 0x06, 0xf6, 0x3c, 0x29,
  0xed, 0x56, 0x39, 0x2c, 0xac, 0xbc, 0xd0, 0x3c, 0xc1, 0xab, 0xd0, 0x0c,
  0x67, 0x08, 0x1f, 0x27, 0xea, 0xb5, 0xd7, 0x3e, 0x28, 0xae, 0xfb, 0x09,
  0xf1, 0x2e, 0xe8, 0xd2, 0x10, 0x1c, 0x0d, 0xce, 0x3f, 0x27, 0xf0, 0x9e,
  0xc4, 0x10, 0x9f, 0x0b, 0x0d, 0xfc, 0xfd, 0x53, 0xed, 0xe6, 0xdc, 0xe0,
  0xb1, 0xfe, 0xbb, 0xdc, 0xde, 0xae, 0x0a, 0x28, 0xa2, 0xd0, 0xca, 0x61,
  0xb3, 0x1a, 0x2b, 0x19, 0xf0, 0x15, 0x1c, 0xa3, 0x40, 0x1b, 0x5d, 0xed,
  0xcf, 0xc6, 0x12, 0xd6, 0xb7, 0x26, 0x60, 0x0b, 0x0b, 0x22, 0xdb, 0xf6,
  0xb0, 0x14, 0xdc, 0x14, 0xc9, 0xd4, 0x1b, 0x02, 0x2c, 0x3f, 0x10, 0xd3,
  0x37, 0xd9, 0x4b, 0x04, 0xd8, 0xdf, 0x04, 0x3a, 0x25, 0xa2, 0x7a, 0x50,
  0x33, 0x2d, 0xde, 0x34, 0xac, 0xc1, 0x2c, 0x19, 0xde, 0x3b, 0xe4, 0x02,
  0x60, 0x1f, 0x3c, 0xe5, 0x2a, 0xb7, 0x95, 0x4e, 0xdc, 0xa4, 0x67, 0x96,
  0x10, 0xcd, 0xcb, 0x54, 0xca, 0x4b, 0x0d, 0x9a, 0xba, 0xa7, 0x9e, 0xeb,
  0xc2, 0xb2, 0x3c, 0x7f, 0xdd, 0xe4, 0xfc, 0x63, 0x5b, 0x31, 0xd6, 0x41,
  0xd9, 0x61, 0xb7, 0x17, 0xc8, 0x5c, 0xaa, 0xb5, 0xe1, 0x29, 0x40, 0x51,
  0xe2, 0xd0, 0xba, 0x3f, 0x2c, 0x25, 0xf1, 0x1f, 0x56, 0xbb, 0x23, 0xa0,
  0x0c, 0xde, 0x75, 0x06, 0xb0, 0x9a, 0x37, 0x03, 0xfe, 0xda, 0xd4, 0xb6,
  0x10, 0xcf, 0x09, 0xf5, 0xdb, 0x0e, 0x53, 0x1e, 0x0d, 0x23, 0xf3, 0x5e,
  0x1e, 0xc5, 0x5a, 0x37, 0xf4, 0x3c, 0xd6, 0x34, 0xc2, 0xe0, 0x11, 0xa6,
  0x9c, 0x15, 0x39, 0x25, 0xb9, 0xe3, 0x1e, 0xb2, 0xf9, 0x2a, 0x3e, 0xb4,
  0x1d, 0xcc, 0xe2, 0x57, 0x4b, 0x02, 0x00, 0xd1, 0x08, 0x4f, 0xf0, 0x1a,
  0x7b, 0xbf, 0x17, 0x1b, 0xfd, 0x42, 0x35, 0xe6, 0xe1, 0xd7, 0xf1, 0x83,
  0x21, 0x01, 0xf8, 0x3d, 0x17, 0x98, 0xf5, 0x07, 0x0d, 0xc7, 0x3f, 0xd0,
  0x02, 0xfd, 0x48, 0x3d, 0xa5, 0x39, 0xae, 0x12, 0xbc, 0x4f, 0xc6, 0x0b,
  0x35, 0xbd, 0x12, 0xe2, 0xcb, 0xdc, 0x5d, 0x1a, 0x2b, 0xcd, 0x34, 0xd9,
  0xec, 0x32, 0x01, 0xc3, 0x14, 0x13, 0xdf, 0xc3, 0xc8, 0xd9, 0x00, 0x30,
  0x25, 0x39, 0x94, 0x0a, 0xff, 0xf6, 0x9c, 0x39, 0xa8, 0xb5, 0xea, 0xe7,
  0x07, 0x00, 0x03, 0x35, 0x60, 0x54, 0x1d, 0xc1, 0x15, 0xbe, 0x0a, 0x1e,
  0xf9, 0xab, 0xfa, 0xde, 0x33, 0xc8, 0x20, 0xcc, 0xe5, 0x81, 0x2b, 0x12,
  0xf8, 0xa8, 0x4f, 0xe7, 0x3f, 0xbf, 0x55, 0xe4, 0x11, 0xfe, 0xd9, 0xf1,
  0xab, 0x98, 0xfd, 0x1a, 0x12, 0x2f, 0x33, 0x39, 0xdb, 0xee, 0x37, 0x13,
  0x49, 0x21, 0x98, 0xc8, 0xe0, 0x07, 0xfb, 0x31, 0x47, 0xa3, 0x16, 0x5e,
  0x81, 0x2d, 0x0f, 0xd9, 0xfd, 0xbf, 0x53, 0x89, 0x60, 0x19, 0x0f, 0xf9,
  0xe7, 0x09, 0xc4, 0x8e, 0x91, 0xcc, 0x0a, 0xb7, 0xed, 0x0f, 0x4e, 0x3b,
  0xee, 0xfc, 0x3b, 0x33, 0x5d, 0x4a, 0x98, 0xb9, 0xff, 0xc3, 0x1a, 0xef,
  0x6a, 0xe2, 0x0d, 0x25, 0x4a, 0xfc, 0x0d, 0xe2, 0xfc, 0xbd, 0x35, 0x4b,
  0x66, 0xbd, 0xf0, 0xe5, 0x14, 0xdd, 0xd4, 0x41, 0x4e, 0xa2, 0x42, 0xe6,
  0x2b, 0xb1, 0x43, 0xf0, 0xaf, 0x92, 0xf4, 0x1b, 0xe7, 0x89, 0xd2, 0xf9,
  0xa5, 0x08, 0x10, 0x6f, 0xb7, 0x62, 0x54, 0x47, 0x57, 0xb1, 0xff, 0x06,
  0x13, 0xb8, 0x0f, 0x9a, 0xa5, 0xc4, 0xf2, 0x4c, 0x37, 0x23, 0xb7, 0xcc,
  0x37, 0x23, 0x9e, 0xce, 0x30, 0x5e, 0x26, 0xec, 0xf1, 0x38, 0x5b, 0xe1,
  0x11, 0x36, 0x23, 0x26, 0x22, 0xf3, 0x27, 0xfa, 0xf5, 0x42, 0xb6, 0xf7,
  0x53, 0x1c, 0xc7, 0x92, 0x41, 0x1d, 0xc3, 0xa4, 0x2d, 0x33, 0x5c, 0xc1,
  0xa6, 0x5f, 0x24, 0xb3, 0x2a, 0xf8, 0xa8, 0x51, 0x8c, 0x03, 0xe6, 0x4f,
  0x03, 0xe6, 0x23, 0xbc, 0x03, 0xbd, 0xc4, 0x20, 0x43, 0xa6, 0x0f, 0xd6,
  0x2d, 0x44, 0x14, 0xec, 0xe8, 0xc0, 0xe2, 0xbd, 0x9b, 0x11, 0xea, 0x3b,
  0x3e, 0x3a, 0x66, 0xe1, 0x18, 0xd2, 0x48, 0xae, 0xa7, 0x24, 0xb8, 0x21,
  0xe1, 0xda, 0xf8, 0xd3, 0x38, 0x66, 0xec, 0x20, 0x65, 0x28, 0xb5, 0xef,
  0x74, 0x05, 0xe2, 0xbb, 0xe3, 0x39, 0x47, 0xf3, 0x24, 0x26, 0x1c, 0xab,
  0x34, 0xd6, 0x46, 0xf4, 0x2f, 0xfe, 0x04, 0x21, 0x9c, 0x24, 0xd9, 0x31,
  0x33, 0xb7, 0xc4, 0x53, 0xe0, 0x0a, 0x1b, 0x2b, 0xbc, 0xd2, 0x46, 0xda,
  0xf9, 0x92, 0x42, 0xfb, 0x3f, 0x81, 0xe4, 0x0f, 0xd9, 0x15, 0x01, 0xe8,
  0xc4, 0xfb, 0x2e, 0xaa, 0x04, 0x46, 0x37, 0xee, 0x22, 0x03, 0x00, 0xff,
  0x27, 0x52, 0x03, 0x13, 0x25, 0x04, 0xcf, 0x57, 0x38, 0xff, 0xf3, 0xc7,
  0x0d, 0x35, 0x44, 0x24, 0x47, 0xfe, 0x3d, 0x26, 0xcd, 0x07, 0xca, 0x3d,
  0xcc, 0xe5, 0x4e, 0x3e, 0xc4, 0x15, 0xef, 0xa1, 0x4c, 0x42, 0x23, 0xd9,
  0xa9, 0x55, 0xbf, 0x28, 0xa8, 0x2a, 0x58, 0x6d, 0xa3, 0x07, 0x06, 0xe2,
  0xf8, 0xcd, 0xba, 0x25, 0x77, 0x1b, 0xe1, 0x07, 0xbc, 0x2f, 0xc5, 0xd1,
  0x4d, 0xd2, 0x21, 0x01, 0xa9, 0x3b, 0x46, 0xc4, 0xbf, 0x55, 0xbf, 0x54,
  0xc5, 0xa3, 0xb2, 0xa9, 0x26, 0xbf, 0x90, 0xce, 0x6a, 0x34, 0x19, 0xcd,
  0xd7, 0x04, 0x53, 0x98, 0xba, 0xdd, 0xcd, 0x60, 0x4b, 0xbb, 0xbe, 0x91,
  0x20, 0x10, 0xb1, 0x3f, 0xc2, 0x1e, 0xf9, 0x1d, 0x19, 0x0c, 0xb7, 0x1b,
  0x3c, 0xd2, 0x89, 0xde, 0x29, 0xbf, 0x49, 0x9a, 0x9f, 0x6b, 0x50, 0x40,
  0x08, 0xee, 0x9b, 0x71, 0xba, 0xdc, 0x8c, 0xae, 0x1c, 0xb0, 0xc0, 0x34,
  0x15, 0xb5, 0x8e, 0x0b, 0xe4, 0x55, 0x06, 0xdc, 0x1d, 0x09, 0xc5, 0xf8,
  0xe0, 0x43, 0x1a, 0x0b, 0x62, 0xdb, 0xcc, 0xdd, 0xd6, 0x81, 0x63, 0x59,
  0x54, 0x0b, 0x2b, 0xab, 0x56, 0xf8, 0xc1, 0x54, 0xa9, 0x33, 0x9d, 0xb6,
  0xd3, 0x34, 0x6c, 0x46, 0x08, 0xd2, 0x33, 0x3a, 0x40, 0x9f, 0x06, 0x5f,
  0x04, 0xb4, 0xc2, 0x09, 0xd6, 0xf4, 0xf1, 0x5a, 0xa3, 0x26, 0x66, 0xd2,
  0xd2, 0xdb, 0xf4, 0xe7, 0xfb, 0x04, 0xfa, 0x46, 0x38, 0xc4, 0xf0, 0xc2,
  0x5a, 0x56, 0xdd, 0x67, 0x44, 0xed, 0x45, 0xf1, 0x47, 0xc3, 0xed, 0x2a,
  0xda, 0xed, 0xda, 0x5c, 0xff, 0xea, 0xc2, 0x47, 0x94, 0xc5, 0xf7, 0xa4,
  0xc4, 0xe2, 0x61, 0x38, 0xc6, 0xef, 0x9f, 0x65, 0xb9, 0x11, 0x7f, 0xd6,
  0x43, 0xd8, 0x1c, 0xb9, 0xb2, 0x28, 0x34, 0xb3, 0xae, 0xec, 0x55, 0x20,
  0xe8, 0x4b, 0x6d, 0x5e, 0xe7, 0x3d, 0x06, 0x37, 0xb6, 0xc4, 0x40, 0xe0,
  0x0e, 0xd5, 0xeb, 0x86, 0x51, 0xe1, 0xd0, 0x36, 0x0b, 0x01, 0xe4, 0xc7,
  0xcf, 0xd8, 0x2f, 0xf7, 0x8c, 0xa7, 0x68, 0xc0, 0xc1, 0xde, 0xa9, 0x14,
  0x04, 0x11, 0xf4, 0xdb, 0x13, 0xea, 0x3f, 0x06, 0x58, 0xec, 0x52, 0x45,
  0x3e, 0x26, 0x82, 0x46, 0x1c, 0xec, 0xbf, 0xea, 0xea, 0x46, 0x06, 0xd8,
  0xf3, 0x42, 0x50, 0x10, 0x3f, 0xf1, 0x50, 0xd1, 0x4d, 0x22, 0xb4, 0x00,
  0x28, 0x58, 0x28, 0xb4, 0xe2, 0x07, 0xce, 0x5b, 0x1f, 0xc4, 0x1f, 0x51,
  0xf2, 0xe7, 0x41, 0xc9, 0x27, 0x13, 0xac, 0xa5, 0x14, 0x08, 0xfd, 0x43,
  0x02, 0x92, 0xe0, 0xe9, 0xd6, 0x5b, 0xdd, 0xd0, 0x65, 0x1e, 0x12, 0xbb,
  0xf9, 0x3b, 0xdb, 0x4d, 0xc2, 0x3b, 0xb3, 0x49, 0xc0, 0x28, 0xbb, 0xb6,
  0x96, 0x57, 0xf1, 0xd4, 0x41, 0xfc, 0xeb, 0x07, 0x5b, 0x3f, 0x72, 0xd5,
  0x3f, 0xb7, 0x7d, 0x32, 0x9d, 0xb3, 0xcb, 0x19, 0x02, 0x46, 0x13, 0x81,
  0xc6, 0xc3, 0x43, 0xdc, 0xd0, 0x9a, 0x1e, 0xb6, 0xd2, 0x0d, 0xe2, 0x2a,
  0xa3, 0xc8, 0x2b, 0x1e, 0x16, 0x61, 0x44, 0xcf, 0xe4, 0xa1, 0xf3, 0x2f,
  0xcb, 0x97, 0xce, 0x69, 0x3f, 0xa6, 0xeb, 0xae, 0xfd, 0xb0, 0xb5, 0xa1,
  0xe5, 0xec, 0x35, 0x7a, 0x30, 0x88, 0xea, 0x46, 0x20, 0x55, 0x61, 0xdf,
  0x18, 0x03, 0xd5, 0xee, 0x42, 0x4b, 0xa8, 0xef, 0x23, 0xc6, 0x49, 0x2c,
  0x16, 0xc8, 0x2b, 0xc7, 0xea, 0xfa, 0x1b, 0x16, 0x1e, 0x68, 0xb2, 0x16,
  0xea, 0xec, 0xbd, 0x95, 0x21, 0xbc, 0xce, 0xe4, 0x55, 0xbe, 0xa5, 0xb0,
  0x4b, 0x4f, 0x84, 0x2e, 0xd5, 0xdd, 0x4c, 0x2c, 0x78, 0x45, 0xec, 0x7e,
  0xdf, 0x2f, 0xb9, 0xbf, 0x36, 0x8c, 0x47, 0xac, 0x28, 0xc4, 0xc2, 0xea,
  0x5f, 0x38, 0x84, 0x23, 0x14, 0xa2, 0xe7, 0x0b, 0xdb, 0x41, 0x96, 0xd1,
  0x9d, 0xaf, 0x5d, 0xe5, 0xf4, 0xaf, 0x5e, 0x4f, 0x8f, 0xe4, 0xca, 0x33,
  0x3f, 0x4e, 0xfe, 0xec, 0x70, 0x07, 0xd8, 0x1e, 0x00, 0xef, 0xbc, 0xee,
  0xd2, 0x4c, 0x46, 0x31, 0xf0, 0xa9, 0xae, 0xa1, 0x0d, 0x31, 0x31, 0x1c,
  0x66, 0x15, 0xe1, 0x22, 0xca, 0x4f, 0xc3, 0x11, 0xe6, 0x27, 0xc2, 0xe6,
  0x7f, 0x0a, 0x46, 0xab, 0x03, 0xce, 0x0e, 0xd5, 0xcf, 0xc9, 0x24, 0xc3,
  0x2c, 0xd2, 0xb7, 0x40, 0xde, 0x12, 0x3b, 0xf4, 0x23, 0x13, 0xed, 0x78,
  0xbc, 0x11, 0x24, 0x01, 0xd5, 0xf1, 0x10, 0xee, 0xf9, 0xd6, 0xbc, 0xf8,
  0xeb, 0xca, 0xc1, 0x21, 0x99, 0xfb, 0x15, 0xf8, 0xff, 0x44, 0x21, 0x0d,
  0x63, 0xed, 0xb5, 0x68, 0xdc, 0x35, 0x75, 0x82, 0xcb, 0xe5, 0x5b, 0xc6,
  0xec, 0x04, 0x27, 0xc4, 0x27, 0x0e, 0xf4, 0x22, 0x27, 0xa7, 0x82, 0x3e,
  0xf5, 0x11, 0x4c, 0x3b, 0x3f, 0x41, 0xe8, 0x0a, 0xf9, 0x0b, 0x16, 0x06,
  0xda, 0x4c, 0x23, 0x3f, 0x26, 0x38, 0xcb, 0xe7, 0x5e, 0xc9, 0xc6, 0x17,
  0x04, 0x8b, 0x33, 0x48, 0xb3, 0xf8, 0xb5, 0x4c, 0x16, 0x49, 0xd8, 0xc9,
  0xb2, 0x4b, 0x18, 0x4a, 0x3b, 0xe0, 0xbf, 0x09, 0xf9, 0x15, 0x3e, 0x1c,
  0xcc, 0x49, 0xe7, 0x47, 0xe8, 0x03, 0x46, 0xe4, 0xbf, 0xad, 0xb3, 0xc9,
  0xda, 0x56, 0xa0, 0xf4, 0x4a, 0x84, 0xe5, 0x41, 0xcb, 0x1b, 0xe3, 0x42,
  0x95, 0xd2, 0x0c, 0xda, 0x2c, 0x38, 0xcf, 0x24, 0xb3, 0x18, 0xb5, 0xbd,
  0xb2, 0xf2, 0xf8, 0xdb, 0x21, 0xb2, 0x54, 0x4f, 0x1a, 0x5b, 0x3d, 0x11,
  0x34, 0x39, 0xd0, 0x09, 0xd1, 0xde, 0xf9, 0xb3, 0xb3, 0xd7, 0x21, 0xcc,
  0x11, 0xbe, 0xf1, 0x9c, 0xc5, 0xf2, 0xa5, 0x51, 0xb9, 0x4a, 0x35, 0x43,
  0xbf, 0xe6, 0x52, 0x00, 0xf7, 0xa2, 0xec, 0x0b, 0xcc, 0xda, 0x01, 0xa0,
  0x1b, 0xb9, 0xec, 0x25, 0x25, 0x02, 0xea, 0x47, 0x2f, 0x81, 0x4d, 0xb7,
  0xe6, 0x01, 0xc4, 0x1e, 0xa6, 0x0e, 0xd8, 0x06, 0xd8, 0xbc, 0xbe, 0xcb,
  0x3c, 0xe6, 0x2e, 0x08, 0x46, 0xf2, 0xb1, 0x34, 0xa0, 0xdc, 0x16, 0x6d,
  0xce, 0x29, 0xa8, 0xbe, 0xa9, 0xd0, 0xb3, 0xe4, 0x1a, 0xf8, 0xea, 0xd6,
  0xef, 0xe3, 0xbe, 0x2c, 0x49, 0xc2, 0xe5, 0x50, 0x13, 0x2c, 0x13, 0x3e,
  0xf9, 0x34, 0x51, 0x12, 0xd3, 0x39, 0x56, 0x2c, 0xe4, 0xd8, 0xf2, 0xd8,
  0x2f, 0xfc, 0xda, 0xf9, 0x20, 0x18, 0x14, 0x20, 0xc8, 0xb4, 0xe8, 0x3d,
  0xc7, 0xb9, 0x5b, 0x05, 0xcf, 0xfd, 0xce, 0x0f, 0xf1, 0x1b, 0xbd, 0x05,
  0x19, 0x1a, 0x0a, 0x43, 0x1c, 0x10, 0xe5, 0xe8, 0xde, 0xbb, 0xb0, 0xe9,
  0xc2, 0x0a, 0xe2, 0x35, 0x12, 0xe1, 0x42, 0x06, 0xe1, 0x03, 0x39, 0x5f,
  0x3d, 0xa2, 0x45, 0xfd, 0xdb, 0xf1, 0xe4, 0xe0, 0xf8, 0xf6, 0xbb, 0x08,
  0x3a, 0x32, 0x0a, 0xc4, 0xf3, 0xce, 0x0b, 0x5b, 0xb5, 0xc6, 0xcb, 0x43,
  0xe5, 0x0e, 0x31, 0x52, 0x15, 0xc3, 0x41, 0x4f, 0x3c, 0xb7, 0xc7, 0x0b,
  0xb0, 0xd3, 0xae, 0x0c, 0xf3, 0xf3, 0xde, 0x0a, 0xf2, 0x48, 0xf9, 0xa2,
  0xbe, 0xd0, 0xcb, 0x68, 0x16, 0xcb, 0x24, 0xfa, 0xe9, 0x4f, 0xfc, 0x23,
  0x3a, 0xd0, 0x0d, 0xba, 0x18, 0xdb, 0x43, 0xb3, 0x49, 0x12, 0x30, 0xea,
  0xb9, 0x57, 0xdf, 0x31, 0xf3, 0x12, 0x13, 0xeb, 0xca, 0xa1, 0xff, 0x07,
  0xbf, 0xdd, 0x07, 0x4d, 0x20, 0x81, 0xf9, 0x12, 0xc8, 0x4e, 0xa9, 0xe2,
  0x24, 0x2d, 0x09, 0xb8, 0x3f, 0x3d, 0xa7, 0x94, 0x2b, 0x2d, 0x3b, 0x11,
  0xc8, 0x3e, 0xb9, 0xe6, 0xb4, 0x20, 0x3f, 0xb2, 0x25, 0x2f, 0xc8, 0xf2,
  0x2f, 0xc0, 0xeb, 0x58, 0xd3, 0xbf, 0x44, 0x2f, 0xba, 0xea, 0x40, 0xec,
  0x18, 0x4e, 0x3d, 0xdd, 0xc6, 0xb8, 0x32, 0x24, 0x13, 0xcc, 0xd0, 0xd6,
  0x57, 0x54, 0xb2, 0xf1, 0x21, 0x35, 0xcf, 0xa9, 0xe9, 0xc2, 0x4b, 0x8d,
  0x10, 0xd0, 0x2b, 0x3d, 0xee, 0xaa, 0x3b, 0x4a, 0x8a, 0x3a, 0x45, 0x3c,
  0x18, 0xcf, 0xb3, 0x1d, 0x5c, 0x02, 0xf0, 0x25, 0x09, 0xd5, 0xfa, 0xa9,
  0xdd, 0xf0, 0xd1, 0xe9, 0x60, 0xe6, 0xf8, 0xc4, 0xac, 0xa8, 0xf9, 0x3b,
  0x08, 0x37, 0xec, 0x33, 0x1c, 0xaf, 0xe0, 0x60, 0xe9, 0x17, 0xca, 0xfc,
  0x42, 0x28, 0xbc, 0x4d, 0x43, 0x37, 0x42, 0x04, 0xa7, 0x3b, 0x07, 0xc2,
  0x05, 0x50, 0xd5, 0x1a, 0x29, 0xa4, 0x44, 0xe8, 0xb9, 0x12, 0xf2, 0x26,
  0xa7, 0xdc, 0x44, 0x4d, 0x59, 0xfb, 0xb8, 0xd6, 0xbd, 0xe8, 0xca, 0x10,
  0x55, 0xfb, 0x42, 0xfb, 0x36, 0xee, 0x2c, 0x6e, 0xf0, 0x38, 0x0b, 0x01,
  0xca, 0xc3, 0x10, 0xe8, 0xe9, 0x96, 0xfa, 0xdf, 0x09, 0x3d, 0xe7, 0xd0,
  0x35, 0x4d, 0x2f, 0x4e, 0xbe, 0xd5, 0x57, 0xea, 0x42, 0xe7, 0x17, 0xbc,
  0x81, 0xc2, 0x33, 0x26, 0x1b, 0x34, 0xb5, 0x99, 0x45, 0x0c, 0x24, 0xde,
  0xd5, 0xc4, 0xd0, 0x2c, 0xfd, 0x01, 0xbe, 0x17, 0x2c, 0xe2, 0x34, 0x3d,
  0x0c, 0x5f, 0xe6, 0xf8, 0xb6, 0x33, 0x12, 0xe7, 0xef, 0x18, 0x27, 0x43,
  0xbe, 0xac, 0x13, 0x08, 0x31, 0x1b, 0x1a, 0x9d, 0x36, 0xc6, 0xc4, 0x01,
  0x3a, 0x35, 0x21, 0x1c, 0xd9, 0xc8, 0x43, 0xc7, 0xe1, 0x16, 0x3c, 0xb8,
  0xe0, 0x44, 0x1d, 0x7f, 0x10, 0xea, 0xdc, 0xca, 0x22, 0xd3, 0x35, 0xc3,
  0x25, 0x36, 0x29, 0xc4, 0xf4, 0x01, 0x45, 0x38, 0x53, 0xc1, 0xd0, 0x0e,
  0x38, 0x1e, 0xcc, 0x33, 0x22, 0x0c, 0xbe, 0x1b, 0x44, 0xeb, 0x0a, 0xc3,
  0x56, 0x3b, 0xf4, 0x41, 0xd0, 0x2f, 0x30, 0xce, 0xff, 0x52, 0xfd, 0xf9,
  0x11, 0xd0, 0xbc, 0xcd, 0x0c, 0xb5, 0xc4, 0xd8, 0xed, 0xdb, 0xfc, 0xb7,
  0x3f, 0x11, 0x1d, 0xc9, 0x35, 0xb6, 0x2d, 0xe5, 0x3b, 0xbd, 0x21, 0xcf,
  0xed, 0xb4, 0xf4, 0x3a, 0xc7, 0xfc, 0x00, 0xdf, 0x27, 0xe7, 0xff, 0x03,
  0xd2, 0xbb, 0x4e, 0xf9, 0x45, 0x10, 0x34, 0xce, 0x3c, 0x9e, 0x28, 0xf6,
  0x2c, 0xe3, 0xfc, 0xac, 0xd5, 0xf8, 0xf6, 0xe0, 0x0e, 0xfc, 0xb7, 0x50,
  0xe4, 0xe1, 0xaf, 0x5d, 0x2c, 0xeb, 0xd2, 0xf2, 0x39, 0xfc, 0x57, 0x4f,
  0xcd, 0xbe, 0xf9, 0x17, 0x31, 0x46, 0x43, 0x4e, 0x20, 0xc4, 0x61, 0xd6,
  0xfa, 0xdb, 0xa5, 0x5c, 0x5a, 0x27, 0xdc, 0xe2, 0x59, 0x5a, 0x38, 0x2c,
  0x4c, 0xac, 0x15, 0xe5, 0x18, 0x94, 0xcf, 0xe1, 0xcd, 0x11, 0x7f, 0x2f,
  0xed, 0xd5, 0x17, 0x13, 0xd0, 0x24, 0x44, 0x24, 0xc3, 0xbe, 0xca, 0xd2,
  0x20, 0xe6, 0xdc, 0xe0, 0xcb, 0x0e, 0xef, 0x6b, 0xd4, 0x18, 0xfc, 0xce,
  0xed, 0xcf, 0x2b, 0xc1, 0xf2, 0xff, 0x01, 0x2c, 0x13, 0x23, 0xeb, 0xb4,
  0xc4, 0x48, 0xb4, 0x5f, 0x19, 0xfb, 0xc6, 0xa2, 0x4f, 0xfd, 0x30, 0x23,
  0xdf, 0x2f, 0x62, 0xbf, 0xd6, 0x1b, 0x3f, 0x3c, 0x11, 0xdc, 0x4d, 0xbf,
  0xc8, 0xa4, 0xd8, 0xc9, 0xfe, 0x4e, 0x0f, 0x1a, 0xb8, 0xea, 0xd6, 0x24,
  0x05, 0xdd, 0xdb, 0xb7, 0xaa, 0x46, 0xdf, 0xd1, 0x7a, 0xb2, 0xc5, 0xe6,
  0x3f, 0xc0, 0x45, 0xfe, 0xbe, 0x54, 0x2a, 0xe0, 0x0e, 0xf8, 0x2a, 0xae,
  0xf7, 0x31, 0x1b, 0x44, 0xa9, 0x45, 0x22, 0xe4, 0x69, 0x1e, 0xc9, 0x53,
  0xdd, 0xff, 0xd8, 0xdd, 0x2f, 0x23, 0x0f, 0xe3, 0x12, 0xdb, 0x0e, 0xc2,
  0x20, 0x58, 0x34, 0xcb, 0x19, 0x26, 0x04, 0xbc, 0xff, 0x36, 0x1b, 0xe0,
  0x05, 0xd1, 0xc6, 0x1f, 0x2b, 0xd9, 0xd1, 0xe7, 0xbb, 0x9e, 0x18, 0x09,
  0x5d, 0x04, 0x1f, 0xbc, 0x24, 0xfb, 0x04, 0xd9, 0x7f, 0x36, 0xa9, 0xc7,
  0x9b, 0x18, 0xdd, 0x14, 0xbc, 0x33, 0x33, 0xfc, 0x2c, 0xf4, 0xdb, 0x4e,
  0x3f, 0xf4, 0xf2, 0xe4, 0x96, 0xbe, 0x21, 0x1b, 0xc6, 0x3b, 0xf5, 0x07,
  0x5c, 0xee, 0xcd, 0x42, 0xf8, 0x33, 0x23, 0x2d, 0x70, 0x0a, 0x18, 0xc8,
  0x53, 0x01, 0x01, 0x3f, 0x0a, 0x17, 0xd9, 0xd2, 0x24, 0xff, 0x3e, 0xe4,
  0x40, 0x1b, 0x02, 0xe8, 0x2a, 0xc6, 0xc7, 0xc1, 0xfd, 0x0c, 0x1c, 0x02,
  0xee, 0xb6, 0x1d, 0x5e, 0xc6, 0xe4, 0xff, 0x02, 0x22, 0xb4, 0xdf, 0x17,
  0x23, 0xea, 0xdf, 0x9c, 0x1d, 0xe7, 0xc8, 0x0d, 0xe0, 0x3a, 0x25, 0x3c,
  0x2b, 0xaa, 0x37, 0x32, 0x9a, 0x4c, 0x22, 0x06, 0xc4, 0x2a, 0x03, 0x09,
  0xd0, 0xee, 0x05, 0xb1, 0xc3, 0x99, 0x0c, 0x05, 0xf4, 0x12, 0x09, 0xd6,
  0x5f, 0xe0, 0x16, 0x20, 0x34, 0xd5, 0xdf, 0xc9, 0x30, 0xdd, 0xa0, 0x28,
  0xdc, 0xae, 0xe9, 0xe9, 0x11, 0x48, 0x19, 0xd5, 0xd5, 0x3b, 0x36, 0xab,
  0xaa, 0xa2, 0x2f, 0xfd, 0x20, 0xd0, 0xd1, 0x45, 0xfa, 0x17, 0x4c, 0xe0,
  0xd9, 0x20, 0x58, 0x0c, 0xd8, 0x3f, 0x4c, 0x31, 0xbd, 0xc7, 0xc7, 0xe4,
  0x45, 0x30, 0xf1, 0xfa, 0xe5, 0x3f, 0xb7, 0x15, 0xd8, 0xce, 0xc1, 0x25,
  0x08, 0xbb, 0xef, 0xf5, 0x5f, 0xdf, 0x1e, 0xaa, 0x00, 0x81, 0xde, 0x06,
  0x14, 0xa1, 0xe3, 0xf0, 0x3a, 0x06, 0x5e, 0x4d, 0xdb, 0x11, 0x2e, 0xeb,
  0xae, 0x2e, 0x94, 0xb2, 0xb9, 0x0d, 0x35, 0xb4, 0xdc, 0xa9, 0xcf, 0x37,
  0x9d, 0xde, 0xc0, 0xb1, 0x47, 0xc1, 0x2d, 0x1c, 0xb2, 0x36, 0xf3, 0xcc,
  0xc7, 0x07, 0x0c, 0xed, 0x3e, 0x31, 0xfc, 0xb0, 0xe9, 0x0e, 0xd2, 0xc3,
  0x1b, 0x3c, 0xa4, 0x3c, 0x15, 0xeb, 0xa4, 0x03, 0x25, 0xfa, 0xaf, 0x22,
  0xb1, 0x46, 0xd2, 0x2f, 0xdd, 0x02, 0xe0, 0xf0, 0xac, 0xee, 0x03, 0x32,
  0xec, 0x0e, 0xfa, 0x2f, 0x0d, 0xd2, 0xab, 0x35, 0xf4, 0x17, 0xfe, 0x18,
  0x13, 0xb6, 0x13, 0x25, 0x4a, 0x42, 0xbf, 0x64, 0xc7, 0x3b, 0x44, 0xef,
  0x48, 0x4f, 0xa9, 0x1d, 0x5b, 0x0b, 0x40, 0xcf, 0x19, 0x0b, 0x08, 0x3a,
  0xa2, 0xff, 0x7d, 0x2c, 0x24, 0xe0, 0xe3, 0xbc, 0x1f, 0xdc, 0xdd, 0xe8,
  0xf0, 0xa6, 0x12, 0x22, 0xbc, 0xe4, 0x22, 0x05, 0x92, 0xc8, 0xd5, 0x68,
  0x21, 0xa4, 0xd6, 0xaf, 0xb9, 0xcd, 0xa3, 0x79, 0xe3, 0x20, 0x19, 0x30,
  0x81, 0x8b, 0xf1, 0x5c, 0xef, 0x46, 0x94, 0x6d, 0x98, 0x20, 0xe8, 0xb7,
  0x2e, 0x09, 0x55, 0xd1, 0xee, 0x52, 0xeb, 0xbb, 0xf4, 0xf8, 0x1f, 0xa1,
  0x4e, 0xfd, 0x36, 0x4d, 0xbb, 0x00, 0x44, 0xa1, 0x69, 0x3c, 0xfc, 0xe3,
  0x18, 0xc6, 0xac, 0x51, 0xa4, 0xc0, 0xce, 0xd7, 0xe1, 0xdb, 0x3b, 0x02,
  0xf3, 0xa0, 0x4a, 0xdc, 0xb6, 0x5d, 0x58, 0x59, 0x43, 0xd9, 0x13, 0x5a,
  0x12, 0x01, 0xc2, 0x4c, 0xa8, 0x9f, 0x10, 0x0b, 0xcc, 0x2c, 0x2a, 0x3a,
  0xb9, 0xf0, 0x2b, 0xb3, 0x39, 0x04, 0x5d, 0xb1, 0x3a, 0xd2, 0x52, 0x2b,
  0x53, 0xc3, 0x6a, 0xdc, 0x7a, 0x11, 0x8b, 0xa8, 0x2b, 0xc5, 0x97, 0x29,
  0xc3, 0x22, 0x1d, 0xf8, 0x31, 0xf4, 0x19, 0xbe, 0x0c, 0x63, 0xab, 0x9f,
  0x04, 0x0d, 0x8c, 0x01, 0xc2, 0x67, 0x02, 0xfc, 0xb6, 0x0d, 0x04, 0x35,
  0x2e, 0x95, 0x25, 0xee, 0xff, 0x39, 0xc7, 0xfc, 0x81, 0xd8, 0x5d, 0xfd,
  0x94, 0xf0, 0x3a, 0xee, 0xb7, 0x3a, 0x19, 0xc2, 0xd3, 0xf7, 0xb7, 0xec,
  0xc6, 0xc9, 0xca, 0xfc, 0x56, 0x28, 0x4b, 0xda, 0xbf, 0x2d, 0x54, 0xb1,
  0x30, 0x28, 0x1a, 0xff, 0xeb, 0xe6, 0x52, 0x09, 0x35, 0x28, 0xd9, 0xa5,
  0x01, 0x14, 0xcc, 0xa4, 0x31, 0xd1, 0xc9, 0xd7, 0x3f, 0xe7, 0x54, 0xc6,
  0xe5, 0x25, 0x3d, 0xe5, 0xff, 0x1c, 0xd6, 0xab, 0x3a, 0xca, 0xe5, 0xa7,
  0xb2, 0x1e, 0x2c, 0xf5, 0xc8, 0xbe, 0xc0, 0xe5, 0x18, 0xca, 0xd1, 0xf9,
  0xca, 0xb5, 0x61, 0xd0, 0x46, 0xee, 0x08, 0x50, 0xd6, 0x04, 0x13, 0x19,
  0x34, 0x20, 0x15, 0x35, 0xf4, 0x42, 0x4b, 0x4e, 0x2a, 0xe2, 0xd9, 0x02,
  0x79, 0x9e, 0xeb, 0x40, 0x55, 0x4d, 0x06, 0x44, 0x51, 0xff, 0xb4, 0x21,
  0x0b, 0x09, 0xa4, 0x06, 0xb0, 0x41, 0x39, 0x68, 0xbb, 0x3b, 0xec, 0x41,
  0x1f, 0x3f, 0x1b, 0xac, 0xb8, 0xd9, 0x45, 0xed, 0xc9, 0xcc, 0x48, 0xf8,
  0x47, 0x07, 0x9f, 0x0b, 0xd0, 0x01, 0x35, 0xd8, 0xdb, 0xb6, 0xf9, 0x19,
  0xb6, 0x3c, 0xe8, 0x57, 0xa6, 0xac, 0xda, 0xac, 0x53, 0x04, 0xc6, 0xe0,
  0x38, 0x0b, 0x57, 0x5d, 0x36, 0x4a, 0x32, 0xda, 0xd4, 0x21, 0x1a, 0xd6,
  0x42, 0xb4, 0x0d, 0x7a, 0x2c, 0x1b, 0xaf, 0xf6, 0xc5, 0xe8, 0x2e, 0x17,
  0x4f, 0xc1, 0x40, 0xfa, 0xc1, 0xf5, 0x61, 0x24, 0xb4, 0xff, 0x39, 0x31,
  0xc1, 0x19, 0x95, 0x7f, 0xab, 0x0a, 0x40, 0xb4, 0x67, 0x00, 0xa8, 0x10,
  0x67, 0x5b, 0xb6, 0xc8, 0xd7, 0x36, 0xa8, 0x3c, 0x4b, 0x06, 0x20, 0xf4,
  0xdf, 0x10, 0x02, 0x21, 0x2a, 0xe6, 0x03, 0xfe, 0x07, 0x0f, 0xd1, 0x46,
  0xf4, 0xab, 0x00, 0x37, 0x3d, 0x07, 0x5e, 0x5f, 0xc7, 0xc3, 0xf1, 0x04,
  0xb4, 0x0a, 0x03, 0xa9, 0x06, 0x70, 0xdd, 0xf9, 0x03, 0x30, 0x11, 0xa0,
  0x02, 0x72, 0xe5, 0x99, 0x28, 0x5f, 0x53, 0x6c, 0x0c, 0x37, 0x06, 0xc3,
  0x27, 0xa4, 0xe8, 0x23, 0x0c, 0x52, 0x6a, 0x9f, 0xbb, 0xf5, 0x76, 0x9c,
  0xda, 0xc5, 0xc5, 0x07, 0xc3, 0x45, 0x37, 0xc0, 0x9f, 0xec, 0x4e, 0xe4,
  0x0c, 0x08, 0x2f, 0x33, 0xdc, 0x2b, 0x18, 0x92, 0x23, 0xd1, 0xee, 0xd1,
  0x28, 0xe9, 0xdf, 0xe8, 0x4b, 0x2e, 0x10, 0x1f, 0xb8, 0xfa, 0xe4, 0xf4,
  0xcf, 0x43, 0x10, 0x26, 0xda, 0xbd, 0xb4, 0x30, 0x44, 0x32, 0xae, 0x0b,
  0xbd, 0xc0, 0xf7, 0x12, 0xc2, 0x00, 0xe9, 0xa3, 0xe8, 0xa7, 0x02, 0xe7,
  0xe7, 0xb6, 0xcf, 0xc6, 0xa4, 0x28, 0xb9, 0x1c, 0x2f, 0xaa, 0xc8, 0x18,
  0xcc, 0xc0, 0x35, 0x45, 0x25, 0xcf, 0xb6, 0xba, 0x34, 0x38, 0x3e, 0x0a,
  0x30, 0x22, 0xf7, 0xbb, 0x33, 0xe4, 0x33, 0x51, 0xe8, 0xbd, 0xc7, 0x29,
  0x26, 0x36, 0x93, 0x14, 0x0f, 0x0f, 0x13, 0x0e, 0x26, 0x00, 0x3f, 0x02,
  0x3d, 0x20, 0x31, 0x2d, 0x27, 0xc4, 0x16, 0xd2, 0x3f, 0xea, 0x02, 0x1e,
  0xd2, 0x40, 0x1f, 0x41, 0x08, 0xef, 0xbc, 0xf1, 0x0e, 0x33, 0x0b, 0x03,
  0x53, 0x32, 0x2d, 0x46, 0x11, 0x41, 0xb3, 0x3e, 0x7f, 0x37, 0xf9, 0xbe,
  0xd2, 0x63, 0xeb, 0x19, 0x93, 0x02, 0xdb, 0xf3, 0x34, 0xbc, 0xeb, 0xfe,
  0xef, 0xdb, 0xd0, 0xe9, 0xf8, 0x41, 0x3e, 0x42, 0x43, 0x2a, 0x36, 0xcd,
  0x15, 0xc9, 0x19, 0x44, 0xf9, 0x39, 0x52, 0xc6, 0x3a, 0x23, 0x03, 0x25,
  0xd6, 0xfd, 0xfe, 0x35, 0xf1, 0xea, 0x05, 0x47, 0x33, 0x43, 0x01, 0x03,
  0x0e, 0x0e, 0x2c, 0xaf, 0xd7, 0x4a, 0x19, 0x47, 0x21, 0x50, 0x14, 0x68,
  0x2a, 0x51, 0xdc, 0xd1, 0xf9, 0xf7, 0xe5, 0x56, 0xd0, 0x42, 0xee, 0x2b,
  0xca, 0x12, 0xd9, 0xf6, 0x37, 0x0b, 0xcf, 0x47, 0xfa, 0x45, 0x32, 0x0b,
  0xc3, 0xae, 0x2e, 0xfd, 0xb4, 0x2e, 0xbb, 0x51, 0xb0, 0xe4, 0xb7, 0x7f,
  0xb2, 0xfa, 0x33, 0xf9, 0xb8, 0x43, 0xd7, 0x00, 0xd0, 0xe4, 0xf5, 0x2e,
  0x41, 0xc7, 0xc9, 0x46, 0x0d, 0x25, 0xed, 0x20, 0xea, 0x20, 0x15, 0xb0,
  0xd5, 0x03, 0xc3, 0xfe, 0x00, 0x0a, 0x9f, 0x2d, 0xf2, 0xb6, 0x0a, 0xd9,
  0xc9, 0x08, 0xdb, 0x3c, 0x51, 0x00, 0x04, 0x40, 0x22, 0x3e, 0xf7, 0x2a,
  0x4b, 0xed, 0x0c, 0x09, 0x17, 0x13, 0xb6, 0xd8, 0x08, 0xc9, 0xcd, 0xbf,
  0x20, 0xc5, 0x36, 0x03, 0xf8, 0xe2, 0xa8, 0x2b, 0x4b, 0xee, 0x57, 0xfa,
  0xe0, 0xc1, 0xe1, 0xd6, 0x45, 0xe5, 0xc7, 0xf9, 0xbc, 0xe1, 0xdb, 0x42,
  0xef, 0x30, 0x12, 0x3b, 0x46, 0xd6, 0x00, 0xf6, 0x16, 0xd9, 0x29, 0xd7,
  0x29, 0xf9, 0x45, 0x44, 0x25, 0x50, 0x2c, 0xd8, 0xb6, 0xed, 0x9c, 0x8a,
  0xdb, 0xa7, 0xc3, 0x48, 0x5d, 0x1d, 0x09, 0x4c, 0xd3, 0x59, 0x07, 0x42,
  0xfb, 0xdb, 0x90, 0x0c, 0xaa, 0xf6, 0xa1, 0xf3, 0x79, 0x31, 0xd4, 0xc3,
  0x2e, 0x4a, 0xdf, 0xc9, 0x3f, 0xad, 0xec, 0xfd, 0xe4, 0x56, 0x54, 0x2c,
  0x39, 0x48, 0x62, 0x13, 0x23, 0x3c, 0xbf, 0xf9, 0x2a, 0x2c, 0xba, 0xd6,
  0x50, 0xfa, 0x52, 0x0e, 0xaf, 0xfa, 0x31, 0xd4, 0x8c, 0xc4, 0x59, 0x4b,
  0xe1, 0x4b, 0xfa, 0xfd, 0xa3, 0x27, 0xcd, 0xef, 0xd3, 0xac, 0x07, 0xc7,
  0x9a, 0x06, 0xff, 0x4f, 0x45, 0xfc, 0x28, 0x31, 0xc1, 0x81, 0x45, 0x15,
  0xc3, 0x24, 0xa9, 0xdb, 0x10, 0x32, 0xbf, 0x12, 0xba, 0x27, 0xc4, 0x90,
  0x26, 0x50, 0x3e, 0x63, 0xbd, 0xc3, 0x19, 0xce, 0xe3, 0x16, 0xf1, 0x56,
  0x08, 0x30, 0x51, 0x38, 0x50, 0x1a, 0x64, 0xa9, 0xbc, 0x0b, 0xb9, 0x70,
  0x54, 0x4d, 0xd5, 0xfe, 0x33, 0x18, 0x4d, 0xa9, 0x35, 0xe2, 0xa5, 0xb9,
  0xe2, 0xed, 0xb2, 0x96, 0xc0, 0xf1, 0xca, 0x0b, 0x46, 0xf8, 0xab, 0x50,
  0xd9, 0xef, 0x2c, 0xf7, 0x34, 0x0f, 0x3e, 0xf9, 0xd7, 0x47, 0x1c, 0x19,
  0xc6, 0x0c, 0x29, 0xe7, 0xb8, 0xb2, 0xca, 0xf6, 0x00, 0x14, 0xea, 0xc8,
  0x0e, 0x34, 0x50, 0x9f, 0x1a, 0x14, 0x6c, 0x6e, 0x4a, 0x2b, 0xe9, 0xbb,
  0x29, 0x02, 0x27, 0x54, 0x7f, 0xfe, 0x14, 0x51, 0x6d, 0xdd, 0x2c, 0x3e,
  0x1f, 0xa4, 0x54, 0x53, 0x43, 0x2a, 0x2f, 0x1a, 0x9b, 0xe6, 0xf9, 0x46,
  0x11, 0xcc, 0x55, 0xe1, 0xd5, 0x1b, 0x1c, 0x13, 0xdb, 0x01, 0xf8, 0xb1,
  0xbd, 0x56, 0x20, 0xb1, 0x13, 0xa3, 0xfd, 0x47, 0xe9, 0x3f, 0x17, 0x74,
  0xdc, 0x06, 0x17, 0x64, 0x33, 0x1d, 0x6a, 0x57, 0x07, 0xfd, 0xd3, 0xe2,
  0x56, 0xe8, 0x00, 0x0c, 0xf8, 0x28, 0x51, 0x2c, 0x61, 0x33, 0xa3, 0x19,
  0x1e, 0xcd, 0x55, 0x20, 0xf1, 0x47, 0x11, 0xc8, 0xdb, 0xcd, 0xd5, 0x12,
  0x4b, 0xab, 0xc2, 0x25, 0xaa, 0x06, 0xf4, 0xdf, 0xad, 0xae, 0xf1, 0xfe,
  0x24, 0x46, 0xce, 0xcf, 0xf6, 0x13, 0x60, 0xb5, 0xd9, 0x51, 0xbe, 0x1f,
  0x3a, 0x15, 0xb1, 0xb3, 0x25, 0x28, 0xd1, 0x32, 0xe0, 0xd1, 0xf2, 0xe9,
  0x1a, 0xf1, 0x04, 0x2e, 0xb3, 0xa9, 0x30, 0xd7, 0x61, 0xd1, 0xa9, 0x3f,
  0x9b, 0xd5, 0x29, 0xd9, 0x0b, 0x46, 0x2a, 0x59, 0xac, 0x18, 0xd5, 0xd5,
  0x04, 0xf6, 0x32, 0x33, 0xfe, 0xa7, 0x02, 0xa0, 0x05, 0x37, 0xd4, 0xef,
  0x3d, 0x03, 0x5b, 0x33, 0xbc, 0x4f, 0xc6, 0x4f, 0x5f, 0x44, 0x29, 0x3e,
  0x32, 0x02, 0xa1, 0x38, 0xda, 0x48, 0x2a, 0xb0, 0x10, 0xb3, 0xf3, 0x38,
  0xe0, 0x3b, 0x18, 0x58, 0xf4, 0xd0, 0x49, 0x03, 0x00, 0xdf, 0xad, 0x48,
  0xdb, 0x1c, 0xfd, 0xbc, 0x3b, 0x7f, 0x1a, 0x58, 0x59, 0xed, 0x05, 0x17,
  0x34, 0x01, 0x1a, 0xd5, 0xf3, 0xf0, 0x26, 0x27, 0xf8, 0x3c, 0x61, 0x39,
  0xeb, 0x1d, 0xc6, 0xf9, 0xb7, 0x54, 0x1d, 0x54, 0x26, 0x2c, 0x61, 0xc9,
  0xc8, 0xb6, 0xef, 0x15, 0xda, 0xf8, 0x54, 0xd7, 0xd9, 0xb0, 0xd2, 0xf8,
  0xf9, 0xe3, 0xcb, 0x56, 0xe2, 0xa6, 0x52, 0xf7, 0xbb, 0xa9, 0x10, 0x33,
  0xcb, 0x11, 0x08, 0x1c, 0x2c, 0xd5, 0x0d, 0x48, 0x2e, 0x17, 0x41, 0x04,
  0x55, 0x31, 0xb0, 0x30, 0x08, 0xc5, 0xb7, 0x08, 0xea, 0x0f, 0x2a, 0x11,
  0x45, 0xe9, 0xed, 0x09, 0xe1, 0xb8, 0x50, 0xe6, 0xc3, 0x02, 0x04, 0xaf,
  0x21, 0x52, 0x0a, 0x19, 0xc3, 0xfc, 0xbe, 0xb4, 0xea, 0xf7, 0x4d, 0xba,
  0x9a, 0xb1, 0x62, 0xbd, 0x2d, 0x10, 0x99, 0x51, 0xd8, 0xdc, 0xfa, 0x57,
  0x71, 0xeb, 0x40, 0x65, 0xb3, 0xf3, 0xd8, 0xf4, 0x2a, 0xaa, 0x15, 0x5e,
  0xd3, 0x19, 0xb3, 0xa0, 0x0c, 0x0f, 0xbf, 0xc6, 0x0a, 0xa3, 0x0b, 0x10,
  0x40, 0xb5, 0x09, 0xf2, 0x54, 0x3f, 0xb8, 0x5e, 0xba, 0xfd, 0xe3, 0x1c,
  0xac, 0xd7, 0x1e, 0x06, 0x05, 0xd3, 0xd2, 0x4d, 0x51, 0x10, 0xaf, 0xea,
  0x50, 0xb7, 0x81, 0x4b, 0xc6, 0x1f, 0x31, 0xe0, 0xb0, 0xb7, 0x09, 0x3f,
  0x15, 0xc8, 0xc0, 0xdb, 0xa1, 0x55, 0xc4, 0x34, 0x23, 0x61, 0x20, 0xe7,
  0x56, 0x26, 0x79, 0xd6, 0xb0, 0xed, 0xf3, 0xa9, 0x10, 0xb4, 0x9d, 0xae,
  0x00, 0xe6, 0xfd, 0xc3, 0x36, 0xf3, 0xa4, 0xc5, 0xf2, 0xde, 0x20, 0xe7,
  0x17, 0xbe, 0x17, 0x52, 0x8f, 0xce, 0x57, 0xd8, 0x9b, 0x54, 0xa8, 0xd0,
  0x48, 0xa7, 0xcc, 0xcd, 0x34, 0x5b, 0xcd, 0xe9, 0x2d, 0xeb, 0xbc, 0xfb,
  0xbd, 0xfa, 0xef, 0xd6, 0xf4, 0x4a, 0xe6, 0x37, 0xaa, 0x9b, 0x50, 0xd5,
  0x37, 0xfa, 0xfb, 0xf2, 0x68, 0x5d, 0x36, 0x26, 0x45, 0xdc, 0xb0, 0x33,
  0xbb, 0x29, 0x2b, 0x41, 0x0f, 0xb7, 0x02, 0xf1, 0xfb, 0x06, 0x23, 0x06,
  0x42, 0xc0, 0x1b, 0xaf, 0x9c, 0xab, 0xf0, 0xcc, 0xb5, 0x5c, 0xdc, 0xd4,
  0xf3, 0x89, 0x44, 0x05, 0xdd, 0xcd, 0xd2, 0xad, 0xc9, 0xdf, 0xb2, 0x5d,
  0x58, 0xc7, 0xd8, 0x46, 0xbd, 0x68, 0x43, 0xf3, 0xc8, 0x8e, 0xd2, 0xe4,
  0x62, 0x3d, 0xb2, 0x0f, 0x7f, 0xea, 0xee, 0x94, 0xb0, 0xf7, 0x39, 0x39,
  0x67, 0xd9, 0x3a, 0x5a, 0x06, 0x57, 0x0b, 0xc2, 0x34, 0xc1, 0x3d, 0xa7,
  0x02, 0x20, 0x36, 0xd2, 0xb7, 0x43, 0xbf, 0x38, 0x4c, 0xc8, 0x31, 0x0f,
  0x51, 0xe8, 0x96, 0xfb, 0x37, 0x44, 0x0f, 0x15, 0x91, 0xd0, 0x2e, 0xd5,
  0x36, 0x3b, 0xb4, 0xa1, 0x03, 0x08, 0x04, 0x9c, 0xd2, 0x30, 0x58, 0x5d,
  0x58, 0xe8, 0x4f, 0x7a, 0x2a, 0xcc, 0x59, 0x9d, 0xa9, 0x2e, 0xd9, 0xef,
  0x16, 0xc0, 0x31, 0xd7, 0x2d, 0xbc, 0x5d, 0x38, 0xf7, 0x3d, 0xb7, 0x47,
  0xf1, 0x02, 0x13, 0x26, 0x40, 0xb5, 0x4b, 0xc0, 0x6f, 0xad, 0xc2, 0x2a,
  0xe3, 0x4b, 0x0f, 0xf5, 0xe6, 0x5f, 0x5b, 0x41, 0x0d, 0x06, 0xd7, 0x23,
  0x3a, 0xc8, 0x4e, 0xea, 0xcd, 0xb4, 0xed, 0xde, 0x21, 0x17, 0xc7, 0xcd,
  0xbc, 0x1b, 0x26, 0x33, 0xff, 0xbb, 0x29, 0x4c, 0x29, 0x14, 0xf4, 0xe4,
  0xfd, 0xf0, 0xde, 0xe3, 0x0b, 0xf1, 0x23, 0xed, 0xb7, 0xf4, 0x3a, 0xd1,
  0xf3, 0xad, 0x00, 0xfe, 0x24, 0xe7, 0x2e, 0xe9, 0x81, 0x45, 0xd0, 0xd6,
  0x57, 0xfa, 0xda, 0xdf, 0x3b, 0xe2, 0x0c, 0x32, 0xd6, 0xb6, 0x4d, 0x8d,
  0x4f, 0x5c, 0xfd, 0xd0, 0xf1, 0xbc, 0xc5, 0xf5, 0x27, 0xbf, 0x12, 0xbb,
  0xcb, 0x43, 0x00, 0x03, 0xbb, 0xad, 0x17, 0xcd, 0x0f, 0xb9, 0xff, 0x06,
  0xb8, 0x39, 0x0c, 0x23, 0xce, 0xf7, 0xbd, 0x21, 0xe9, 0xff, 0x0d, 0xc3,
  0x06, 0xe2, 0xba, 0xd3, 0xd2, 0xed, 0x41, 0xa4, 0xee, 0x45, 0x14, 0xbb,
  0x0a, 0xbf, 0x00, 0x1a, 0x04, 0x0b, 0xd5, 0x37, 0xea, 0x54, 0xbe, 0x10,
  0xdd, 0xeb, 0xef, 0xd9, 0x34, 0x31, 0x5c, 0xd3, 0x32, 0x42, 0xeb, 0x27,
  0xb2, 0x45, 0xe1, 0xfa, 0xff, 0xaa, 0xce, 0x18, 0x28, 0xdf, 0x08, 0x41,
  0xc6, 0x9a, 0xf1, 0xb6, 0xd4, 0x07, 0xf9, 0x2b, 0xd3, 0xbe, 0x29, 0x09,
  0x2b, 0x1e, 0xe5, 0xc1, 0x17, 0xd5, 0xf5, 0x05, 0x07, 0x9f, 0xb8, 0xfd,
  0x66, 0x20, 0x14, 0xba, 0xff, 0x2e, 0x49, 0x09, 0x1b, 0xc3, 0x36, 0xac,
  0x1c, 0xe2, 0x17, 0x11, 0xb0, 0x1c, 0xa9, 0xae, 0x56, 0x1c, 0xdf, 0x8f,
  0xf7, 0x9d, 0x0b, 0xe1, 0x11, 0x17, 0x37, 0xcb, 0x27, 0xd4, 0xfd, 0x1f,
  0xb7, 0x96, 0x1f, 0xc3, 0x59, 0x04, 0x07, 0xbf, 0xb8, 0x4a, 0x17, 0xf9,
  0xd0, 0xee, 0x62, 0x05, 0xd7, 0x8b, 0x52, 0x8f, 0x04, 0xb6, 0xfe, 0x46,
  0x1d, 0xcf, 0xec, 0xf2, 0xb6, 0xfe, 0x04, 0x0f, 0x5e, 0xcb, 0xff, 0xd2,
  0xab, 0x05, 0xf9, 0x1a, 0xe0, 0xec, 0xd1, 0xd8, 0x33, 0xf6, 0xd1, 0xb4,
  0xdf, 0xa0, 0xc7, 0x08, 0xb8, 0x1f, 0x05, 0x13, 0xd3, 0x38, 0xab, 0x50,
  0xee, 0xc0, 0xdc, 0xe9, 0xac, 0xc8, 0x41, 0xca, 0xdf, 0x1e, 0xf7, 0xed,
  0xb6, 0xad, 0xb5, 0x36, 0x10, 0x1d, 0x59, 0x35, 0xc3, 0x22, 0xfd, 0x0d,
  0xb0, 0x1f, 0xd4, 0xdb, 0xde, 0xe1, 0x2f, 0xcb, 0xbb, 0xde, 0x7f, 0x12,
  0x3a, 0xe9, 0xcb, 0x3a, 0xf4, 0x06, 0xb6, 0x11, 0x46, 0xbc, 0xb7, 0xe4,
  0x1a, 0x0e, 0xa5, 0x39, 0x30, 0x18, 0xda, 0xd0, 0x29, 0xb7, 0x3e, 0xc7,
  0xa6, 0xf9, 0xff, 0xff, 0x04, 0x00, 0x00, 0x00, 0x80, 0x00, 0x00, 0x00,
  0xdb, 0xff, 0xff, 0xff, 0xfd, 0xff, 0xff, 0xff, 0x1f, 0x00, 0x00, 0x00,
  0x3e, 0x00, 0x00, 0x00, 0x27, 0x00, 0x00, 0x00, 0xdf, 0xff, 0xff, 0xff,
  0x38, 0x00, 0x00, 0x00, 0xd5, 0xff, 0xff, 0xff, 0x09, 0x00, 0x00, 0x00,
  0xde, 0xff, 0xff, 0xff, 0x0c, 0x00, 0x00, 0x00, 0xf9, 0xff, 0xff, 0xff,
  0x1f, 0x00, 0x00, 0x00, 0xe5, 0xff, 0xff, 0xff, 0x0a, 0x00, 0x00, 0x00,
  0xad, 0xff, 0xff, 0xff, 0xd6, 0xff, 0xff, 0xff, 0x3f, 0x00, 0x00, 0x00,
  0xfd, 0xff, 0xff, 0xff, 0xe2, 0xff, 0xff, 0xff, 0xeb, 0xff, 0xff, 0xff,
  0xc8, 0xff, 0xff, 0xff, 0x15, 0x00, 0x00, 0x00, 0xb9, 0xff, 0xff, 0xff,
  0xf8, 0xff, 0xff, 0xff, 0xb4, 0xff, 0xff, 0xff, 0x30, 0x00, 0x00, 0x00,
  0xe8, 0xff, 0xff, 0xff, 0x3f, 0x00, 0x00, 0x00, 0xdf, 0xff, 0xff, 0xff,
  0xfd, 0xff, 0xff, 0xff, 0x8f, 0xff, 0xff, 0xff, 0x32, 0xfa, 0xff, 0xff,
  0x04, 0x00, 0x00, 0x00, 0x20, 0x00, 0x00, 0x00, 0x37, 0x6a, 0x42, 0x13,
  0x81, 0x31, 0x22, 0x32, 0x35, 0xb5, 0x14, 0x05, 0xdf, 0x3f, 0x93, 0x27,
  0xda, 0xba, 0xd5, 0x3c, 0x9a, 0x6d, 0x8d, 0x21, 0x8e, 0x66, 0xca, 0xa1,
  0xb1, 0x77, 0x30, 0x55, 0x5e, 0xfa, 0xff, 0xff, 0x04, 0x00, 0x00, 0x00,
  0x04, 0x00, 0x00, 0x00, 0xc6, 0xff, 0xff, 0xff, 0x6e, 0xfa, 0xff, 0xff,
  0x04, 0x00, 0x00, 0x00, 0x08, 0x00, 0x00, 0x00, 0xff, 0xff, 0xff, 0xff,
  0xa0, 0x00, 0x00, 0x00, 0x82, 0xfa, 0xff, 0xff, 0x04, 0x00, 0x00, 0x00,
  0x0c, 0x00, 0x00, 0x00, 0xff, 0xff, 0xff, 0xff, 0x0a, 0x00, 0x00, 0x00,
  0x20, 0x00, 0x00, 0x00, 0x9a, 0xfa, 0xff, 0xff, 0x04, 0x00, 0x00, 0x00,
  0x0c, 0x00, 0x00, 0x00, 0xff, 0xff, 0xff, 0xff, 0x0a, 0x00, 0x00, 0x00,
  0x10, 0x00, 0x00, 0x00, 0xf4, 0xd7, 0xff, 0xff, 0xb6, 0xfa, 0xff, 0xff,
  0x04, 0x00, 0x00, 0x00, 0x0c, 0x00, 0x00, 0x00, 0xff, 0xff, 0xff, 0xff,
  0x15, 0x00, 0x00, 0x00, 0x10, 0x00, 0x00, 0x00, 0xce, 0xfa, 0xff, 0xff,
  0x04, 0x00, 0x00, 0x00, 0x04, 0x00, 0x00, 0x00, 0xfd, 0xff, 0xff, 0xff,
  0xde, 0xfa, 0xff, 0xff, 0x04, 0x00, 0x00, 0x00, 0x04, 0x00, 0x00, 0x00,
  0x20, 0x00, 0x00, 0x00, 0xee, 0xfa, 0xff, 0xff, 0x04, 0x00, 0x00, 0x00,
  0x04, 0x00, 0x00, 0x00, 0x15, 0x00, 0x00, 0x00, 0xfe, 0xfa, 0xff, 0xff,
  0x04, 0x00, 0x00, 0x00, 0x04, 0x00, 0x00, 0x00, 0x01, 0x00, 0x00, 0x00,
  0x0e, 0xfb, 0xff, 0xff, 0x04, 0x00, 0x00, 0x00, 0x04, 0x00, 0x00, 0x00,
  0x00, 0x00, 0x00, 0x00, 0x60, 0xd8, 0xff, 0xff, 0x64, 0xd8, 0xff, 0xff,
  0x0f, 0x00, 0x00, 0x00, 0x4d, 0x4c, 0x49, 0x52, 0x20, 0x43, 0x6f, 0x6e,
  0x76, 0x65, 0x72, 0x74, 0x65, 0x64, 0x2e, 0x00, 0x01, 0x00, 0x00, 0x00,
  0x14, 0x00, 0x00, 0x00, 0x00, 0x00, 0x0e, 0x00, 0x18, 0x00, 0x14, 0x00,
  0x10, 0x00, 0x0c, 0x00, 0x08, 0x00, 0x04, 0x00, 0x0e, 0x00, 0x00, 0x00,
  0x14, 0x00, 0x00, 0x00, 0x1c, 0x00, 0x00, 0x00, 0x84, 0x05, 0x00, 0x00,
  0x88, 0x05, 0x00, 0x00, 0x8c, 0x05, 0x00, 0x00, 0x04, 0x00, 0x00, 0x00,
  0x6d, 0x61, 0x69, 0x6e, 0x00, 0x00, 0x00, 0x00, 0x19, 0x00, 0x00, 0x00,
  0x4c, 0x05, 0x00, 0x00, 0x04, 0x05, 0x00, 0x00, 0xa4, 0x04, 0x00, 0x00,
  0x60, 0x04, 0x00, 0x00, 0x38, 0x04, 0x00, 0x00, 0xf8, 0x03, 0x00, 0x00,
  0xa8, 0x03, 0x00, 0x00, 0x74, 0x03, 0x00, 0x00, 0x40, 0x03, 0x00, 0x00,
  0x18, 0x03, 0x00, 0x00, 0xe4, 0x02, 0x00, 0x00, 0x90, 0x02, 0x00, 0x00,
  0x68, 0x02, 0x00, 0x00, 0x34, 0x02, 0x00, 0x00, 0xf0, 0x01, 0x00, 0x00,
  0xbc, 0x01, 0x00, 0x00, 0x88, 0x01, 0x00, 0x00, 0x60, 0x01, 0x00, 0x00,
  0x2c, 0x01, 0x00, 0x00, 0xe8, 0x00, 0x00, 0x00, 0xc0, 0x00, 0x00, 0x00,
  0x84, 0x00, 0x00, 0x00, 0x4c, 0x00, 0x00, 0x00, 0x28, 0x00, 0x00, 0x00,
  0x04, 0x00, 0x00, 0x00, 0x26, 0xfc, 0xff, 0xff, 0x0c, 0x00, 0x00, 0x00,
  0x10, 0x00, 0x00, 0x00, 0x0c, 0x00, 0x00, 0x00, 0x01, 0x00, 0x00, 0x00,
  0x2f, 0x00, 0x00, 0x00, 0x01, 0x00, 0x00, 0x00, 0x2e, 0x00, 0x00, 0x00,
  0x46, 0xfc, 0xff, 0xff, 0x0c, 0x00, 0x00, 0x00, 0x10, 0x00, 0x00, 0x00,
  0x0b, 0x00, 0x00, 0x00, 0x01, 0x00, 0x00, 0x00, 0x2e, 0x00, 0x00, 0x00,
  0x01, 0x00, 0x00, 0x00, 0x2d, 0x00, 0x00, 0x00, 0xaa, 0xfb, 0xff, 0xff,
  0x14, 0x00, 0x00, 0x00, 0x00, 0x00, 0x00, 0x08, 0x10, 0x00, 0x00, 0x00,
  0x14, 0x00, 0x00, 0x00, 0x0a, 0x00, 0x00, 0x00, 0x78, 0xd9, 0xff, 0xff,
  0x01, 0x00, 0x00, 0x00, 0x2d, 0x00, 0x00, 0x00, 0x03, 0x00, 0x00, 0x00,
  0x2c, 0x00, 0x00, 0x00, 0x0c, 0x00, 0x00, 0x00, 0x0b, 0x00, 0x00, 0x00,
  0xde, 0xfb, 0xff, 0xff, 0x14, 0x00, 0x00, 0x00, 0x00, 0x00, 0x00, 0x08,
  0x14, 0x00, 0x00, 0x00, 0x18, 0x00, 0x00, 0x00, 0x0a, 0x00, 0x00, 0x00,
  0xce, 0xfb, 0xff, 0xff, 0x00, 0x00, 0x00, 0x01, 0x01, 0x00, 0x00, 0x00,
  0x2c, 0x00, 0x00, 0x00, 0x03, 0x00, 0x00, 0x00, 0x2b, 0x00, 0x00, 0x00,
  0x0e, 0x00, 0x00, 0x00, 0x0d, 0x00, 0x00, 0x00, 0xd2, 0xfc, 0xff, 0xff,
  0x0c, 0x00, 0x00, 0x00, 0x10, 0x00, 0x00, 0x00, 0x04, 0x00, 0x00, 0x00,
  0x01, 0x00, 0x00, 0x00, 0x2b, 0x00, 0x00, 0x00, 0x02, 0x00, 0x00, 0x00,
  0x2a, 0x00, 0x00, 0x00, 0x0a, 0x00, 0x00, 0x00, 0x3a, 0xfc, 0xff, 0xff,
  0x14, 0x00, 0x00, 0x00, 0x00, 0x00, 0x00, 0x05, 0x24, 0x00, 0x00, 0x00,
  0x28, 0x00, 0x00, 0x00, 0x09, 0x00, 0x00, 0x00, 0x76, 0xfe, 0xff, 0xff,
  0x01, 0x00, 0x00, 0x00, 0x02, 0x00, 0x00, 0x00, 0x01, 0x00, 0x00, 0x00,
  0x02, 0x00, 0x00, 0x00, 0x00, 0x00, 0x00, 0x01, 0x01, 0x00, 0x00, 0x00,
  0x2a, 0x00, 0x00, 0x00, 0x01, 0x00, 0x00, 0x00, 0x29, 0x00, 0x00, 0x00,
  0x7a, 0xfc, 0xff, 0xff, 0x14, 0x00, 0x00, 0x00, 0x00, 0x00, 0x00, 0x34,
  0x10, 0x00, 0x00, 0x00, 0x14, 0x00, 0x00, 0x00, 0x05, 0x00, 0x00, 0x00,
  0x48, 0xda, 0xff, 0xff, 0x01, 0x00, 0x00, 0x00, 0x29, 0x00, 0x00, 0x00,
  0x02, 0x00, 0x00, 0x00, 0x28, 0x00, 0x00, 0x00, 0x07, 0x00, 0x00, 0x00,
  0x66, 0xfd, 0xff, 0xff, 0x0c, 0x00, 0x00, 0x00, 0x10, 0x00, 0x00, 0x00,
  0x04, 0x00, 0x00, 0x00, 0x01, 0x00, 0x00, 0x00, 0x28, 0x00, 0x00, 0x00,
  0x02, 0x00, 0x00, 0x00, 0x27, 0x00, 0x00, 0x00, 0x09, 0x00, 0x00, 0x00,
  0xce, 0xfc, 0xff, 0xff, 0x14, 0x00, 0x00, 0x00, 0x00, 0x00, 0x00, 0x0b,
  0x10, 0x00, 0x00, 0x00, 0x14, 0x00, 0x00, 0x00, 0x08, 0x00, 0x00, 0x00,
  0x9c, 0xda, 0xff, 0xff, 0x01, 0x00, 0x00, 0x00, 0x27, 0x00, 0x00, 0x00,
  0x02, 0x00, 0x00, 0x00, 0x26, 0x00, 0x00, 0x00, 0x0f, 0x00, 0x00, 0x00,
  0xfe, 0xfc, 0xff, 0xff, 0x14, 0x00, 0x00, 0x00, 0x00, 0x00, 0x00, 0x15,
  0x10, 0x00, 0x00, 0x00, 0x14, 0x00, 0x00, 0x00, 0x07, 0x00, 0x00, 0x00,
  0xcc, 0xda, 0xff, 0xff, 0x01, 0x00, 0x00, 0x00, 0x26, 0x00, 0x00, 0x00,
  0x02, 0x00, 0x00, 0x00, 0x25, 0x00, 0x00, 0x00, 0x10, 0x00, 0x00, 0x00,
  0x2e, 0xfd, 0xff, 0xff, 0x14, 0x00, 0x00, 0x00, 0x00, 0x00, 0x00, 0x01,
  0x1c, 0x00, 0x00, 0x00, 0x20, 0x00, 0x00, 0x00, 0x06, 0x00, 0x00, 0x00,
  0x68, 0xfe, 0xff, 0xff, 0x00, 0x00, 0x00, 0x01, 0x01, 0x00, 0x00, 0x00,
  0x01, 0x00, 0x00, 0x00, 0x01, 0x00, 0x00, 0x00, 0x25, 0x00, 0x00, 0x00,
  0x03, 0x00, 0x00, 0x00, 0x24, 0x00, 0x00, 0x00, 0x12, 0x00, 0x00, 0x00,
  0x11, 0x00, 0x00, 0x00, 0x6e, 0xfd, 0xff, 0xff, 0x14, 0x00, 0x00, 0x00,
  0x00, 0x00, 0x00, 0x34, 0x10, 0x00, 0x00, 0x00, 0x14, 0x00, 0x00, 0x00,
  0x05, 0x00, 0x00, 0x00, 0x3c, 0xdb, 0xff, 0xff, 0x01, 0x00, 0x00, 0x00,
  0x24, 0x00, 0x00, 0x00, 0x02, 0x00, 0x00, 0x00, 0x23, 0x00, 0x00, 0x00,
  0x05, 0x00, 0x00, 0x00, 0x5a, 0xfe, 0xff, 0xff, 0x0c, 0x00, 0x00, 0x00,
  0x10, 0x00, 0x00, 0x00, 0x04, 0x00, 0x00, 0x00, 0x01, 0x00, 0x00, 0x00,
  0x23, 0x00, 0x00, 0x00, 0x02, 0x00, 0x00, 0x00, 0x22, 0x00, 0x00, 0x00,
  0x08, 0x00, 0x00, 0x00, 0xc2, 0xfd, 0xff, 0xff, 0x24, 0x00, 0x00, 0x00,
  0x00, 0x00, 0x00, 0x05, 0x34, 0x00, 0x00, 0x00, 0x38, 0x00, 0x00, 0x00,
  0x09, 0x00, 0x00, 0x00, 0x00, 0x00, 0x0e, 0x00, 0x18, 0x00, 0x17, 0x00,
  0x10, 0x00, 0x0c, 0x00, 0x08, 0x00, 0x04, 0x00, 0x0e, 0x00, 0x00, 0x00,
  0x01, 0x00, 0x00, 0x00, 0x02, 0x00, 0x00, 0x00, 0x01, 0x00, 0x00, 0x00,
  0x02, 0x00, 0x00, 0x00, 0x00, 0x00, 0x00, 0x01, 0x01, 0x00, 0x00, 0x00,
  0x22, 0x00, 0x00, 0x00, 0x01, 0x00, 0x00, 0x00, 0x21, 0x00, 0x00, 0x00,
  0x12, 0xfe, 0xff, 0xff, 0x14, 0x00, 0x00, 0x00, 0x00, 0x00, 0x00, 0x34,
  0x10, 0x00, 0x00, 0x00, 0x14, 0x00, 0x00, 0x00, 0x05, 0x00, 0x00, 0x00,
  0xe0, 0xdb, 0xff, 0xff, 0x01, 0x00, 0x00, 0x00, 0x21, 0x00, 0x00, 0x00,
  0x02, 0x00, 0x00, 0x00, 0x20, 0x00, 0x00, 0x00, 0x07, 0x00, 0x00, 0x00,
  0xfe, 0xfe, 0xff, 0xff, 0x0c, 0x00, 0x00, 0x00, 0x10, 0x00, 0x00, 0x00,
  0x04, 0x00, 0x00, 0x00, 0x01, 0x00, 0x00, 0x00, 0x20, 0x00, 0x00, 0x00,
  0x02, 0x00, 0x00, 0x00, 0x1f, 0x00, 0x00, 0x00, 0x06, 0x00, 0x00, 0x00,
  0x66, 0xfe, 0xff, 0xff, 0x14, 0x00, 0x00, 0x00, 0x00, 0x00, 0x00, 0x0b,
  0x10, 0x00, 0x00, 0x00, 0x14, 0x00, 0x00, 0x00, 0x08, 0x00, 0x00, 0x00,
  0x34, 0xdc, 0xff, 0xff, 0x01, 0x00, 0x00, 0x00, 0x1f, 0x00, 0x00, 0x00,
  0x02, 0x00, 0x00, 0x00, 0x1e, 0x00, 0x00, 0x00, 0x13, 0x00, 0x00, 0x00,
  0x96, 0xfe, 0xff, 0xff, 0x14, 0x00, 0x00, 0x00, 0x00, 0x00, 0x00, 0x15,
  0x10, 0x00, 0x00, 0x00, 0x14, 0x00, 0x00, 0x00, 0x07, 0x00, 0x00, 0x00,
  0x64, 0xdc, 0xff, 0xff, 0x01, 0x00, 0x00, 0x00, 0x1e, 0x00, 0x00, 0x00,
  0x02, 0x00, 0x00, 0x00, 0x1d, 0x00, 0x00, 0x00, 0x14, 0x00, 0x00, 0x00,
  0xc6, 0xfe, 0xff, 0xff, 0x20, 0x00, 0x00, 0x00, 0x00, 0x00, 0x00, 0x01,
  0x28, 0x00, 0x00, 0x00, 0x2c, 0x00, 0x00, 0x00, 0x06, 0x00, 0x00, 0x00,
  0x0c, 0x00, 0x10, 0x00, 0x00, 0x00, 0x0c, 0x00, 0x08, 0x00, 0x07, 0x00,
  0x0c, 0x00, 0x00, 0x00, 0x00, 0x00, 0x00, 0x01, 0x01, 0x00, 0x00, 0x00,
  0x01, 0x00, 0x00, 0x00, 0x01, 0x00, 0x00, 0x00, 0x1d, 0x00, 0x00, 0x00,
  0x03, 0x00, 0x00, 0x00, 0x1c, 0x00, 0x00, 0x00, 0x16, 0x00, 0x00, 0x00,
  0x15, 0x00, 0x00, 0x00, 0x12, 0xff, 0xff, 0xff, 0x14, 0x00, 0x00, 0x00,
  0x00, 0x00, 0x00, 0x34, 0x10, 0x00, 0x00, 0x00, 0x14, 0x00, 0x00, 0x00,
  0x05, 0x00, 0x00, 0x00, 0xe0, 0xdc, 0xff, 0xff, 0x01, 0x00, 0x00, 0x00,
  0x1c, 0x00, 0x00, 0x00, 0x02, 0x00, 0x00, 0x00, 0x1b, 0x00, 0x00, 0x00,
  0x05, 0x00, 0x00, 0x00, 0x00, 0x00, 0x0a, 0x00, 0x10, 0x00, 0x0c, 0x00,
  0x08, 0x00, 0x04, 0x00, 0x0a, 0x00, 0x00, 0x00, 0x0c, 0x00, 0x00, 0x00,
  0x10, 0x00, 0x00, 0x00, 0x04, 0x00, 0x00, 0x00, 0x01, 0x00, 0x00, 0x00,
  0x1b, 0x00, 0x00, 0x00, 0x02, 0x00, 0x00, 0x00, 0x17, 0x00, 0x00, 0x00,
  0x1a, 0x00, 0x00, 0x00, 0x72, 0xff, 0xff, 0xff, 0x1c, 0x00, 0x00, 0x00,
  0x00, 0x00, 0x00, 0x3b, 0x1c, 0x00, 0x00, 0x00, 0x20, 0x00, 0x00, 0x00,
  0x03, 0x00, 0x00, 0x00, 0x00, 0x00, 0x06, 0x00, 0x08, 0x00, 0x04, 0x00,
  0x06, 0x00, 0x00, 0x00, 0x03, 0x00, 0x00, 0x00, 0x01, 0x00, 0x00, 0x00,
  0x1a, 0x00, 0x00, 0x00, 0x03, 0x00, 0x00, 0x00, 0x19, 0x00, 0x00, 0x00,
  0x03, 0x00, 0x00, 0x00, 0x04, 0x00, 0x00, 0x00, 0xb2, 0xff, 0xff, 0xff,
  0x24, 0x00, 0x00, 0x00, 0x00, 0x00, 0x00, 0x20, 0x24, 0x00, 0x00, 0x00,
  0x28, 0x00, 0x00, 0x00, 0x02, 0x00, 0x00, 0x00, 0x00, 0x00, 0x0e, 0x00,
  0x08, 0x00, 0x00, 0x00, 0x00, 0x00, 0x00, 0x00, 0x00, 0x00, 0x04, 0x00,
  0x0e, 0x00, 0x00, 0x00, 0x01, 0x00, 0x00, 0x00, 0x01, 0x00, 0x00, 0x00,
  0x19, 0x00, 0x00, 0x00, 0x04, 0x00, 0x00, 0x00, 0x18, 0x00, 0x00, 0x00,
  0x01, 0x00, 0x00, 0x00, 0x02, 0x00, 0x00, 0x00, 0x02, 0x00, 0x00, 0x00,
  0x00, 0x00, 0x0e, 0x00, 0x1a, 0x00, 0x14, 0x00, 0x10, 0x00, 0x0c, 0x00,
  0x0b, 0x00, 0x04, 0x00, 0x0e, 0x00, 0x00, 0x00, 0x1c, 0x00, 0x00, 0x00,
  0x00, 0x00, 0x00, 0x37, 0x1c, 0x00, 0x00, 0x00, 0x20, 0x00, 0x00, 0x00,
  0x01, 0x00, 0x00, 0x00, 0x00, 0x00, 0x06, 0x00, 0x08, 0x00, 0x07, 0x00,
  0x06, 0x00, 0x00, 0x00, 0x00, 0x00, 0x00, 0x02, 0x01, 0x00, 0x00, 0x00,
  0x18, 0x00, 0x00, 0x00, 0x01, 0x00, 0x00, 0x00, 0x17, 0x00, 0x00, 0x00,
  0x00, 0x00, 0x0a, 0x00, 0x0c, 0x00, 0x00, 0x00, 0x08, 0x00, 0x04, 0x00,
  0x0a, 0x00, 0x00, 0x00, 0x08, 0x00, 0x00, 0x00, 0x0c, 0x00, 0x00, 0x00,
  0x01, 0x00, 0x00, 0x00, 0x17, 0x00, 0x00, 0x00, 0x01, 0x00, 0x00, 0x00,
  0x00, 0x00, 0x00, 0x00, 0x01, 0x00, 0x00, 0x00, 0x2f, 0x00, 0x00, 0x00,
  0x01, 0x00, 0x00, 0x00, 0x00, 0x00, 0x00, 0x00, 0x30, 0x00, 0x00, 0x00,
  0x9c, 0x21, 0x00, 0x00, 0x44, 0x21, 0x00, 0x00, 0xec, 0x20, 0x00, 0x00,
  0xb0, 0x20, 0x00, 0x00, 0x74, 0x20, 0x00, 0x00, 0x38, 0x20, 0x00, 0x00,
  0xf8, 0x1f, 0x00, 0x00, 0xbc, 0x1f, 0x00, 0x00, 0x7c, 0x1f, 0x00, 0x00,
  0x3c, 0x1f, 0x00, 0x00, 0xfc, 0x1e, 0x00, 0x00, 0x90, 0x1e, 0x00, 0x00,
  0x28, 0x1e, 0x00, 0x00, 0x54, 0x1c, 0x00, 0x00, 0x78, 0x1a, 0x00, 0x00,
  0x14, 0x1a, 0x00, 0x00, 0xb0, 0x19, 0x00, 0x00, 0xdc, 0x17, 0x00, 0x00,
  0xf8, 0x15, 0x00, 0x00, 0x94, 0x15, 0x00, 0x00, 0x30, 0x15, 0x00, 0x00,
  0x1c, 0x14, 0x00, 0x00, 0xf8, 0x12, 0x00, 0x00, 0x80, 0x12, 0x00, 0x00,
  0x14, 0x12, 0x00, 0x00, 0xbc, 0x11, 0x00, 0x00, 0x60, 0x11, 0x00, 0x00,
  0xd0, 0x10, 0x00, 0x00, 0x28, 0x10, 0x00, 0x00, 0x1c, 0x0f, 0x00, 0x00,
  0x00, 0x0e, 0x00, 0x00, 0xac, 0x0c, 0x00, 0x00, 0x64, 0x0b, 0x00, 0x00,
  0xbc, 0x0a, 0x00, 0x00, 0x20, 0x0a, 0x00, 0x00, 0x80, 0x09, 0x00, 0x00,
  0xd8, 0x08, 0x00, 0x00, 0xcc, 0x07, 0x00, 0x00, 0xb0, 0x06, 0x00, 0x00,
  0x5c, 0x05, 0x00, 0x00, 0x14, 0x04, 0x00, 0x00, 0x6c, 0x03, 0x00, 0x00,
  0xd0, 0x02, 0x00, 0x00, 0x4c, 0x02, 0x00, 0x00, 0x88, 0x01, 0x00, 0x00,
  0xe4, 0x00, 0x00, 0x00, 0x60, 0x00, 0x00, 0x00, 0x04, 0x00, 0x00, 0x00,
  0x3a, 0xdf, 0xff, 0xff, 0x00, 0x00, 0x00, 0x01, 0x14, 0x00, 0x00, 0x00,
  0x1c, 0x00, 0x00, 0x00, 0x1c, 0x00, 0x00, 0x00, 0x30, 0x00, 0x00, 0x00,
  0x34, 0x00, 0x00, 0x00, 0x02, 0x00, 0x00, 0x00, 0xff, 0xff, 0xff, 0xff,
  0x01, 0x00, 0x00, 0x00, 0x20, 0xdf, 0xff, 0xff, 0x1b, 0x00, 0x00, 0x00,
  0x53, 0x74, 0x61, 0x74, 0x65, 0x66, 0x75, 0x6c, 0x50, 0x61, 0x72, 0x74,
  0x69, 0x74, 0x69, 0x6f, 0x6e, 0x65, 0x64, 0x43, 0x61, 0x6c, 0x6c, 0x5f,
  0x31, 0x3a, 0x30, 0x00, 0x02, 0x00, 0x00, 0x00, 0x01, 0x00, 0x00, 0x00,
  0x01, 0x00, 0x00, 0x00, 0x52, 0xee, 0xff, 0xff, 0x00, 0x00, 0x00, 0x01,
  0x18, 0x00, 0x00, 0x00, 0x20, 0x00, 0x00, 0x00, 0x40, 0x00, 0x00, 0x00,
  0x2f, 0x00, 0x00, 0x00, 0x00, 0x00, 0x00, 0x09, 0x58, 0x00, 0x00, 0x00,
  0x02, 0x00, 0x00, 0x00, 0xff, 0xff, 0xff, 0xff, 0x01, 0x00, 0x00, 0x00,
  0x6c, 0xe2, 0xff, 0xff, 0x08, 0x00, 0x00, 0x00, 0x14, 0x00, 0x00, 0x00,
  0x01, 0x00, 0x00, 0x00, 0x80, 0xff, 0xff, 0xff, 0xff, 0xff, 0xff, 0xff,
  0x00, 0x00, 0x00, 0x00, 0x01, 0x00, 0x00, 0x00, 0x00, 0x00, 0x80, 0x3b,
  0x1c, 0x00, 0x00, 0x00, 0x53, 0x74, 0x61, 0x74, 0x65, 0x66, 0x75, 0x6c,
  0x50, 0x61, 0x72, 0x74, 0x69, 0x74, 0x69, 0x6f, 0x6e, 0x65, 0x64, 0x43,
  0x61, 0x6c, 0x6c, 0x5f, 0x31, 0x3a, 0x30, 0x31, 0x00, 0x00, 0x00, 0x00,
  0x02, 0x00, 0x00, 0x00, 0x01, 0x00, 0x00, 0x00, 0x01, 0x00, 0x00, 0x00,
  0xd2, 0xee, 0xff, 0xff, 0x00, 0x00, 0x00, 0x01, 0x18, 0x00, 0x00, 0x00,
  0x20, 0x00, 0x00, 0x00, 0x40, 0x00, 0x00, 0x00, 0x2e, 0x00, 0x00, 0x00,
  0x00, 0x00, 0x00, 0x09, 0x78, 0x00, 0x00, 0x00, 0x02, 0x00, 0x00, 0x00,
  0xff, 0xff, 0xff, 0xff, 0x01, 0x00, 0x00, 0x00, 0xec, 0xe2, 0xff, 0xff,
  0x08, 0x00, 0x00, 0x00, 0x14, 0x00, 0x00, 0x00, 0x01, 0x00, 0x00, 0x00,
  0x55, 0x00, 0x00, 0x00, 0x00, 0x00, 0x00, 0x00, 0x00, 0x00, 0x00, 0x00,
  0x01, 0x00, 0x00, 0x00, 0xea, 0x33, 0x1e, 0x3e, 0x3c, 0x00, 0x00, 0x00,
  0x73, 0x65, 0x71, 0x75, 0x65, 0x6e, 0x74, 0x69, 0x61, 0x6c, 0x5f, 0x34,
  0x5f, 0x31, 0x2f, 0x64, 0x65, 0x6e, 0x73, 0x65, 0x5f, 0x39, 0x5f, 0x31,
  0x2f, 0x4d, 0x61, 0x74, 0x4d, 0x75, 0x6c, 0x3b, 0x73, 0x65, 0x71, 0x75,
  0x65, 0x6e, 0x74, 0x69, 0x61, 0x6c, 0x5f, 0x34, 0x5f, 0x31, 0x2f, 0x64,
  0x65, 0x6e, 0x73, 0x65, 0x5f, 0x39, 0x5f, 0x31, 0x2f, 0x41, 0x64, 0x64,
  0x00, 0x00, 0x00, 0x00, 0x02, 0x00, 0x00, 0x00, 0x01, 0x00, 0x00, 0x00,
  0x01, 0x00, 0x00, 0x00, 0x72, 0xef, 0xff, 0xff, 0x00, 0x00, 0x00, 0x01,
  0x18, 0x00, 0x00, 0x00, 0x20, 0x00, 0x00, 0x00, 0x40, 0x00, 0x00, 0x00,
  0x2d, 0x00, 0x00, 0x00, 0x00, 0x00, 0x00, 0x09, 0x98, 0x00, 0x00, 0x00,
  0x02, 0x00, 0x00, 0x00, 0xff, 0xff, 0xff, 0xff, 0x20, 0x00, 0x00, 0x00,
  0x8c, 0xe3, 0xff, 0xff, 0x08, 0x00, 0x00, 0x00, 0x14, 0x00, 0x00, 0x00,
  0x01, 0x00, 0x00, 0x00, 0x80, 0xff, 0xff, 0xff, 0xff, 0xff, 0xff, 0xff,
  0x00, 0x00, 0x00, 0x00, 0x01, 0x00, 0x00, 0x00, 0x43, 0x33, 0xf7, 0x3d,
  0x5e, 0x00, 0x00, 0x00, 0x73, 0x65, 0x71, 0x75, 0x65, 0x6e, 0x74, 0x69,
  0x61, 0x6c, 0x5f, 0x34, 0x5f, 0x31, 0x2f, 0x64, 0x65, 0x6e, 0x73, 0x65,
  0x5f, 0x38, 0x5f, 0x31, 0x2f, 0x4d, 0x61, 0x74, 0x4d, 0x75, 0x6c, 0x3b,
  0x73, 0x65, 0x71, 0x75, 0x65, 0x6e, 0x74, 0x69, 0x61, 0x6c, 0x5f, 0x34,
  0x5f, 0x31, 0x2f, 0x64, 0x65, 0x6e, 0x73, 0x65, 0x5f, 0x38, 0x5f, 0x31,
  0x2f, 0x52, 0x65, 0x6c, 0x75, 0x3b, 0x73, 0x65, 0x71, 0x75, 0x65, 0x6e,
  0x74, 0x69, 0x61, 0x6c, 0x5f, 0x34, 0x5f, 0x31, 0x2f, 0x64, 0x65, 0x6e,
  0x73, 0x65, 0x5f, 0x38, 0x5f, 0x31, 0x2f, 0x42, 0x69, 0x61, 0x73, 0x41,
  0x64, 0x64, 0x00, 0x00, 0x02, 0x00, 0x00, 0x00, 0x01, 0x00, 0x00, 0x00,
  0x20, 0x00, 0x00, 0x00, 0x32, 0xf0, 0xff, 0xff, 0x00, 0x00, 0x00, 0x01,
  0x18, 0x00, 0x00, 0x00, 0x20, 0x00, 0x00, 0x00, 0x3c, 0x00, 0x00, 0x00,
  0x2c, 0x00, 0x00, 0x00, 0x00, 0x00, 0x00, 0x09, 0x58, 0x00, 0x00, 0x00,
  0x02, 0x00, 0x00, 0x00, 0xff, 0xff, 0xff, 0xff, 0xa0, 0x00, 0x00, 0x00,
  0x4c, 0xe4, 0xff, 0xff, 0x08, 0x00, 0x00, 0x00, 0x10, 0x00, 0x00, 0x00,
  0x01, 0x00, 0x00, 0x00, 0x85, 0xff, 0xff, 0xff, 0xff, 0xff, 0xff, 0xff,
  0x01, 0x00, 0x00, 0x00, 0x7e, 0xa4, 0x6c, 0x3e, 0x22, 0x00, 0x00, 0x00,
  0x73, 0x65, 0x71, 0x75, 0x65, 0x6e, 0x74, 0x69, 0x61, 0x6c, 0x5f, 0x34,
  0x5f, 0x31, 0x2f, 0x66, 0x6c, 0x61, 0x74, 0x74, 0x65, 0x6e, 0x5f, 0x34,
  0x5f, 0x31, 0x2f, 0x52, 0x65, 0x73, 0x68, 0x61, 0x70, 0x65, 0x00, 0x00,
  0x02, 0x00, 0x00, 0x00, 0x01, 0x00, 0x00, 0x00, 0xa0, 0x00, 0x00, 0x00,
  0xb2, 0xf0, 0xff, 0xff, 0x00, 0x00, 0x00, 0x01, 0x18, 0x00, 0x00, 0x00,
  0x28, 0x00, 0x00, 0x00, 0x44, 0x00, 0x00, 0x00, 0x2b, 0x00, 0x00, 0x00,
  0x00, 0x00, 0x00, 0x09, 0x68, 0x00, 0x00, 0x00, 0x04, 0x00, 0x00, 0x00,
  0xff, 0xff, 0xff, 0xff, 0x01, 0x00, 0x00, 0x00, 0x05, 0x00, 0x00, 0x00,
  0x20, 0x00, 0x00, 0x00, 0xd4, 0xe4, 0xff, 0xff, 0x08, 0x00, 0x00, 0x00,
  0x10, 0x00, 0x00, 0x00, 0x01, 0x00, 0x00, 0x00, 0x85, 0xff, 0xff, 0xff,
  0xff, 0xff, 0xff, 0xff, 0x01, 0x00, 0x00, 0x00, 0x7e, 0xa4, 0x6c, 0x3e,
  0x2a, 0x00, 0x00, 0x00, 0x73, 0x65, 0x71, 0x75, 0x65, 0x6e, 0x74, 0x69,
  0x61, 0x6c, 0x5f, 0x34, 0x5f, 0x31, 0x2f, 0x6d, 0x61, 0x78, 0x5f, 0x70,
  0x6f, 0x6f, 0x6c, 0x69, 0x6e, 0x67, 0x31, 0x64, 0x5f, 0x39, 0x5f, 0x31,
  0x2f, 0x4d, 0x61, 0x78, 0x50, 0x6f, 0x6f, 0x6c, 0x31, 0x64, 0x00, 0x00,
  0x04, 0x00, 0x00, 0x00, 0x01, 0x00, 0x00, 0x00, 0x01, 0x00, 0x00, 0x00,
  0x05, 0x00, 0x00, 0x00, 0x20, 0x00, 0x00, 0x00, 0x4a, 0xf1, 0xff, 0xff,
  0x00, 0x00, 0x00, 0x01, 0x18, 0x00, 0x00, 0x00, 0x28, 0x00, 0x00, 0x00,
  0x44, 0x00, 0x00, 0x00, 0x2a, 0x00, 0x00, 0x00, 0x00, 0x00, 0x00, 0x09,
  0x74, 0x00, 0x00, 0x00, 0x04, 0x00, 0x00, 0x00, 0xff, 0xff, 0xff, 0xff,
  0x01, 0x00, 0x00, 0x00, 0x0a, 0x00, 0x00, 0x00, 0x20, 0x00, 0x00, 0x00,
  0x6c, 0xe5, 0xff, 0xff, 0x08, 0x00, 0x00, 0x00, 0x10, 0x00, 0x00, 0x00,
  0x01, 0x00, 0x00, 0x00, 0x85, 0xff, 0xff, 0xff, 0xff, 0xff, 0xff, 0xff,
  0x01, 0x00, 0x00, 0x00, 0x7e, 0xa4, 0x6c, 0x3e, 0x35, 0x00, 0x00, 0x00,
  0x73, 0x65, 0x71, 0x75, 0x65, 0x6e, 0x74, 0x69, 0x61, 0x6c, 0x5f, 0x34,
  0x5f, 0x31, 0x2f, 0x6d, 0x61, 0x78, 0x5f, 0x70, 0x6f, 0x6f, 0x6c, 0x69,
  0x6e, 0x67, 0x31, 0x64, 0x5f, 0x39, 0x5f, 0x31, 0x2f, 0x4d, 0x61, 0x78,
  0x50, 0x6f, 0x6f, 0x6c, 0x31, 0x64, 0x2f, 0x45, 0x78, 0x70, 0x61, 0x6e,
  0x64, 0x44, 0x69, 0x6d, 0x73, 0x00, 0x00, 0x00, 0x04, 0x00, 0x00, 0x00,
  0x01, 0x00, 0x00, 0x00, 0x01, 0x00, 0x00, 0x00, 0x0a, 0x00, 0x00, 0x00,
  0x20, 0x00, 0x00, 0x00, 0xee, 0xf1, 0xff, 0xff, 0x00, 0x00, 0x00, 0x01,
  0x18, 0x00, 0x00, 0x00, 0x24, 0x00, 0x00, 0x00, 0x40, 0x00, 0x00, 0x00,
  0x29, 0x00, 0x00, 0x00, 0x00, 0x00, 0x00, 0x09, 0x18, 0x01, 0x00, 0x00,
  0x03, 0x00, 0x00, 0x00, 0xff, 0xff, 0xff, 0xff, 0x0a, 0x00, 0x00, 0x00,
  0x20, 0x00, 0x00, 0x00, 0x0c, 0xe6, 0xff, 0xff, 0x08, 0x00, 0x00, 0x00,
  0x10, 0x00, 0x00, 0x00, 0x01, 0x00, 0x00, 0x00, 0x85, 0xff, 0xff, 0xff,
  0xff, 0xff, 0xff, 0xff, 0x01, 0x00, 0x00, 0x00, 0x7e, 0xa4, 0x6c, 0x3e,
  0xde, 0x00, 0x00, 0x00, 0x73, 0x65, 0x71, 0x75, 0x65, 0x6e, 0x74, 0x69,
  0x61, 0x6c, 0x5f, 0x34, 0x5f, 0x31, 0x2f, 0x62, 0x61, 0x74, 0x63, 0x68,
  0x5f, 0x6e, 0x6f, 0x72, 0x6d, 0x61, 0x6c, 0x69, 0x7a, 0x61, 0x74, 0x69,
  0x6f, 0x6e, 0x5f, 0x39, 0x5f, 0x31, 0x2f, 0x62, 0x61, 0x74, 0x63, 0x68,
  0x6e, 0x6f, 0x72, 0x6d, 0x2f, 0x61, 0x64, 0x64, 0x5f, 0x31, 0x3b, 0x73,
  0x65, 0x71, 0x75, 0x65, 0x6e, 0x74, 0x69, 0x61, 0x6c, 0x5f, 0x34, 0x5f,
  0x31, 0x2f, 0x63, 0x6f, 0x6e, 0x76, 0x31, 0x64, 0x5f, 0x39, 0x5f, 0x31,
  0x2f, 0x63, 0x6f, 0x6e, 0x76, 0x6f, 0x6c, 0x75, 0x74, 0x69, 0x6f, 0x6e,
  0x2f, 0x53, 0x71, 0x75, 0x65, 0x65, 0x7a, 0x65, 0x3b, 0x73, 0x65, 0x71,
  0x75, 0x65, 0x6e, 0x74, 0x69, 0x61, 0x6c, 0x5f, 0x34, 0x5f, 0x31, 0x2f,
  0x62, 0x61, 0x74, 0x63, 0x68, 0x5f, 0x6e, 0x6f, 0x72, 0x6d, 0x61, 0x6c,
  0x69, 0x7a, 0x61, 0x74, 0x69, 0x6f, 0x6e, 0x5f, 0x39, 0x5f, 0x31, 0x2f,
  0x62, 0x61, 0x74, 0x63, 0x68, 0x6e, 0x6f, 0x72, 0x6d, 0x2f, 0x6d, 0x75,
  0x6c, 0x5f, 0x31, 0x3b, 0x73, 0x65, 0x71, 0x75, 0x65, 0x6e, 0x74, 0x69,
  0x61, 0x6c, 0x5f, 0x34, 0x5f, 0x31, 0x2f, 0x63, 0x6f, 0x6e, 0x76, 0x31,
  0x64, 0x5f, 0x39, 0x5f, 0x31, 0x2f, 0x52, 0x65, 0x6c, 0x75, 0x3b, 0x73,
  0x65, 0x71, 0x75, 0x65, 0x6e, 0x74, 0x69, 0x61, 0x6c, 0x5f, 0x34, 0x5f,
  0x31, 0x2f, 0x63, 0x6f, 0x6e, 0x76, 0x31, 0x64, 0x5f, 0x39, 0x5f, 0x31,
  0x2f, 0x42, 0x69, 0x61, 0x73, 0x41, 0x64, 0x64, 0x3b, 0x31, 0x00, 0x00,
  0x03, 0x00, 0x00, 0x00, 0x01, 0x00, 0x00, 0x00, 0x0a, 0x00, 0x00, 0x00,
  0x20, 0x00, 0x00, 0x00, 0x32, 0xf3, 0xff, 0xff, 0x00, 0x00, 0x00, 0x01,
  0x18, 0x00, 0x00, 0x00, 0x28, 0x00, 0x00, 0x00, 0x48, 0x00, 0x00, 0x00,
  0x28, 0x00, 0x00, 0x00, 0x00, 0x00, 0x00, 0x09, 0x20, 0x01, 0x00, 0x00,
  0x04, 0x00, 0x00, 0x00, 0xff, 0xff, 0xff, 0xff, 0x01, 0x00, 0x00, 0x00,
  0x0a, 0x00, 0x00, 0x00, 0x20, 0x00, 0x00, 0x00, 0x54, 0xe7, 0xff, 0xff,
  0x08, 0x00, 0x00, 0x00, 0x14, 0x00, 0x00, 0x00, 0x01, 0x00, 0x00, 0x00,
  0x85, 0xff, 0xff, 0xff, 0xff, 0xff, 0xff, 0xff, 0x00, 0x00, 0x00, 0x00,
  0x01, 0x00, 0x00, 0x00, 0x7e, 0xa4, 0x6c, 0x3e, 0xdd, 0x00, 0x00, 0x00,
  0x73, 0x65, 0x71, 0x75, 0x65, 0x6e, 0x74, 0x69, 0x61, 0x6c, 0x5f, 0x34,
  0x5f, 0x31, 0x2f, 0x62, 0x61, 0x74, 0x63, 0x68, 0x5f, 0x6e, 0x6f, 0x72,
  0x6d, 0x61, 0x6c, 0x69, 0x7a, 0x61, 0x74, 0x69, 0x6f, 0x6e, 0x5f, 0x39,
  0x5f, 0x31, 0x2f, 0x62, 0x61, 0x74, 0x63, 0x68, 0x6e, 0x6f, 0x72, 0x6d,
  0x2f, 0x61, 0x64, 0x64, 0x5f, 0x31, 0x3b, 0x73, 0x65, 0x71, 0x75, 0x65,
  0x6e, 0x74, 0x69, 0x61, 0x6c, 0x5f, 0x34, 0x5f, 0x31, 0x2f, 0x63, 0x6f,
  0x6e, 0x76, 0x31, 0x64, 0x5f, 0x39, 0x5f, 0x31, 0x2f, 0x63, 0x6f, 0x6e,
  0x76, 0x6f, 0x6c, 0x75, 0x74, 0x69, 0x6f, 0x6e, 0x2f, 0x53, 0x71, 0x75,
  0x65, 0x65, 0x7a, 0x65, 0x3b, 0x73, 0x65, 0x71, 0x75, 0x65, 0x6e, 0x74,
  0x69, 0x61, 0x6c, 0x5f, 0x34, 0x5f, 0x31, 0x2f, 0x62, 0x61, 0x74, 0x63,
  0x68, 0x5f, 0x6e, 0x6f, 0x72, 0x6d, 0x61, 0x6c, 0x69, 0x7a, 0x61, 0x74,
  0x69, 0x6f, 0x6e, 0x5f, 0x39, 0x5f, 0x31, 0x2f, 0x62, 0x61, 0x74, 0x63,
  0x68, 0x6e, 0x6f, 0x72, 0x6d, 0x2f, 0x6d, 0x75, 0x6c, 0x5f, 0x31, 0x3b,
  0x73, 0x65, 0x71, 0x75, 0x65, 0x6e, 0x74, 0x69, 0x61, 0x6c, 0x5f, 0x34,
  0x5f, 0x31, 0x2f, 0x63, 0x6f, 0x6e, 0x76, 0x31, 0x64, 0x5f, 0x39, 0x5f,
  0x31, 0x2f, 0x52, 0x65, 0x6c, 0x75, 0x3b, 0x73, 0x65, 0x71, 0x75, 0x65,
  0x6e, 0x74, 0x69, 0x61, 0x6c, 0x5f, 0x34, 0x5f, 0x31, 0x2f, 0x63, 0x6f,
  0x6e, 0x76, 0x31, 0x64, 0x5f, 0x39, 0x5f, 0x31, 0x2f, 0x42, 0x69, 0x61,
  0x73, 0x41, 0x64, 0x64, 0x3b, 0x00, 0x00, 0x00, 0x04, 0x00, 0x00, 0x00,
  0x01, 0x00, 0x00, 0x00, 0x01, 0x00, 0x00, 0x00, 0x0a, 0x00, 0x00, 0x00,
  0x20, 0x00, 0x00, 0x00, 0x82, 0xf4, 0xff, 0xff, 0x00, 0x00, 0x00, 0x01,
  0x18, 0x00, 0x00, 0x00, 0x28, 0x00, 0x00, 0x00, 0x48, 0x00, 0x00, 0x00,
  0x27, 0x00, 0x00, 0x00, 0x00, 0x00, 0x00, 0x09, 0xe8, 0x00, 0x00, 0x00,
  0x04, 0x00, 0x00, 0x00, 0xff, 0xff, 0xff, 0xff, 0x01, 0x00, 0x00, 0x00,
  0x0a, 0x00, 0x00, 0x00, 0x20, 0x00, 0x00, 0x00, 0xa4, 0xe8, 0xff, 0xff,
  0x08, 0x00, 0x00, 0x00, 0x14, 0x00, 0x00, 0x00, 0x01, 0x00, 0x00, 0x00,
  0x85, 0xff, 0xff, 0xff, 0xff, 0xff, 0xff, 0xff, 0x00, 0x00, 0x00, 0x00,
  0x01, 0x00, 0x00, 0x00, 0xa5, 0x60, 0x6d, 0x3e, 0xa6, 0x00, 0x00, 0x00,
  0x73, 0x65, 0x71, 0x75, 0x65, 0x6e, 0x74, 0x69, 0x61, 0x6c, 0x5f, 0x34,
  0x5f, 0x31, 0x2f, 0x62, 0x61, 0x74, 0x63, 0x68, 0x5f, 0x6e, 0x6f, 0x72,
  0x6d, 0x61, 0x6c, 0x69, 0x7a, 0x61, 0x74, 0x69, 0x6f, 0x6e, 0x5f, 0x39,
  0x5f, 0x31, 0x2f, 0x62, 0x61, 0x74, 0x63, 0x68, 0x6e, 0x6f, 0x72, 0x6d,
  0x2f, 0x6d, 0x75, 0x6c, 0x5f, 0x31, 0x3b, 0x73, 0x65, 0x71, 0x75, 0x65,
  0x6e, 0x74, 0x69, 0x61, 0x6c, 0x5f, 0x34, 0x5f, 0x31, 0x2f, 0x63, 0x6f,
  0x6e, 0x76, 0x31, 0x64, 0x5f, 0x39, 0x5f, 0x31, 0x2f, 0x63, 0x6f, 0x6e,
  0x76, 0x6f, 0x6c, 0x75, 0x74, 0x69, 0x6f, 0x6e, 0x2f, 0x53, 0x71, 0x75,
  0x65, 0x65, 0x7a, 0x65, 0x3b, 0x73, 0x65, 0x71, 0x75, 0x65, 0x6e, 0x74,
  0x69, 0x61, 0x6c, 0x5f, 0x34, 0x5f, 0x31, 0x2f, 0x63, 0x6f, 0x6e, 0x76,
  0x31, 0x64, 0x5f, 0x39, 0x5f, 0x31, 0x2f, 0x52, 0x65, 0x6c, 0x75, 0x3b,
  0x73, 0x65, 0x71, 0x75, 0x65, 0x6e, 0x74, 0x69, 0x61, 0x6c, 0x5f, 0x34,
  0x5f, 0x31, 0x2f, 0x63, 0x6f, 0x6e, 0x76, 0x31, 0x64, 0x5f, 0x39, 0x5f,
  0x31, 0x2f, 0x42, 0x69, 0x61, 0x73, 0x41, 0x64, 0x64, 0x3b, 0x00, 0x00,
  0x04, 0x00, 0x00, 0x00, 0x01, 0x00, 0x00, 0x00, 0x01, 0x00, 0x00, 0x00,
  0x0a, 0x00, 0x00, 0x00, 0x20, 0x00, 0x00, 0x00, 0x9a, 0xf5, 0xff, 0xff,
  0x00, 0x00, 0x00, 0x01, 0x18, 0x00, 0x00, 0x00, 0x28, 0x00, 0x00, 0x00,
  0x48, 0x00, 0x00, 0x00, 0x26, 0x00, 0x00, 0x00, 0x00, 0x00, 0x00, 0x09,
  0xd8, 0x00, 0x00, 0x00, 0x04, 0x00, 0x00, 0x00, 0xff, 0xff, 0xff, 0xff,
  0x01, 0x00, 0x00, 0x00, 0x0a, 0x00, 0x00, 0x00, 0x20, 0x00, 0x00, 0x00,
  0xbc, 0xe9, 0xff, 0xff, 0x08, 0x00, 0x00, 0x00, 0x14, 0x00, 0x00, 0x00,
  0x01, 0x00, 0x00, 0x00, 0x80, 0xff, 0xff, 0xff, 0xff, 0xff, 0xff, 0xff,
  0x00, 0x00, 0x00, 0x00, 0x01, 0x00, 0x00, 0x00, 0x17, 0x7e, 0x68, 0x3e,
  0x95, 0x00, 0x00, 0x00, 0x73, 0x65, 0x71, 0x75, 0x65, 0x6e, 0x74, 0x69,
  0x61, 0x6c, 0x5f, 0x34, 0x5f, 0x31, 0x2f, 0x63, 0x6f, 0x6e, 0x76, 0x31,
  0x64, 0x5f, 0x39, 0x5f, 0x31, 0x2f, 0x52, 0x65, 0x6c, 0x75, 0x3b, 0x73,
  0x65, 0x71, 0x75, 0x65, 0x6e, 0x74, 0x69, 0x61, 0x6c, 0x5f, 0x34, 0x5f,
  0x31, 0x2f, 0x63, 0x6f, 0x6e, 0x76, 0x31, 0x64, 0x5f, 0x39, 0x5f, 0x31,
  0x2f, 0x42, 0x69, 0x61, 0x73, 0x41, 0x64, 0x64, 0x3b, 0x73, 0x65, 0x71,
  0x75, 0x65, 0x6e, 0x74, 0x69, 0x61, 0x6c, 0x5f, 0x34, 0x5f, 0x31, 0x2f,
  0x63, 0x6f, 0x6e, 0x76, 0x31, 0x64, 0x5f, 0x39, 0x5f, 0x31, 0x2f, 0x63,
  0x6f, 0x6e, 0x76, 0x6f, 0x6c, 0x75, 0x74, 0x69, 0x6f, 0x6e, 0x2f, 0x53,
  0x71, 0x75, 0x65, 0x65, 0x7a, 0x65, 0x3b, 0x3b, 0x73, 0x65, 0x71, 0x75,
  0x65, 0x6e, 0x74, 0x69, 0x61, 0x6c, 0x5f, 0x34, 0x5f, 0x31, 0x2f, 0x63,
  0x6f, 0x6e, 0x76, 0x31, 0x64, 0x5f, 0x39, 0x5f, 0x31, 0x2f, 0x63, 0x6f,
  0x6e, 0x76, 0x6f, 0x6c, 0x75, 0x74, 0x69, 0x6f, 0x6e, 0x00, 0x00, 0x00,
  0x04, 0x00, 0x00, 0x00, 0x01, 0x00, 0x00, 0x00, 0x01, 0x00, 0x00, 0x00,
  0x0a, 0x00, 0x00, 0x00, 0x20, 0x00, 0x00, 0x00, 0xa2, 0xf6, 0xff, 0xff,
  0x00, 0x00, 0x00, 0x01, 0x18, 0x00, 0x00, 0x00, 0x28, 0x00, 0x00, 0x00,
  0x48, 0x00, 0x00, 0x00, 0x25, 0x00, 0x00, 0x00, 0x00, 0x00, 0x00, 0x09,
  0x74, 0x00, 0x00, 0x00, 0x04, 0x00, 0x00, 0x00, 0xff, 0xff, 0xff, 0xff,
  0x01, 0x00, 0x00, 0x00, 0x0a, 0x00, 0x00, 0x00, 0x10, 0x00, 0x00, 0x00,
  0xc4, 0xea, 0xff, 0xff, 0x08, 0x00, 0x00, 0x00, 0x14, 0x00, 0x00, 0x00,
  0x01, 0x00, 0x00, 0x00, 0x95, 0xff, 0xff, 0xff, 0xff, 0xff, 0xff, 0xff,
  0x00, 0x00, 0x00, 0x00, 0x01, 0x00, 0x00, 0x00, 0x2b, 0x7f, 0x47, 0x3e,
  0x30, 0x00, 0x00, 0x00, 0x73, 0x65, 0x71, 0x75, 0x65, 0x6e, 0x74, 0x69,
  0x61, 0x6c, 0x5f, 0x34, 0x5f, 0x31, 0x2f, 0x63, 0x6f, 0x6e, 0x76, 0x31,
  0x64, 0x5f, 0x39, 0x5f, 0x31, 0x2f, 0x63, 0x6f, 0x6e, 0x76, 0x6f, 0x6c,
  0x75, 0x74, 0x69, 0x6f, 0x6e, 0x2f, 0x45, 0x78, 0x70, 0x61, 0x6e, 0x64,
  0x44, 0x69, 0x6d, 0x73, 0x00, 0x00, 0x00, 0x00, 0x04, 0x00, 0x00, 0x00,
  0x01, 0x00, 0x00, 0x00, 0x01, 0x00, 0x00, 0x00, 0x0a, 0x00, 0x00, 0x00,
  0x10, 0x00, 0x00, 0x00, 0x46, 0xf7, 0xff, 0xff, 0x00, 0x00, 0x00, 0x01,
  0x18, 0x00, 0x00, 0x00, 0x24, 0x00, 0x00, 0x00, 0x44, 0x00, 0x00, 0x00,
  0x24, 0x00, 0x00, 0x00, 0x00, 0x00, 0x00, 0x09, 0x70, 0x00, 0x00, 0x00,
  0x03, 0x00, 0x00, 0x00, 0xff, 0xff, 0xff, 0xff, 0x0a, 0x00, 0x00, 0x00,
  0x10, 0x00, 0x00, 0x00, 0x64, 0xeb, 0xff, 0xff, 0x08, 0x00, 0x00, 0x00,
  0x14, 0x00, 0x00, 0x00, 0x01, 0x00, 0x00, 0x00, 0x95, 0xff, 0xff, 0xff,
  0xff, 0xff, 0xff, 0xff, 0x00, 0x00, 0x00, 0x00, 0x01, 0x00, 0x00, 0x00,
  0x2b, 0x7f, 0x47, 0x3e, 0x32, 0x00, 0x00, 0x00, 0x73, 0x65, 0x71, 0x75,
  0x65, 0x6e, 0x74, 0x69, 0x61, 0x6c, 0x5f, 0x34, 0x5f, 0x31, 0x2f, 0x6d,
  0x61, 0x78, 0x5f, 0x70, 0x6f, 0x6f, 0x6c, 0x69, 0x6e, 0x67, 0x31, 0x64,
  0x5f, 0x38, 0x5f, 0x31, 0x2f, 0x4d, 0x61, 0x78, 0x50, 0x6f, 0x6f, 0x6c,
  0x31, 0x64, 0x2f, 0x53, 0x71, 0x75, 0x65, 0x65, 0x7a, 0x65, 0x00, 0x00,
  0x03, 0x00, 0x00, 0x00, 0x01, 0x00, 0x00, 0x00, 0x0a, 0x00, 0x00, 0x00,
  0x10, 0x00, 0x00, 0x00, 0xe2, 0xf7, 0xff, 0xff, 0x00, 0x00, 0x00, 0x01,
  0x18, 0x00, 0x00, 0x00, 0x28, 0x00, 0x00, 0x00, 0x44, 0x00, 0x00, 0x00,
  0x23, 0x00, 0x00, 0x00, 0x00, 0x00, 0x00, 0x09, 0x68, 0x00, 0x00, 0x00,
  0x04, 0x00, 0x00, 0x00, 0xff, 0xff, 0xff, 0xff, 0x01, 0x00, 0x00, 0x00,
  0x0a, 0x00, 0x00, 0x00, 0x10, 0x00, 0x00, 0x00, 0x04, 0xec, 0xff, 0xff,
  0x08, 0x00, 0x00, 0x00, 0x10, 0x00, 0x00, 0x00, 0x01, 0x00, 0x00, 0x00,
  0x95, 0xff, 0xff, 0xff, 0xff, 0xff, 0xff, 0xff, 0x01, 0x00, 0x00, 0x00,
  0x2b, 0x7f, 0x47, 0x3e, 0x2a, 0x00, 0x00, 0x00, 0x73, 0x65, 0x71, 0x75,
  0x65, 0x6e, 0x74, 0x69, 0x61, 0x6c, 0x5f, 0x34, 0x5f, 0x31, 0x2f, 0x6d,
  0x61, 0x78, 0x5f, 0x70, 0x6f, 0x6f, 0x6c, 0x69, 0x6e, 0x67, 0x31, 0x64,
  0x5f, 0x38, 0x5f, 0x31, 0x2f, 0x4d, 0x61, 0x78, 0x50, 0x6f, 0x6f, 0x6c,
  0x31, 0x64, 0x00, 0x00, 0x04, 0x00, 0x00, 0x00, 0x01, 0x00, 0x00, 0x00,
  0x01, 0x00, 0x00, 0x00, 0x0a, 0x00, 0x00, 0x00, 0x10, 0x00, 0x00, 0x00,
  0x7a, 0xf8, 0xff, 0xff, 0x00, 0x00, 0x00, 0x01, 0x18, 0x00, 0x00, 0x00,
  0x28, 0x00, 0x00, 0x00, 0x44, 0x00, 0x00, 0x00, 0x22, 0x00, 0x00, 0x00,
  0x00, 0x00, 0x00, 0x09, 0x74, 0x00, 0x00, 0x00, 0x04, 0x00, 0x00, 0x00,
  0xff, 0xff, 0xff, 0xff, 0x01, 0x00, 0x00, 0x00, 0x15, 0x00, 0x00, 0x00,
  0x10, 0x00, 0x00, 0x00, 0x9c, 0xec, 0xff, 0xff, 0x08, 0x00, 0x00, 0x00,
  0x10, 0x00, 0x00, 0x00, 0x01, 0x00, 0x00, 0x00, 0x95, 0xff, 0xff, 0xff,
  0xff, 0xff, 0xff, 0xff, 0x01, 0x00, 0x00, 0x00, 0x2b, 0x7f, 0x47, 0x3e,
  0x35, 0x00, 0x00, 0x00, 0x73, 0x65, 0x71, 0x75, 0x65, 0x6e, 0x74, 0x69,
  0x61, 0x6c, 0x5f, 0x34, 0x5f, 0x31, 0x2f, 0x6d, 0x61, 0x78, 0x5f, 0x70,
  0x6f, 0x6f, 0x6c, 0x69, 0x6e, 0x67, 0x31, 0x64, 0x5f, 0x38, 0x5f, 0x31,
  0x2f, 0x4d, 0x61, 0x78, 0x50, 0x6f, 0x6f, 0x6c, 0x31, 0x64, 0x2f, 0x45,
  0x78, 0x70, 0x61, 0x6e, 0x64, 0x44, 0x69, 0x6d, 0x73, 0x00, 0x00, 0x00,
  0x04, 0x00, 0x00, 0x00, 0x01, 0x00, 0x00, 0x00, 0x01, 0x00, 0x00, 0x00,
  0x15, 0x00, 0x00, 0x00, 0x10, 0x00, 0x00, 0x00, 0x1e, 0xf9, 0xff, 0xff,
  0x00, 0x00, 0x00, 0x01, 0x18, 0x00, 0x00, 0x00, 0x24, 0x00, 0x00, 0x00,
  0x40, 0x00, 0x00, 0x00, 0x21, 0x00, 0x00, 0x00, 0x00, 0x00, 0x00, 0x09,
  0x18, 0x01, 0x00, 0x00, 0x03, 0x00, 0x00, 0x00, 0xff, 0xff, 0xff, 0xff,
  0x15, 0x00, 0x00, 0x00, 0x10, 0x00, 0x00, 0x00, 0x3c, 0xed, 0xff, 0xff,
  0x08, 0x00, 0x00, 0x00, 0x10, 0x00, 0x00, 0x00, 0x01, 0x00, 0x00, 0x00,
  0x95, 0xff, 0xff, 0xff, 0xff, 0xff, 0xff, 0xff, 0x01, 0x00, 0x00, 0x00,
  0x2b, 0x7f, 0x47, 0x3e, 0xde, 0x00, 0x00, 0x00, 0x73, 0x65, 0x71, 0x75,
  0x65, 0x6e, 0x74, 0x69, 0x61, 0x6c, 0x5f, 0x34, 0x5f, 0x31, 0x2f, 0x62,
  0x61, 0x74, 0x63, 0x68, 0x5f, 0x6e, 0x6f, 0x72, 0x6d, 0x61, 0x6c, 0x69,
  0x7a, 0x61, 0x74, 0x69, 0x6f, 0x6e, 0x5f, 0x38, 0x5f, 0x31, 0x2f, 0x62,
  0x61, 0x74, 0x63, 0x68, 0x6e, 0x6f, 0x72, 0x6d, 0x2f, 0x61, 0x64, 0x64,
  0x5f, 0x31, 0x3b, 0x73, 0x65, 0x71, 0x75, 0x65, 0x6e, 0x74, 0x69, 0x61,
  0x6c, 0x5f, 0x34, 0x5f, 0x31, 0x2f, 0x63, 0x6f, 0x6e, 0x76, 0x31, 0x64,
  0x5f, 0x38, 0x5f, 0x31, 0x2f, 0x63, 0x6f, 0x6e, 0x76, 0x6f, 0x6c, 0x75,
  0x74, 0x69, 0x6f, 0x6e, 0x2f, 0x53, 0x71, 0x75, 0x65, 0x65, 0x7a, 0x65,
  0x3b, 0x73, 0x65, 0x71, 0x75, 0x65, 0x6e, 0x74, 0x69, 0x61, 0x6c, 0x5f,
  0x34, 0x5f, 0x31, 0x2f, 0x62, 0x61, 0x74, 0x63, 0x68, 0x5f, 0x6e, 0x6f,
  0x72, 0x6d, 0x61, 0x6c, 0x69, 0x7a, 0x61, 0x74, 0x69, 0x6f, 0x6e, 0x5f,
  0x38, 0x5f, 0x31, 0x2f, 0x62, 0x61, 0x74, 0x63, 0x68, 0x6e, 0x6f, 0x72,
  0x6d, 0x2f, 0x6d, 0x75, 0x6c, 0x5f, 0x31, 0x3b, 0x73, 0x65, 0x71, 0x75,
  0x65, 0x6e, 0x74, 0x69, 0x61, 0x6c, 0x5f, 0x34, 0x5f, 0x31, 0x2f, 0x63,
  0x6f, 0x6e, 0x76, 0x31, 0x64, 0x5f, 0x38, 0x5f, 0x31, 0x2f, 0x52, 0x65,
  0x6c, 0x75, 0x3b, 0x73, 0x65, 0x71, 0x75, 0x65, 0x6e, 0x74, 0x69, 0x61,
  0x6c, 0x5f, 0x34, 0x5f, 0x31, 0x2f, 0x63, 0x6f, 0x6e, 0x76, 0x31, 0x64,
  0x5f, 0x38, 0x5f, 0x31, 0x2f, 0x42, 0x69, 0x61, 0x73, 0x41, 0x64, 0x64,
  0x3b, 0x31, 0x00, 0x00, 0x03, 0x00, 0x00, 0x00, 0x01, 0x00, 0x00, 0x00,
  0x15, 0x00, 0x00, 0x00, 0x10, 0x00, 0x00, 0x00, 0x62, 0xfa, 0xff, 0xff,
  0x00, 0x00, 0x00, 0x01, 0x18, 0x00, 0x00, 0x00, 0x28, 0x00, 0x00, 0x00,
  0x48, 0x00, 0x00, 0x00, 0x20, 0x00, 0x00, 0x00, 0x00, 0x00, 0x00, 0x09,
  0x20, 0x01, 0x00, 0x00, 0x04, 0x00, 0x00, 0x00, 0xff, 0xff, 0xff, 0xff,
  0x01, 0x00, 0x00, 0x00, 0x15, 0x00, 0x00, 0x00, 0x10, 0x00, 0x00, 0x00,
  0x84, 0xee, 0xff, 0xff, 0x08, 0x00, 0x00, 0x00, 0x14, 0x00, 0x00, 0x00,
  0x01, 0x00, 0x00, 0x00, 0x95, 0xff, 0xff, 0xff, 0xff, 0xff, 0xff, 0xff,
  0x00, 0x00, 0x00, 0x00, 0x01, 0x00, 0x00, 0x00, 0x2b, 0x7f, 0x47, 0x3e,
  0xdd, 0x00, 0x00, 0x00, 0x73, 0x65, 0x71, 0x75, 0x65, 0x6e, 0x74, 0x69,
  0x61, 0x6c, 0x5f, 0x34, 0x5f, 0x31, 0x2f, 0x62, 0x61, 0x74, 0x63, 0x68,
  0x5f, 0x6e, 0x6f, 0x72, 0x6d, 0x61, 0x6c, 0x69, 0x7a, 0x61, 0x74, 0x69,
  0x6f, 0x6e, 0x5f, 0x38, 0x5f, 0x31, 0x2f, 0x62, 0x61, 0x74, 0x63, 0x68,
  0x6e, 0x6f, 0x72, 0x6d, 0x2f, 0x61, 0x64, 0x64, 0x5f, 0x31, 0x3b, 0x73,
  0x65, 0x71, 0x75, 0x65, 0x6e, 0x74, 0x69, 0x61, 0x6c, 0x5f, 0x34, 0x5f,
  0x31, 0x2f, 0x63, 0x6f, 0x6e, 0x76, 0x31, 0x64, 0x5f, 0x38, 0x5f, 0x31,
  0x2f, 0x63, 0x6f, 0x6e, 0x76, 0x6f, 0x6c, 0x75, 0x74, 0x69, 0x6f, 0x6e,
  0x2f, 0x53, 0x71, 0x75, 0x65, 0x65, 0x7a, 0x65, 0x3b, 0x73, 0x65, 0x71,
  0x75, 0x65, 0x6e, 0x74, 0x69, 0x61, 0x6c, 0x5f, 0x34, 0x5f, 0x31, 0x2f,
  0x62, 0x61, 0x74, 0x63, 0x68, 0x5f, 0x6e, 0x6f, 0x72, 0x6d, 0x61, 0x6c,
  0x69, 0x7a, 0x61, 0x74, 0x69, 0x6f, 0x6e, 0x5f, 0x38, 0x5f, 0x31, 0x2f,
  0x62, 0x61, 0x74, 0x63, 0x68, 0x6e, 0x6f, 0x72, 0x6d, 0x2f, 0x6d, 0x75,
  0x6c, 0x5f, 0x31, 0x3b, 0x73, 0x65, 0x71, 0x75, 0x65, 0x6e, 0x74, 0x69,
  0x61, 0x6c, 0x5f, 0x34, 0x5f, 0x31, 0x2f, 0x63, 0x6f, 0x6e, 0x76, 0x31,
  0x64, 0x5f, 0x38, 0x5f, 0x31, 0x2f, 0x52, 0x65, 0x6c, 0x75, 0x3b, 0x73,
  0x65, 0x71, 0x75, 0x65, 0x6e, 0x74, 0x69, 0x61, 0x6c, 0x5f, 0x34, 0x5f,
  0x31, 0x2f, 0x63, 0x6f, 0x6e, 0x76, 0x31, 0x64, 0x5f, 0x38, 0x5f, 0x31,
  0x2f, 0x42, 0x69, 0x61, 0x73, 0x41, 0x64, 0x64, 0x3b, 0x00, 0x00, 0x00,
  0x04, 0x00, 0x00, 0x00, 0x01, 0x00, 0x00, 0x00, 0x01, 0x00, 0x00, 0x00,
  0x15, 0x00, 0x00, 0x00, 0x10, 0x00, 0x00, 0x00, 0xb2, 0xfb, 0xff, 0xff,
  0x00, 0x00, 0x00, 0x01, 0x18, 0x00, 0x00, 0x00, 0x28, 0x00, 0x00, 0x00,
  0x48, 0x00, 0x00, 0x00, 0x1f, 0x00, 0x00, 0x00, 0x00, 0x00, 0x00, 0x09,
  0xe8, 0x00, 0x00, 0x00, 0x04, 0x00, 0x00, 0x00, 0xff, 0xff, 0xff, 0xff,
  0x01, 0x00, 0x00, 0x00, 0x15, 0x00, 0x00, 0x00, 0x10, 0x00, 0x00, 0x00,
  0xd4, 0xef, 0xff, 0xff, 0x08, 0x00, 0x00, 0x00, 0x14, 0x00, 0x00, 0x00,
  0x01, 0x00, 0x00, 0x00, 0x95, 0xff, 0xff, 0xff, 0xff, 0xff, 0xff, 0xff,
  0x00, 0x00, 0x00, 0x00, 0x01, 0x00, 0x00, 0x00, 0xbe, 0xaf, 0x47, 0x3e,
  0xa6, 0x00, 0x00, 0x00, 0x73, 0x65, 0x71, 0x75, 0x65, 0x6e, 0x74, 0x69,
  0x61, 0x6c, 0x5f, 0x34, 0x5f, 0x31, 0x2f, 0x62, 0x61, 0x74, 0x63, 0x68,
  0x5f, 0x6e, 0x6f, 0x72, 0x6d, 0x61, 0x6c, 0x69, 0x7a, 0x61, 0x74, 0x69,
  0x6f, 0x6e, 0x5f, 0x38, 0x5f, 0x31, 0x2f, 0x62, 0x61, 0x74, 0x63, 0x68,
  0x6e, 0x6f, 0x72, 0x6d, 0x2f, 0x6d, 0x75, 0x6c, 0x5f, 0x31, 0x3b, 0x73,
  0x65, 0x71, 0x75, 0x65, 0x6e, 0x74, 0x69, 0x61, 0x6c, 0x5f, 0x34, 0x5f,
  0x31, 0x2f, 0x63, 0x6f, 0x6e, 0x76, 0x31, 0x64, 0x5f, 0x38, 0x5f, 0x31,
  0x2f, 0x63, 0x6f, 0x6e, 0x76, 0x6f, 0x6c, 0x75, 0x74, 0x69, 0x6f, 0x6e,
  0x2f, 0x53, 0x71, 0x75, 0x65, 0x65, 0x7a, 0x65, 0x3b, 0x73, 0x65, 0x71,
  0x75, 0x65, 0x6e, 0x74, 0x69, 0x61, 0x6c, 0x5f, 0x34, 0x5f, 0x31, 0x2f,
  0x63, 0x6f, 0x6e, 0x76, 0x31, 0x64, 0x5f, 0x38, 0x5f, 0x31, 0x2f, 0x52,
  0x65, 0x6c, 0x75, 0x3b, 0x73, 0x65, 0x71, 0x75, 0x65, 0x6e, 0x74, 0x69,
  0x61, 0x6c, 0x5f, 0x34, 0x5f, 0x31, 0x2f, 0x63, 0x6f, 0x6e, 0x76, 0x31,
  0x64, 0x5f, 0x38, 0x5f, 0x31, 0x2f, 0x42, 0x69, 0x61, 0x73, 0x41, 0x64,
  0x64, 0x3b, 0x00, 0x00, 0x04, 0x00, 0x00, 0x00, 0x01, 0x00, 0x00, 0x00,
  0x01, 0x00, 0x00, 0x00, 0x15, 0x00, 0x00, 0x00, 0x10, 0x00, 0x00, 0x00,
  0xca, 0xfc, 0xff, 0xff, 0x00, 0x00, 0x00, 0x01, 0x18, 0x00, 0x00, 0x00,
  0x28, 0x00, 0x00, 0x00, 0x48, 0x00, 0x00, 0x00, 0x1e, 0x00, 0x00, 0x00,
  0x00, 0x00, 0x00, 0x09, 0xd8, 0x00, 0x00, 0x00, 0x04, 0x00, 0x00, 0x00,
  0xff, 0xff, 0xff, 0xff, 0x01, 0x00, 0x00, 0x00, 0x15, 0x00, 0x00, 0x00,
  0x10, 0x00, 0x00, 0x00, 0xec, 0xf0, 0xff, 0xff, 0x08, 0x00, 0x00, 0x00,
  0x14, 0x00, 0x00, 0x00, 0x01, 0x00, 0x00, 0x00, 0x80, 0xff, 0xff, 0xff,
  0xff, 0xff, 0xff, 0xff, 0x00, 0x00, 0x00, 0x00, 0x01, 0x00, 0x00, 0x00,
  0x5c, 0xaf, 0xf2, 0x3e, 0x95, 0x00, 0x00, 0x00, 0x73, 0x65, 0x71, 0x75,
  0x65, 0x6e, 0x74, 0x69, 0x61, 0x6c, 0x5f, 0x34, 0x5f, 0x31, 0x2f, 0x63,
  0x6f, 0x6e, 0x76, 0x31, 0x64, 0x5f, 0x38, 0x5f, 0x31, 0x2f, 0x52, 0x65,
  0x6c, 0x75, 0x3b, 0x73, 0x65, 0x71, 0x75, 0x65, 0x6e, 0x74, 0x69, 0x61,
  0x6c, 0x5f, 0x34, 0x5f, 0x31, 0x2f, 0x63, 0x6f, 0x6e, 0x76, 0x31, 0x64,
  0x5f, 0x38, 0x5f, 0x31, 0x2f, 0x42, 0x69, 0x61, 0x73, 0x41, 0x64, 0x64,
  0x3b, 0x73, 0x65, 0x71, 0x75, 0x65, 0x6e, 0x74, 0x69, 0x61, 0x6c, 0x5f,
  0x34, 0x5f, 0x31, 0x2f, 0x63, 0x6f, 0x6e, 0x76, 0x31, 0x64, 0x5f, 0x38,
  0x5f, 0x31, 0x2f, 0x63, 0x6f, 0x6e, 0x76, 0x6f, 0x6c, 0x75, 0x74, 0x69,
  0x6f, 0x6e, 0x2f, 0x53, 0x71, 0x75, 0x65, 0x65, 0x7a, 0x65, 0x3b, 0x3b,
  0x73, 0x65, 0x71, 0x75, 0x65, 0x6e, 0x74, 0x69, 0x61, 0x6c, 0x5f, 0x34,
  0x5f, 0x31, 0x2f, 0x63, 0x6f, 0x6e, 0x76, 0x31, 0x64, 0x5f, 0x38, 0x5f,
  0x31, 0x2f, 0x63, 0x6f, 0x6e, 0x76, 0x6f, 0x6c, 0x75, 0x74, 0x69, 0x6f,
  0x6e, 0x00, 0x00, 0x00, 0x04, 0x00, 0x00, 0x00, 0x01, 0x00, 0x00, 0x00,
  0x01, 0x00, 0x00, 0x00, 0x15, 0x00, 0x00, 0x00, 0x10, 0x00, 0x00, 0x00,
  0xd2, 0xfd, 0xff, 0xff, 0x00, 0x00, 0x00, 0x01, 0x18, 0x00, 0x00, 0x00,
  0x28, 0x00, 0x00, 0x00, 0x48, 0x00, 0x00, 0x00, 0x1d, 0x00, 0x00, 0x00,
  0x00, 0x00, 0x00, 0x09, 0x74, 0x00, 0x00, 0x00, 0x04, 0x00, 0x00, 0x00,
  0xff, 0xff, 0xff, 0xff, 0x01, 0x00, 0x00, 0x00, 0x15, 0x00, 0x00, 0x00,
  0x20, 0x00, 0x00, 0x00, 0xf4, 0xf1, 0xff, 0xff, 0x08, 0x00, 0x00, 0x00,
  0x14, 0x00, 0x00, 0x00, 0x01, 0x00, 0x00, 0x00, 0x7f, 0x00, 0x00, 0x00,
  0x00, 0x00, 0x00, 0x00, 0x00, 0x00, 0x00, 0x00, 0x01, 0x00, 0x00, 0x00,
  0xd1, 0xd0, 0x50, 0x3e, 0x30, 0x00, 0x00, 0x00, 0x73, 0x65, 0x71, 0x75,
  0x65, 0x6e, 0x74, 0x69, 0x61, 0x6c, 0x5f, 0x34, 0x5f, 0x31, 0x2f, 0x63,
  0x6f, 0x6e, 0x76, 0x31, 0x64, 0x5f, 0x38, 0x5f, 0x31, 0x2f, 0x63, 0x6f,
  0x6e, 0x76, 0x6f, 0x6c, 0x75, 0x74, 0x69, 0x6f, 0x6e, 0x2f, 0x45, 0x78,
  0x70, 0x61, 0x6e, 0x64, 0x44, 0x69, 0x6d, 0x73, 0x00, 0x00, 0x00, 0x00,
  0x04, 0x00, 0x00, 0x00, 0x01, 0x00, 0x00, 0x00, 0x01, 0x00, 0x00, 0x00,
  0x15, 0x00, 0x00, 0x00, 0x20, 0x00, 0x00, 0x00, 0x76, 0xfe, 0xff, 0xff,
  0x00, 0x00, 0x00, 0x01, 0x18, 0x00, 0x00, 0x00, 0x24, 0x00, 0x00, 0x00,
  0x44, 0x00, 0x00, 0x00, 0x1c, 0x00, 0x00, 0x00, 0x00, 0x00, 0x00, 0x09,
  0x60, 0x00, 0x00, 0x00, 0x03, 0x00, 0x00, 0x00, 0xff, 0xff, 0xff, 0xff,
  0x15, 0x00, 0x00, 0x00, 0x20, 0x00, 0x00, 0x00, 0x94, 0xf2, 0xff, 0xff,
  0x08, 0x00, 0x00, 0x00, 0x14, 0x00, 0x00, 0x00, 0x01, 0x00, 0x00, 0x00,
  0x7f, 0x00, 0x00, 0x00, 0x00, 0x00, 0x00, 0x00, 0x00, 0x00, 0x00, 0x00,
  0x01, 0x00, 0x00, 0x00, 0xd1, 0xd0, 0x50, 0x3e, 0x22, 0x00, 0x00, 0x00,
  0x73, 0x65, 0x71, 0x75, 0x65, 0x6e, 0x74, 0x69, 0x61, 0x6c, 0x5f, 0x34,
  0x5f, 0x31, 0x2f, 0x72, 0x65, 0x73, 0x68, 0x61, 0x70, 0x65, 0x5f, 0x34,
  0x5f, 0x31, 0x2f, 0x52, 0x65, 0x73, 0x68, 0x61, 0x70, 0x65, 0x00, 0x00,
  0x03, 0x00, 0x00, 0x00, 0x01, 0x00, 0x00, 0x00, 0x15, 0x00, 0x00, 0x00,
  0x20, 0x00, 0x00, 0x00, 0x96, 0xf0, 0xff, 0xff, 0x00, 0x00, 0x00, 0x01,
  0x14, 0x00, 0x00, 0x00, 0x14, 0x00, 0x00, 0x00, 0x1b, 0x00, 0x00, 0x00,
  0x00, 0x00, 0x00, 0x02, 0x38, 0x00, 0x00, 0x00, 0x1c, 0xf0, 0xff, 0xff,
  0x28, 0x00, 0x00, 0x00, 0x73, 0x65, 0x71, 0x75, 0x65, 0x6e, 0x74, 0x69,
  0x61, 0x6c, 0x5f, 0x34, 0x5f, 0x31, 0x2f, 0x72, 0x65, 0x73, 0x68, 0x61,
  0x70, 0x65, 0x5f, 0x34, 0x5f, 0x31, 0x2f, 0x52, 0x65, 0x73, 0x68, 0x61,
  0x70, 0x65, 0x2f, 0x73, 0x68, 0x61, 0x70, 0x65, 0x00, 0x00, 0x00, 0x00,
  0x01, 0x00, 0x00, 0x00, 0x03, 0x00, 0x00, 0x00, 0xee, 0xf0, 0xff, 0xff,
  0x00, 0x00, 0x00, 0x01, 0x14, 0x00, 0x00, 0x00, 0x14, 0x00, 0x00, 0x00,
  0x1a, 0x00, 0x00, 0x00, 0x00, 0x00, 0x00, 0x02, 0x38, 0x00, 0x00, 0x00,
  0x74, 0xf0, 0xff, 0xff, 0x28, 0x00, 0x00, 0x00, 0x73, 0x65, 0x71, 0x75,
  0x65, 0x6e, 0x74, 0x69, 0x61, 0x6c, 0x5f, 0x34, 0x5f, 0x31, 0x2f, 0x72,
  0x65, 0x73, 0x68, 0x61, 0x70, 0x65, 0x5f, 0x34, 0x5f, 0x31, 0x2f, 0x73,
  0x74, 0x72, 0x69, 0x64, 0x65, 0x64, 0x5f, 0x73, 0x6c, 0x69, 0x63, 0x65,
  0x00, 0x00, 0x00, 0x00, 0x00, 0x00, 0x00, 0x00, 0x42, 0xf1, 0xff, 0xff,
  0x00, 0x00, 0x00, 0x01, 0x14, 0x00, 0x00, 0x00, 0x14, 0x00, 0x00, 0x00,
  0x19, 0x00, 0x00, 0x00, 0x00, 0x00, 0x00, 0x02, 0x30, 0x00, 0x00, 0x00,
  0xc8, 0xf0, 0xff, 0xff, 0x20, 0x00, 0x00, 0x00, 0x73, 0x65, 0x71, 0x75,
  0x65, 0x6e, 0x74, 0x69, 0x61, 0x6c, 0x5f, 0x34, 0x5f, 0x31, 0x2f, 0x72,
  0x65, 0x73, 0x68, 0x61, 0x70, 0x65, 0x5f, 0x34, 0x5f, 0x31, 0x2f, 0x53,
  0x68, 0x61, 0x70, 0x65, 0x00, 0x00, 0x00, 0x00, 0x01, 0x00, 0x00, 0x00,
  0x03, 0x00, 0x00, 0x00, 0x00, 0x00, 0x16, 0x00, 0x20, 0x00, 0x1c, 0x00,
  0x1b, 0x00, 0x14, 0x00, 0x10, 0x00, 0x0c, 0x00, 0x00, 0x00, 0x00, 0x00,
  0x08, 0x00, 0x07, 0x00, 0x16, 0x00, 0x00, 0x00, 0x00, 0x00, 0x00, 0x01,
  0x18, 0x00, 0x00, 0x00, 0x24, 0x00, 0x00, 0x00, 0x40, 0x00, 0x00, 0x00,
  0x18, 0x00, 0x00, 0x00, 0x00, 0x00, 0x00, 0x09, 0x48, 0x00, 0x00, 0x00,
  0x03, 0x00, 0x00, 0x00, 0xff, 0xff, 0xff, 0xff, 0x20, 0x00, 0x00, 0x00,
  0x15, 0x00, 0x00, 0x00, 0x34, 0xf4, 0xff, 0xff, 0x08, 0x00, 0x00, 0x00,
  0x10, 0x00, 0x00, 0x00, 0x01, 0x00, 0x00, 0x00, 0x7f, 0x00, 0x00, 0x00,
  0x00, 0x00, 0x00, 0x00, 0x01, 0x00, 0x00, 0x00, 0xd1, 0xd0, 0x50, 0x3e,
  0x0c, 0x00, 0x00, 0x00, 0x74, 0x66, 0x6c, 0x2e, 0x71, 0x75, 0x61, 0x6e,
  0x74, 0x69, 0x7a, 0x65, 0x00, 0x00, 0x00, 0x00, 0x03, 0x00, 0x00, 0x00,
  0x01, 0x00, 0x00, 0x00, 0x20, 0x00, 0x00, 0x00, 0x15, 0x00, 0x00, 0x00,
  0x1e, 0xf2, 0xff, 0xff, 0x00, 0x00, 0x00, 0x01, 0x14, 0x00, 0x00, 0x00,
