unsigned char jarvis0_4_11_tflite[] = {
  0x1c, 0x00, 0x00, 0x00, 0x54, 0x46, 0x4c, 0x33, 0x14, 0x00, 0x20, 0x00,
  0x1c, 0x00, 0x18, 0x00, 0x14, 0x00, 0x10, 0x00, 0x0c, 0x00, 0x00, 0x00,
  0x08, 0x00, 0x04, 0x00, 0x14, 0x00, 0x00, 0x00, 0x1c, 0x00, 0x00, 0x00,
  0x8c, 0x00, 0x00, 0x00, 0x0c, 0x01, 0x00, 0x00, 0xf0, 0x25, 0x00, 0x00,
  0x00, 0x26, 0x00, 0x00, 0xd0, 0x4d, 0x00, 0x00, 0x03, 0x00, 0x00, 0x00,
  0x01, 0x00, 0x00, 0x00, 0x04, 0x00, 0x00, 0x00, 0x96, 0xd5, 0xff, 0xff,
  0x0c, 0x00, 0x00, 0x00, 0x1c, 0x00, 0x00, 0x00, 0x3c, 0x00, 0x00, 0x00,
  0x0f, 0x00, 0x00, 0x00, 0x73, 0x65, 0x72, 0x76, 0x69, 0x6e, 0x67, 0x5f,
  0x64, 0x65, 0x66, 0x61, 0x75, 0x6c, 0x74, 0x00, 0x01, 0x00, 0x00, 0x00,
  0x04, 0x00, 0x00, 0x00, 0x68, 0xff, 0xff, 0xff, 0x2f, 0x00, 0x00, 0x00,
  0x04, 0x00, 0x00, 0x00, 0x08, 0x00, 0x00, 0x00, 0x6f, 0x75, 0x74, 0x70,
  0x75, 0x74, 0x5f, 0x30, 0x00, 0x00, 0x00, 0x00, 0x01, 0x00, 0x00, 0x00,
  0x04, 0x00, 0x00, 0x00, 0x9e, 0xd5, 0xff, 0xff, 0x04, 0x00, 0x00, 0x00,
  0x0f, 0x00, 0x00, 0x00, 0x6b, 0x65, 0x72, 0x61, 0x73, 0x5f, 0x74, 0x65,
  0x6e, 0x73, 0x6f, 0x72, 0x5f, 0x36, 0x30, 0x00, 0x03, 0x00, 0x00, 0x00,
  0x5c, 0x00, 0x00, 0x00, 0x2c, 0x00, 0x00, 0x00, 0x04, 0x00, 0x00, 0x00,
  0xb8, 0xff, 0xff, 0xff, 0x33, 0x00, 0x00, 0x00, 0x04, 0x00, 0x00, 0x00,
  0x13, 0x00, 0x00, 0x00, 0x43, 0x4f, 0x4e, 0x56, 0x45, 0x52, 0x53, 0x49,
  0x4f, 0x4e, 0x5f, 0x4d, 0x45, 0x54, 0x41, 0x44, 0x41, 0x54, 0x41, 0x00,
  0xdc, 0xff, 0xff, 0xff, 0x32, 0x00, 0x00, 0x00, 0x04, 0x00, 0x00, 0x00,
  0x13, 0x00, 0x00, 0x00, 0x6d, 0x69, 0x6e, 0x5f, 0x72, 0x75, 0x6e, 0x74,
  0x69, 0x6d, 0x65, 0x5f, 0x76, 0x65, 0x72, 0x73, 0x69, 0x6f, 0x6e, 0x00,
  0x08, 0x00, 0x0c, 0x00, 0x08, 0x00, 0x04, 0x00, 0x08, 0x00, 0x00, 0x00,
  0x31, 0x00, 0x00, 0x00, 0x04, 0x00, 0x00, 0x00, 0x13, 0x00, 0x00, 0x00,
  0x6d, 0x69, 0x6e, 0x5f, 0x72, 0x75, 0x6e, 0x74, 0x69, 0x6d, 0x65, 0x5f,
  0x76, 0x65, 0x72, 0x73, 0x69, 0x6f, 0x6e, 0x00, 0x34, 0x00, 0x00, 0x00,
  0xe0, 0x24, 0x00, 0x00, 0xd8, 0x24, 0x00, 0x00, 0xc4, 0x24, 0x00, 0x00,
  0xb0, 0x24, 0x00, 0x00, 0x9c, 0x24, 0x00, 0x00, 0x88, 0x24, 0x00, 0x00,
  0x74, 0x24, 0x00, 0x00, 0x58, 0x24, 0x00, 0x00, 0x50, 0x24, 0x00, 0x00,
  0x34, 0x24, 0x00, 0x00, 0x18, 0x24, 0x00, 0x00, 0x00, 0x24, 0x00, 0x00,
  0xec, 0x23, 0x00, 0x00, 0xbc, 0x23, 0x00, 0x00, 0x2c, 0x23, 0x00, 0x00,
  0x1c, 0x0f, 0x00, 0x00, 0xec, 0x0e, 0x00, 0x00, 0xbc, 0x0e, 0x00, 0x00,
  0x2c, 0x0e, 0x00, 0x00, 0x1c, 0x08, 0x00, 0x00, 0xfc, 0x07, 0x00, 0x00,
  0xdc, 0x07, 0x00, 0x00, 0x8c, 0x07, 0x00, 0x00, 0x7c, 0x01, 0x00, 0x00,
  0x74, 0x01, 0x00, 0x00, 0x6c, 0x01, 0x00, 0x00, 0x64, 0x01, 0x00, 0x00,
  0x5c, 0x01, 0x00, 0x00, 0x54, 0x01, 0x00, 0x00, 0x4c, 0x01, 0x00, 0x00,
  0x44, 0x01, 0x00, 0x00, 0x3c, 0x01, 0x00, 0x00, 0x34, 0x01, 0x00, 0x00,
  0x2c, 0x01, 0x00, 0x00, 0x24, 0x01, 0x00, 0x00, 0x1c, 0x01, 0x00, 0x00,
  0x14, 0x01, 0x00, 0x00, 0x0c, 0x01, 0x00, 0x00, 0x04, 0x01, 0x00, 0x00,
  0xfc, 0x00, 0x00, 0x00, 0xf4, 0x00, 0x00, 0x00, 0xec, 0x00, 0x00, 0x00,
  0xe4, 0x00, 0x00, 0x00, 0xdc, 0x00, 0x00, 0x00, 0xd4, 0x00, 0x00, 0x00,
  0xcc, 0x00, 0x00, 0x00, 0xc4, 0x00, 0x00, 0x00, 0xbc, 0x00, 0x00, 0x00,
  0xb4, 0x00, 0x00, 0x00, 0x94, 0x00, 0x00, 0x00, 0x74, 0x00, 0x00, 0x00,
  0x04, 0x00, 0x00, 0x00, 0x12, 0xd7, 0xff, 0xff, 0x04, 0x00, 0x00, 0x00,
  0x60, 0x00, 0x00, 0x00, 0x0c, 0x00, 0x00, 0x00, 0x08, 0x00, 0x0e, 0x00,
  0x08, 0x00, 0x04, 0x00, 0x08, 0x00, 0x00, 0x00, 0x10, 0x00, 0x00, 0x00,
  0x28, 0x00, 0x00, 0x00, 0x00, 0x00, 0x06, 0x00, 0x08, 0x00, 0x04, 0x00,
  0x06, 0x00, 0x00, 0x00, 0x04, 0x00, 0x00, 0x00, 0x01, 0x00, 0x00, 0x00,
  0xeb, 0x03, 0x00, 0x00, 0x0c, 0x00, 0x18, 0x00, 0x14, 0x00, 0x10, 0x00,
  0x0c, 0x00, 0x04, 0x00, 0x0c, 0x00, 0x00, 0x00, 0xe7, 0xb1, 0xba, 0xd5,
  0xa0, 0x11, 0xa2, 0x37, 0x02, 0x00, 0x00, 0x00, 0x02, 0x00, 0x00, 0x00,
  0x04, 0x00, 0x00, 0x00, 0x06, 0x00, 0x00, 0x00, 0x32, 0x2e, 0x31, 0x38,
  0x2e, 0x30, 0x00, 0x00, 0x7e, 0xd7, 0xff, 0xff, 0x04, 0x00, 0x00, 0x00,
  0x10, 0x00, 0x00, 0x00, 0x00, 0x00, 0x00, 0x00, 0x00, 0x00, 0x00, 0x00,
  0x00, 0x00, 0x00, 0x00, 0x00, 0x00, 0x00, 0x00, 0x9a, 0xd7, 0xff, 0xff,
  0x04, 0x00, 0x00, 0x00, 0x10, 0x00, 0x00, 0x00, 0x31, 0x2e, 0x31, 0x35,
  0x2e, 0x30, 0x00, 0x00, 0x00, 0x00, 0x00, 0x00, 0x00, 0x00, 0x00, 0x00,
  0xe8, 0xb4, 0xff, 0xff, 0xec, 0xb4, 0xff, 0xff, 0xf0, 0xb4, 0xff, 0xff,
  0xf4, 0xb4, 0xff, 0xff, 0xf8, 0xb4, 0xff, 0xff, 0xfc, 0xb4, 0xff, 0xff,
  0x00, 0xb5, 0xff, 0xff, 0x04, 0xb5, 0xff, 0xff, 0x08, 0xb5, 0xff, 0xff,
  0x0c, 0xb5, 0xff, 0xff, 0x10, 0xb5, 0xff, 0xff, 0x14, 0xb5, 0xff, 0xff,
  0x18, 0xb5, 0xff, 0xff, 0x1c, 0xb5, 0xff, 0xff, 0x20, 0xb5, 0xff, 0xff,
  0x24, 0xb5, 0xff, 0xff, 0x28, 0xb5, 0xff, 0xff, 0x2c, 0xb5, 0xff, 0xff,
  0x30, 0xb5, 0xff, 0xff, 0x34, 0xb5, 0xff, 0xff, 0x38, 0xb5, 0xff, 0xff,
  0x3c, 0xb5, 0xff, 0xff, 0x40, 0xb5, 0xff, 0xff, 0x44, 0xb5, 0xff, 0xff,
  0x48, 0xb5, 0xff, 0xff, 0x1a, 0xd8, 0xff, 0xff, 0x04, 0x00, 0x00, 0x00,
  0x00, 0x06, 0x00, 0x00, 0xe7, 0xf4, 0x0f, 0x45, 0x92, 0x85, 0xe1, 0xc9,
  0xde, 0xa0, 0xd3, 0x1f, 0xc2, 0x48, 0x3f, 0x92, 0xfe, 0xf6, 0x36, 0x20,
  0xf9, 0xe2, 0xb1, 0x97, 0xee, 0xc7, 0x21, 0xfe, 0x35, 0x13, 0xb1, 0xd5,
  0x59, 0xf8, 0x3a, 0x29, 0xa2, 0xd5, 0x2c, 0xef, 0x38, 0x55, 0xa1, 0x0e,
  0x59, 0x22, 0xad, 0x3f, 0xc8, 0xae, 0x4c, 0xf6, 0x04, 0x1d, 0x40, 0x05,
  0xd2, 0x33, 0xc5, 0xbc, 0x02, 0xc7, 0xed, 0xd2, 0x59, 0xe9, 0x35, 0x8e,
  0xee, 0xbd, 0xac, 0x0b, 0x81, 0xcb, 0xf9, 0x06, 0xe5, 0xbc, 0x30, 0x00,
  0x0e, 0x67, 0xdf, 0x42, 0x40, 0xd6, 0x03, 0xc8, 0x4b, 0x3e, 0x02, 0xf3,
  0x93, 0xc7, 0x2e, 0x30, 0x66, 0x6b, 0xaf, 0x72, 0x60, 0x40, 0x2c, 0xd8,
  0xaa, 0x48, 0xb7, 0x44, 0x3e, 0x14, 0x66, 0x64, 0x75, 0xb2, 0x3d, 0xe8,
  0xda, 0xeb, 0xc0, 0xe3, 0x57, 0xdd, 0x1f, 0x85, 0x82, 0x0a, 0x89, 0xab,
  0x5a, 0xe6, 0xff, 0x5a, 0xdb, 0xde, 0xf2, 0x49, 0x97, 0x16, 0xa2, 0x54,
  0x61, 0x9d, 0x60, 0xe2, 0xe0, 0x1f, 0xbf, 0xfb, 0x86, 0x4b, 0xda, 0x56,
  0x09, 0xc1, 0xa1, 0xe7, 0xd9, 0xc2, 0x0c, 0xc3, 0xcc, 0x63, 0x8b, 0x2e,
  0xe5, 0xc2, 0x40, 0xeb, 0x3a, 0x94, 0xb1, 0x31, 0x4d, 0xc4, 0x14, 0xf6,
  0xed, 0xc9, 0xf5, 0x36, 0xd3, 0xb6, 0x50, 0xb2, 0x64, 0xe2, 0xb2, 0x34,
  0x81, 0x2e, 0x5c, 0xcf, 0x79, 0xaa, 0x11, 0xc8, 0xd4, 0x53, 0x32, 0x34,
  0x41, 0x97, 0x5f, 0x3e, 0xa8, 0x7f, 0x9e, 0xec, 0x69, 0xfc, 0xaa, 0x36,
  0x03, 0xb8, 0x28, 0xb9, 0x2c, 0x64, 0xb8, 0x37, 0x7c, 0x9e, 0xb9, 0x52,
  0xa0, 0x0f, 0x03, 0x4e, 0x2b, 0xff, 0xc8, 0x19, 0x04, 0x55, 0x4d, 0x9a,
  0x14, 0xcb, 0xa5, 0x1b, 0x57, 0x13, 0x05, 0x0a, 0x1b, 0x4f, 0x68, 0x33,
  0x97, 0x3a, 0xdc, 0xc3, 0xe4, 0xaa, 0xd2, 0x12, 0x8a, 0x77, 0x27, 0xc6,
  0x56, 0x4d, 0x90, 0x40, 0x1a, 0x1e, 0xfe, 0xdc, 0x0c, 0x6b, 0x70, 0x2a,
  0x13, 0xd7, 0x21, 0x10, 0x5d, 0x5e, 0xac, 0xdb, 0x56, 0x5a, 0xd8, 0x8c,
  0xf8, 0x5f, 0x69, 0xd3, 0x36, 0x03, 0x25, 0xc5, 0xc9, 0xb9, 0xc7, 0xb0,
  0x08, 0x34, 0xff, 0x36, 0x35, 0xf3, 0xdc, 0xa6, 0xb2, 0xd1, 0xad, 0xb1,
  0xa9, 0xd7, 0x3e, 0x09, 0xc2, 0xc8, 0x4f, 0xb4, 0x41, 0x3a, 0xcc, 0x3a,
  0xda, 0xbc, 0x55, 0x47, 0xe9, 0x08, 0xa7, 0xf9, 0xb6, 0x1d, 0x81, 0xd4,
  0xac, 0x3b, 0x6e, 0xc7, 0x0c, 0x44, 0x57, 0xbd, 0xc3, 0xd1, 0x05, 0x12,
  0xbd, 0x8e, 0xcc, 0x0e, 0x30, 0x3a, 0x8c, 0xf7, 0xdd, 0xd8, 0xf5, 0xe5,
  0x2a, 0xc1, 0x40, 0x0c, 0x0a, 0xdb, 0xff, 0xbe, 0xcd, 0x3e, 0xcc, 0x27,
  0x1b, 0x9c, 0x08, 0xf9, 0x05, 0xae, 0x38, 0xd9, 0x15, 0x02, 0xa8, 0x95,
  0xb2, 0x42, 0x19, 0x6a, 0x52, 0x34, 0x0a, 0xcf, 0x0d, 0xf0, 0xe7, 0x67,
  0xd1, 0xdf, 0xf4, 0x4b, 0xb8, 0x6c, 0xb0, 0x3f, 0xb2, 0x70, 0xa6, 0xcc,
  0x4b, 0x26, 0xea, 0x17, 0xf1, 0xd0, 0x2b, 0x23, 0x0c, 0xc7, 0xd5, 0xa1,
  0xb4, 0x05, 0x7d, 0xb2, 0xe6, 0x7b, 0xf0, 0x5b, 0x6c, 0xdc, 0x58, 0x9e,
  0xd8, 0x62, 0x0b, 0xb4, 0x9f, 0x15, 0x4b, 0xa7, 0x1a, 0x4f, 0x5a, 0x7f,
  0x05, 0xfd, 0xc9, 0x09, 0x5c, 0xf6, 0x77, 0xdb, 0x67, 0xd1, 0x74, 0xe7,
  0x00, 0x79, 0x68, 0x2b, 0x2f, 0xa7, 0x32, 0xcf, 0x2b, 0xf4, 0x0d, 0x5c,
  0xdd, 0xe4, 0xf1, 0xd1, 0xcf, 0x9d, 0xc5, 0xd4, 0x37, 0x5e, 0x03, 0xc8,
  0x1a, 0xea, 0x48, 0x20, 0x6b, 0xe7, 0x00, 0xcb, 0x17, 0xa9, 0x64, 0x4d,
  0x3a, 0xfc, 0xf9, 0xad, 0x60, 0x6f, 0xc0, 0x68, 0x61, 0x22, 0x48, 0x34,
  0x32, 0x67, 0x41, 0x4b, 0xb8, 0x14, 0x0d, 0x54, 0x1b, 0x37, 0x6f, 0x5c,
  0x91, 0x8a, 0x4f, 0x6a, 0x98, 0x06, 0xbb, 0x9f, 0x57, 0x81, 0xe1, 0xd1,
  0xeb, 0x0b, 0xdd, 0x8f, 0xea, 0x92, 0xbb, 0xdc, 0x05, 0xb6, 0x34, 0xa8,
  0x45, 0x17, 0xbd, 0x08, 0x7d, 0xea, 0x13, 0x0d, 0x4b, 0xb5, 0xae, 0x3c,
  0x86, 0xff, 0x14, 0xc3, 0x2f, 0x41, 0x56, 0xf0, 0xca, 0xd9, 0x45, 0xb1,
  0xdb, 0x5a, 0x4b, 0x95, 0xd6, 0x46, 0x02, 0xfb, 0x72, 0x01, 0xe5, 0x29,
  0xf0, 0xa3, 0x4b, 0x51, 0x4c, 0x9f, 0xb9, 0x2a, 0x49, 0x59, 0x3f, 0xab,
  0xd3, 0xba, 0x0f, 0xed, 0xe9, 0x07, 0xe8, 0xaf, 0x19, 0x81, 0x28, 0xa0,
  0x81, 0xef, 0x9a, 0x34, 0x1f, 0x27, 0x15, 0xb8, 0xdf, 0x25, 0x35, 0xee,
  0xef, 0xe3, 0x08, 0x3a, 0xbf, 0xa5, 0xd4, 0xd7, 0x22, 0xa3, 0xdb, 0x4c,
  0xd2, 0x59, 0x1d, 0x79, 0x4f, 0xd7, 0x27, 0xc4, 0x08, 0x4a, 0x47, 0x45,
  0x1e, 0xe9, 0xa1, 0x2e, 0xd6, 0xd7, 0x1a, 0xfa, 0xe5, 0xda, 0xfe, 0xdf,
  0xe1, 0xb7, 0x48, 0x31, 0xd3, 0x2e, 0xd2, 0xca, 0xce, 0x48, 0x9f, 0x11,
  0xc5, 0x31, 0x68, 0xa8, 0x1d, 0x42, 0x1a, 0x13, 0xb7, 0x50, 0x06, 0xca,
  0x6d, 0xab, 0xbc, 0xc7, 0x63, 0x70, 0x0d, 0xfc, 0x60, 0x35, 0xed, 0xf5,
  0x4a, 0xf7, 0xdc, 0xfe, 0x0c, 0x73, 0xe2, 0x63, 0xa3, 0x57, 0x2f, 0xa1,
  0x2c, 0xd3, 0xa3, 0x03, 0xc7, 0x66, 0x04, 0x8a, 0xdc, 0x30, 0x44, 0x9d,
  0x0e, 0xe8, 0x28, 0x27, 0x25, 0x31, 0x55, 0xdb, 0x13, 0xe7, 0xad, 0x20,
  0x23, 0x0e, 0xe2, 0x3a, 0x0e, 0xac, 0xe1, 0x17, 0x81, 0x48, 0x4d, 0xa3,
  0xb3, 0x90, 0xe7, 0x39, 0x28, 0xc9, 0xaa, 0x50, 0xe9, 0x59, 0xc4, 0xdd,
  0xf3, 0xbc, 0xfe, 0xff, 0xc8, 0x60, 0x00, 0xbc, 0xec, 0xe1, 0x26, 0x8b,
  0x01, 0xfe, 0xd8, 0xa7, 0xaf, 0x89, 0x93, 0x67, 0xf9, 0xb8, 0x58, 0xa8,
  0x54, 0xe4, 0x98, 0xd8, 0x68, 0xb2, 0x95, 0xf1, 0x4c, 0x3e, 0xa9, 0x2b,
  0x9b, 0x9e, 0x34, 0xdf, 0x5b, 0x03, 0xbf, 0x5c, 0x14, 0x66, 0xb8, 0x9b,
  0x14, 0xdc, 0x40, 0x65, 0x58, 0xa9, 0x3a, 0xc0, 0xf1, 0xc4, 0x75, 0x6f,
  0x39, 0xe6, 0x15, 0x7f, 0xc0, 0x5b, 0x01, 0x42, 0x22, 0x8c, 0xcf, 0x21,
  0xc6, 0xca, 0x27, 0x92, 0x5c, 0x3f, 0x58, 0x76, 0x1a, 0xaf, 0x97, 0x02,
  0x90, 0xd3, 0xac, 0x5a, 0xd7, 0x5c, 0x61, 0x26, 0x1f, 0x76, 0x50, 0x26,
  0xfb, 0xc2, 0xf1, 0x50, 0xc4, 0xb7, 0x6c, 0x48, 0x99, 0x5b, 0x50, 0x96,
  0x6a, 0x77, 0x6c, 0x28, 0xeb, 0xd0, 0x76, 0x33, 0x32, 0xe1, 0xd1, 0x46,
  0xab, 0xcb, 0x35, 0x45, 0x7f, 0xbf, 0xb9, 0xcd, 0x4d, 0x19, 0x5d, 0x78,
  0x55, 0xba, 0x69, 0x13, 0x2f, 0x60, 0x53, 0xf9, 0xf1, 0x07, 0x44, 0xc3,
  0x66, 0x46, 0xe5, 0x24, 0xee, 0x77, 0x63, 0xff, 0x31, 0x1e, 0x11, 0xc9,
  0x91, 0xc7, 0xc9, 0x32, 0x61, 0xeb, 0xd2, 0xc0, 0x3a, 0x4b, 0xfb, 0x87,
  0xda, 0x4f, 0x19, 0xab, 0xb9, 0x22, 0xfc, 0xff, 0x1b, 0x25, 0x65, 0xa8,
  0x0c, 0x53, 0xd0, 0x18, 0x30, 0x4b, 0x4b, 0x60, 0xc1, 0x99, 0x5d, 0x73,
  0x22, 0x2c, 0x54, 0xb9, 0x6a, 0xb1, 0xbc, 0x01, 0x87, 0x28, 0x3e, 0xcc,
  0x11, 0xeb, 0xb5, 0xa5, 0xbd, 0x2e, 0x27, 0xd3, 0xf9, 0xc8, 0xc8, 0x88,
  0x13, 0xd6, 0x27, 0x9d, 0xf2, 0xfc, 0xde, 0x9d, 0xd8, 0x01, 0x6c, 0x43,
  0x62, 0xcd, 0x37, 0xb1, 0xbe, 0x22, 0x38, 0x19, 0x4c, 0x2f, 0x49, 0xb8,
  0xbd, 0x19, 0x50, 0x2c, 0xaf, 0xc7, 0x01, 0xf7, 0xa3, 0xa6, 0x28, 0xaa,
  0x2e, 0xd2, 0x05, 0x13, 0x21, 0x89, 0xa6, 0x02, 0xb7, 0x9a, 0xf1, 0x46,
  0x0d, 0xed, 0xfb, 0x08, 0x23, 0x3b, 0x2d, 0xf0, 0x81, 0x35, 0xb8, 0xcc,
  0xe3, 0xf2, 0xec, 0xc4, 0xe3, 0xeb, 0x3c, 0x1d, 0xf6, 0xf7, 0x15, 0xf5,
  0x39, 0x52, 0xd2, 0xa8, 0x1f, 0xa8, 0x92, 0x4f, 0xe6, 0x69, 0xf9, 0xa9,
  0x93, 0x1b, 0x61, 0x2b, 0x76, 0x03, 0xe5, 0x9e, 0xcd, 0x4e, 0x95, 0x2d,
  0xe0, 0x42, 0xf9, 0x36, 0xae, 0x2a, 0x41, 0xfe, 0xd2, 0x1b, 0xd2, 0x0c,
  0x21, 0x01, 0x0c, 0xe6, 0xe7, 0xa5, 0xf1, 0xfc, 0x48, 0xaf, 0xd6, 0xdf,
  0x9c, 0x5b, 0xfc, 0x6a, 0x01, 0x1f, 0xad, 0x06, 0xa0, 0x50, 0x0e, 0xd6,
  0xb2, 0x9d, 0xff, 0xd8, 0x1d, 0xa7, 0x50, 0x41, 0xae, 0xf9, 0x78, 0x0f,
  0x13, 0x15, 0xc5, 0x22, 0x70, 0x15, 0xca, 0xab, 0xe8, 0x9c, 0x97, 0xe1,
  0xb8, 0x21, 0xff, 0xe8, 0xc3, 0x47, 0x40, 0x1b, 0x16, 0xb7, 0x0f, 0x70,
  0xbb, 0x7f, 0xcf, 0x2a, 0x58, 0x63, 0xb5, 0x0b, 0x1a, 0xed, 0x22, 0xee,
  0x54, 0xf2, 0x33, 0x68, 0xce, 0x2c, 0xf2, 0xee, 0x4d, 0xd6, 0xdf, 0xa5,
  0x65, 0x07, 0xe3, 0xa3, 0x2c, 0x7a, 0x1a, 0x1f, 0xcb, 0x15, 0xf6, 0x9e,
  0xfe, 0xa0, 0xdf, 0x45, 0x87, 0xf4, 0xd0, 0xa7, 0x2a, 0x23, 0xd6, 0xf5,
  0x53, 0xcf, 0xca, 0x07, 0x1a, 0x2b, 0x44, 0xce, 0x1c, 0xbe, 0xfd, 0xe9,
  0x81, 0x28, 0x91, 0x54, 0x26, 0xf9, 0x50, 0x96, 0x2c, 0xc6, 0xd3, 0x35,
  0x13, 0x67, 0x23, 0x46, 0x3a, 0x49, 0x89, 0x9d, 0xdb, 0xb1, 0x0d, 0xea,
  0x23, 0x32, 0xbe, 0xc6, 0x1e, 0x90, 0xf5, 0x9f, 0x78, 0xf8, 0x77, 0xb6,
  0x45, 0x01, 0xe4, 0xc2, 0x5a, 0x55, 0xa3, 0xcf, 0x0f, 0xdf, 0x5d, 0xb1,
  0xaf, 0x3b, 0xe7, 0xa4, 0x2e, 0xe6, 0x76, 0x46, 0x36, 0xee, 0x1e, 0x9f,
  0x29, 0xba, 0x00, 0x22, 0x3d, 0xd2, 0xec, 0x14, 0xaa, 0x47, 0x5f, 0x96,
  0x3d, 0xd1, 0xa5, 0xcc, 0x60, 0x15, 0x37, 0x9f, 0xe8, 0xc8, 0x59, 0x05,
  0xc1, 0xe5, 0xcb, 0x13, 0xc4, 0xa9, 0x57, 0x17, 0xdc, 0x39, 0xf8, 0x63,
  0x12, 0x5d, 0xb3, 0x1b, 0xed, 0xb8, 0x44, 0x04, 0x98, 0x5e, 0x27, 0x1a,
  0xc6, 0xd6, 0x88, 0x47, 0x92, 0xde, 0x51, 0x52, 0x5f, 0x0b, 0xce, 0xe5,
  0xcf, 0xb9, 0x0b, 0x90, 0xac, 0x23, 0xac, 0x30, 0xce, 0xe5, 0x3f, 0x81,
  0x6e, 0xd2, 0x25, 0x03, 0x70, 0xb0, 0x05, 0x48, 0xd0, 0x0f, 0xdd, 0xe7,
  0x29, 0x23, 0xec, 0xfe, 0xc1, 0xf2, 0x69, 0x5e, 0xee, 0xd0, 0x03, 0xb9,
  0x42, 0xf3, 0x50, 0x18, 0x37, 0x58, 0x4a, 0x0c, 0x79, 0x5b, 0x8c, 0x37,
  0xd2, 0x27, 0xd6, 0x13, 0x64, 0xe9, 0x2e, 0xac, 0xb1, 0xaa, 0xa4, 0x81,
  0x83, 0x14, 0x36, 0x44, 0x2d, 0x96, 0xa9, 0x0c, 0xa8, 0xbe, 0xe5, 0x5f,
  0x71, 0x35, 0x5d, 0xab, 0x17, 0xad, 0x9c, 0x8c, 0xe1, 0x88, 0x32, 0xad,
  0x75, 0x4b, 0x0a, 0x63, 0x06, 0x4e, 0xb9, 0x26, 0x78, 0x6b, 0xb3, 0xb4,
  0xcf, 0xd9, 0xe1, 0xc9, 0xd1, 0x4f, 0xbe, 0x3e, 0xa3, 0x06, 0x60, 0xad,
  0xd2, 0x6d, 0x66, 0x09, 0x45, 0xf0, 0xb3, 0x66, 0x03, 0xa1, 0x29, 0x3a,
  0xa3, 0xc2, 0x90, 0x1a, 0xc4, 0xaf, 0xe0, 0xae, 0x34, 0xf9, 0xaa, 0x65,
  0x59, 0x12, 0xd8, 0xf5, 0xb2, 0x14, 0xe3, 0xb0, 0x55, 0xd6, 0x20, 0x58,
  0x26, 0x6a, 0x41, 0x36, 0xb0, 0x4f, 0x41, 0xe5, 0x0b, 0xca, 0x13, 0xf9,
  0x31, 0x27, 0xd8, 0x24, 0x43, 0x0b, 0x12, 0x25, 0x4c, 0x10, 0x41, 0x0e,
  0xc7, 0xb5, 0xd7, 0xe6, 0xb9, 0xbe, 0xa6, 0xda, 0xd0, 0xd6, 0xed, 0x2a,
  0xba, 0xdb, 0x15, 0x1a, 0x8f, 0x0b, 0xa7, 0xd0, 0x1c, 0x74, 0x36, 0xda,
  0xc4, 0xb6, 0x3e, 0xb4, 0xba, 0x3d, 0x0e, 0xf7, 0xdb, 0xff, 0xa4, 0xd6,
  0xcb, 0xb0, 0x05, 0x0a, 0xe2, 0xb6, 0x35, 0xa6, 0xdb, 0x0b, 0x2d, 0xcb,
  0x12, 0x2a, 0xd6, 0x7f, 0x54, 0xf7, 0x3f, 0xcb, 0xe1, 0xda, 0x0c, 0x1a,
  0x04, 0x86, 0x98, 0x0e, 0x26, 0xde, 0xff, 0xff, 0x04, 0x00, 0x00, 0x00,
  0x40, 0x00, 0x00, 0x00, 0x06, 0x00, 0x00, 0x00, 0x31, 0x00, 0x00, 0x00,
  0xb5, 0xff, 0xff, 0xff, 0x0d, 0x00, 0x00, 0x00, 0xc8, 0xff, 0xff, 0xff,
  0xfc, 0xff, 0xff, 0xff, 0x08, 0x00, 0x00, 0x00, 0x31, 0x00, 0x00, 0x00,
  0xdb, 0xff, 0xff, 0xff, 0x13, 0x00, 0x00, 0x00, 0x26, 0x00, 0x00, 0x00,
  0x40, 0x00, 0x00, 0x00, 0x51, 0x00, 0x00, 0x00, 0x7f, 0x00, 0x00, 0x00,
  0x7e, 0xff, 0xff, 0xff, 0x1f, 0x00, 0x00, 0x00, 0x72, 0xde, 0xff, 0xff,
  0x04, 0x00, 0x00, 0x00, 0x10, 0x00, 0x00, 0x00, 0x80, 0x81, 0x7d, 0x80,
  0x7c, 0x81, 0x80, 0x81, 0x7f, 0x82, 0x81, 0x81, 0x80, 0x81, 0x80, 0x80,
  0x8e, 0xde, 0xff, 0xff, 0x04, 0x00, 0x00, 0x00, 0x10, 0x00, 0x00, 0x00,
  0x8a, 0xea, 0x75, 0x80, 0x7b, 0x66, 0xc7, 0x9b, 0x7f, 0x6e, 0x9d, 0x1c,
  0xfa, 0xeb, 0x02, 0xa2, 0xaa, 0xde, 0xff, 0xff, 0x04, 0x00, 0x00, 0x00,
  0x00, 0x06, 0x00, 0x00, 0x21, 0x0b, 0x99, 0xce, 0x6b, 0xb5, 0x0f, 0x61,
  0xcd, 0x16, 0xb1, 0xe5, 0xba, 0xe9, 0x75, 0x6d, 0xb5, 0xc7, 0x1c, 0x06,
  0xa4, 0xc1, 0x22, 0x19, 0xc8, 0xaa, 0xad, 0x5e, 0xfc, 0x21, 0xd2, 0x1c,
  0xfc, 0x4b, 0x18, 0x38, 0x52, 0xe5, 0xf9, 0x9c, 0x7f, 0x0b, 0xa9, 0xe6,
  0xc3, 0xf5, 0x2b, 0x83, 0x3e, 0xfb, 0xc3, 0xe4, 0x16, 0x47, 0xc8, 0x37,
  0xde, 0xb9, 0xef, 0xa0, 0x3e, 0x54, 0xb6, 0xb2, 0x78, 0x00, 0xcf, 0xd3,
  0x2a, 0xcf, 0xce, 0x97, 0x6f, 0x7f, 0x03, 0x0e, 0xf5, 0xac, 0x23, 0xfb,
  0xae, 0xad, 0xf9, 0xbe, 0xa2, 0xa6, 0xe4, 0x1a, 0x74, 0x12, 0x46, 0xfe,
  0x6a, 0x44, 0x6d, 0x93, 0x45, 0x10, 0xfd, 0x0c, 0xcd, 0xad, 0x33, 0xe7,
  0x43, 0x99, 0x46, 0xaf, 0x0c, 0x91, 0xbf, 0xbb, 0xcf, 0x2d, 0xba, 0xd6,
  0xe7, 0x2c, 0x3f, 0xb5, 0x25, 0x1a, 0xe7, 0x28, 0x7f, 0xd9, 0x33, 0x2c,
  0xbf, 0x0c, 0xd2, 0xf4, 0x27, 0x3e, 0x05, 0x27, 0xff, 0x4d, 0xb5, 0xb9,
  0xf6, 0xe1, 0xc6, 0xd2, 0xfb, 0x05, 0xd6, 0x56, 0x09, 0x27, 0x47, 0xbb,
  0x18, 0x21, 0xcc, 0xf1, 0xec, 0xdd, 0x55, 0x0c, 0x29, 0x3d, 0xca, 0x00,
  0x4b, 0x0a, 0x29, 0x0e, 0x2d, 0x52, 0x28, 0xf9, 0x43, 0x4d, 0x17, 0x0d,
  0xf1, 0xdc, 0xd9, 0xa9, 0x1b, 0x14, 0xc3, 0x31, 0x2a, 0xed, 0x09, 0x81,
  0xe9, 0x8e, 0xd0, 0xaf, 0x28, 0xb6, 0x01, 0xe9, 0x52, 0x8d, 0x43, 0x2d,
  0xf5, 0xdb, 0xb6, 0xc1, 0xc7, 0x29, 0x25, 0xee, 0xd2, 0x15, 0xca, 0xe2,
  0xca, 0xcf, 0xa9, 0xac, 0xfe, 0x37, 0x12, 0x7f, 0xa7, 0x0b, 0x51, 0x6a,
  0xf6, 0xff, 0x22, 0xdf, 0x04, 0x70, 0xe7, 0x95, 0xaa, 0xe4, 0x34, 0x7d,
  0x2b, 0xdb, 0x61, 0xb5, 0x3f, 0xa6, 0xd9, 0x40, 0x2c, 0xe6, 0xeb, 0x09,
  0x70, 0xdd, 0x1f, 0x8c, 0x5f, 0x9f, 0xf0, 0xdd, 0x7f, 0x25, 0xf4, 0x18,
  0xeb, 0x35, 0xec, 0x90, 0x8b, 0x40, 0x24, 0xf7, 0xc9, 0xe2, 0xd1, 0xb8,
  0x76, 0x07, 0xc0, 0xe4, 0x94, 0xa2, 0x22, 0xfe, 0x19, 0xcd, 0x37, 0xe5,
  0x46, 0x56, 0x5a, 0xc6, 0x32, 0xe8, 0x28, 0xf1, 0x42, 0xa6, 0xdc, 0xde,
  0xd1, 0x2e, 0xa5, 0x0d, 0xa4, 0x1d, 0x04, 0xfe, 0xf4, 0x70, 0xd2, 0x0e,
  0xc7, 0xaa, 0x04, 0xd9, 0xc8, 0x77, 0xe9, 0x90, 0xae, 0x8b, 0xba, 0xdd,
  0x81, 0x07, 0xe0, 0xe0, 0xa6, 0x2e, 0xf6, 0xf5, 0xdc, 0xc7, 0x04, 0xac,
  0xd9, 0xbc, 0xfe, 0x2e, 0x26, 0x3a, 0x13, 0xcc, 0x2b, 0x24, 0xc3, 0x2a,
  0x07, 0xf9, 0xb8, 0xa2, 0x08, 0x07, 0x81, 0xfa, 0xe8, 0xc5, 0xaa, 0x3e,
  0x29, 0xdb, 0xbf, 0x43, 0xca, 0xdb, 0x46, 0xff, 0xfb, 0x25, 0x33, 0xb5,
  0x11, 0xee, 0xee, 0xdc, 0xfd, 0xaa, 0xa6, 0x3b, 0x0f, 0x11, 0x25, 0xc6,
  0x2d, 0x29, 0x52, 0xed, 0xf3, 0xc7, 0xd0, 0x40, 0xe0, 0xc1, 0xd2, 0xc4,
  0x39, 0xce, 0x6e, 0x16, 0x57, 0x38, 0x4f, 0xce, 0x7f, 0xea, 0xc5, 0x71,
  0x20, 0x1e, 0xa5, 0x13, 0xb6, 0x3c, 0x55, 0xc6, 0x5c, 0x67, 0xb3, 0x21,
  0xe3, 0xd3, 0x47, 0x1b, 0x37, 0x46, 0x88, 0xb2, 0xeb, 0xdf, 0x23, 0xf3,
  0x2a, 0x69, 0xcd, 0xe2, 0x11, 0x2d, 0x04, 0xbf, 0xe6, 0x35, 0x32, 0x06,
  0x71, 0x10, 0xb0, 0x0d, 0xe8, 0xd8, 0xed, 0xa0, 0xd1, 0xa6, 0xe3, 0xb9,
  0x58, 0x06, 0x3f, 0xbc, 0x7f, 0xe1, 0x54, 0xff, 0x23, 0x39, 0x12, 0x99,
  0xf1, 0x47, 0x3c, 0xae, 0x61, 0x9a, 0x3e, 0x49, 0x73, 0xee, 0x15, 0xac,
  0xe5, 0xf6, 0x62, 0xdd, 0x29, 0x46, 0x3b, 0x4c, 0xdd, 0x2a, 0xec, 0xe6,
  0xf4, 0xd1, 0xd6, 0xf5, 0x81, 0x5f, 0xc0, 0xf8, 0xcb, 0xf9, 0xf1, 0x0a,
  0xb8, 0x06, 0x2d, 0x37, 0xbe, 0x13, 0xfe, 0x24, 0xbc, 0x15, 0x05, 0x1e,
  0x63, 0xd0, 0xc5, 0xea, 0x11, 0x22, 0x43, 0xfd, 0xce, 0xc0, 0xc6, 0xe8,
  0x9d, 0x2d, 0x03, 0x0a, 0xd6, 0x26, 0xf0, 0xcf, 0xc0, 0xa5, 0x98, 0x12,
  0x44, 0xce, 0x2c, 0xbe, 0xc0, 0x04, 0x8d, 0x12, 0x57, 0xba, 0xe3, 0xec,
  0x5e, 0x38, 0x4e, 0x94, 0x9b, 0x76, 0x34, 0x08, 0x0e, 0x00, 0xa4, 0xd2,
  0xdf, 0x81, 0x37, 0x5b, 0x6c, 0x1c, 0x48, 0xa7, 0xbf, 0x1b, 0xf1, 0x52,
  0x1b, 0x9e, 0xe1, 0xe4, 0x9e, 0x03, 0xfd, 0xca, 0xb6, 0x2b, 0x44, 0xdd,
  0x78, 0x28, 0x3f, 0xca, 0x54, 0x07, 0xf2, 0xac, 0xdd, 0x10, 0xe1, 0xdb,
  0xa5, 0xb3, 0x46, 0x81, 0x5f, 0x5b, 0xd1, 0xb6, 0x6c, 0x88, 0x35, 0xa0,
  0x95, 0x12, 0xdb, 0x1c, 0x43, 0xe2, 0x5e, 0x0d, 0xc8, 0xc2, 0x20, 0xcb,
  0x16, 0x9f, 0x5c, 0x1f, 0x7f, 0x67, 0xab, 0xa5, 0xde, 0x4d, 0xd8, 0xb1,
  0x0b, 0xbd, 0x34, 0xe2, 0x2d, 0x3c, 0xcb, 0xde, 0x48, 0x3b, 0xcf, 0xf2,
  0x14, 0xa2, 0x51, 0xac, 0x59, 0x4c, 0xdd, 0xf7, 0x55, 0x24, 0xbe, 0xef,
  0xed, 0xc2, 0x04, 0xe1, 0x56, 0x2b, 0xfd, 0xce, 0xf3, 0x41, 0x8b, 0x9b,
  0x39, 0x4c, 0xc8, 0xda, 0x4c, 0x20, 0x01, 0xc5, 0x68, 0xf8, 0x20, 0xc9,
  0xe2, 0xe3, 0xc5, 0xb9, 0x15, 0xb7, 0x0a, 0xae, 0x60, 0x1a, 0xfe, 0x11,
  0x08, 0x44, 0xba, 0x21, 0x21, 0x18, 0x35, 0xcf, 0xb8, 0xcb, 0xb9, 0xdf,
  0x54, 0x39, 0x9d, 0x4a, 0xe1, 0xca, 0x12, 0x73, 0xd3, 0x04, 0x1f, 0xbd,
  0x81, 0xf7, 0xc2, 0x1d, 0x55, 0xf9, 0x3b, 0xde, 0x10, 0x52, 0xfc, 0x4a,
  0x1d, 0xc0, 0xb1, 0xe1, 0x18, 0x25, 0x69, 0xcd, 0x68, 0xd8, 0xf9, 0x33,
  0xf4, 0x31, 0x0a, 0xa6, 0x74, 0xec, 0xd0, 0xd6, 0x35, 0xfd, 0x3b, 0x28,
  0xf8, 0xdd, 0x00, 0xa7, 0xb5, 0xc1, 0x1d, 0xaa, 0x1a, 0x4f, 0xe6, 0x4b,
  0x20, 0xda, 0x81, 0x16, 0xa4, 0xa0, 0x08, 0xc5, 0x46, 0x93, 0x81, 0xaf,
  0xcb, 0x81, 0xc0, 0x12, 0x28, 0x32, 0xd7, 0xc1, 0x45, 0x12, 0x3b, 0x2d,
  0x8f, 0xdf, 0xd8, 0x59, 0x8e, 0x22, 0x18, 0x72, 0x26, 0x70, 0xf7, 0x7d,
  0xaa, 0x56, 0x54, 0xba, 0x24, 0xfb, 0x5c, 0xf1, 0xf6, 0xbf, 0x40, 0x1a,
  0x5c, 0x94, 0x8c, 0x43, 0xc4, 0xa7, 0x54, 0x32, 0x04, 0x50, 0xf0, 0xa6,
  0x45, 0x4b, 0x62, 0x49, 0x81, 0x31, 0x25, 0xf5, 0xdb, 0xeb, 0xbf, 0xeb,
  0x29, 0xee, 0xc0, 0x49, 0xc4, 0x42, 0xe4, 0xb8, 0x13, 0x56, 0xbc, 0x17,
  0x26, 0x9e, 0xd5, 0xc3, 0xb6, 0xf1, 0xb1, 0xc1, 0xb2, 0xdd, 0xc9, 0x08,
  0x91, 0x41, 0xfc, 0x46, 0x1e, 0xf1, 0x1d, 0x3c, 0x38, 0xa0, 0x3b, 0x4a,
  0x59, 0x8f, 0x3f, 0x7e, 0xed, 0x34, 0x0f, 0x25, 0xc0, 0xdd, 0xf3, 0xe4,
  0x6d, 0x38, 0xf8, 0x32, 0x4b, 0x01, 0x36, 0x5a, 0x0e, 0xf5, 0x72, 0x5b,
  0x29, 0xf7, 0xa9, 0x06, 0x3e, 0x67, 0x81, 0x04, 0xb5, 0x5b, 0xad, 0x39,
  0xb5, 0x5a, 0x10, 0x3f, 0xfa, 0x02, 0xd6, 0xf7, 0xdf, 0xd3, 0xdf, 0xad,
  0xb5, 0x2d, 0x65, 0x96, 0x00, 0x1e, 0xa3, 0xc6, 0x5c, 0x5b, 0xcf, 0xca,
  0x15, 0x81, 0x38, 0xff, 0xc3, 0x18, 0x42, 0xe2, 0x1b, 0xf6, 0x4b, 0xd7,
  0x7b, 0x3d, 0xec, 0x77, 0xcd, 0xd2, 0x69, 0xba, 0xe5, 0x21, 0x26, 0xcf,
  0x61, 0xea, 0x47, 0x1e, 0xa6, 0xce, 0x32, 0xc2, 0x63, 0xf2, 0x1a, 0xb5,
  0x53, 0xc7, 0xd2, 0x09, 0x60, 0x14, 0xf7, 0x77, 0x14, 0x3f, 0x63, 0x23,
  0xc7, 0xcb, 0xb9, 0x70, 0x2e, 0x5d, 0x09, 0x17, 0x7f, 0xf5, 0x32, 0xdd,
  0x59, 0x37, 0x18, 0x1b, 0x9b, 0x2a, 0x1e, 0x59, 0x40, 0xc0, 0x2d, 0xb8,
  0xf3, 0x67, 0x4c, 0xa1, 0xd1, 0xed, 0x2c, 0x30, 0xe5, 0xef, 0x0b, 0x24,
  0x66, 0x16, 0x61, 0x3a, 0x81, 0xb8, 0xca, 0x27, 0x53, 0xc3, 0x16, 0x36,
  0x5e, 0x2b, 0x4e, 0x8e, 0xf4, 0xa3, 0xfd, 0x89, 0x9a, 0xee, 0xfc, 0xec,
  0x4a, 0xab, 0x54, 0xc8, 0x42, 0x52, 0x2e, 0x01, 0x3a, 0x51, 0xda, 0x01,
  0xa0, 0x3c, 0x0e, 0x01, 0xfc, 0x94, 0x23, 0xd3, 0xe1, 0xb7, 0x30, 0xd4,
  0x66, 0x47, 0xde, 0x19, 0x03, 0xec, 0x57, 0x45, 0xec, 0x54, 0x3c, 0xe0,
  0x30, 0x3f, 0xc0, 0xb8, 0xff, 0x1e, 0x72, 0x3a, 0xb7, 0x53, 0xbd, 0xbc,
  0xda, 0x1a, 0xfd, 0x71, 0x2a, 0x0f, 0x45, 0xe4, 0x7f, 0x3e, 0x02, 0xa3,
  0xf6, 0xd7, 0xcc, 0x30, 0xcf, 0xd2, 0xb0, 0xb6, 0xc8, 0x25, 0x0a, 0x4a,
  0x81, 0x19, 0x62, 0x5f, 0x9d, 0x4f, 0x4b, 0x2b, 0x42, 0xf2, 0x5d, 0xde,
  0x1f, 0x0c, 0xc7, 0xe8, 0x8f, 0x12, 0xe8, 0x51, 0x0e, 0x12, 0x24, 0x2b,
  0xcd, 0x19, 0xa9, 0xf1, 0x21, 0xe8, 0xe5, 0xc5, 0xde, 0x42, 0xeb, 0xce,
  0xc3, 0xfc, 0x48, 0x2e, 0xfc, 0xaf, 0xd2, 0xce, 0x28, 0x83, 0x7f, 0x07,
  0x05, 0xb8, 0x0f, 0xae, 0xea, 0xcc, 0x2e, 0xad, 0xc6, 0xd8, 0xf0, 0x22,
  0x2c, 0x00, 0x17, 0xc8, 0x28, 0x18, 0x0d, 0x30, 0xaa, 0x2a, 0x31, 0x62,
  0x2a, 0xba, 0xfb, 0x25, 0xf9, 0xcd, 0x9e, 0xfb, 0x00, 0xe2, 0x6a, 0xd8,
  0x68, 0x41, 0x11, 0x6a, 0xe7, 0x42, 0x4a, 0xcd, 0xe0, 0x08, 0x4f, 0x22,
  0x97, 0x13, 0x17, 0x06, 0x7f, 0x38, 0xdb, 0x49, 0xa3, 0xbe, 0xc9, 0xcc,
  0xed, 0xc9, 0x27, 0x2f, 0xf5, 0xda, 0x30, 0xc2, 0x9d, 0xd9, 0xfb, 0x35,
  0x1d, 0xd7, 0xfe, 0x02, 0x49, 0xfc, 0xc8, 0x4f, 0x15, 0x1e, 0x3b, 0xd9,
  0xb8, 0x32, 0x9f, 0xa6, 0xe1, 0xe1, 0xcb, 0x57, 0xd0, 0x08, 0x7d, 0x04,
  0x2d, 0x2e, 0x6d, 0x95, 0xd8, 0xb2, 0xe6, 0x2e, 0xe3, 0x4b, 0x0e, 0xdc,
  0x4e, 0xfe, 0x44, 0xaa, 0xa9, 0x39, 0xf4, 0x67, 0x52, 0x09, 0xab, 0xe6,
  0x7f, 0x07, 0x34, 0xcc, 0x61, 0xd3, 0x63, 0x3e, 0x1d, 0xc5, 0xdb, 0x01,
  0xe4, 0xfc, 0x73, 0xaa, 0xd7, 0x55, 0xe9, 0xe1, 0x0b, 0xf1, 0xb9, 0xda,
  0x3a, 0x85, 0xe8, 0x81, 0xd0, 0x1d, 0x0a, 0x2d, 0x12, 0xce, 0x15, 0xaf,
  0x0b, 0x21, 0x19, 0x35, 0x2c, 0x4b, 0x52, 0xc7, 0x4a, 0xa7, 0x27, 0x35,
  0x1a, 0xb7, 0x59, 0x01, 0x37, 0xd9, 0x65, 0x75, 0x1b, 0x14, 0x74, 0xb0,
  0x04, 0x98, 0xf1, 0x42, 0x03, 0x68, 0x44, 0x0f, 0x25, 0xc6, 0xf6, 0x3a,
  0x00, 0xf6, 0x95, 0x03, 0xb5, 0xc3, 0xde, 0xa6, 0xb6, 0xd9, 0xf7, 0xbd,
  0xd9, 0x29, 0xf9, 0x1a, 0xdd, 0xce, 0x9c, 0x3c, 0x01, 0xd9, 0x7d, 0x01,
  0x13, 0x45, 0x67, 0x68, 0x6e, 0xfc, 0xfa, 0x95, 0x38, 0x14, 0xce, 0x13,
  0xeb, 0x7f, 0x47, 0x5e, 0x4d, 0xc9, 0x59, 0xd3, 0x5c, 0x13, 0x3f, 0x2d,
  0x99, 0x30, 0x1c, 0x3e, 0x15, 0xf3, 0xea, 0x08, 0xe1, 0x5f, 0x3e, 0x41,
  0x52, 0x3a, 0xc2, 0xec, 0xbd, 0xd1, 0x65, 0xf2, 0xea, 0xdf, 0xdd, 0xee,
  0x68, 0xdb, 0xe8, 0x00, 0x46, 0x1e, 0xa3, 0x03, 0x3e, 0x27, 0x7f, 0x08,
  0xbd, 0x03, 0x24, 0x47, 0x01, 0x3d, 0xd9, 0xa6, 0xc1, 0x41, 0xc2, 0xa6,
  0xbc, 0x3f, 0xfe, 0xa5, 0x08, 0x0d, 0xc3, 0xea, 0x7f, 0xf6, 0xbd, 0x41,
  0x18, 0x43, 0xf2, 0x15, 0x32, 0x3e, 0xff, 0x23, 0x17, 0xc9, 0xdb, 0xfa,
  0xed, 0xc1, 0x0b, 0x78, 0x4f, 0xd9, 0xf0, 0xf0, 0x59, 0xf6, 0xf1, 0xc7,
  0xba, 0x52, 0x1d, 0xd6, 0xad, 0xb9, 0xa9, 0x3a, 0x3f, 0xfe, 0x55, 0x3e,
  0xd0, 0x61, 0x0b, 0xfd, 0xd7, 0x5c, 0x38, 0xae, 0xa9, 0xe4, 0x5d, 0x48,
  0x2a, 0x24, 0xba, 0x9a, 0xdb, 0x37, 0xc0, 0xde, 0x49, 0x02, 0xf8, 0xde,
  0xd3, 0x1d, 0x0a, 0xaa, 0xd1, 0xb7, 0xad, 0xe2, 0x7f, 0x14, 0xfe, 0x06,
  0x42, 0x48, 0xfc, 0xef, 0xb6, 0xe4, 0xff, 0xff, 0x04, 0x00, 0x00, 0x00,
  0x80, 0x00, 0x00, 0x00, 0x3d, 0x02, 0x00, 0x00, 0x0d, 0x04, 0x00, 0x00,
  0x2b, 0xff, 0xff, 0xff, 0xbe, 0x01, 0x00, 0x00, 0xa9, 0x00, 0x00, 0x00,
  0xe3, 0xfe, 0xff, 0xff, 0x3f, 0xff, 0xff, 0xff, 0x76, 0x00, 0x00, 0x00,
  0x36, 0x00, 0x00, 0x00, 0xdf, 0x02, 0x00, 0x00, 0x0c, 0xfe, 0xff, 0xff,
  0xf3, 0xff, 0xff, 0xff, 0x27, 0x00, 0x00, 0x00, 0x3e, 0x01, 0x00, 0x00,
  0x60, 0x00, 0x00, 0x00, 0xdb, 0x01, 0x00, 0x00, 0x69, 0xfd, 0xff, 0xff,
  0x11, 0x02, 0x00, 0x00, 0xa7, 0xff, 0xff, 0xff, 0xe3, 0xfd, 0xff, 0xff,
  0x96, 0xfe, 0xff, 0xff, 0x36, 0x01, 0x00, 0x00, 0x13, 0x03, 0x00, 0x00,
  0x4b, 0xfc, 0xff, 0xff, 0x7e, 0x00, 0x00, 0x00, 0xe6, 0xfd, 0xff, 0xff,
  0xc0, 0x00, 0x00, 0x00, 0xd6, 0x02, 0x00, 0x00, 0xd4, 0x00, 0x00, 0x00,
  0x32, 0xfc, 0xff, 0xff, 0xa2, 0xff, 0xff, 0xff, 0x48, 0x02, 0x00, 0x00,
  0x42, 0xe5, 0xff, 0xff, 0x04, 0x00, 0x00, 0x00, 0x20, 0x00, 0x00, 0x00,
  0x24, 0x0a, 0x0e, 0x05, 0x03, 0x08, 0xd3, 0x4d, 0xcc, 0xe8, 0x1b, 0xf0,
  0xe0, 0x2e, 0x71, 0x0b, 0x27, 0xd9, 0xd7, 0xd3, 0xd0, 0x55, 0x34, 0xec,
  0x01, 0x7f, 0xcd, 0xf1, 0x0f, 0x0e, 0x0c, 0xdf, 0x6e, 0xe5, 0xff, 0xff,
  0x04, 0x00, 0x00, 0x00, 0x20, 0x00, 0x00, 0x00, 0x09, 0xec, 0x1a, 0xe3,
  0x05, 0xcd, 0x4d, 0x0f, 0xcb, 0xf1, 0x06, 0x33, 0x01, 0x05, 0x19, 0xc4,
  0x00, 0x1f, 0x89, 0xc2, 0x80, 0x13, 0xef, 0x0b, 0xd1, 0x07, 0xc9, 0xfd,
  0x0a, 0xbd, 0x1f, 0x16, 0x9a, 0xe5, 0xff, 0xff, 0x04, 0x00, 0x00, 0x00,
  0x00, 0x14, 0x00, 0x00, 0xe9, 0x06, 0xf2, 0xbe, 0xc1, 0x13, 0x0c, 0x35,
  0x4b, 0xde, 0xe7, 0xfd, 0x2e, 0x05, 0xf1, 0x02, 0x17, 0xe3, 0xe5, 0x05,
  0xe5, 0xb5, 0x3c, 0x05, 0x1e, 0xb7, 0xe1, 0xca, 0xd2, 0xfe, 0x0b, 0x1f,
  0x48, 0x0d, 0xb4, 0x15, 0x9e, 0xef, 0xc2, 0xe5, 0x3d, 0x93, 0x06, 0xee,
  0x26, 0xa3, 0xdd, 0x15, 0xfe, 0xf2, 0x35, 0x23, 0x0d, 0xb3, 0xad, 0xad,
  0x35, 0x20, 0xf2, 0x93, 0xe2, 0x38, 0x1c, 0x20, 0xc3, 0x0c, 0x44, 0x21,
  0x4c, 0xb5, 0xd7, 0xdf, 0x90, 0x49, 0x50, 0x04, 0x45, 0xac, 0xe7, 0x04,
  0xcb, 0xa7, 0xf1, 0xf2, 0xa0, 0x27, 0xfb, 0x34, 0x32, 0x1c, 0x43, 0x38,
  0x1b, 0x13, 0x2e, 0x2b, 0xf8, 0x24, 0xae, 0x3b, 0xe2, 0xbd, 0xca, 0x9f,
  0xbb, 0x5a, 0x8a, 0x32, 0xfe, 0x3f, 0x3d, 0x36, 0xdd, 0x0b, 0x37, 0xae,
  0x0a, 0xd7, 0xcc, 0xc0, 0x42, 0xfb, 0x56, 0x42, 0xbf, 0x03, 0xe8, 0xe6,
  0x0b, 0xcf, 0xe7, 0xef, 0xf3, 0xa8, 0x32, 0xf6, 0xb2, 0xb4, 0x10, 0x17,
  0xb7, 0xbe, 0x41, 0x15, 0xa8, 0x05, 0x2c, 0xce, 0xec, 0x29, 0x69, 0x3a,
  0x2b, 0x33, 0x81, 0x95, 0x25, 0x42, 0x29, 0x0a, 0xd4, 0x04, 0xb5, 0x27,
  0xb0, 0xd7, 0xde, 0x4b, 0xaf, 0x32, 0x08, 0xaa, 0x2a, 0x03, 0x2d, 0xbb,
  0xd5, 0x30, 0x96, 0xef, 0xc1, 0x4d, 0x4a, 0x06, 0x05, 0x46, 0x2f, 0xbd,
  0xdc, 0x3e, 0x49, 0x1b, 0xff, 0x54, 0x4b, 0xbe, 0x4d, 0xeb, 0xdf, 0x2b,
  0x16, 0x45, 0x39, 0x3d, 0x3f, 0x31, 0xee, 0xe9, 0xfb, 0x0d, 0xf3, 0xc6,
  0xd5, 0x38, 0x1f, 0x07, 0xe4, 0x0a, 0xbb, 0x13, 0x0b, 0xfd, 0x2d, 0xe8,
  0xc2, 0xba, 0x7f, 0x35, 0xe7, 0x1b, 0xb5, 0x8b, 0x30, 0x2f, 0x54, 0xb8,
  0xfb, 0x4a, 0x7a, 0xf6, 0x02, 0x05, 0x31, 0x07, 0x4d, 0x9f, 0x35, 0xe3,
  0x35, 0x0d, 0x18, 0x2c, 0xc6, 0x2e, 0xc7, 0xee, 0x4f, 0xc3, 0x0b, 0xe5,
  0xc0, 0x0a, 0xf9, 0x51, 0xc0, 0xde, 0xfe, 0xe1, 0xfa, 0xbd, 0x44, 0x03,
  0xb1, 0xe4, 0xbb, 0x3a, 0x0c, 0x60, 0xbd, 0xf3, 0xf5, 0xc8, 0xce, 0x7a,
  0xcd, 0xbe, 0x2e, 0xb1, 0x2b, 0x5a, 0x4d, 0x12, 0x1d, 0xe7, 0x16, 0x00,
  0x25, 0xf4, 0xf7, 0xc0, 0x50, 0xd7, 0xf8, 0xbd, 0x3f, 0x06, 0xab, 0x52,
  0x29, 0xf6, 0xca, 0x22, 0x09, 0xb9, 0x31, 0x6d, 0xdb, 0x32, 0x4a, 0x06,
  0xa5, 0x08, 0xbd, 0x5a, 0x05, 0x11, 0x05, 0x3e, 0x60, 0x33, 0x11, 0xe4,
  0xe6, 0x18, 0x7a, 0xc8, 0xf6, 0x33, 0x1e, 0xc7, 0x4a, 0xd6, 0xfa, 0x14,
  0x8a, 0xd1, 0x46, 0x20, 0x2f, 0xca, 0x07, 0xe8, 0x4d, 0x66, 0xe0, 0x21,
  0xce, 0xb9, 0x62, 0x38, 0x00, 0x6e, 0xbb, 0xcf, 0x44, 0x38, 0xb7, 0xff,
  0xea, 0xf3, 0xa3, 0x67, 0x24, 0x73, 0x36, 0xf6, 0xf4, 0x81, 0x47, 0x03,
  0x39, 0xdc, 0xf2, 0xc8, 0x8c, 0x8c, 0x61, 0x09, 0x03, 0xd3, 0x05, 0x1c,
  0xc7, 0xd2, 0x6a, 0xcd, 0x1e, 0xcd, 0x1b, 0xbd, 0x2f, 0x57, 0xd5, 0x21,
  0xd5, 0xd4, 0x76, 0x21, 0x3d, 0x1d, 0x95, 0x62, 0x04, 0x7c, 0x20, 0x95,
  0xf6, 0x09, 0xe8, 0xfc, 0x94, 0x49, 0x20, 0x50, 0x31, 0x20, 0x30, 0xb3,
  0x16, 0x2a, 0xd9, 0xe7, 0xa0, 0x7e, 0xe3, 0xf9, 0x18, 0x67, 0xf4, 0xd7,
  0x3c, 0x5c, 0x61, 0x1b, 0x46, 0xdb, 0xba, 0xa9, 0x12, 0x10, 0x6a, 0x0c,
  0xdf, 0x04, 0xca, 0xba, 0x2f, 0x32, 0x3a, 0x18, 0x50, 0x4f, 0x47, 0xdd,
  0xc8, 0xe1, 0x60, 0x1e, 0xa9, 0x28, 0xfb, 0xce, 0x02, 0x90, 0xf5, 0xda,
  0xce, 0x57, 0x02, 0xe7, 0x2c, 0x0f, 0xa0, 0xd1, 0xa4, 0x33, 0x52, 0x3b,
  0x01, 0x1e, 0x14, 0x19, 0xf4, 0xcd, 0x7f, 0xaf, 0x16, 0xd7, 0x17, 0xcb,
  0xca, 0x36, 0xe2, 0x0a, 0xff, 0x67, 0x20, 0x37, 0x27, 0xd9, 0x11, 0xe1,
  0x19, 0xd1, 0xf5, 0x26, 0x44, 0x26, 0x31, 0x45, 0xff, 0xfd, 0x00, 0x1f,
  0xe8, 0xd3, 0x02, 0x21, 0xdd, 0x22, 0xb6, 0x18, 0xb3, 0x53, 0x3d, 0xf4,
  0x53, 0xd3, 0xee, 0xd1, 0x02, 0xf3, 0x1f, 0xfa, 0x3e, 0xe4, 0xef, 0xec,
  0xf0, 0xff, 0xd4, 0xe4, 0x0c, 0xc1, 0x14, 0xfa, 0xd6, 0x2d, 0x45, 0x25,
  0xfe, 0xd8, 0xe7, 0x30, 0x2e, 0xff, 0x29, 0x0b, 0x2a, 0xf7, 0x27, 0x34,
  0x20, 0xf7, 0x3a, 0xd9, 0x2e, 0x23, 0x16, 0xff, 0x25, 0x13, 0x54, 0x08,
  0xa7, 0xd2, 0xe9, 0xe9, 0x50, 0x01, 0xb0, 0x0f, 0xef, 0x1c, 0xa8, 0x22,
  0x27, 0x19, 0xbe, 0x17, 0x9c, 0x0a, 0x12, 0x40, 0xe2, 0xd8, 0x3e, 0x14,
  0xc4, 0x1a, 0x65, 0x18, 0x10, 0x46, 0xca, 0x51, 0x11, 0x0d, 0xc2, 0x4c,
  0x60, 0x16, 0xe6, 0x34, 0x13, 0x31, 0xeb, 0x4b, 0x29, 0xc0, 0xff, 0x08,
  0xd7, 0x99, 0x16, 0xa9, 0x5f, 0x60, 0xd0, 0xc7, 0x40, 0x11, 0xb4, 0x49,
  0xbc, 0xcc, 0xd8, 0x97, 0x08, 0xf8, 0x14, 0x0f, 0x31, 0xc2, 0x0d, 0xf1,
  0xb0, 0x06, 0x3f, 0xe6, 0x0d, 0xf4, 0xe5, 0x1b, 0x26, 0xf6, 0x48, 0x20,
  0x2e, 0xeb, 0x96, 0x48, 0x0c, 0x1c, 0x17, 0x4a, 0x40, 0xb5, 0xbd, 0xc0,
  0x4a, 0xd4, 0x13, 0x51, 0x19, 0xa4, 0xc6, 0x22, 0xd7, 0xc9, 0xdc, 0xb5,
  0x50, 0x94, 0x23, 0x1f, 0xa3, 0x04, 0xd3, 0xdc, 0x0c, 0x4b, 0xf3, 0xcf,
  0xb3, 0x3f, 0x43, 0x9a, 0x35, 0x3a, 0xee, 0x25, 0x4e, 0x05, 0xd2, 0x43,
  0x92, 0x63, 0x0f, 0xbf, 0x87, 0x23, 0xf6, 0x15, 0x10, 0x39, 0x9c, 0x36,
  0x04, 0x03, 0xa3, 0x9f, 0xda, 0x25, 0xe7, 0xf5, 0x46, 0x2b, 0x3c, 0x0e,
  0x3c, 0xe8, 0xc5, 0xf9, 0x07, 0xde, 0xb3, 0x0a, 0xbe, 0xdb, 0x22, 0xba,
  0x1b, 0xd3, 0x98, 0x38, 0x20, 0xdb, 0x22, 0xea, 0x8c, 0xf5, 0x18, 0xa4,
  0x3e, 0xee, 0xfc, 0xd6, 0xeb, 0xc5, 0x2d, 0x36, 0x26, 0x06, 0x6b, 0x2c,
  0x82, 0xe0, 0xbe, 0xd9, 0xec, 0xc6, 0xd5, 0xef, 0x56, 0x43, 0xcb, 0x1b,
  0xe8, 0x04, 0xb0, 0xd6, 0xe9, 0x24, 0x7f, 0xd6, 0xd3, 0xc0, 0xd9, 0xb3,
  0x18, 0xe5, 0x52, 0xf6, 0x4e, 0x67, 0xea, 0xcf, 0xb5, 0x4a, 0x2c, 0xac,
  0xd1, 0xb3, 0xad, 0x55, 0x18, 0xde, 0x00, 0x9e, 0x05, 0x4f, 0xbb, 0x5a,
  0x3a, 0x31, 0xe3, 0xf1, 0xce, 0x38, 0x30, 0xc2, 0x03, 0xef, 0xa5, 0xd7,
  0xde, 0x1b, 0xeb, 0x20, 0xbf, 0x0e, 0xe4, 0xb0, 0x9b, 0x17, 0xbd, 0x42,
  0x54, 0xc8, 0x17, 0x2f, 0x52, 0x42, 0xe1, 0xbc, 0x09, 0x6d, 0x6d, 0xf8,
  0xe8, 0x42, 0x56, 0xce, 0xd2, 0x13, 0xad, 0xb7, 0xb5, 0x30, 0xdc, 0xef,
  0x5b, 0x21, 0xd0, 0xb2, 0xc5, 0x2f, 0xd7, 0x10, 0xa4, 0x1b, 0x31, 0xc8,
  0xb7, 0x06, 0xce, 0x06, 0xcb, 0xe4, 0xd8, 0x93, 0x9b, 0x33, 0xc4, 0x2b,
  0xd9, 0xe5, 0x36, 0xe2, 0xdc, 0xa1, 0xea, 0xd4, 0xfd, 0xb8, 0xff, 0x1e,
  0x90, 0x13, 0x87, 0xc9, 0x37, 0x98, 0xe9, 0xea, 0x9e, 0x81, 0x17, 0x29,
  0x33, 0xd9, 0xb7, 0xb8, 0xcd, 0xc3, 0x0e, 0x3a, 0xc5, 0x53, 0xcb, 0x8e,
  0x00, 0x0b, 0xed, 0x32, 0x18, 0xf0, 0xdd, 0xc8, 0xf8, 0xd2, 0x17, 0x8d,
  0x11, 0x21, 0xa1, 0xff, 0xd7, 0xfd, 0x2d, 0xd8, 0x91, 0x5e, 0x6a, 0x5d,
  0x39, 0xb1, 0x5d, 0x30, 0x44, 0xa0, 0xd5, 0xbf, 0xb8, 0x35, 0x30, 0xb4,
  0x0f, 0x3b, 0x9e, 0x05, 0xcf, 0x63, 0xdd, 0x0d, 0xa0, 0x46, 0x43, 0xb0,
  0xce, 0xe9, 0x42, 0x02, 0xc1, 0x0b, 0x81, 0x94, 0x82, 0xa6, 0xd8, 0x37,
  0xba, 0xb6, 0x25, 0x4f, 0x21, 0xef, 0x42, 0xb3, 0x35, 0xcb, 0xcf, 0x0d,
  0x1d, 0x2f, 0xd6, 0x45, 0xd6, 0x05, 0x38, 0x20, 0x14, 0xdc, 0xd1, 0x9b,
  0x0a, 0xd1, 0xdd, 0xf7, 0x55, 0xa4, 0x4f, 0xa6, 0xd9, 0xc6, 0xef, 0x9d,
  0xe7, 0xfe, 0xd4, 0xbb, 0x9c, 0xce, 0x5d, 0x5e, 0x99, 0xa8, 0x06, 0xf3,
  0xd9, 0x61, 0xf5, 0x04, 0x11, 0x9a, 0x31, 0x0d, 0x56, 0x8d, 0x8b, 0x28,
  0x1a, 0xa9, 0xb9, 0xdd, 0x5c, 0x04, 0x11, 0x2a, 0xf6, 0x4f, 0xe5, 0x28,
  0xb6, 0x2a, 0x26, 0xa7, 0x2c, 0xb0, 0x24, 0x86, 0x9a, 0xf6, 0xb8, 0x19,
  0xe1, 0xd7, 0x1a, 0xb1, 0x36, 0x9c, 0xf1, 0x08, 0xd6, 0xec, 0xb4, 0x49,
  0x41, 0x04, 0x0b, 0x88, 0x4e, 0x5e, 0x49, 0x00, 0xb2, 0xf4, 0x65, 0x2e,
  0xdb, 0x16, 0xa3, 0xa3, 0x1e, 0xeb, 0xe6, 0x5c, 0xf2, 0xc2, 0x42, 0xc9,
  0x40, 0x58, 0x3e, 0x5a, 0x75, 0xc2, 0x2d, 0x1d, 0xec, 0x9b, 0x0c, 0x33,
  0x4e, 0xa3, 0x07, 0x8c, 0xc3, 0x38, 0x22, 0xf3, 0x12, 0xcb, 0xb8, 0x4b,
  0xec, 0x21, 0xfa, 0x3e, 0xbf, 0xc0, 0x18, 0x68, 0xe5, 0xcd, 0x29, 0xd0,
  0x1f, 0x1d, 0x9c, 0xf8, 0xbe, 0x43, 0xd7, 0x62, 0xb2, 0x38, 0x2d, 0xf2,
  0xa9, 0xb9, 0xc0, 0xf2, 0xc5, 0xcf, 0x0e, 0xc6, 0x3a, 0x16, 0x2e, 0x0f,
  0xd5, 0x00, 0x0c, 0x81, 0x2e, 0x0e, 0xd9, 0x24, 0x0e, 0xfb, 0xcf, 0x18,
  0xa2, 0xde, 0xf3, 0xa7, 0xd5, 0xed, 0x27, 0xbf, 0x31, 0xdd, 0x37, 0xd6,
  0xf5, 0x65, 0x35, 0x4d, 0x33, 0xda, 0x19, 0x0a, 0xeb, 0x37, 0x9f, 0xe4,
  0x15, 0xe9, 0x02, 0xd6, 0x15, 0x26, 0x21, 0x45, 0x25, 0xfa, 0x0f, 0x0d,
  0x0d, 0xb5, 0x15, 0x13, 0xd7, 0x12, 0xfe, 0x30, 0xd5, 0x40, 0xc7, 0x1e,
  0x4a, 0xf2, 0xc9, 0x3e, 0xb1, 0xac, 0x3c, 0xde, 0xe6, 0x14, 0xd4, 0xec,
  0x3a, 0xd0, 0x0b, 0x3b, 0xe6, 0xd9, 0x4c, 0x44, 0x35, 0x02, 0x5f, 0xe1,
  0x2f, 0x2a, 0xf9, 0x35, 0xc4, 0x0e, 0xb8, 0x41, 0xf8, 0x07, 0xa7, 0x13,
  0x24, 0x15, 0xb0, 0x30, 0xa4, 0xd1, 0x17, 0xd3, 0xbf, 0xa2, 0x4f, 0x31,
  0xa9, 0x43, 0xc3, 0xb6, 0x0c, 0x20, 0x19, 0x9d, 0xbf, 0x10, 0xe9, 0xf9,
  0x3e, 0x33, 0x16, 0x26, 0xe1, 0xe1, 0x38, 0x2d, 0x1f, 0xee, 0x17, 0x13,
  0x4e, 0x2e, 0x13, 0xa9, 0xbe, 0x1f, 0x0c, 0xfa, 0x5a, 0x13, 0x06, 0x0c,
  0x0a, 0x42, 0xdd, 0xec, 0x19, 0x1b, 0x22, 0xaa, 0xdd, 0xcb, 0xd1, 0x4d,
  0x1c, 0xfe, 0x0e, 0x36, 0x60, 0x38, 0xa9, 0xa9, 0x1a, 0x1a, 0xac, 0x1f,
  0xca, 0xf1, 0xd8, 0xf1, 0x55, 0xcc, 0x00, 0xc1, 0xa3, 0x1b, 0xf5, 0xbb,
  0xeb, 0x15, 0x04, 0x2e, 0x1a, 0x09, 0x1c, 0x1b, 0x25, 0xe1, 0xcd, 0xf6,
  0x35, 0x16, 0x0f, 0xbc, 0xf2, 0x10, 0x30, 0x30, 0xc9, 0xd1, 0xcf, 0x04,
  0x42, 0xc3, 0xdd, 0x09, 0xca, 0x08, 0x33, 0x20, 0xd1, 0x15, 0xe5, 0xee,
  0xf9, 0x01, 0xa0, 0x0c, 0xdf, 0xb6, 0x46, 0x81, 0xc6, 0x17, 0x00, 0xf7,
  0xf5, 0x25, 0xae, 0x16, 0x4c, 0xdb, 0x2e, 0x3d, 0x2b, 0x5b, 0xbd, 0xca,
  0xe8, 0xe8, 0xc3, 0x1c, 0xc4, 0xdb, 0xd7, 0x09, 0xfc, 0x22, 0xcc, 0x8c,
  0xc2, 0x55, 0x22, 0x1e, 0x40, 0x04, 0xcc, 0x08, 0xdc, 0xf2, 0xf2, 0x38,
  0xcc, 0x95, 0x08, 0xdf, 0xe2, 0x35, 0x0b, 0x0a, 0xcf, 0xb6, 0xd6, 0x03,
  0x34, 0x26, 0xe9, 0x3a, 0xcc, 0xf5, 0xd4, 0x56, 0x0a, 0xc5, 0x15, 0x08,
  0xf5, 0x26, 0xda, 0x48, 0xd7, 0x0b, 0xe3, 0x00, 0x36, 0xba, 0xc2, 0xe5,
  0x4c, 0x92, 0xee, 0x47, 0x0c, 0xff, 0x22, 0xe8, 0x10, 0xb7, 0x08, 0x16,
  0x9a, 0x9c, 0xcd, 0x16, 0x2a, 0xda, 0x5f, 0x10, 0x67, 0xd8, 0xee, 0xfe,
  0xf6, 0x46, 0x2f, 0xc0, 0xd0, 0x34, 0x09, 0xa9, 0xed, 0x51, 0xd5, 0xc9,
  0xdc, 0xd7, 0xb6, 0xb7, 0x47, 0x2a, 0x5e, 0x3b, 0x4a, 0x0a, 0xb4, 0xf3,
  0xc1, 0x0d, 0xc8, 0x47, 0xf3, 0xc3, 0xdc, 0xc2, 0x02, 0x1d, 0x55, 0x17,
  0x10, 0x2a, 0xb4, 0xf3, 0xb1, 0xba, 0x35, 0x72, 0x1e, 0x8e, 0xed, 0x01,
  0x01, 0x44, 0xcd, 0xdd, 0xfa, 0x21, 0x0f, 0xea, 0x56, 0x1d, 0x59, 0xe3,
  0x2f, 0x9c, 0xe3, 0x1d, 0xed, 0x3e, 0x81, 0x3d, 0x0c, 0x54, 0xf9, 0xbf,
  0x5d, 0xf0, 0xd0, 0xc9, 0xa8, 0x92, 0xfc, 0x2b, 0x4e, 0x1e, 0xb7, 0x40,
  0xcd, 0xd8, 0x41, 0x45, 0x36, 0x03, 0xa2, 0xeb, 0x00, 0x17, 0xd4, 0xc5,
  0xce, 0x4a, 0x3c, 0xeb, 0xfc, 0xeb, 0x5a, 0x72, 0xad, 0xe7, 0x9f, 0x33,
  0xe6, 0x77, 0x04, 0x01, 0x21, 0x00, 0x8b, 0x21, 0x6f, 0x31, 0xe8, 0x4c,
  0x5e, 0x12, 0xc1, 0x04, 0xf0, 0x44, 0xd8, 0x88, 0xbc, 0x39, 0x4a, 0xe6,
  0x82, 0xcc, 0xe0, 0xbe, 0xb6, 0xcf, 0x5c, 0x3a, 0xea, 0xe0, 0x58, 0x4c,
  0xc9, 0x29, 0x8e, 0xe9, 0x66, 0xc5, 0x1c, 0x0b, 0xa4, 0xaa, 0xef, 0x18,
  0x4a, 0x9c, 0x28, 0x1b, 0x30, 0x1b, 0x5f, 0xbd, 0x24, 0xe0, 0x3d, 0xb9,
  0xcc, 0xf6, 0x36, 0x13, 0xa3, 0x29, 0xfd, 0x07, 0xfe, 0xbe, 0xb4, 0xc8,
  0x4b, 0x5d, 0xe8, 0xf5, 0xfd, 0x98, 0xee, 0xcd, 0xe4, 0x17, 0x7f, 0x26,
  0xf3, 0xe9, 0xae, 0x0b, 0x5f, 0xdf, 0x5a, 0xe3, 0x23, 0x11, 0xd3, 0x27,
  0xea, 0xc6, 0x4f, 0x26, 0xfb, 0xb7, 0xed, 0x0d, 0x95, 0xc9, 0x6a, 0x87,
  0xca, 0xc1, 0xc4, 0x4f, 0x35, 0xe3, 0xfc, 0x36, 0x3e, 0x63, 0x3e, 0x6b,
  0xd5, 0x04, 0x57, 0x37, 0xf7, 0xd1, 0xc0, 0xdb, 0x13, 0xbc, 0x31, 0x6d,
  0x10, 0xea, 0x6e, 0xd7, 0x20, 0xd4, 0x3a, 0x59, 0xf4, 0x15, 0x55, 0xc4,
  0x9e, 0x0f, 0xf0, 0x7d, 0x36, 0x57, 0xe7, 0x62, 0x3f, 0xf4, 0x59, 0x34,
  0x3c, 0xee, 0xe8, 0xc3, 0xc7, 0x16, 0x5d, 0x6d, 0xba, 0xec, 0xbb, 0xfd,
  0xa1, 0xfa, 0x7a, 0x37, 0x01, 0xe1, 0xbc, 0x20, 0x2c, 0x3c, 0xf4, 0x90,
  0x29, 0xfa, 0x18, 0xdb, 0xbb, 0xf4, 0x5b, 0x3e, 0x4f, 0x17, 0x5b, 0x94,
  0xe0, 0x1c, 0x26, 0x29, 0xec, 0xfa, 0x20, 0x0d, 0x79, 0xfe, 0xcf, 0xc2,
  0xae, 0xdb, 0x1b, 0xe2, 0x46, 0x62, 0xd9, 0xed, 0x3a, 0x27, 0x4a, 0x13,
  0xc5, 0x8f, 0xab, 0x5a, 0xc2, 0x0e, 0xec, 0x0d, 0xfb, 0xdc, 0xf2, 0xa9,
  0x49, 0x41, 0xb3, 0xea, 0xcc, 0x93, 0xce, 0x55, 0xdf, 0x4a, 0x54, 0x23,
  0x20, 0xce, 0x34, 0x3f, 0x22, 0xe3, 0x0a, 0x47, 0x22, 0x4d, 0x81, 0xa8,
  0x03, 0xba, 0xc9, 0x12, 0xe8, 0x66, 0xd8, 0xde, 0x0b, 0x35, 0xfe, 0x30,
  0xc8, 0xba, 0xc3, 0xbe, 0x52, 0xda, 0x0e, 0x29, 0xe7, 0x45, 0x16, 0xaa,
  0xce, 0x15, 0x05, 0x4a, 0x1f, 0xae, 0xa4, 0xff, 0x02, 0xbd, 0x67, 0xe8,
  0x23, 0x53, 0xce, 0xf7, 0x3d, 0x1e, 0x45, 0x07, 0x4c, 0xd8, 0xbf, 0xd3,
  0xec, 0x0b, 0x41, 0xfe, 0x3e, 0x50, 0xe3, 0x28, 0xe1, 0xa8, 0x62, 0xfa,
  0xc6, 0x0b, 0x2a, 0xe7, 0xe3, 0x1a, 0xb8, 0xd8, 0xf0, 0x16, 0xd1, 0xe1,
  0xa2, 0x3d, 0x54, 0x40, 0x5c, 0x3e, 0x28, 0xc1, 0xa1, 0x9c, 0xe8, 0x3a,
  0x3f, 0xda, 0x4b, 0xc4, 0xe6, 0x02, 0xe3, 0x06, 0x0f, 0xdc, 0xfb, 0xfb,
  0x44, 0xcd, 0x96, 0xef, 0x15, 0x47, 0x39, 0x04, 0x2e, 0x36, 0x23, 0xed,
  0xdb, 0xce, 0x1e, 0x59, 0x10, 0x1d, 0xde, 0xc5, 0x4f, 0x91, 0xb2, 0xfd,
  0x81, 0x52, 0xe4, 0xd9, 0xfe, 0x59, 0x4d, 0xde, 0x10, 0xe8, 0x03, 0x2f,
  0xb1, 0x08, 0xca, 0xfa, 0x32, 0xbf, 0x1e, 0x2a, 0xea, 0x0f, 0x2b, 0x22,
  0x17, 0xd8, 0xcb, 0x4d, 0x37, 0xbd, 0xfa, 0xb3, 0x22, 0xc8, 0x6e, 0x12,
  0xef, 0x3b, 0xce, 0x19, 0xba, 0x31, 0xbb, 0x27, 0xdd, 0x19, 0x17, 0xb8,
  0x24, 0x1e, 0x0b, 0x1e, 0x3a, 0x39, 0xd1, 0x23, 0xe9, 0x72, 0xd6, 0xc4,
  0x92, 0xc2, 0x04, 0xa5, 0xb6, 0xd1, 0xbf, 0x2e, 0xed, 0xb9, 0xd9, 0x5e,
  0x20, 0x3d, 0x3d, 0xf9, 0x44, 0xdf, 0x3c, 0x4b, 0xd4, 0x5e, 0xed, 0x9b,
  0xe5, 0xef, 0x82, 0xd9, 0x63, 0xbb, 0xdd, 0xff, 0x41, 0x27, 0x34, 0xeb,
  0x02, 0xe2, 0x29, 0xae, 0x43, 0xa7, 0xf6, 0x2a, 0x40, 0xe5, 0x49, 0x1f,
  0x16, 0xfa, 0x23, 0xa8, 0x0f, 0x0d, 0x54, 0xd6, 0x0c, 0xa4, 0x09, 0x7e,
  0xde, 0xbf, 0xd8, 0xe9, 0xd5, 0xad, 0x28, 0x3c, 0x13, 0x1d, 0xf7, 0xe1,
  0x34, 0xd1, 0xb5, 0x05, 0xee, 0xa0, 0xa7, 0x55, 0x48, 0x18, 0xe3, 0xef,
  0x41, 0xb1, 0xc3, 0x51, 0xcf, 0x50, 0x54, 0xd8, 0xc2, 0xd4, 0x36, 0x50,
  0xd1, 0xfc, 0x2b, 0x81, 0x42, 0x05, 0xcf, 0x35, 0xba, 0xda, 0x4a, 0x43,
  0x24, 0x18, 0x41, 0x3e, 0xec, 0x05, 0x1a, 0x1e, 0x28, 0x9b, 0x0f, 0xbd,
  0x25, 0x28, 0xaa, 0x06, 0xa8, 0xd7, 0x24, 0x9e, 0xa8, 0xef, 0xce, 0xde,
  0x49, 0x08, 0x38, 0xb0, 0xb6, 0x50, 0xba, 0xb7, 0xfa, 0xd6, 0x16, 0x1a,
  0x53, 0xb6, 0xcb, 0xd9, 0xc0, 0xe9, 0x0d, 0x46, 0xee, 0x04, 0xf3, 0x4c,
  0x4e, 0xff, 0x13, 0x27, 0xab, 0x21, 0x40, 0xc9, 0xdf, 0x3b, 0xa9, 0x2d,
  0xc6, 0x9c, 0xef, 0xd8, 0x31, 0x0d, 0xf6, 0x46, 0xcf, 0x3c, 0xff, 0xc3,
  0x22, 0xbb, 0x1f, 0xa8, 0x04, 0xee, 0x41, 0x26, 0xbe, 0xa1, 0xe8, 0x08,
  0x12, 0x3b, 0x12, 0xd1, 0xa6, 0xa9, 0x28, 0x61, 0x34, 0x2a, 0x1b, 0xfd,
  0xcc, 0x03, 0x1d, 0x13, 0xe7, 0x29, 0xde, 0x25, 0x23, 0xf4, 0x0d, 0x3e,
  0xef, 0x1c, 0x6e, 0x2b, 0x0e, 0x41, 0xd6, 0xf8, 0xe8, 0xfe, 0xc8, 0xe4,
  0xd9, 0xf3, 0xd6, 0xea, 0xf5, 0xd7, 0xf6, 0x36, 0xff, 0xd6, 0x40, 0x02,
  0xec, 0xd3, 0xc9, 0x1a, 0xe4, 0x5c, 0x20, 0x0f, 0x5b, 0x32, 0xe6, 0xd2,
  0xdf, 0x43, 0xbf, 0x3c, 0x24, 0x7f, 0xee, 0x2e, 0x0b, 0xb8, 0xeb, 0x24,
  0xe3, 0xd2, 0xc6, 0xd4, 0xf8, 0x04, 0x1a, 0x55, 0xbf, 0xf7, 0xf3, 0xb1,
  0x15, 0x16, 0xac, 0x43, 0x0a, 0xf0, 0x66, 0x20, 0x48, 0x12, 0x35, 0xde,
  0x52, 0xcd, 0x4e, 0x1b, 0x01, 0x27, 0xc1, 0xfa, 0xe1, 0x54, 0xbe, 0x01,
  0xe2, 0xfb, 0x35, 0xa8, 0x05, 0xf8, 0x52, 0xe4, 0x22, 0xe2, 0x55, 0xef,
  0x2b, 0x05, 0x32, 0x10, 0x10, 0x57, 0x19, 0x32, 0x25, 0xde, 0x02, 0x5a,
  0x32, 0x0b, 0x53, 0x4c, 0x41, 0xe0, 0x5a, 0x0e, 0xe1, 0x01, 0xe1, 0x5e,
  0x06, 0x3c, 0xfb, 0x0a, 0xe4, 0xdc, 0x0a, 0x14, 0xdc, 0x27, 0x36, 0xc2,
  0xcd, 0xe9, 0x3a, 0x4b, 0x22, 0xda, 0xdd, 0xe6, 0x24, 0xdb, 0x22, 0xf9,
  0x47, 0x43, 0xdc, 0xd5, 0x22, 0xbd, 0x2c, 0x09, 0xd8, 0x0e, 0x23, 0x06,
  0x05, 0xb8, 0x20, 0x11, 0x1e, 0x0f, 0xa1, 0x1e, 0xe0, 0x26, 0xfb, 0xbe,
  0x23, 0x0b, 0xf2, 0x38, 0x1e, 0xdc, 0x0a, 0x0d, 0xef, 0x19, 0xaf, 0x18,
  0xd5, 0x11, 0xac, 0x49, 0x17, 0xdd, 0x2d, 0xe8, 0xf7, 0xf7, 0x21, 0x19,
  0xb4, 0xd4, 0xd6, 0xeb, 0xb6, 0xb2, 0xb9, 0x45, 0x38, 0xc4, 0x1b, 0x16,
  0x25, 0x35, 0xe7, 0xd1, 0x1a, 0x33, 0x08, 0x04, 0x02, 0x37, 0x14, 0xbb,
  0xbd, 0x26, 0xcb, 0x38, 0x19, 0xb6, 0xc0, 0x3b, 0xda, 0xed, 0xf3, 0xf6,
  0x15, 0xd3, 0x0b, 0x2d, 0xc4, 0x49, 0xed, 0xf3, 0x01, 0x23, 0x37, 0xfe,
  0xd9, 0xf3, 0x10, 0x23, 0xdb, 0x02, 0xf6, 0x56, 0x4b, 0x04, 0x23, 0xa7,
  0xcd, 0x07, 0x3b, 0xe9, 0xfd, 0x3a, 0xef, 0x1b, 0x59, 0xc6, 0x1d, 0xd7,
  0xe6, 0xee, 0x5f, 0xea, 0x24, 0xf0, 0x81, 0xc0, 0xd2, 0xbb, 0x19, 0x11,
  0x05, 0x18, 0xb5, 0x23, 0xed, 0xc7, 0xf0, 0x3e, 0x27, 0x1b, 0x13, 0xe4,
  0x1f, 0x07, 0xe5, 0xce, 0x1e, 0x16, 0xdc, 0xa8, 0xb8, 0xf0, 0x03, 0x11,
  0xf8, 0x54, 0x22, 0x0d, 0xb0, 0xbf, 0x11, 0xd1, 0xd6, 0x09, 0x11, 0xe9,
  0xff, 0xca, 0xe8, 0xfc, 0x33, 0x27, 0xd5, 0xcf, 0x43, 0xde, 0xbb, 0x23,
  0x03, 0x12, 0x54, 0x14, 0x0d, 0x0b, 0x2b, 0x37, 0x48, 0xc4, 0xd6, 0x29,
  0xf9, 0xe9, 0x2e, 0x34, 0xfc, 0xd3, 0xcc, 0x48, 0xb9, 0xd1, 0xa1, 0xdf,
  0x34, 0xc8, 0xf1, 0xe2, 0xac, 0xa6, 0x26, 0x49, 0x2d, 0xce, 0x43, 0xbf,
  0xfb, 0x81, 0xd7, 0xfd, 0x28, 0x0a, 0x16, 0xf8, 0xdb, 0xe9, 0xe2, 0x23,
  0xf5, 0x6f, 0x14, 0xe9, 0xbc, 0xeb, 0xda, 0xcd, 0x1e, 0xdf, 0xd7, 0x2f,
  0x5b, 0x42, 0xd6, 0x11, 0x94, 0xfa, 0x3d, 0xd4, 0x37, 0x0b, 0xbb, 0xe9,
  0xdb, 0x1c, 0x0a, 0xe4, 0xdc, 0x08, 0x0d, 0xe4, 0x27, 0x15, 0xdc, 0x02,
  0x41, 0xbe, 0xca, 0x0e, 0xd8, 0xfd, 0xc3, 0x44, 0xd1, 0x0f, 0xc2, 0x23,
  0x10, 0xc8, 0xf2, 0xbd, 0xba, 0x10, 0xc9, 0xf4, 0x39, 0x50, 0x06, 0xa2,
  0xb6, 0xbf, 0x12, 0xde, 0x3c, 0xc8, 0xbc, 0xb0, 0xf7, 0xae, 0x54, 0xfe,
  0xb9, 0xe1, 0x9f, 0x21, 0xe4, 0x53, 0x04, 0xc3, 0x25, 0x06, 0xf2, 0xb9,
  0xd0, 0xab, 0x10, 0xea, 0x26, 0x23, 0xf7, 0xdf, 0xbe, 0xf2, 0x43, 0xdc,
  0xca, 0xcd, 0x1d, 0x08, 0xda, 0x27, 0xce, 0x6a, 0x1d, 0xf2, 0xc1, 0xa4,
  0x40, 0xae, 0x65, 0x49, 0xa4, 0x57, 0x31, 0x40, 0x2e, 0xb7, 0x26, 0xe1,
  0x97, 0x33, 0xeb, 0x98, 0xfa, 0xdc, 0x61, 0x34, 0x34, 0xe9, 0x26, 0xfd,
  0x5f, 0xed, 0xe9, 0xbc, 0x41, 0x38, 0xdb, 0xc4, 0xac, 0xff, 0x3f, 0x81,
  0x25, 0x15, 0x29, 0xe5, 0xca, 0x09, 0x5b, 0x01, 0xd8, 0xa9, 0xef, 0xed,
  0xbe, 0xce, 0x55, 0x0c, 0xdc, 0xe2, 0xec, 0xb0, 0x1f, 0x9b, 0xca, 0xe0,
  0xd8, 0x4e, 0x10, 0x2c, 0x31, 0xaa, 0x2e, 0x4b, 0x70, 0x3b, 0x46, 0xae,
  0x03, 0x5e, 0x42, 0xba, 0x23, 0x92, 0x45, 0xb6, 0x22, 0x9c, 0xbc, 0x5d,
  0x2b, 0x09, 0xbe, 0xc8, 0xa8, 0xe4, 0xbb, 0x45, 0x4e, 0x1c, 0x63, 0xce,
  0xce, 0xf6, 0xd9, 0x01, 0x2d, 0x50, 0xbd, 0xc5, 0x54, 0x3b, 0xd7, 0x3c,
  0x01, 0x93, 0x4f, 0xdf, 0xc2, 0x1d, 0x05, 0xe9, 0x2b, 0x4b, 0x32, 0x25,
  0xfd, 0xfc, 0x27, 0x05, 0x00, 0x21, 0x96, 0x13, 0x23, 0x50, 0xad, 0xee,
  0x45, 0xcf, 0xef, 0xc8, 0xd4, 0xc2, 0x32, 0xfb, 0xc7, 0x2a, 0xd1, 0x06,
  0x7b, 0x00, 0x1d, 0x43, 0x46, 0x0e, 0x21, 0xd4, 0x4a, 0x2f, 0xf9, 0xd0,
  0x12, 0xb3, 0x4c, 0xef, 0x2a, 0xff, 0x9f, 0x19, 0x0f, 0xf3, 0xf5, 0xaf,
  0xdb, 0xbb, 0x23, 0x03, 0x44, 0xfc, 0x42, 0xcb, 0x03, 0xc6, 0xb8, 0x26,
  0xdb, 0x0f, 0xc4, 0x08, 0x0b, 0xcd, 0x10, 0x12, 0x15, 0xd7, 0x13, 0x1c,
  0xdb, 0x00, 0x34, 0x39, 0x41, 0xe5, 0xff, 0x16, 0x5a, 0x8c, 0x13, 0xe1,
  0xfb, 0x78, 0x06, 0xe7, 0x37, 0x15, 0xf4, 0x34, 0x1d, 0xd8, 0x12, 0x08,
  0x09, 0x1b, 0xd2, 0xdd, 0xe8, 0x22, 0xea, 0x16, 0xfa, 0xfa, 0xfd, 0xf6,
  0xeb, 0x0b, 0x3d, 0x35, 0xf2, 0x11, 0x0f, 0x2c, 0xf4, 0xdc, 0x30, 0xb9,
  0xf8, 0xfb, 0xef, 0xc3, 0x28, 0xbb, 0x12, 0x2a, 0xff, 0xb9, 0xc8, 0xbc,
  0x1f, 0x3b, 0xca, 0x1c, 0xab, 0xe8, 0xc9, 0x46, 0x50, 0xe4, 0x20, 0x29,
  0x15, 0xb4, 0x4a, 0xe8, 0x23, 0xfa, 0xee, 0xfc, 0xdc, 0xc7, 0xc4, 0xda,
  0x40, 0xde, 0xe1, 0x20, 0xd2, 0xe3, 0xcf, 0x0c, 0xa4, 0xd8, 0xed, 0xec,
  0xa4, 0x1a, 0x67, 0xd8, 0xb3, 0x00, 0x81, 0x2d, 0x18, 0xe1, 0x43, 0x8e,
  0xa9, 0x54, 0xe8, 0x1f, 0xca, 0x1c, 0x50, 0x12, 0xe7, 0xf4, 0x14, 0x2e,
  0x05, 0x00, 0xb2, 0x2a, 0x1f, 0x1c, 0x4a, 0x1e, 0xea, 0xf5, 0x00, 0xe0,
  0x4b, 0xa9, 0x1f, 0x18, 0xd7, 0xf1, 0xf9, 0x18, 0x54, 0xda, 0x4f, 0xe9,
  0xe1, 0xb4, 0xd0, 0x45, 0x1d, 0xee, 0xb5, 0x12, 0xf2, 0x2e, 0xb5, 0xda,
  0x1e, 0xa1, 0xf4, 0x2d, 0xee, 0xca, 0xbc, 0xe8, 0x08, 0xba, 0x0c, 0xc3,
  0xdb, 0xf6, 0xde, 0xe2, 0xa4, 0x37, 0x9e, 0x49, 0x3f, 0x5f, 0xd9, 0xff,
  0x2e, 0x45, 0xfa, 0x44, 0x13, 0x1d, 0xf8, 0x22, 0xd0, 0xf1, 0xdd, 0x20,
  0xec, 0x40, 0xa4, 0x35, 0x11, 0x2a, 0x17, 0xe3, 0x41, 0xe7, 0xe0, 0x39,
  0x2d, 0x03, 0x60, 0xe6, 0x9b, 0xf9, 0x2f, 0xed, 0x1b, 0x47, 0xf0, 0x60,
  0xd1, 0xf2, 0x12, 0xba, 0x02, 0x0f, 0xb5, 0xe8, 0xc1, 0xf8, 0x19, 0x17,
  0x3c, 0xf5, 0x0d, 0xc1, 0x9e, 0xce, 0x1a, 0x81, 0x4f, 0x3d, 0xdc, 0xf9,
  0xed, 0x1f, 0xb1, 0x53, 0xff, 0x1b, 0xd5, 0xd1, 0x01, 0xb0, 0xc9, 0xf8,
  0xa8, 0x58, 0xa7, 0x07, 0xce, 0xca, 0x41, 0xa3, 0xd1, 0x22, 0xc5, 0xa0,
  0x2d, 0x00, 0xf5, 0xf8, 0xce, 0x38, 0xb9, 0xd6, 0x13, 0xbd, 0x4f, 0xe4,
  0x16, 0x9d, 0x4d, 0xd5, 0x11, 0xd0, 0x1f, 0xdd, 0xb7, 0x4e, 0xc2, 0xe5,
  0x39, 0xd9, 0xe0, 0x0f, 0x2f, 0x2d, 0x0a, 0xd9, 0x1c, 0xa0, 0x1b, 0xe3,
  0x47, 0x9b, 0x03, 0x50, 0xbf, 0x2b, 0xf1, 0x31, 0xdb, 0xf4, 0xb9, 0x35,
  0xeb, 0xb1, 0x26, 0x48, 0xb6, 0x48, 0xe3, 0x4e, 0xdf, 0xf2, 0x1c, 0xb8,
  0x1c, 0xd8, 0x31, 0x09, 0x5f, 0xe8, 0x3b, 0xea, 0xe4, 0x4e, 0xe9, 0xa4,
  0xb3, 0x49, 0xcf, 0x20, 0x27, 0x5a, 0xd8, 0x68, 0x2a, 0x15, 0xf9, 0xda,
  0x4e, 0xda, 0x59, 0x4a, 0x5b, 0xf8, 0x88, 0xb7, 0xb7, 0x0d, 0xc0, 0xf3,
  0x15, 0x5d, 0xf7, 0x69, 0xc2, 0xa6, 0x20, 0x37, 0xe7, 0xa4, 0x50, 0xb4,
  0x4b, 0xcb, 0x11, 0xd0, 0x61, 0x1a, 0xe4, 0xdc, 0x28, 0x0a, 0xcc, 0x03,
  0xe4, 0xa4, 0xba, 0x62, 0xfb, 0x81, 0xd0, 0xe2, 0xd5, 0xdb, 0xd3, 0x1c,
  0x40, 0xed, 0xdb, 0xca, 0xe6, 0x13, 0xaa, 0xf4, 0xcc, 0x49, 0xe2, 0xdd,
  0xde, 0xd1, 0xe3, 0xc7, 0x33, 0x50, 0x23, 0x88, 0x23, 0x05, 0xeb, 0xcc,
  0x51, 0x1a, 0xa4, 0xc2, 0x33, 0xe3, 0x52, 0xa4, 0x1a, 0xee, 0x59, 0xb1,
  0xb7, 0xc4, 0x34, 0x49, 0xb6, 0xcc, 0xc7, 0xf2, 0xe7, 0x32, 0xdb, 0x0e,
  0x44, 0xa6, 0xf7, 0x21, 0xc5, 0xd5, 0xec, 0x2d, 0x03, 0x42, 0xde, 0xbc,
  0x49, 0x13, 0x0b, 0xf3, 0xeb, 0xee, 0x61, 0xb6, 0x0c, 0x28, 0x34, 0x14,
  0x40, 0x10, 0xb5, 0xec, 0x14, 0xe6, 0xf0, 0xa7, 0x05, 0xd5, 0xc0, 0x12,
  0xad, 0x1a, 0xbb, 0xe9, 0x3e, 0x14, 0xe1, 0xf5, 0x50, 0xc4, 0xbc, 0x29,
  0xb8, 0xfe, 0x0f, 0xe5, 0x2e, 0xf6, 0xc1, 0xca, 0x07, 0x06, 0x07, 0x27,
  0xe7, 0xed, 0xbd, 0xd0, 0x2e, 0x3c, 0x34, 0x4f, 0xdb, 0xeb, 0xd4, 0x54,
  0x97, 0x9d, 0xc3, 0xdb, 0x02, 0xf8, 0xc9, 0x3a, 0xe8, 0xed, 0x42, 0x06,
  0xce, 0xee, 0xa7, 0x24, 0xe7, 0x41, 0xe8, 0xd0, 0x51, 0xa0, 0xf5, 0xca,
  0x18, 0x21, 0xae, 0xd4, 0xba, 0x5e, 0xd4, 0x3f, 0xb6, 0x2d, 0xdf, 0xb2,
  0x02, 0x15, 0xac, 0x14, 0x18, 0xde, 0xc5, 0xc5, 0x03, 0x33, 0xaf, 0x28,
  0x0a, 0x2b, 0xfe, 0x8b, 0xf0, 0xd4, 0xf1, 0xe0, 0x2c, 0xba, 0xe4, 0xf8,
  0xc1, 0x49, 0x48, 0xe0, 0xe7, 0x2e, 0xb9, 0x81, 0xec, 0x2e, 0x02, 0x9c,
  0xce, 0x60, 0xe0, 0x37, 0x9d, 0xc3, 0x1d, 0xfc, 0x25, 0x25, 0xf6, 0x0b,
  0xa7, 0xda, 0x42, 0xcd, 0x1e, 0x39, 0x04, 0x47, 0xc3, 0x33, 0x7f, 0xdb,
  0xfe, 0xee, 0xd6, 0xe6, 0xc6, 0xdc, 0xdb, 0xb0, 0xf5, 0x2f, 0xd6, 0x36,
  0x24, 0x43, 0x4d, 0x1e, 0x0c, 0xda, 0xe1, 0x2f, 0xff, 0x25, 0x3b, 0x32,
  0xe9, 0xdf, 0x18, 0xe1, 0x43, 0xf5, 0x08, 0x29, 0xb5, 0x32, 0xf4, 0x5b,
  0xbe, 0x68, 0xfa, 0x35, 0x5e, 0xe0, 0x4e, 0x0b, 0x25, 0xda, 0x0b, 0x18,
  0x11, 0xe6, 0xbe, 0xea, 0x26, 0xab, 0x01, 0xdf, 0x33, 0xd3, 0x20, 0x03,
  0x47, 0xfe, 0x57, 0xed, 0xfa, 0xd9, 0xc1, 0x64, 0x13, 0x18, 0xdc, 0xf7,
  0x41, 0x40, 0xda, 0x1a, 0xcb, 0xd1, 0xf8, 0x17, 0xe8, 0x35, 0x1b, 0xdd,
  0xcb, 0x32, 0x36, 0xb6, 0x49, 0x3d, 0x03, 0xc4, 0x4a, 0xe6, 0xff, 0xe4,
  0xfa, 0x30, 0xc8, 0x36, 0xf6, 0x5a, 0xce, 0xb2, 0xf9, 0xf5, 0x4a, 0x46,
  0xfc, 0xb9, 0xf9, 0x16, 0xb7, 0x46, 0x4f, 0xf2, 0xe9, 0xf0, 0xdc, 0xe0,
  0xdb, 0xc4, 0xb9, 0x49, 0x31, 0xdd, 0x1d, 0x2f, 0x37, 0xf3, 0xbc, 0x37,
  0x41, 0xd1, 0xae, 0xf4, 0x31, 0xde, 0x34, 0xcb, 0x25, 0x16, 0xce, 0xe3,
  0x10, 0xec, 0x0c, 0x17, 0xbb, 0x31, 0x56, 0x56, 0xde, 0xf7, 0x39, 0xb8,
  0x4b, 0x5a, 0x72, 0xfb, 0x15, 0x4f, 0x81, 0xdb, 0xa0, 0x40, 0x40, 0x08,
  0xd7, 0x1f, 0xe1, 0x42, 0x02, 0xa9, 0x50, 0xf2, 0xa0, 0x1d, 0x32, 0x21,
  0x5b, 0x4d, 0xe2, 0xcc, 0xf8, 0x35, 0xc2, 0xb9, 0xf0, 0x5a, 0x3f, 0xac,
  0xeb, 0x16, 0xb4, 0x1c, 0xdf, 0x50, 0x10, 0xf6, 0x08, 0xe6, 0xe2, 0xe5,
  0xaa, 0x2d, 0x45, 0x00, 0x03, 0xfa, 0x1f, 0x5b, 0xb4, 0x36, 0x15, 0xbf,
  0x13, 0x3b, 0xa9, 0xdb, 0x0c, 0x02, 0x30, 0xc9, 0xc6, 0xee, 0xc6, 0x19,
  0xc3, 0xc5, 0xd5, 0x21, 0xd0, 0xaf, 0x64, 0x31, 0xde, 0xe8, 0x3c, 0xbf,
  0x1c, 0xc9, 0x25, 0x02, 0x19, 0x56, 0xfd, 0xcc, 0x1e, 0xbe, 0xfb, 0xec,
  0xdd, 0x99, 0x61, 0xb7, 0xea, 0x1c, 0x27, 0xea, 0xe1, 0x52, 0x07, 0x51,
  0xf4, 0xe4, 0x24, 0xd3, 0x07, 0x76, 0x39, 0xd3, 0x2c, 0x14, 0xd1, 0xe2,
  0x23, 0xf2, 0x27, 0xbd, 0xd3, 0x0b, 0xf0, 0x4d, 0xbb, 0x31, 0xba, 0x09,
  0x4d, 0xc4, 0xc7, 0x54, 0xe1, 0xaf, 0x24, 0xd6, 0x4e, 0xb2, 0x41, 0x25,
  0xce, 0x3b, 0xd9, 0x0d, 0xc6, 0x42, 0xdd, 0xf9, 0xf7, 0xd8, 0xdd, 0x13,
  0xbb, 0x22, 0x2a, 0xc6, 0x2a, 0x38, 0xba, 0x39, 0x4e, 0x35, 0x66, 0x16,
  0x04, 0xfb, 0x4a, 0xf1, 0x07, 0x9b, 0x22, 0x43, 0x14, 0xd4, 0xe6, 0x46,
  0x4a, 0x9f, 0xfd, 0x64, 0x09, 0x0e, 0x0d, 0xf6, 0x39, 0x0a, 0xbc, 0x0e,
  0xfa, 0xe4, 0x62, 0xc9, 0x01, 0xe4, 0x59, 0x18, 0x32, 0x27, 0x9d, 0x2e,
  0x35, 0x5a, 0xe0, 0x0a, 0xeb, 0x7f, 0xf8, 0xff, 0x2b, 0xf4, 0x0d, 0x0a,
  0xac, 0xd0, 0xf9, 0x32, 0xf8, 0x1a, 0x18, 0x34, 0x4c, 0x5f, 0x95, 0xd3,
  0xaa, 0xe9, 0x1b, 0xe8, 0x23, 0xfd, 0xa4, 0xe8, 0x09, 0xe6, 0xd7, 0xc8,
  0x3e, 0xed, 0xff, 0x45, 0x1a, 0x4a, 0xaf, 0x3e, 0x26, 0x05, 0xc4, 0xbd,
  0x0a, 0x06, 0xdc, 0xe4, 0xe8, 0xf1, 0x37, 0x1b, 0x23, 0x2c, 0xde, 0xdc,
  0x33, 0xde, 0xfe, 0xde, 0x4d, 0x36, 0x20, 0x1b, 0x2c, 0xc0, 0xe7, 0x4a,
  0x05, 0x11, 0x02, 0xe1, 0x15, 0xc8, 0x46, 0x22, 0x0d, 0x0c, 0xa9, 0x35,
  0xc0, 0x0c, 0xff, 0xee, 0x45, 0x46, 0xfb, 0xbf, 0x2c, 0x2f, 0x0f, 0x2b,
  0xcf, 0x27, 0xf0, 0xb1, 0xbb, 0xa8, 0xbc, 0x38, 0x5d, 0x05, 0xce, 0x03,
  0xf9, 0xbb, 0x4b, 0x73, 0xef, 0x6a, 0xe3, 0xda, 0x0d, 0xff, 0x10, 0xf2,
  0x04, 0xe7, 0xed, 0xdb, 0x25, 0x61, 0x29, 0x31, 0xc1, 0xd9, 0xb2, 0xb2,
  0x03, 0x30, 0xee, 0xcd, 0xbc, 0x5c, 0xd6, 0xc3, 0x1f, 0x47, 0x2a, 0x5e,
  0x3a, 0x03, 0x3d, 0x27, 0xf8, 0xd7, 0xb5, 0x2b, 0x9c, 0x11, 0xb4, 0x16,
  0xee, 0x7f, 0x4a, 0x3a, 0xda, 0xa8, 0x4f, 0xd1, 0x3f, 0x8d, 0xe4, 0xe2,
  0x14, 0xd7, 0x4d, 0x16, 0x04, 0xb4, 0xd7, 0xed, 0x35, 0x32, 0xbc, 0xd0,
  0xf2, 0x1c, 0xee, 0x0b, 0x3f, 0x33, 0xb9, 0x2b, 0x25, 0x3c, 0x5f, 0x14,
  0xc6, 0xae, 0x11, 0x6f, 0xf2, 0xec, 0xd2, 0x02, 0x3c, 0xcc, 0x04, 0xd8,
  0x33, 0x29, 0xa5, 0xc2, 0xd9, 0x16, 0x5e, 0x39, 0xdf, 0xba, 0xbd, 0xbe,
  0x27, 0xc9, 0x4f, 0x19, 0x43, 0xd8, 0xa5, 0x25, 0xf0, 0x19, 0xcb, 0x4f,
  0xed, 0xe4, 0x07, 0xeb, 0xf0, 0xf0, 0x1f, 0x5e, 0xf0, 0x79, 0x41, 0x5f,
  0x1c, 0xea, 0x39, 0xe8, 0x51, 0xd4, 0x26, 0x54, 0x3e, 0xf1, 0x6f, 0x16,
  0x34, 0xa0, 0x1f, 0x30, 0x0b, 0x04, 0xf5, 0x34, 0x56, 0xd4, 0xa6, 0xce,
  0x2c, 0x35, 0xe0, 0xe6, 0xd4, 0xe8, 0xca, 0x3e, 0xd8, 0x32, 0xc9, 0x31,
  0xd3, 0xea, 0x37, 0xd2, 0x02, 0xf9, 0xe1, 0x23, 0x40, 0xc8, 0xaa, 0xef,
  0xac, 0x2e, 0xf1, 0xfa, 0xe9, 0xcf, 0x01, 0x2a, 0xea, 0xdc, 0x7f, 0x06,
  0xe5, 0xce, 0x52, 0xee, 0x1e, 0x21, 0x9c, 0x14, 0x47, 0xd5, 0x11, 0xd6,
  0x16, 0xf0, 0x29, 0x3f, 0xf4, 0xc4, 0x46, 0xcd, 0xe1, 0x9a, 0xed, 0x28,
  0x29, 0x1a, 0xb2, 0x3b, 0xd4, 0x05, 0x12, 0x10, 0xee, 0xd3, 0x2b, 0x00,
  0xc8, 0x3c, 0xb1, 0xd4, 0x47, 0x17, 0x36, 0x19, 0x34, 0xde, 0x23, 0xec,
  0xfa, 0xc0, 0x24, 0x1c, 0x20, 0xf3, 0xc5, 0xdf, 0xde, 0x29, 0xee, 0x4a,
  0xd5, 0x04, 0x27, 0x10, 0x03, 0xf5, 0x01, 0x5a, 0x4c, 0xad, 0xf9, 0x38,
  0xd4, 0xc6, 0xf4, 0xb8, 0xa5, 0xce, 0x1e, 0x2f, 0x47, 0x4d, 0x0e, 0xf9,
  0x2d, 0x45, 0x2c, 0x53, 0x01, 0xca, 0xec, 0x08, 0x3b, 0xda, 0xe6, 0x32,
  0x36, 0xd5, 0x1f, 0x31, 0xf1, 0xeb, 0x14, 0x1c, 0x02, 0xaa, 0xc4, 0x1a,
  0x48, 0x3c, 0x40, 0x2d, 0x17, 0xf2, 0xb2, 0x46, 0xed, 0x26, 0x0f, 0x07,
  0xfa, 0x59, 0xd0, 0x34, 0xc8, 0x0a, 0x3c, 0xaf, 0xb5, 0xf7, 0x1d, 0x15,
  0xdf, 0xeb, 0xa0, 0x0a, 0xf3, 0xc5, 0x08, 0xdd, 0x03, 0xb9, 0xdb, 0x53,
  0x22, 0xdd, 0x23, 0x0b, 0x11, 0xf0, 0xcb, 0x15, 0xd1, 0x26, 0xb9, 0x3b,
  0x10, 0x2f, 0xf8, 0xd8, 0xda, 0x4b, 0xc5, 0xf9, 0xa3, 0xe2, 0xaf, 0xc9,
  0x32, 0x15, 0xd9, 0xef, 0x0c, 0xef, 0xe5, 0x10, 0xe0, 0xcf, 0xe4, 0xc5,
  0xf4, 0x17, 0x58, 0x1e, 0x0f, 0xda, 0x28, 0xd5, 0xc8, 0xca, 0x46, 0xcd,
  0xea, 0xce, 0x20, 0x3e, 0xca, 0x48, 0xe2, 0x1b, 0xc9, 0x2c, 0x23, 0x20,
  0xe6, 0xb2, 0x9f, 0xce, 0x44, 0x0e, 0x45, 0xf5, 0xcf, 0x4e, 0xc0, 0x11,
  0x00, 0x0e, 0xd5, 0xf7, 0xf5, 0xc7, 0xff, 0xb6, 0xa1, 0x76, 0xc7, 0xd7,
  0x31, 0xb2, 0xe2, 0x53, 0xec, 0x12, 0x49, 0x0e, 0xde, 0xd0, 0x22, 0x00,
  0xcd, 0x64, 0xc9, 0x34, 0x25, 0x0c, 0x31, 0x37, 0xe2, 0x22, 0x43, 0xbb,
  0xd9, 0xf3, 0xa9, 0x07, 0x3f, 0x03, 0xfa, 0xca, 0x47, 0xc4, 0x33, 0x30,
  0xaa, 0x9b, 0x58, 0xe0, 0xa0, 0x33, 0x63, 0xb6, 0xc8, 0x7f, 0xaa, 0x2d,
  0x21, 0xcb, 0xc1, 0xf5, 0xd0, 0x28, 0xd4, 0x5e, 0xed, 0x38, 0xe1, 0xf0,
  0xfb, 0x28, 0xf6, 0x2d, 0x44, 0x2e, 0xf0, 0x38, 0xff, 0x03, 0x56, 0xc7,
  0x34, 0x06, 0xd5, 0xc0, 0x3f, 0x56, 0xd1, 0xc1, 0xdd, 0x14, 0xbc, 0xc9,
  0xc1, 0x3e, 0xf6, 0x39, 0xfa, 0x0b, 0xf4, 0x14, 0x4f, 0xed, 0xf9, 0x1d,
  0x0a, 0x46, 0xc3, 0xd4, 0x3a, 0x30, 0xeb, 0xe6, 0xd6, 0x42, 0xa8, 0xfb,
  0x1f, 0xf9, 0x37, 0x09, 0xd9, 0x05, 0xbc, 0x19, 0x24, 0x19, 0x4b, 0x49,
  0x3e, 0xd8, 0x47, 0xfa, 0xe3, 0xf4, 0x16, 0x37, 0x32, 0x00, 0x05, 0xfa,
  0x36, 0xf1, 0x6e, 0xb1, 0x47, 0x1a, 0xd4, 0x26, 0xfb, 0xea, 0x42, 0x1a,
  0x19, 0x2e, 0xf6, 0x40, 0xe1, 0x53, 0xda, 0x05, 0xc1, 0xd2, 0x0f, 0xed,
  0xb5, 0xd6, 0x07, 0xea, 0xb7, 0xf1, 0x2d, 0x01, 0x04, 0x30, 0x07, 0x17,
  0xc7, 0xdb, 0xd8, 0x5d, 0x07, 0x7f, 0x96, 0xb7, 0xf5, 0xe3, 0x05, 0xe0,
  0xe5, 0xc0, 0xd4, 0x1e, 0xea, 0xcd, 0x56, 0x44, 0x1f, 0x5f, 0xda, 0x04,
  0x3a, 0xd5, 0xda, 0xfe, 0x15, 0xf6, 0xd4, 0xe1, 0xff, 0x37, 0x4e, 0xeb,
  0x3c, 0xdd, 0xd2, 0xb4, 0xb1, 0xde, 0x53, 0x04, 0xcb, 0xdd, 0xbe, 0x33,
  0x1c, 0x99, 0x1e, 0xa7, 0xc1, 0x19, 0x08, 0xa2, 0xdb, 0x81, 0x41, 0x1c,
  0xf3, 0x21, 0x0e, 0xf9, 0x00, 0x1e, 0x21, 0xa4, 0xcc, 0xde, 0xb7, 0x27,
  0xc0, 0x1e, 0x2d, 0xda, 0x12, 0xf4, 0x9a, 0x2a, 0x2c, 0xb1, 0xa7, 0xe1,
  0xc4, 0xce, 0xb5, 0x18, 0xd5, 0xfa, 0xea, 0x0f, 0xd6, 0xfa, 0x22, 0x3d,
  0x4a, 0xea, 0x0b, 0x05, 0x36, 0xac, 0x23, 0x00, 0xbc, 0x48, 0x34, 0xf7,
  0xb9, 0xcc, 0xbe, 0x0d, 0x49, 0x36, 0xe6, 0xbe, 0xe0, 0x2b, 0xe2, 0xf4,
  0x15, 0xf0, 0x21, 0xfa, 0x0c, 0xcd, 0xed, 0x39, 0x01, 0x43, 0x14, 0x30,
  0xf5, 0x15, 0xfb, 0xf8, 0x45, 0x21, 0x15, 0x8e, 0xe2, 0x49, 0x39, 0x48,
  0x51, 0xc8, 0xf7, 0xe6, 0xbe, 0x23, 0x4e, 0xbc, 0x2a, 0x31, 0x25, 0x30,
  0x47, 0x3c, 0x30, 0x03, 0x51, 0xc9, 0x43, 0xd1, 0x0e, 0xf2, 0x56, 0xb6,
  0xce, 0x42, 0xbe, 0x1e, 0x4c, 0xb7, 0xb8, 0x4e, 0x59, 0xf8, 0x49, 0x0c,
  0xd0, 0xd5, 0xc8, 0x35, 0xdd, 0xb4, 0xe7, 0x07, 0xdf, 0xb3, 0x32, 0x0a,
  0xd3, 0xc3, 0xc9, 0xf2, 0x18, 0x1e, 0xea, 0x32, 0x20, 0x2e, 0x3c, 0x17,
  0xeb, 0xf8, 0x39, 0xb8, 0x8b, 0xcd, 0xd0, 0x8c, 0x9c, 0xad, 0x2d, 0x81,
  0xe6, 0xe7, 0x0f, 0x9b, 0xd4, 0x48, 0xf1, 0xf3, 0x24, 0x0b, 0xa0, 0x21,
  0xcf, 0xb2, 0x97, 0x90, 0xf1, 0x88, 0x84, 0x37, 0xab, 0x1a, 0xed, 0x89,
  0x62, 0x28, 0x61, 0x16, 0xfe, 0x5e, 0x12, 0xd3, 0xce, 0xed, 0xcd, 0xd7,
  0x9a, 0xab, 0xcf, 0xea, 0xf4, 0xb2, 0x09, 0x55, 0xb2, 0x9e, 0x1c, 0x6a,
  0x34, 0x29, 0x3c, 0x01, 0xae, 0xa8, 0x1b, 0xe0, 0x17, 0xa0, 0x05, 0xdd,
  0x5e, 0xde, 0x25, 0x98, 0x66, 0x24, 0xf2, 0x21, 0xf3, 0xc2, 0xd2, 0xec,
  0xac, 0xa9, 0x16, 0x05, 0x43, 0x43, 0xc8, 0x5c, 0xeb, 0x06, 0xe8, 0x37,
  0x4d, 0x5d, 0x3c, 0xc3, 0x2d, 0xf8, 0xdd, 0x00, 0xb8, 0xf8, 0x48, 0x52,
  0xf1, 0x4c, 0x27, 0xcf, 0xf8, 0xc6, 0x03, 0xd7, 0xa2, 0x48, 0xf0, 0xbd,
  0xda, 0x40, 0xc5, 0xfa, 0x91, 0x1c, 0x3d, 0x4c, 0xd3, 0xd6, 0xba, 0xee,
  0xa4, 0x25, 0x99, 0xe9, 0xe0, 0xc1, 0x4e, 0x4b, 0xbb, 0xbd, 0xef, 0x03,
  0x09, 0x20, 0x13, 0xd3, 0xc0, 0x5a, 0x19, 0x0f, 0xae, 0xa1, 0x28, 0x03,
  0xea, 0x8d, 0xc5, 0x92, 0x54, 0xd7, 0x0e, 0xb4, 0x28, 0x33, 0x1d, 0xde,
  0xb6, 0x0f, 0x50, 0x4d, 0x35, 0x41, 0x31, 0xd1, 0x46, 0xd4, 0x7f, 0xfc,
  0x31, 0x40, 0x8f, 0xf7, 0x06, 0x65, 0x11, 0xe1, 0x17, 0x22, 0x39, 0x30,
  0x1a, 0xaa, 0x3d, 0xdc, 0x2e, 0x5e, 0x42, 0x2b, 0xf0, 0x31, 0x1d, 0x1c,
  0x45, 0x51, 0x1e, 0xb7, 0x1a, 0xdb, 0xe7, 0xd8, 0xc7, 0x20, 0x09, 0x1e,
  0x8a, 0x7b, 0xca, 0x30, 0x75, 0xc2, 0x23, 0x40, 0x27, 0xce, 0x54, 0xf6,
  0x61, 0xd1, 0x1e, 0xe8, 0x32, 0xa5, 0x38, 0x2e, 0x41, 0xeb, 0xca, 0xf4,
  0xf3, 0x9e, 0x36, 0xba, 0xff, 0xb4, 0xf8, 0x2e, 0xfd, 0xbd, 0xeb, 0xf1,
  0x3b, 0x21, 0xe7, 0xe7, 0x40, 0x1d, 0x32, 0x32, 0xf6, 0xb4, 0x17, 0x9e,
  0xfd, 0xf6, 0x55, 0xff, 0xfd, 0xf1, 0xe1, 0x56, 0x68, 0xef, 0xf2, 0x98,
  0xad, 0xe9, 0xa3, 0x7a, 0x72, 0x74, 0x01, 0xd5, 0xd3, 0xe4, 0x65, 0xee,
  0x06, 0x27, 0xd5, 0x21, 0x1d, 0xfd, 0x1f, 0xea, 0xed, 0x1b, 0x45, 0xc8,
  0x5f, 0x5c, 0xe9, 0xcb, 0x54, 0x10, 0x22, 0x47, 0x2b, 0xc6, 0x72, 0xea,
  0x44, 0xbf, 0xc7, 0x33, 0xd5, 0x01, 0xcc, 0xc8, 0xe6, 0xcb, 0x1f, 0xbc,
  0xa6, 0xf9, 0xff, 0xff, 0x04, 0x00, 0x00, 0x00, 0x80, 0x00, 0x00, 0x00,
  0xbf, 0xfc, 0xff, 0xff, 0x1e, 0x00, 0x00, 0x00, 0xb0, 0xff, 0xff, 0xff,
  0x79, 0x01, 0x00, 0x00, 0x56, 0xfd, 0xff, 0xff, 0x71, 0xfd, 0xff, 0xff,
  0x46, 0xfd, 0xff, 0xff, 0xf0, 0xfe, 0xff, 0xff, 0x91, 0xfc, 0xff, 0xff,
  0x5f, 0xfd, 0xff, 0xff, 0x2b, 0x00, 0x00, 0x00, 0xc1, 0x01, 0x00, 0x00,
  0xb4, 0xfc, 0xff, 0xff, 0x63, 0xfd, 0xff, 0xff, 0x52, 0x01, 0x00, 0x00,
  0xe4, 0xfe, 0xff, 0xff, 0x09, 0x00, 0x00, 0x00, 0x7a, 0x01, 0x00, 0x00,
  0xad, 0xff, 0xff, 0xff, 0x83, 0xfe, 0xff, 0xff, 0x49, 0xfe, 0xff, 0xff,
  0x07, 0xff, 0xff, 0xff, 0xb1, 0x01, 0x00, 0x00, 0x17, 0x02, 0x00, 0x00,
  0xbe, 0xff, 0xff, 0xff, 0x49, 0x04, 0x00, 0x00, 0xf0, 0xff, 0xff, 0xff,
  0xfe, 0xfe, 0xff, 0xff, 0x22, 0x01, 0x00, 0x00, 0x6b, 0xfe, 0xff, 0xff,
  0x70, 0xfc, 0xff, 0xff, 0x91, 0x03, 0x00, 0x00, 0x32, 0xfa, 0xff, 0xff,
  0x04, 0x00, 0x00, 0x00, 0x20, 0x00, 0x00, 0x00, 0x7f, 0x86, 0xc4, 0xdb,
  0x60, 0x72, 0x85, 0x5f, 0x59, 0x69, 0x82, 0x9d, 0x22, 0x44, 0xac, 0x2b,
  0x50, 0x83, 0x15, 0x79, 0x47, 0x5d, 0xa2, 0x9f, 0x31, 0xac, 0xb6, 0xde,
  0xcc, 0x44, 0x0a, 0xd3, 0x5e, 0xfa, 0xff, 0xff, 0x04, 0x00, 0x00, 0x00,
  0x04, 0x00, 0x00, 0x00, 0x51, 0xfe, 0xff, 0xff, 0x6e, 0xfa, 0xff, 0xff,
  0x04, 0x00, 0x00, 0x00, 0x08, 0x00, 0x00, 0x00, 0xff, 0xff, 0xff, 0xff,
  0xa0, 0x00, 0x00, 0x00, 0x82, 0xfa, 0xff, 0xff, 0x04, 0x00, 0x00, 0x00,
  0x0c, 0x00, 0x00, 0x00, 0xff, 0xff, 0xff, 0xff, 0x0a, 0x00, 0x00, 0x00,
  0x20, 0x00, 0x00, 0x00, 0x9a, 0xfa, 0xff, 0xff, 0x04, 0x00, 0x00, 0x00,
  0x0c, 0x00, 0x00, 0x00, 0xff, 0xff, 0xff, 0xff, 0x0a, 0x00, 0x00, 0x00,
  0x10, 0x00, 0x00, 0x00, 0xe4, 0xd7, 0xff, 0xff, 0xb6, 0xfa, 0xff, 0xff,
  0x04, 0x00, 0x00, 0x00, 0x0c, 0x00, 0x00, 0x00, 0xff, 0xff, 0xff, 0xff,
  0x15, 0x00, 0x00, 0x00, 0x10, 0x00, 0x00, 0x00, 0xce, 0xfa, 0xff, 0xff,
  0x04, 0x00, 0x00, 0x00, 0x04, 0x00, 0x00, 0x00, 0xfd, 0xff, 0xff, 0xff,
  0xde, 0xfa, 0xff, 0xff, 0x04, 0x00, 0x00, 0x00, 0x04, 0x00, 0x00, 0x00,
  0x20, 0x00, 0x00, 0x00, 0xee, 0xfa, 0xff, 0xff, 0x04, 0x00, 0x00, 0x00,
  0x04, 0x00, 0x00, 0x00, 0x15, 0x00, 0x00, 0x00, 0xfe, 0xfa, 0xff, 0xff,
  0x04, 0x00, 0x00, 0x00, 0x04, 0x00, 0x00, 0x00, 0x01, 0x00, 0x00, 0x00,
  0x0e, 0xfb, 0xff, 0xff, 0x04, 0x00, 0x00, 0x00, 0x04, 0x00, 0x00, 0x00,
  0x00, 0x00, 0x00, 0x00, 0x50, 0xd8, 0xff, 0xff, 0x54, 0xd8, 0xff, 0xff,
  0x0f, 0x00, 0x00, 0x00, 0x4d, 0x4c, 0x49, 0x52, 0x20, 0x43, 0x6f, 0x6e,
  0x76, 0x65, 0x72, 0x74, 0x65, 0x64, 0x2e, 0x00, 0x01, 0x00, 0x00, 0x00,
  0x14, 0x00, 0x00, 0x00, 0x00, 0x00, 0x0e, 0x00, 0x18, 0x00, 0x14, 0x00,
  0x10, 0x00, 0x0c, 0x00, 0x08, 0x00, 0x04, 0x00, 0x0e, 0x00, 0x00, 0x00,
  0x14, 0x00, 0x00, 0x00, 0x1c, 0x00, 0x00, 0x00, 0x84, 0x05, 0x00, 0x00,
  0x88, 0x05, 0x00, 0x00, 0x8c, 0x05, 0x00, 0x00, 0x04, 0x00, 0x00, 0x00,
  0x6d, 0x61, 0x69, 0x6e, 0x00, 0x00, 0x00, 0x00, 0x19, 0x00, 0x00, 0x00,
  0x4c, 0x05, 0x00, 0x00, 0x04, 0x05, 0x00, 0x00, 0xa4, 0x04, 0x00, 0x00,
  0x60, 0x04, 0x00, 0x00, 0x38, 0x04, 0x00, 0x00, 0xf8, 0x03, 0x00, 0x00,
  0xa8, 0x03, 0x00, 0x00, 0x74, 0x03, 0x00, 0x00, 0x40, 0x03, 0x00, 0x00,
  0x18, 0x03, 0x00, 0x00, 0xe4, 0x02, 0x00, 0x00, 0x90, 0x02, 0x00, 0x00,
  0x68, 0x02, 0x00, 0x00, 0x34, 0x02, 0x00, 0x00, 0xf0, 0x01, 0x00, 0x00,
  0xbc, 0x01, 0x00, 0x00, 0x88, 0x01, 0x00, 0x00, 0x60, 0x01, 0x00, 0x00,
  0x2c, 0x01, 0x00, 0x00, 0xe8, 0x00, 0x00, 0x00, 0xc0, 0x00, 0x00, 0x00,
  0x84, 0x00, 0x00, 0x00, 0x4c, 0x00, 0x00, 0x00, 0x28, 0x00, 0x00, 0x00,
  0x04, 0x00, 0x00, 0x00, 0x26, 0xfc, 0xff, 0xff, 0x0c, 0x00, 0x00, 0x00,
  0x10, 0x00, 0x00, 0x00, 0x0c, 0x00, 0x00, 0x00, 0x01, 0x00, 0x00, 0x00,
  0x2f, 0x00, 0x00, 0x00, 0x01, 0x00, 0x00, 0x00, 0x2e, 0x00, 0x00, 0x00,
  0x46, 0xfc, 0xff, 0xff, 0x0c, 0x00, 0x00, 0x00, 0x10, 0x00, 0x00, 0x00,
  0x0b, 0x00, 0x00, 0x00, 0x01, 0x00, 0x00, 0x00, 0x2e, 0x00, 0x00, 0x00,
  0x01, 0x00, 0x00, 0x00, 0x2d, 0x00, 0x00, 0x00, 0xaa, 0xfb, 0xff, 0xff,
  0x14, 0x00, 0x00, 0x00, 0x00, 0x00, 0x00, 0x08, 0x10, 0x00, 0x00, 0x00,
  0x14, 0x00, 0x00, 0x00, 0x0a, 0x00, 0x00, 0x00, 0x68, 0xd9, 0xff, 0xff,
  0x01, 0x00, 0x00, 0x00, 0x2d, 0x00, 0x00, 0x00, 0x03, 0x00, 0x00, 0x00,
  0x2c, 0x00, 0x00, 0x00, 0x0c, 0x00, 0x00, 0x00, 0x0b, 0x00, 0x00, 0x00,
  0xde, 0xfb, 0xff, 0xff, 0x14, 0x00, 0x00, 0x00, 0x00, 0x00, 0x00, 0x08,
  0x14, 0x00, 0x00, 0x00, 0x18, 0x00, 0x00, 0x00, 0x0a, 0x00, 0x00, 0x00,
  0xce, 0xfb, 0xff, 0xff, 0x00, 0x00, 0x00, 0x01, 0x01, 0x00, 0x00, 0x00,
  0x2c, 0x00, 0x00, 0x00, 0x03, 0x00, 0x00, 0x00, 0x2b, 0x00, 0x00, 0x00,
  0x0e, 0x00, 0x00, 0x00, 0x0d, 0x00, 0x00, 0x00, 0xd2, 0xfc, 0xff, 0xff,
  0x0c, 0x00, 0x00, 0x00, 0x10, 0x00, 0x00, 0x00, 0x04, 0x00, 0x00, 0x00,
  0x01, 0x00, 0x00, 0x00, 0x2b, 0x00, 0x00, 0x00, 0x02, 0x00, 0x00, 0x00,
  0x2a, 0x00, 0x00, 0x00, 0x0a, 0x00, 0x00, 0x00, 0x3a, 0xfc, 0xff, 0xff,
  0x14, 0x00, 0x00, 0x00, 0x00, 0x00, 0x00, 0x05, 0x24, 0x00, 0x00, 0x00,
  0x28, 0x00, 0x00, 0x00, 0x09, 0x00, 0x00, 0x00, 0x76, 0xfe, 0xff, 0xff,
  0x01, 0x00, 0x00, 0x00, 0x02, 0x00, 0x00, 0x00, 0x01, 0x00, 0x00, 0x00,
  0x02, 0x00, 0x00, 0x00, 0x00, 0x00, 0x00, 0x01, 0x01, 0x00, 0x00, 0x00,
  0x2a, 0x00, 0x00, 0x00, 0x01, 0x00, 0x00, 0x00, 0x29, 0x00, 0x00, 0x00,
  0x7a, 0xfc, 0xff, 0xff, 0x14, 0x00, 0x00, 0x00, 0x00, 0x00, 0x00, 0x34,
  0x10, 0x00, 0x00, 0x00, 0x14, 0x00, 0x00, 0x00, 0x05, 0x00, 0x00, 0x00,
  0x38, 0xda, 0xff, 0xff, 0x01, 0x00, 0x00, 0x00, 0x29, 0x00, 0x00, 0x00,
  0x02, 0x00, 0x00, 0x00, 0x28, 0x00, 0x00, 0x00, 0x07, 0x00, 0x00, 0x00,
  0x66, 0xfd, 0xff, 0xff, 0x0c, 0x00, 0x00, 0x00, 0x10, 0x00, 0x00, 0x00,
  0x04, 0x00, 0x00, 0x00, 0x01, 0x00, 0x00, 0x00, 0x28, 0x00, 0x00, 0x00,
  0x02, 0x00, 0x00, 0x00, 0x27, 0x00, 0x00, 0x00, 0x09, 0x00, 0x00, 0x00,
  0xce, 0xfc, 0xff, 0xff, 0x14, 0x00, 0x00, 0x00, 0x00, 0x00, 0x00, 0x0b,
  0x10, 0x00, 0x00, 0x00, 0x14, 0x00, 0x00, 0x00, 0x08, 0x00, 0x00, 0x00,
  0x8c, 0xda, 0xff, 0xff, 0x01, 0x00, 0x00, 0x00, 0x27, 0x00, 0x00, 0x00,
  0x02, 0x00, 0x00, 0x00, 0x26, 0x00, 0x00, 0x00, 0x0f, 0x00, 0x00, 0x00,
  0xfe, 0xfc, 0xff, 0xff, 0x14, 0x00, 0x00, 0x00, 0x00, 0x00, 0x00, 0x15,
  0x10, 0x00, 0x00, 0x00, 0x14, 0x00, 0x00, 0x00, 0x07, 0x00, 0x00, 0x00,
  0xbc, 0xda, 0xff, 0xff, 0x01, 0x00, 0x00, 0x00, 0x26, 0x00, 0x00, 0x00,
  0x02, 0x00, 0x00, 0x00, 0x25, 0x00, 0x00, 0x00, 0x10, 0x00, 0x00, 0x00,
  0x2e, 0xfd, 0xff, 0xff, 0x14, 0x00, 0x00, 0x00, 0x00, 0x00, 0x00, 0x01,
  0x1c, 0x00, 0x00, 0x00, 0x20, 0x00, 0x00, 0x00, 0x06, 0x00, 0x00, 0x00,
  0x68, 0xfe, 0xff, 0xff, 0x00, 0x00, 0x00, 0x01, 0x01, 0x00, 0x00, 0x00,
  0x01, 0x00, 0x00, 0x00, 0x01, 0x00, 0x00, 0x00, 0x25, 0x00, 0x00, 0x00,
  0x03, 0x00, 0x00, 0x00, 0x24, 0x00, 0x00, 0x00, 0x12, 0x00, 0x00, 0x00,
  0x11, 0x00, 0x00, 0x00, 0x6e, 0xfd, 0xff, 0xff, 0x14, 0x00, 0x00, 0x00,
  0x00, 0x00, 0x00, 0x34, 0x10, 0x00, 0x00, 0x00, 0x14, 0x00, 0x00, 0x00,
  0x05, 0x00, 0x00, 0x00, 0x2c, 0xdb, 0xff, 0xff, 0x01, 0x00, 0x00, 0x00,
  0x24, 0x00, 0x00, 0x00, 0x02, 0x00, 0x00, 0x00, 0x23, 0x00, 0x00, 0x00,
  0x05, 0x00, 0x00, 0x00, 0x5a, 0xfe, 0xff, 0xff, 0x0c, 0x00, 0x00, 0x00,
  0x10, 0x00, 0x00, 0x00, 0x04, 0x00, 0x00, 0x00, 0x01, 0x00, 0x00, 0x00,
  0x23, 0x00, 0x00, 0x00, 0x02, 0x00, 0x00, 0x00, 0x22, 0x00, 0x00, 0x00,
  0x08, 0x00, 0x00, 0x00, 0xc2, 0xfd, 0xff, 0xff, 0x24, 0x00, 0x00, 0x00,
  0x00, 0x00, 0x00, 0x05, 0x34, 0x00, 0x00, 0x00, 0x38, 0x00, 0x00, 0x00,
  0x09, 0x00, 0x00, 0x00, 0x00, 0x00, 0x0e, 0x00, 0x18, 0x00, 0x17, 0x00,
  0x10, 0x00, 0x0c, 0x00, 0x08, 0x00, 0x04, 0x00, 0x0e, 0x00, 0x00, 0x00,
  0x01, 0x00, 0x00, 0x00, 0x02, 0x00, 0x00, 0x00, 0x01, 0x00, 0x00, 0x00,
  0x02, 0x00, 0x00, 0x00, 0x00, 0x00, 0x00, 0x01, 0x01, 0x00, 0x00, 0x00,
  0x22, 0x00, 0x00, 0x00, 0x01, 0x00, 0x00, 0x00, 0x21, 0x00, 0x00, 0x00,
  0x12, 0xfe, 0xff, 0xff, 0x14, 0x00, 0x00, 0x00, 0x00, 0x00, 0x00, 0x34,
  0x10, 0x00, 0x00, 0x00, 0x14, 0x00, 0x00, 0x00, 0x05, 0x00, 0x00, 0x00,
  0xd0, 0xdb, 0xff, 0xff, 0x01, 0x00, 0x00, 0x00, 0x21, 0x00, 0x00, 0x00,
  0x02, 0x00, 0x00, 0x00, 0x20, 0x00, 0x00, 0x00, 0x07, 0x00, 0x00, 0x00,
  0xfe, 0xfe, 0xff, 0xff, 0x0c, 0x00, 0x00, 0x00, 0x10, 0x00, 0x00, 0x00,
  0x04, 0x00, 0x00, 0x00, 0x01, 0x00, 0x00, 0x00, 0x20, 0x00, 0x00, 0x00,
  0x02, 0x00, 0x00, 0x00, 0x1f, 0x00, 0x00, 0x00, 0x06, 0x00, 0x00, 0x00,
  0x66, 0xfe, 0xff, 0xff, 0x14, 0x00, 0x00, 0x00, 0x00, 0x00, 0x00, 0x0b,
  0x10, 0x00, 0x00, 0x00, 0x14, 0x00, 0x00, 0x00, 0x08, 0x00, 0x00, 0x00,
  0x24, 0xdc, 0xff, 0xff, 0x01, 0x00, 0x00, 0x00, 0x1f, 0x00, 0x00, 0x00,
  0x02, 0x00, 0x00, 0x00, 0x1e, 0x00, 0x00, 0x00, 0x13, 0x00, 0x00, 0x00,
  0x96, 0xfe, 0xff, 0xff, 0x14, 0x00, 0x00, 0x00, 0x00, 0x00, 0x00, 0x15,
  0x10, 0x00, 0x00, 0x00, 0x14, 0x00, 0x00, 0x00, 0x07, 0x00, 0x00, 0x00,
  0x54, 0xdc, 0xff, 0xff, 0x01, 0x00, 0x00, 0x00, 0x1e, 0x00, 0x00, 0x00,
  0x02, 0x00, 0x00, 0x00, 0x1d, 0x00, 0x00, 0x00, 0x14, 0x00, 0x00, 0x00,
  0xc6, 0xfe, 0xff, 0xff, 0x20, 0x00, 0x00, 0x00, 0x00, 0x00, 0x00, 0x01,
  0x28, 0x00, 0x00, 0x00, 0x2c, 0x00, 0x00, 0x00, 0x06, 0x00, 0x00, 0x00,
  0x0c, 0x00, 0x10, 0x00, 0x00, 0x00, 0x0c, 0x00, 0x08, 0x00, 0x07, 0x00,
  0x0c, 0x00, 0x00, 0x00, 0x00, 0x00, 0x00, 0x01, 0x01, 0x00, 0x00, 0x00,
  0x01, 0x00, 0x00, 0x00, 0x01, 0x00, 0x00, 0x00, 0x1d, 0x00, 0x00, 0x00,
  0x03, 0x00, 0x00, 0x00, 0x1c, 0x00, 0x00, 0x00, 0x16, 0x00, 0x00, 0x00,
  0x15, 0x00, 0x00, 0x00, 0x12, 0xff, 0xff, 0xff, 0x14, 0x00, 0x00, 0x00,
  0x00, 0x00, 0x00, 0x34, 0x10, 0x00, 0x00, 0x00, 0x14, 0x00, 0x00, 0x00,
  0x05, 0x00, 0x00, 0x00, 0xd0, 0xdc, 0xff, 0xff, 0x01, 0x00, 0x00, 0x00,
  0x1c, 0x00, 0x00, 0x00, 0x02, 0x00, 0x00, 0x00, 0x1b, 0x00, 0x00, 0x00,
  0x05, 0x00, 0x00, 0x00, 0x00, 0x00, 0x0a, 0x00, 0x10, 0x00, 0x0c, 0x00,
  0x08, 0x00, 0x04, 0x00, 0x0a, 0x00, 0x00, 0x00, 0x0c, 0x00, 0x00, 0x00,
  0x10, 0x00, 0x00, 0x00, 0x04, 0x00, 0x00, 0x00, 0x01, 0x00, 0x00, 0x00,
  0x1b, 0x00, 0x00, 0x00, 0x02, 0x00, 0x00, 0x00, 0x17, 0x00, 0x00, 0x00,
  0x1a, 0x00, 0x00, 0x00, 0x72, 0xff, 0xff, 0xff, 0x1c, 0x00, 0x00, 0x00,
  0x00, 0x00, 0x00, 0x3b, 0x1c, 0x00, 0x00, 0x00, 0x20, 0x00, 0x00, 0x00,
  0x03, 0x00, 0x00, 0x00, 0x00, 0x00, 0x06, 0x00, 0x08, 0x00, 0x04, 0x00,
  0x06, 0x00, 0x00, 0x00, 0x03, 0x00, 0x00, 0x00, 0x01, 0x00, 0x00, 0x00,
  0x1a, 0x00, 0x00, 0x00, 0x03, 0x00, 0x00, 0x00, 0x19, 0x00, 0x00, 0x00,
  0x03, 0x00, 0x00, 0x00, 0x04, 0x00, 0x00, 0x00, 0xb2, 0xff, 0xff, 0xff,
  0x24, 0x00, 0x00, 0x00, 0x00, 0x00, 0x00, 0x20, 0x24, 0x00, 0x00, 0x00,
  0x28, 0x00, 0x00, 0x00, 0x02, 0x00, 0x00, 0x00, 0x00, 0x00, 0x0e, 0x00,
  0x08, 0x00, 0x00, 0x00, 0x00, 0x00, 0x00, 0x00, 0x00, 0x00, 0x04, 0x00,
  0x0e, 0x00, 0x00, 0x00, 0x01, 0x00, 0x00, 0x00, 0x01, 0x00, 0x00, 0x00,
  0x19, 0x00, 0x00, 0x00, 0x04, 0x00, 0x00, 0x00, 0x18, 0x00, 0x00, 0x00,
  0x01, 0x00, 0x00, 0x00, 0x02, 0x00, 0x00, 0x00, 0x02, 0x00, 0x00, 0x00,
  0x00, 0x00, 0x0e, 0x00, 0x1a, 0x00, 0x14, 0x00, 0x10, 0x00, 0x0c, 0x00,
  0x0b, 0x00, 0x04, 0x00, 0x0e, 0x00, 0x00, 0x00, 0x1c, 0x00, 0x00, 0x00,
  0x00, 0x00, 0x00, 0x37, 0x1c, 0x00, 0x00, 0x00, 0x20, 0x00, 0x00, 0x00,
  0x01, 0x00, 0x00, 0x00, 0x00, 0x00, 0x06, 0x00, 0x08, 0x00, 0x07, 0x00,
  0x06, 0x00, 0x00, 0x00, 0x00, 0x00, 0x00, 0x02, 0x01, 0x00, 0x00, 0x00,
  0x18, 0x00, 0x00, 0x00, 0x01, 0x00, 0x00, 0x00, 0x17, 0x00, 0x00, 0x00,
  0x00, 0x00, 0x0a, 0x00, 0x0c, 0x00, 0x00, 0x00, 0x08, 0x00, 0x04, 0x00,
  0x0a, 0x00, 0x00, 0x00, 0x08, 0x00, 0x00, 0x00, 0x0c, 0x00, 0x00, 0x00,
  0x01, 0x00, 0x00, 0x00, 0x17, 0x00, 0x00, 0x00, 0x01, 0x00, 0x00, 0x00,
  0x00, 0x00, 0x00, 0x00, 0x01, 0x00, 0x00, 0x00, 0x2f, 0x00, 0x00, 0x00,
  0x01, 0x00, 0x00, 0x00, 0x00, 0x00, 0x00, 0x00, 0x30, 0x00, 0x00, 0x00,
  0xac, 0x21, 0x00, 0x00, 0x54, 0x21, 0x00, 0x00, 0xfc, 0x20, 0x00, 0x00,
  0xc0, 0x20, 0x00, 0x00, 0x84, 0x20, 0x00, 0x00, 0x48, 0x20, 0x00, 0x00,
  0x08, 0x20, 0x00, 0x00, 0xcc, 0x1f, 0x00, 0x00, 0x8c, 0x1f, 0x00, 0x00,
  0x4c, 0x1f, 0x00, 0x00, 0x0c, 0x1f, 0x00, 0x00, 0xa0, 0x1e, 0x00, 0x00,
  0x38, 0x1e, 0x00, 0x00, 0x64, 0x1c, 0x00, 0x00, 0x88, 0x1a, 0x00, 0x00,
  0x24, 0x1a, 0x00, 0x00, 0xc0, 0x19, 0x00, 0x00, 0xec, 0x17, 0x00, 0x00,
  0x08, 0x16, 0x00, 0x00, 0xa4, 0x15, 0x00, 0x00, 0x40, 0x15, 0x00, 0x00,
  0x2c, 0x14, 0x00, 0x00, 0x08, 0x13, 0x00, 0x00, 0x90, 0x12, 0x00, 0x00,
  0x24, 0x12, 0x00, 0x00, 0xcc, 0x11, 0x00, 0x00, 0x70, 0x11, 0x00, 0x00,
  0xe0, 0x10, 0x00, 0x00, 0x38, 0x10, 0x00, 0x00, 0x2c, 0x0f, 0x00, 0x00,
  0x10, 0x0e, 0x00, 0x00, 0xbc, 0x0c, 0x00, 0x00, 0x6c, 0x0b, 0x00, 0x00,
  0xc4, 0x0a, 0x00, 0x00, 0x28, 0x0a, 0x00, 0x00, 0x88, 0x09, 0x00, 0x00,
  0xe0, 0x08, 0x00, 0x00, 0xd4, 0x07, 0x00, 0x00, 0xb8, 0x06, 0x00, 0x00,
  0x64, 0x05, 0x00, 0x00, 0x14, 0x04, 0x00, 0x00, 0x6c, 0x03, 0x00, 0x00,
  0xd0, 0x02, 0x00, 0x00, 0x4c, 0x02, 0x00, 0x00, 0x88, 0x01, 0x00, 0x00,
  0xe4, 0x00, 0x00, 0x00, 0x60, 0x00, 0x00, 0x00, 0x04, 0x00, 0x00, 0x00,
  0x2a, 0xdf, 0xff, 0xff, 0x00, 0x00, 0x00, 0x01, 0x14, 0x00, 0x00, 0x00,
  0x1c, 0x00, 0x00, 0x00, 0x1c, 0x00, 0x00, 0x00, 0x30, 0x00, 0x00, 0x00,
  0x34, 0x00, 0x00, 0x00, 0x02, 0x00, 0x00, 0x00, 0xff, 0xff, 0xff, 0xff,
  0x01, 0x00, 0x00, 0x00, 0x10, 0xdf, 0xff, 0xff, 0x1b, 0x00, 0x00, 0x00,
  0x53, 0x74, 0x61, 0x74, 0x65, 0x66, 0x75, 0x6c, 0x50, 0x61, 0x72, 0x74,
  0x69, 0x74, 0x69, 0x6f, 0x6e, 0x65, 0x64, 0x43, 0x61, 0x6c, 0x6c, 0x5f,
  0x31, 0x3a, 0x30, 0x00, 0x02, 0x00, 0x00, 0x00, 0x01, 0x00, 0x00, 0x00,
  0x01, 0x00, 0x00, 0x00, 0x42, 0xee, 0xff, 0xff, 0x00, 0x00, 0x00, 0x01,
  0x18, 0x00, 0x00, 0x00, 0x20, 0x00, 0x00, 0x00, 0x40, 0x00, 0x00, 0x00,
  0x2f, 0x00, 0x00, 0x00, 0x00, 0x00, 0x00, 0x09, 0x58, 0x00, 0x00, 0x00,
  0x02, 0x00, 0x00, 0x00, 0xff, 0xff, 0xff, 0xff, 0x01, 0x00, 0x00, 0x00,
  0x5c, 0xe2, 0xff, 0xff, 0x08, 0x00, 0x00, 0x00, 0x14, 0x00, 0x00, 0x00,
  0x01, 0x00, 0x00, 0x00, 0x80, 0xff, 0xff, 0xff, 0xff, 0xff, 0xff, 0xff,
  0x00, 0x00, 0x00, 0x00, 0x01, 0x00, 0x00, 0x00, 0x00, 0x00, 0x80, 0x3b,
  0x1c, 0x00, 0x00, 0x00, 0x53, 0x74, 0x61, 0x74, 0x65, 0x66, 0x75, 0x6c,
  0x50, 0x61, 0x72, 0x74, 0x69, 0x74, 0x69, 0x6f, 0x6e, 0x65, 0x64, 0x43,
  0x61, 0x6c, 0x6c, 0x5f, 0x31, 0x3a, 0x30, 0x31, 0x00, 0x00, 0x00, 0x00,
  0x02, 0x00, 0x00, 0x00, 0x01, 0x00, 0x00, 0x00, 0x01, 0x00, 0x00, 0x00,
  0xc2, 0xee, 0xff, 0xff, 0x00, 0x00, 0x00, 0x01, 0x18, 0x00, 0x00, 0x00,
  0x20, 0x00, 0x00, 0x00, 0x40, 0x00, 0x00, 0x00, 0x2e, 0x00, 0x00, 0x00,
  0x00, 0x00, 0x00, 0x09, 0x78, 0x00, 0x00, 0x00, 0x02, 0x00, 0x00, 0x00,
  0xff, 0xff, 0xff, 0xff, 0x01, 0x00, 0x00, 0x00, 0xdc, 0xe2, 0xff, 0xff,
  0x08, 0x00, 0x00, 0x00, 0x14, 0x00, 0x00, 0x00, 0x01, 0x00, 0x00, 0x00,
  0x0f, 0x00, 0x00, 0x00, 0x00, 0x00, 0x00, 0x00, 0x00, 0x00, 0x00, 0x00,
  0x01, 0x00, 0x00, 0x00, 0xe5, 0x58, 0x72, 0x3d, 0x3e, 0x00, 0x00, 0x00,
  0x73, 0x65, 0x71, 0x75, 0x65, 0x6e, 0x74, 0x69, 0x61, 0x6c, 0x5f, 0x35,
  0x5f, 0x31, 0x2f, 0x64, 0x65, 0x6e, 0x73, 0x65, 0x5f, 0x31, 0x31, 0x5f,
  0x31, 0x2f, 0x4d, 0x61, 0x74, 0x4d, 0x75, 0x6c, 0x3b, 0x73, 0x65, 0x71,
  0x75, 0x65, 0x6e, 0x74, 0x69, 0x61, 0x6c, 0x5f, 0x35, 0x5f, 0x31, 0x2f,
  0x64, 0x65, 0x6e, 0x73, 0x65, 0x5f, 0x31, 0x31, 0x5f, 0x31, 0x2f, 0x41,
  0x64, 0x64, 0x00, 0x00, 0x02, 0x00, 0x00, 0x00, 0x01, 0x00, 0x00, 0x00,
  0x01, 0x00, 0x00, 0x00, 0x62, 0xef, 0xff, 0xff, 0x00, 0x00, 0x00, 0x01,
  0x18, 0x00, 0x00, 0x00, 0x20, 0x00, 0x00, 0x00, 0x3c, 0x00, 0x00, 0x00,
  0x2d, 0x00, 0x00, 0x00, 0x00, 0x00, 0x00, 0x09, 0x98, 0x00, 0x00, 0x00,
  0x02, 0x00, 0x00, 0x00, 0xff, 0xff, 0xff, 0xff, 0x20, 0x00, 0x00, 0x00,
  0x7c, 0xe3, 0xff, 0xff, 0x08, 0x00, 0x00, 0x00, 0x10, 0x00, 0x00, 0x00,
  0x01, 0x00, 0x00, 0x00, 0x80, 0xff, 0xff, 0xff, 0xff, 0xff, 0xff, 0xff,
  0x01, 0x00, 0x00, 0x00, 0xfb, 0xd4, 0xbe, 0x3c, 0x61, 0x00, 0x00, 0x00,
  0x73, 0x65, 0x71, 0x75, 0x65, 0x6e, 0x74, 0x69, 0x61, 0x6c, 0x5f, 0x35,
  0x5f, 0x31, 0x2f, 0x64, 0x65, 0x6e, 0x73, 0x65, 0x5f, 0x31, 0x30, 0x5f,
  0x31, 0x2f, 0x4d, 0x61, 0x74, 0x4d, 0x75, 0x6c, 0x3b, 0x73, 0x65, 0x71,
  0x75, 0x65, 0x6e, 0x74, 0x69, 0x61, 0x6c, 0x5f, 0x35, 0x5f, 0x31, 0x2f,
  0x64, 0x65, 0x6e, 0x73, 0x65, 0x5f, 0x31, 0x30, 0x5f, 0x31, 0x2f, 0x52,
  0x65, 0x6c, 0x75, 0x3b, 0x73, 0x65, 0x71, 0x75, 0x65, 0x6e, 0x74, 0x69,
  0x61, 0x6c, 0x5f, 0x35, 0x5f, 0x31, 0x2f, 0x64, 0x65, 0x6e, 0x73, 0x65,
  0x5f, 0x31, 0x30, 0x5f, 0x31, 0x2f, 0x42, 0x69, 0x61, 0x73, 0x41, 0x64,
  0x64, 0x00, 0x00, 0x00, 0x02, 0x00, 0x00, 0x00, 0x01, 0x00, 0x00, 0x00,
  0x20, 0x00, 0x00, 0x00, 0x22, 0xf0, 0xff, 0xff, 0x00, 0x00, 0x00, 0x01,
  0x18, 0x00, 0x00, 0x00, 0x20, 0x00, 0x00, 0x00, 0x3c, 0x00, 0x00, 0x00,
  0x2c, 0x00, 0x00, 0x00, 0x00, 0x00, 0x00, 0x09, 0x58, 0x00, 0x00, 0x00,
  0x02, 0x00, 0x00, 0x00, 0xff, 0xff, 0xff, 0xff, 0xa0, 0x00, 0x00, 0x00,
  0x3c, 0xe4, 0xff, 0xff, 0x08, 0x00, 0x00, 0x00, 0x10, 0x00, 0x00, 0x00,
  0x01, 0x00, 0x00, 0x00, 0xa9, 0xff, 0xff, 0xff, 0xff, 0xff, 0xff, 0xff,
  0x01, 0x00, 0x00, 0x00, 0x09, 0x53, 0x04, 0x3d, 0x22, 0x00, 0x00, 0x00,
  0x73, 0x65, 0x71, 0x75, 0x65, 0x6e, 0x74, 0x69, 0x61, 0x6c, 0x5f, 0x35,
  0x5f, 0x31, 0x2f, 0x66, 0x6c, 0x61, 0x74, 0x74, 0x65, 0x6e, 0x5f, 0x35,
  0x5f, 0x31, 0x2f, 0x52, 0x65, 0x73, 0x68, 0x61, 0x70, 0x65, 0x00, 0x00,
  0x02, 0x00, 0x00, 0x00, 0x01, 0x00, 0x00, 0x00, 0xa0, 0x00, 0x00, 0x00,
  0xa2, 0xf0, 0xff, 0xff, 0x00, 0x00, 0x00, 0x01, 0x18, 0x00, 0x00, 0x00,
  0x28, 0x00, 0x00, 0x00, 0x44, 0x00, 0x00, 0x00, 0x2b, 0x00, 0x00, 0x00,
  0x00, 0x00, 0x00, 0x09, 0x68, 0x00, 0x00, 0x00, 0x04, 0x00, 0x00, 0x00,
  0xff, 0xff, 0xff, 0xff, 0x01, 0x00, 0x00, 0x00, 0x05, 0x00, 0x00, 0x00,
  0x20, 0x00, 0x00, 0x00, 0xc4, 0xe4, 0xff, 0xff, 0x08, 0x00, 0x00, 0x00,
  0x10, 0x00, 0x00, 0x00, 0x01, 0x00, 0x00, 0x00, 0xa9, 0xff, 0xff, 0xff,
  0xff, 0xff, 0xff, 0xff, 0x01, 0x00, 0x00, 0x00, 0x09, 0x53, 0x04, 0x3d,
  0x2b, 0x00, 0x00, 0x00, 0x73, 0x65, 0x71, 0x75, 0x65, 0x6e, 0x74, 0x69,
  0x61, 0x6c, 0x5f, 0x35, 0x5f, 0x31, 0x2f, 0x6d, 0x61, 0x78, 0x5f, 0x70,
  0x6f, 0x6f, 0x6c, 0x69, 0x6e, 0x67, 0x31, 0x64, 0x5f, 0x31, 0x31, 0x5f,
  0x31, 0x2f, 0x4d, 0x61, 0x78, 0x50, 0x6f, 0x6f, 0x6c, 0x31, 0x64, 0x00,
  0x04, 0x00, 0x00, 0x00, 0x01, 0x00, 0x00, 0x00, 0x01, 0x00, 0x00, 0x00,
  0x05, 0x00, 0x00, 0x00, 0x20, 0x00, 0x00, 0x00, 0x3a, 0xf1, 0xff, 0xff,
  0x00, 0x00, 0x00, 0x01, 0x18, 0x00, 0x00, 0x00, 0x28, 0x00, 0x00, 0x00,
  0x44, 0x00, 0x00, 0x00, 0x2a, 0x00, 0x00, 0x00, 0x00, 0x00, 0x00, 0x09,
  0x74, 0x00, 0x00, 0x00, 0x04, 0x00, 0x00, 0x00, 0xff, 0xff, 0xff, 0xff,
  0x01, 0x00, 0x00, 0x00, 0x0a, 0x00, 0x00, 0x00, 0x20, 0x00, 0x00, 0x00,
  0x5c, 0xe5, 0xff, 0xff, 0x08, 0x00, 0x00, 0x00, 0x10, 0x00, 0x00, 0x00,
  0x01, 0x00, 0x00, 0x00, 0xa9, 0xff, 0xff, 0xff, 0xff, 0xff, 0xff, 0xff,
  0x01, 0x00, 0x00, 0x00, 0x09, 0x53, 0x04, 0x3d, 0x36, 0x00, 0x00, 0x00,
  0x73, 0x65, 0x71, 0x75, 0x65, 0x6e, 0x74, 0x69, 0x61, 0x6c, 0x5f, 0x35,
  0x5f, 0x31, 0x2f, 0x6d, 0x61, 0x78, 0x5f, 0x70, 0x6f, 0x6f, 0x6c, 0x69,
  0x6e, 0x67, 0x31, 0x64, 0x5f, 0x31, 0x31, 0x5f, 0x31, 0x2f, 0x4d, 0x61,
  0x78, 0x50, 0x6f, 0x6f, 0x6c, 0x31, 0x64, 0x2f, 0x45, 0x78, 0x70, 0x61,
  0x6e, 0x64, 0x44, 0x69, 0x6d, 0x73, 0x00, 0x00, 0x04, 0x00, 0x00, 0x00,
  0x01, 0x00, 0x00, 0x00, 0x01, 0x00, 0x00, 0x00, 0x0a, 0x00, 0x00, 0x00,
  0x20, 0x00, 0x00, 0x00, 0xde, 0xf1, 0xff, 0xff, 0x00, 0x00, 0x00, 0x01,
  0x18, 0x00, 0x00, 0x00, 0x24, 0x00, 0x00, 0x00, 0x44, 0x00, 0x00, 0x00,
  0x29, 0x00, 0x00, 0x00, 0x00, 0x00, 0x00, 0x09, 0x20, 0x01, 0x00, 0x00,
  0x03, 0x00, 0x00, 0x00, 0xff, 0xff, 0xff, 0xff, 0x0a, 0x00, 0x00, 0x00,
  0x20, 0x00, 0x00, 0x00, 0xfc, 0xe5, 0xff, 0xff, 0x08, 0x00, 0x00, 0x00,
  0x14, 0x00, 0x00, 0x00, 0x01, 0x00, 0x00, 0x00, 0xa9, 0xff, 0xff, 0xff,
  0xff, 0xff, 0xff, 0xff, 0x00, 0x00, 0x00, 0x00, 0x01, 0x00, 0x00, 0x00,
  0x09, 0x53, 0x04, 0x3d, 0xe3, 0x00, 0x00, 0x00, 0x73, 0x65, 0x71, 0x75,
  0x65, 0x6e, 0x74, 0x69, 0x61, 0x6c, 0x5f, 0x35, 0x5f, 0x31, 0x2f, 0x62,
  0x61, 0x74, 0x63, 0x68, 0x5f, 0x6e, 0x6f, 0x72, 0x6d, 0x61, 0x6c, 0x69,
  0x7a, 0x61, 0x74, 0x69, 0x6f, 0x6e, 0x5f, 0x31, 0x31, 0x5f, 0x31, 0x2f,
  0x62, 0x61, 0x74, 0x63, 0x68, 0x6e, 0x6f, 0x72, 0x6d, 0x2f, 0x61, 0x64,
  0x64, 0x5f, 0x31, 0x3b, 0x73, 0x65, 0x71, 0x75, 0x65, 0x6e, 0x74, 0x69,
  0x61, 0x6c, 0x5f, 0x35, 0x5f, 0x31, 0x2f, 0x63, 0x6f, 0x6e, 0x76, 0x31,
  0x64, 0x5f, 0x31, 0x31, 0x5f, 0x31, 0x2f, 0x63, 0x6f, 0x6e, 0x76, 0x6f,
  0x6c, 0x75, 0x74, 0x69, 0x6f, 0x6e, 0x2f, 0x53, 0x71, 0x75, 0x65, 0x65,
  0x7a, 0x65, 0x3b, 0x73, 0x65, 0x71, 0x75, 0x65, 0x6e, 0x74, 0x69, 0x61,
  0x6c, 0x5f, 0x35, 0x5f, 0x31, 0x2f, 0x62, 0x61, 0x74, 0x63, 0x68, 0x5f,
  0x6e, 0x6f, 0x72, 0x6d, 0x61, 0x6c, 0x69, 0x7a, 0x61, 0x74, 0x69, 0x6f,
  0x6e, 0x5f, 0x31, 0x31, 0x5f, 0x31, 0x2f, 0x62, 0x61, 0x74, 0x63, 0x68,
  0x6e, 0x6f, 0x72, 0x6d, 0x2f, 0x6d, 0x75, 0x6c, 0x5f, 0x31, 0x3b, 0x73,
  0x65, 0x71, 0x75, 0x65, 0x6e, 0x74, 0x69, 0x61, 0x6c, 0x5f, 0x35, 0x5f,
  0x31, 0x2f, 0x63, 0x6f, 0x6e, 0x76, 0x31, 0x64, 0x5f, 0x31, 0x31, 0x5f,
  0x31, 0x2f, 0x52, 0x65, 0x6c, 0x75, 0x3b, 0x73, 0x65, 0x71, 0x75, 0x65,
  0x6e, 0x74, 0x69, 0x61, 0x6c, 0x5f, 0x35, 0x5f, 0x31, 0x2f, 0x63, 0x6f,
  0x6e, 0x76, 0x31, 0x64, 0x5f, 0x31, 0x31, 0x5f, 0x31, 0x2f, 0x42, 0x69,
  0x61, 0x73, 0x41, 0x64, 0x64, 0x3b, 0x31, 0x00, 0x03, 0x00, 0x00, 0x00,
  0x01, 0x00, 0x00, 0x00, 0x0a, 0x00, 0x00, 0x00, 0x20, 0x00, 0x00, 0x00,
  0x2a, 0xf3, 0xff, 0xff, 0x00, 0x00, 0x00, 0x01, 0x18, 0x00, 0x00, 0x00,
  0x28, 0x00, 0x00, 0x00, 0x44, 0x00, 0x00, 0x00, 0x28, 0x00, 0x00, 0x00,
  0x00, 0x00, 0x00, 0x09, 0x20, 0x01, 0x00, 0x00, 0x04, 0x00, 0x00, 0x00,
  0xff, 0xff, 0xff, 0xff, 0x01, 0x00, 0x00, 0x00, 0x0a, 0x00, 0x00, 0x00,
  0x20, 0x00, 0x00, 0x00, 0x4c, 0xe7, 0xff, 0xff, 0x08, 0x00, 0x00, 0x00,
  0x10, 0x00, 0x00, 0x00, 0x01, 0x00, 0x00, 0x00, 0xa9, 0xff, 0xff, 0xff,
  0xff, 0xff, 0xff, 0xff, 0x01, 0x00, 0x00, 0x00, 0x09, 0x53, 0x04, 0x3d,
  0xe2, 0x00, 0x00, 0x00, 0x73, 0x65, 0x71, 0x75, 0x65, 0x6e, 0x74, 0x69,
  0x61, 0x6c, 0x5f, 0x35, 0x5f, 0x31, 0x2f, 0x62, 0x61, 0x74, 0x63, 0x68,
  0x5f, 0x6e, 0x6f, 0x72, 0x6d, 0x61, 0x6c, 0x69, 0x7a, 0x61, 0x74, 0x69,
  0x6f, 0x6e, 0x5f, 0x31, 0x31, 0x5f, 0x31, 0x2f, 0x62, 0x61, 0x74, 0x63,
  0x68, 0x6e, 0x6f, 0x72, 0x6d, 0x2f, 0x61, 0x64, 0x64, 0x5f, 0x31, 0x3b,
  0x73, 0x65, 0x71, 0x75, 0x65, 0x6e, 0x74, 0x69, 0x61, 0x6c, 0x5f, 0x35,
  0x5f, 0x31, 0x2f, 0x63, 0x6f, 0x6e, 0x76, 0x31, 0x64, 0x5f, 0x31, 0x31,
  0x5f, 0x31, 0x2f, 0x63, 0x6f, 0x6e, 0x76, 0x6f, 0x6c, 0x75, 0x74, 0x69,
  0x6f, 0x6e, 0x2f, 0x53, 0x71, 0x75, 0x65, 0x65, 0x7a, 0x65, 0x3b, 0x73,
  0x65, 0x71, 0x75, 0x65, 0x6e, 0x74, 0x69, 0x61, 0x6c, 0x5f, 0x35, 0x5f,
  0x31, 0x2f, 0x62, 0x61, 0x74, 0x63, 0x68, 0x5f, 0x6e, 0x6f, 0x72, 0x6d,
  0x61, 0x6c, 0x69, 0x7a, 0x61, 0x74, 0x69, 0x6f, 0x6e, 0x5f, 0x31, 0x31,
  0x5f, 0x31, 0x2f, 0x62, 0x61, 0x74, 0x63, 0x68, 0x6e, 0x6f, 0x72, 0x6d,
  0x2f, 0x6d, 0x75, 0x6c, 0x5f, 0x31, 0x3b, 0x73, 0x65, 0x71, 0x75, 0x65,
  0x6e, 0x74, 0x69, 0x61, 0x6c, 0x5f, 0x35, 0x5f, 0x31, 0x2f, 0x63, 0x6f,
  0x6e, 0x76, 0x31, 0x64, 0x5f, 0x31, 0x31, 0x5f, 0x31, 0x2f, 0x52, 0x65,
  0x6c, 0x75, 0x3b, 0x73, 0x65, 0x71, 0x75, 0x65, 0x6e, 0x74, 0x69, 0x61,
  0x6c, 0x5f, 0x35, 0x5f, 0x31, 0x2f, 0x63, 0x6f, 0x6e, 0x76, 0x31, 0x64,
  0x5f, 0x31, 0x31, 0x5f, 0x31, 0x2f, 0x42, 0x69, 0x61, 0x73, 0x41, 0x64,
  0x64, 0x3b, 0x00, 0x00, 0x04, 0x00, 0x00, 0x00, 0x01, 0x00, 0x00, 0x00,
  0x01, 0x00, 0x00, 0x00, 0x0a, 0x00, 0x00, 0x00, 0x20, 0x00, 0x00, 0x00,
  0x7a, 0xf4, 0xff, 0xff, 0x00, 0x00, 0x00, 0x01, 0x18, 0x00, 0x00, 0x00,
  0x28, 0x00, 0x00, 0x00, 0x44, 0x00, 0x00, 0x00, 0x27, 0x00, 0x00, 0x00,
  0x00, 0x00, 0x00, 0x09, 0xe8, 0x00, 0x00, 0x00, 0x04, 0x00, 0x00, 0x00,
  0xff, 0xff, 0xff, 0xff, 0x01, 0x00, 0x00, 0x00, 0x0a, 0x00, 0x00, 0x00,
  0x20, 0x00, 0x00, 0x00, 0x9c, 0xe8, 0xff, 0xff, 0x08, 0x00, 0x00, 0x00,
  0x10, 0x00, 0x00, 0x00, 0x01, 0x00, 0x00, 0x00, 0xa7, 0xff, 0xff, 0xff,
  0xff, 0xff, 0xff, 0xff, 0x01, 0x00, 0x00, 0x00, 0xc3, 0xe6, 0x0c, 0x3d,
  0xaa, 0x00, 0x00, 0x00, 0x73, 0x65, 0x71, 0x75, 0x65, 0x6e, 0x74, 0x69,
  0x61, 0x6c, 0x5f, 0x35, 0x5f, 0x31, 0x2f, 0x62, 0x61, 0x74, 0x63, 0x68,
  0x5f, 0x6e, 0x6f, 0x72, 0x6d, 0x61, 0x6c, 0x69, 0x7a, 0x61, 0x74, 0x69,
  0x6f, 0x6e, 0x5f, 0x31, 0x31, 0x5f, 0x31, 0x2f, 0x62, 0x61, 0x74, 0x63,
  0x68, 0x6e, 0x6f, 0x72, 0x6d, 0x2f, 0x6d, 0x75, 0x6c, 0x5f, 0x31, 0x3b,
  0x73, 0x65, 0x71, 0x75, 0x65, 0x6e, 0x74, 0x69, 0x61, 0x6c, 0x5f, 0x35,
  0x5f, 0x31, 0x2f, 0x63, 0x6f, 0x6e, 0x76, 0x31, 0x64, 0x5f, 0x31, 0x31,
  0x5f, 0x31, 0x2f, 0x63, 0x6f, 0x6e, 0x76, 0x6f, 0x6c, 0x75, 0x74, 0x69,
  0x6f, 0x6e, 0x2f, 0x53, 0x71, 0x75, 0x65, 0x65, 0x7a, 0x65, 0x3b, 0x73,
  0x65, 0x71, 0x75, 0x65, 0x6e, 0x74, 0x69, 0x61, 0x6c, 0x5f, 0x35, 0x5f,
  0x31, 0x2f, 0x63, 0x6f, 0x6e, 0x76, 0x31, 0x64, 0x5f, 0x31, 0x31, 0x5f,
  0x31, 0x2f, 0x52, 0x65, 0x6c, 0x75, 0x3b, 0x73, 0x65, 0x71, 0x75, 0x65,
  0x6e, 0x74, 0x69, 0x61, 0x6c, 0x5f, 0x35, 0x5f, 0x31, 0x2f, 0x63, 0x6f,
  0x6e, 0x76, 0x31, 0x64, 0x5f, 0x31, 0x31, 0x5f, 0x31, 0x2f, 0x42, 0x69,
  0x61, 0x73, 0x41, 0x64, 0x64, 0x3b, 0x00, 0x00, 0x04, 0x00, 0x00, 0x00,
  0x01, 0x00, 0x00, 0x00, 0x01, 0x00, 0x00, 0x00, 0x0a, 0x00, 0x00, 0x00,
  0x20, 0x00, 0x00, 0x00, 0x92, 0xf5, 0xff, 0xff, 0x00, 0x00, 0x00, 0x01,
  0x18, 0x00, 0x00, 0x00, 0x28, 0x00, 0x00, 0x00, 0x44, 0x00, 0x00, 0x00,
  0x26, 0x00, 0x00, 0x00, 0x00, 0x00, 0x00, 0x09, 0xd8, 0x00, 0x00, 0x00,
  0x04, 0x00, 0x00, 0x00, 0xff, 0xff, 0xff, 0xff, 0x01, 0x00, 0x00, 0x00,
  0x0a, 0x00, 0x00, 0x00, 0x20, 0x00, 0x00, 0x00, 0xb4, 0xe9, 0xff, 0xff,
  0x08, 0x00, 0x00, 0x00, 0x10, 0x00, 0x00, 0x00, 0x01, 0x00, 0x00, 0x00,
  0x80, 0xff, 0xff, 0xff, 0xff, 0xff, 0xff, 0xff, 0x01, 0x00, 0x00, 0x00,
  0x42, 0x08, 0xef, 0x3c, 0x99, 0x00, 0x00, 0x00, 0x73, 0x65, 0x71, 0x75,
  0x65, 0x6e, 0x74, 0x69, 0x61, 0x6c, 0x5f, 0x35, 0x5f, 0x31, 0x2f, 0x63,
  0x6f, 0x6e, 0x76, 0x31, 0x64, 0x5f, 0x31, 0x31, 0x5f, 0x31, 0x2f, 0x52,
  0x65, 0x6c, 0x75, 0x3b, 0x73, 0x65, 0x71, 0x75, 0x65, 0x6e, 0x74, 0x69,
  0x61, 0x6c, 0x5f, 0x35, 0x5f, 0x31, 0x2f, 0x63, 0x6f, 0x6e, 0x76, 0x31,
  0x64, 0x5f, 0x31, 0x31, 0x5f, 0x31, 0x2f, 0x42, 0x69, 0x61, 0x73, 0x41,
  0x64, 0x64, 0x3b, 0x73, 0x65, 0x71, 0x75, 0x65, 0x6e, 0x74, 0x69, 0x61,
  0x6c, 0x5f, 0x35, 0x5f, 0x31, 0x2f, 0x63, 0x6f, 0x6e, 0x76, 0x31, 0x64,
  0x5f, 0x31, 0x31, 0x5f, 0x31, 0x2f, 0x63, 0x6f, 0x6e, 0x76, 0x6f, 0x6c,
  0x75, 0x74, 0x69, 0x6f, 0x6e, 0x2f, 0x53, 0x71, 0x75, 0x65, 0x65, 0x7a,
  0x65, 0x3b, 0x3b, 0x73, 0x65, 0x71, 0x75, 0x65, 0x6e, 0x74, 0x69, 0x61,
  0x6c, 0x5f, 0x35, 0x5f, 0x31, 0x2f, 0x63, 0x6f, 0x6e, 0x76, 0x31, 0x64,
  0x5f, 0x31, 0x31, 0x5f, 0x31, 0x2f, 0x63, 0x6f, 0x6e, 0x76, 0x6f, 0x6c,
  0x75, 0x74, 0x69, 0x6f, 0x6e, 0x00, 0x00, 0x00, 0x04, 0x00, 0x00, 0x00,
  0x01, 0x00, 0x00, 0x00, 0x01, 0x00, 0x00, 0x00, 0x0a, 0x00, 0x00, 0x00,
  0x20, 0x00, 0x00, 0x00, 0x9a, 0xf6, 0xff, 0xff, 0x00, 0x00, 0x00, 0x01,
  0x18, 0x00, 0x00, 0x00, 0x28, 0x00, 0x00, 0x00, 0x48, 0x00, 0x00, 0x00,
  0x25, 0x00, 0x00, 0x00, 0x00, 0x00, 0x00, 0x09, 0x74, 0x00, 0x00, 0x00,
  0x04, 0x00, 0x00, 0x00, 0xff, 0xff, 0xff, 0xff, 0x01, 0x00, 0x00, 0x00,
  0x0a, 0x00, 0x00, 0x00, 0x10, 0x00, 0x00, 0x00, 0xbc, 0xea, 0xff, 0xff,
  0x08, 0x00, 0x00, 0x00, 0x14, 0x00, 0x00, 0x00, 0x01, 0x00, 0x00, 0x00,
  0xc1, 0xff, 0xff, 0xff, 0xff, 0xff, 0xff, 0xff, 0x00, 0x00, 0x00, 0x00,
  0x01, 0x00, 0x00, 0x00, 0x23, 0x43, 0x28, 0x3d, 0x31, 0x00, 0x00, 0x00,
  0x73, 0x65, 0x71, 0x75, 0x65, 0x6e, 0x74, 0x69, 0x61, 0x6c, 0x5f, 0x35,
  0x5f, 0x31, 0x2f, 0x63, 0x6f, 0x6e, 0x76, 0x31, 0x64, 0x5f, 0x31, 0x31,
  0x5f, 0x31, 0x2f, 0x63, 0x6f, 0x6e, 0x76, 0x6f, 0x6c, 0x75, 0x74, 0x69,
  0x6f, 0x6e, 0x2f, 0x45, 0x78, 0x70, 0x61, 0x6e, 0x64, 0x44, 0x69, 0x6d,
  0x73, 0x00, 0x00, 0x00, 0x04, 0x00, 0x00, 0x00, 0x01, 0x00, 0x00, 0x00,
  0x01, 0x00, 0x00, 0x00, 0x0a, 0x00, 0x00, 0x00, 0x10, 0x00, 0x00, 0x00,
  0x3e, 0xf7, 0xff, 0xff, 0x00, 0x00, 0x00, 0x01, 0x18, 0x00, 0x00, 0x00,
  0x24, 0x00, 0x00, 0x00, 0x44, 0x00, 0x00, 0x00, 0x24, 0x00, 0x00, 0x00,
  0x00, 0x00, 0x00, 0x09, 0x70, 0x00, 0x00, 0x00, 0x03, 0x00, 0x00, 0x00,
  0xff, 0xff, 0xff, 0xff, 0x0a, 0x00, 0x00, 0x00, 0x10, 0x00, 0x00, 0x00,
  0x5c, 0xeb, 0xff, 0xff, 0x08, 0x00, 0x00, 0x00, 0x14, 0x00, 0x00, 0x00,
  0x01, 0x00, 0x00, 0x00, 0xc1, 0xff, 0xff, 0xff, 0xff, 0xff, 0xff, 0xff,
  0x00, 0x00, 0x00, 0x00, 0x01, 0x00, 0x00, 0x00, 0x23, 0x43, 0x28, 0x3d,
  0x33, 0x00, 0x00, 0x00, 0x73, 0x65, 0x71, 0x75, 0x65, 0x6e, 0x74, 0x69,
  0x61, 0x6c, 0x5f, 0x35, 0x5f, 0x31, 0x2f, 0x6d, 0x61, 0x78, 0x5f, 0x70,
  0x6f, 0x6f, 0x6c, 0x69, 0x6e, 0x67, 0x31, 0x64, 0x5f, 0x31, 0x30, 0x5f,
  0x31, 0x2f, 0x4d, 0x61, 0x78, 0x50, 0x6f, 0x6f, 0x6c, 0x31, 0x64, 0x2f,
  0x53, 0x71, 0x75, 0x65, 0x65, 0x7a, 0x65, 0x00, 0x03, 0x00, 0x00, 0x00,
  0x01, 0x00, 0x00, 0x00, 0x0a, 0x00, 0x00, 0x00, 0x10, 0x00, 0x00, 0x00,
  0xda, 0xf7, 0xff, 0xff, 0x00, 0x00, 0x00, 0x01, 0x18, 0x00, 0x00, 0x00,
  0x28, 0x00, 0x00, 0x00, 0x44, 0x00, 0x00, 0x00, 0x23, 0x00, 0x00, 0x00,
  0x00, 0x00, 0x00, 0x09, 0x68, 0x00, 0x00, 0x00, 0x04, 0x00, 0x00, 0x00,
  0xff, 0xff, 0xff, 0xff, 0x01, 0x00, 0x00, 0x00, 0x0a, 0x00, 0x00, 0x00,
  0x10, 0x00, 0x00, 0x00, 0xfc, 0xeb, 0xff, 0xff, 0x08, 0x00, 0x00, 0x00,
  0x10, 0x00, 0x00, 0x00, 0x01, 0x00, 0x00, 0x00, 0xc1, 0xff, 0xff, 0xff,
  0xff, 0xff, 0xff, 0xff, 0x01, 0x00, 0x00, 0x00, 0x23, 0x43, 0x28, 0x3d,
  0x2b, 0x00, 0x00, 0x00, 0x73, 0x65, 0x71, 0x75, 0x65, 0x6e, 0x74, 0x69,
  0x61, 0x6c, 0x5f, 0x35, 0x5f, 0x31, 0x2f, 0x6d, 0x61, 0x78, 0x5f, 0x70,
  0x6f, 0x6f, 0x6c, 0x69, 0x6e, 0x67, 0x31, 0x64, 0x5f, 0x31, 0x30, 0x5f,
  0x31, 0x2f, 0x4d, 0x61, 0x78, 0x50, 0x6f, 0x6f, 0x6c, 0x31, 0x64, 0x00,
  0x04, 0x00, 0x00, 0x00, 0x01, 0x00, 0x00, 0x00, 0x01, 0x00, 0x00, 0x00,
  0x0a, 0x00, 0x00, 0x00, 0x10, 0x00, 0x00, 0x00, 0x72, 0xf8, 0xff, 0xff,
  0x00, 0x00, 0x00, 0x01, 0x18, 0x00, 0x00, 0x00, 0x28, 0x00, 0x00, 0x00,
  0x44, 0x00, 0x00, 0x00, 0x22, 0x00, 0x00, 0x00, 0x00, 0x00, 0x00, 0x09,
  0x74, 0x00, 0x00, 0x00, 0x04, 0x00, 0x00, 0x00, 0xff, 0xff, 0xff, 0xff,
  0x01, 0x00, 0x00, 0x00, 0x15, 0x00, 0x00, 0x00, 0x10, 0x00, 0x00, 0x00,
  0x94, 0xec, 0xff, 0xff, 0x08, 0x00, 0x00, 0x00, 0x10, 0x00, 0x00, 0x00,
  0x01, 0x00, 0x00, 0x00, 0xc1, 0xff, 0xff, 0xff, 0xff, 0xff, 0xff, 0xff,
  0x01, 0x00, 0x00, 0x00, 0x23, 0x43, 0x28, 0x3d, 0x36, 0x00, 0x00, 0x00,
  0x73, 0x65, 0x71, 0x75, 0x65, 0x6e, 0x74, 0x69, 0x61, 0x6c, 0x5f, 0x35,
  0x5f, 0x31, 0x2f, 0x6d, 0x61, 0x78, 0x5f, 0x70, 0x6f, 0x6f, 0x6c, 0x69,
  0x6e, 0x67, 0x31, 0x64, 0x5f, 0x31, 0x30, 0x5f, 0x31, 0x2f, 0x4d, 0x61,
  0x78, 0x50, 0x6f, 0x6f, 0x6c, 0x31, 0x64, 0x2f, 0x45, 0x78, 0x70, 0x61,
  0x6e, 0x64, 0x44, 0x69, 0x6d, 0x73, 0x00, 0x00, 0x04, 0x00, 0x00, 0x00,
  0x01, 0x00, 0x00, 0x00, 0x01, 0x00, 0x00, 0x00, 0x15, 0x00, 0x00, 0x00,
  0x10, 0x00, 0x00, 0x00, 0x16, 0xf9, 0xff, 0xff, 0x00, 0x00, 0x00, 0x01,
  0x18, 0x00, 0x00, 0x00, 0x24, 0x00, 0x00, 0x00, 0x44, 0x00, 0x00, 0x00,
  0x21, 0x00, 0x00, 0x00, 0x00, 0x00, 0x00, 0x09, 0x20, 0x01, 0x00, 0x00,
  0x03, 0x00, 0x00, 0x00, 0xff, 0xff, 0xff, 0xff, 0x15, 0x00, 0x00, 0x00,
  0x10, 0x00, 0x00, 0x00, 0x34, 0xed, 0xff, 0xff, 0x08, 0x00, 0x00, 0x00,
  0x14, 0x00, 0x00, 0x00, 0x01, 0x00, 0x00, 0x00, 0xc1, 0xff, 0xff, 0xff,
  0xff, 0xff, 0xff, 0xff, 0x00, 0x00, 0x00, 0x00, 0x01, 0x00, 0x00, 0x00,
  0x23, 0x43, 0x28, 0x3d, 0xe3, 0x00, 0x00, 0x00, 0x73, 0x65, 0x71, 0x75,
  0x65, 0x6e, 0x74, 0x69, 0x61, 0x6c, 0x5f, 0x35, 0x5f, 0x31, 0x2f, 0x62,
  0x61, 0x74, 0x63, 0x68, 0x5f, 0x6e, 0x6f, 0x72, 0x6d, 0x61, 0x6c, 0x69,
  0x7a, 0x61, 0x74, 0x69, 0x6f, 0x6e, 0x5f, 0x31, 0x30, 0x5f, 0x31, 0x2f,
  0x62, 0x61, 0x74, 0x63, 0x68, 0x6e, 0x6f, 0x72, 0x6d, 0x2f, 0x61, 0x64,
  0x64, 0x5f, 0x31, 0x3b, 0x73, 0x65, 0x71, 0x75, 0x65, 0x6e, 0x74, 0x69,
  0x61, 0x6c, 0x5f, 0x35, 0x5f, 0x31, 0x2f, 0x63, 0x6f, 0x6e, 0x76, 0x31,
  0x64, 0x5f, 0x31, 0x30, 0x5f, 0x31, 0x2f, 0x63, 0x6f, 0x6e, 0x76, 0x6f,
  0x6c, 0x75, 0x74, 0x69, 0x6f, 0x6e, 0x2f, 0x53, 0x71, 0x75, 0x65, 0x65,
  0x7a, 0x65, 0x3b, 0x73, 0x65, 0x71, 0x75, 0x65, 0x6e, 0x74, 0x69, 0x61,
  0x6c, 0x5f, 0x35, 0x5f, 0x31, 0x2f, 0x62, 0x61, 0x74, 0x63, 0x68, 0x5f,
  0x6e, 0x6f, 0x72, 0x6d, 0x61, 0x6c, 0x69, 0x7a, 0x61, 0x74, 0x69, 0x6f,
  0x6e, 0x5f, 0x31, 0x30, 0x5f, 0x31, 0x2f, 0x62, 0x61, 0x74, 0x63, 0x68,
  0x6e, 0x6f, 0x72, 0x6d, 0x2f, 0x6d, 0x75, 0x6c, 0x5f, 0x31, 0x3b, 0x73,
  0x65, 0x71, 0x75, 0x65, 0x6e, 0x74, 0x69, 0x61, 0x6c, 0x5f, 0x35, 0x5f,
  0x31, 0x2f, 0x63, 0x6f, 0x6e, 0x76, 0x31, 0x64, 0x5f, 0x31, 0x30, 0x5f,
  0x31, 0x2f, 0x52, 0x65, 0x6c, 0x75, 0x3b, 0x73, 0x65, 0x71, 0x75, 0x65,
  0x6e, 0x74, 0x69, 0x61, 0x6c, 0x5f, 0x35, 0x5f, 0x31, 0x2f, 0x63, 0x6f,
  0x6e, 0x76, 0x31, 0x64, 0x5f, 0x31, 0x30, 0x5f, 0x31, 0x2f, 0x42, 0x69,
  0x61, 0x73, 0x41, 0x64, 0x64, 0x3b, 0x31, 0x00, 0x03, 0x00, 0x00, 0x00,
  0x01, 0x00, 0x00, 0x00, 0x15, 0x00, 0x00, 0x00, 0x10, 0x00, 0x00, 0x00,
  0x62, 0xfa, 0xff, 0xff, 0x00, 0x00, 0x00, 0x01, 0x18, 0x00, 0x00, 0x00,
  0x28, 0x00, 0x00, 0x00, 0x44, 0x00, 0x00, 0x00, 0x20, 0x00, 0x00, 0x00,
  0x00, 0x00, 0x00, 0x09, 0x20, 0x01, 0x00, 0x00, 0x04, 0x00, 0x00, 0x00,
  0xff, 0xff, 0xff, 0xff, 0x01, 0x00, 0x00, 0x00, 0x15, 0x00, 0x00, 0x00,
  0x10, 0x00, 0x00, 0x00, 0x84, 0xee, 0xff, 0xff, 0x08, 0x00, 0x00, 0x00,
  0x10, 0x00, 0x00, 0x00, 0x01, 0x00, 0x00, 0x00, 0xc1, 0xff, 0xff, 0xff,
  0xff, 0xff, 0xff, 0xff, 0x01, 0x00, 0x00, 0x00, 0x23, 0x43, 0x28, 0x3d,
  0xe2, 0x00, 0x00, 0x00, 0x73, 0x65, 0x71, 0x75, 0x65, 0x6e, 0x74, 0x69,
  0x61, 0x6c, 0x5f, 0x35, 0x5f, 0x31, 0x2f, 0x62, 0x61, 0x74, 0x63, 0x68,
  0x5f, 0x6e, 0x6f, 0x72, 0x6d, 0x61, 0x6c, 0x69, 0x7a, 0x61, 0x74, 0x69,
  0x6f, 0x6e, 0x5f, 0x31, 0x30, 0x5f, 0x31, 0x2f, 0x62, 0x61, 0x74, 0x63,
  0x68, 0x6e, 0x6f, 0x72, 0x6d, 0x2f, 0x61, 0x64, 0x64, 0x5f, 0x31, 0x3b,
  0x73, 0x65, 0x71, 0x75, 0x65, 0x6e, 0x74, 0x69, 0x61, 0x6c, 0x5f, 0x35,
  0x5f, 0x31, 0x2f, 0x63, 0x6f, 0x6e, 0x76, 0x31, 0x64, 0x5f, 0x31, 0x30,
  0x5f, 0x31, 0x2f, 0x63, 0x6f, 0x6e, 0x76, 0x6f, 0x6c, 0x75, 0x74, 0x69,
  0x6f, 0x6e, 0x2f, 0x53, 0x71, 0x75, 0x65, 0x65, 0x7a, 0x65, 0x3b, 0x73,
  0x65, 0x71, 0x75, 0x65, 0x6e, 0x74, 0x69, 0x61, 0x6c, 0x5f, 0x35, 0x5f,
  0x31, 0x2f, 0x62, 0x61, 0x74, 0x63, 0x68, 0x5f, 0x6e, 0x6f, 0x72, 0x6d,
  0x61, 0x6c, 0x69, 0x7a, 0x61, 0x74, 0x69, 0x6f, 0x6e, 0x5f, 0x31, 0x30,
  0x5f, 0x31, 0x2f, 0x62, 0x61, 0x74, 0x63, 0x68, 0x6e, 0x6f, 0x72, 0x6d,
  0x2f, 0x6d, 0x75, 0x6c, 0x5f, 0x31, 0x3b, 0x73, 0x65, 0x71, 0x75, 0x65,
  0x6e, 0x74, 0x69, 0x61, 0x6c, 0x5f, 0x35, 0x5f, 0x31, 0x2f, 0x63, 0x6f,
  0x6e, 0x76, 0x31, 0x64, 0x5f, 0x31, 0x30, 0x5f, 0x31, 0x2f, 0x52, 0x65,
  0x6c, 0x75, 0x3b, 0x73, 0x65, 0x71, 0x75, 0x65, 0x6e, 0x74, 0x69, 0x61,
  0x6c, 0x5f, 0x35, 0x5f, 0x31, 0x2f, 0x63, 0x6f, 0x6e, 0x76, 0x31, 0x64,
  0x5f, 0x31, 0x30, 0x5f, 0x31, 0x2f, 0x42, 0x69, 0x61, 0x73, 0x41, 0x64,
  0x64, 0x3b, 0x00, 0x00, 0x04, 0x00, 0x00, 0x00, 0x01, 0x00, 0x00, 0x00,
  0x01, 0x00, 0x00, 0x00, 0x15, 0x00, 0x00, 0x00, 0x10, 0x00, 0x00, 0x00,
  0xb2, 0xfb, 0xff, 0xff, 0x00, 0x00, 0x00, 0x01, 0x18, 0x00, 0x00, 0x00,
  0x28, 0x00, 0x00, 0x00, 0x44, 0x00, 0x00, 0x00, 0x1f, 0x00, 0x00, 0x00,
  0x00, 0x00, 0x00, 0x09, 0xe8, 0x00, 0x00, 0x00, 0x04, 0x00, 0x00, 0x00,
  0xff, 0xff, 0xff, 0xff, 0x01, 0x00, 0x00, 0x00, 0x15, 0x00, 0x00, 0x00,
  0x10, 0x00, 0x00, 0x00, 0xd4, 0xef, 0xff, 0xff, 0x08, 0x00, 0x00, 0x00,
  0x10, 0x00, 0x00, 0x00, 0x01, 0x00, 0x00, 0x00, 0xc0, 0xff, 0xff, 0xff,
  0xff, 0xff, 0xff, 0xff, 0x01, 0x00, 0x00, 0x00, 0x3d, 0x9d, 0x29, 0x3d,
  0xaa, 0x00, 0x00, 0x00, 0x73, 0x65, 0x71, 0x75, 0x65, 0x6e, 0x74, 0x69,
  0x61, 0x6c, 0x5f, 0x35, 0x5f, 0x31, 0x2f, 0x62, 0x61, 0x74, 0x63, 0x68,
  0x5f, 0x6e, 0x6f, 0x72, 0x6d, 0x61, 0x6c, 0x69, 0x7a, 0x61, 0x74, 0x69,
  0x6f, 0x6e, 0x5f, 0x31, 0x30, 0x5f, 0x31, 0x2f, 0x62, 0x61, 0x74, 0x63,
  0x68, 0x6e, 0x6f, 0x72, 0x6d, 0x2f, 0x6d, 0x75, 0x6c, 0x5f, 0x31, 0x3b,
  0x73, 0x65, 0x71, 0x75, 0x65, 0x6e, 0x74, 0x69, 0x61, 0x6c, 0x5f, 0x35,
  0x5f, 0x31, 0x2f, 0x63, 0x6f, 0x6e, 0x76, 0x31, 0x64, 0x5f, 0x31, 0x30,
  0x5f, 0x31, 0x2f, 0x63, 0x6f, 0x6e, 0x76, 0x6f, 0x6c, 0x75, 0x74, 0x69,
  0x6f, 0x6e, 0x2f, 0x53, 0x71, 0x75, 0x65, 0x65, 0x7a, 0x65, 0x3b, 0x73,
  0x65, 0x71, 0x75, 0x65, 0x6e, 0x74, 0x69, 0x61, 0x6c, 0x5f, 0x35, 0x5f,
  0x31, 0x2f, 0x63, 0x6f, 0x6e, 0x76, 0x31, 0x64, 0x5f, 0x31, 0x30, 0x5f,
  0x31, 0x2f, 0x52, 0x65, 0x6c, 0x75, 0x3b, 0x73, 0x65, 0x71, 0x75, 0x65,
  0x6e, 0x74, 0x69, 0x61, 0x6c, 0x5f, 0x35, 0x5f, 0x31, 0x2f, 0x63, 0x6f,
  0x6e, 0x76, 0x31, 0x64, 0x5f, 0x31, 0x30, 0x5f, 0x31, 0x2f, 0x42, 0x69,
  0x61, 0x73, 0x41, 0x64, 0x64, 0x3b, 0x00, 0x00, 0x04, 0x00, 0x00, 0x00,
  0x01, 0x00, 0x00, 0x00, 0x01, 0x00, 0x00, 0x00, 0x15, 0x00, 0x00, 0x00,
  0x10, 0x00, 0x00, 0x00, 0xca, 0xfc, 0xff, 0xff, 0x00, 0x00, 0x00, 0x01,
  0x18, 0x00, 0x00, 0x00, 0x28, 0x00, 0x00, 0x00, 0x44, 0x00, 0x00, 0x00,
  0x1e, 0x00, 0x00, 0x00, 0x00, 0x00, 0x00, 0x09, 0xd8, 0x00, 0x00, 0x00,
  0x04, 0x00, 0x00, 0x00, 0xff, 0xff, 0xff, 0xff, 0x01, 0x00, 0x00, 0x00,
  0x15, 0x00, 0x00, 0x00, 0x10, 0x00, 0x00, 0x00, 0xec, 0xf0, 0xff, 0xff,
  0x08, 0x00, 0x00, 0x00, 0x10, 0x00, 0x00, 0x00, 0x01, 0x00, 0x00, 0x00,
  0x80, 0xff, 0xff, 0xff, 0xff, 0xff, 0xff, 0xff, 0x01, 0x00, 0x00, 0x00,
  0x60, 0x1c, 0x1f, 0x3f, 0x99, 0x00, 0x00, 0x00, 0x73, 0x65, 0x71, 0x75,
  0x65, 0x6e, 0x74, 0x69, 0x61, 0x6c, 0x5f, 0x35, 0x5f, 0x31, 0x2f, 0x63,
  0x6f, 0x6e, 0x76, 0x31, 0x64, 0x5f, 0x31, 0x30, 0x5f, 0x31, 0x2f, 0x52,
  0x65, 0x6c, 0x75, 0x3b, 0x73, 0x65, 0x71, 0x75, 0x65, 0x6e, 0x74, 0x69,
  0x61, 0x6c, 0x5f, 0x35, 0x5f, 0x31, 0x2f, 0x63, 0x6f, 0x6e, 0x76, 0x31,
  0x64, 0x5f, 0x31, 0x30, 0x5f, 0x31, 0x2f, 0x42, 0x69, 0x61, 0x73, 0x41,
  0x64, 0x64, 0x3b, 0x73, 0x65, 0x71, 0x75, 0x65, 0x6e, 0x74, 0x69, 0x61,
  0x6c, 0x5f, 0x35, 0x5f, 0x31, 0x2f, 0x63, 0x6f, 0x6e, 0x76, 0x31, 0x64,
  0x5f, 0x31, 0x30, 0x5f, 0x31, 0x2f, 0x63, 0x6f, 0x6e, 0x76, 0x6f, 0x6c,
  0x75, 0x74, 0x69, 0x6f, 0x6e, 0x2f, 0x53, 0x71, 0x75, 0x65, 0x65, 0x7a,
  0x65, 0x3b, 0x3b, 0x73, 0x65, 0x71, 0x75, 0x65, 0x6e, 0x74, 0x69, 0x61,
  0x6c, 0x5f, 0x35, 0x5f, 0x31, 0x2f, 0x63, 0x6f, 0x6e, 0x76, 0x31, 0x64,
  0x5f, 0x31, 0x30, 0x5f, 0x31, 0x2f, 0x63, 0x6f, 0x6e, 0x76, 0x6f, 0x6c,
  0x75, 0x74, 0x69, 0x6f, 0x6e, 0x00, 0x00, 0x00, 0x04, 0x00, 0x00, 0x00,
  0x01, 0x00, 0x00, 0x00, 0x01, 0x00, 0x00, 0x00, 0x15, 0x00, 0x00, 0x00,
  0x10, 0x00, 0x00, 0x00, 0xd2, 0xfd, 0xff, 0xff, 0x00, 0x00, 0x00, 0x01,
  0x18, 0x00, 0x00, 0x00, 0x28, 0x00, 0x00, 0x00, 0x48, 0x00, 0x00, 0x00,
  0x1d, 0x00, 0x00, 0x00, 0x00, 0x00, 0x00, 0x09, 0x74, 0x00, 0x00, 0x00,
  0x04, 0x00, 0x00, 0x00, 0xff, 0xff, 0xff, 0xff, 0x01, 0x00, 0x00, 0x00,
  0x15, 0x00, 0x00, 0x00, 0x20, 0x00, 0x00, 0x00, 0xf4, 0xf1, 0xff, 0xff,
  0x08, 0x00, 0x00, 0x00, 0x14, 0x00, 0x00, 0x00, 0x01, 0x00, 0x00, 0x00,
  0x7f, 0x00, 0x00, 0x00, 0x00, 0x00, 0x00, 0x00, 0x00, 0x00, 0x00, 0x00,
  0x01, 0x00, 0x00, 0x00, 0xd1, 0xd0, 0x50, 0x3e, 0x31, 0x00, 0x00, 0x00,
  0x73, 0x65, 0x71, 0x75, 0x65, 0x6e, 0x74, 0x69, 0x61, 0x6c, 0x5f, 0x35,
  0x5f, 0x31, 0x2f, 0x63, 0x6f, 0x6e, 0x76, 0x31, 0x64, 0x5f, 0x31, 0x30,
  0x5f, 0x31, 0x2f, 0x63, 0x6f, 0x6e, 0x76, 0x6f, 0x6c, 0x75, 0x74, 0x69,
  0x6f, 0x6e, 0x2f, 0x45, 0x78, 0x70, 0x61, 0x6e, 0x64, 0x44, 0x69, 0x6d,
  0x73, 0x00, 0x00, 0x00, 0x04, 0x00, 0x00, 0x00, 0x01, 0x00, 0x00, 0x00,
  0x01, 0x00, 0x00, 0x00, 0x15, 0x00, 0x00, 0x00, 0x20, 0x00, 0x00, 0x00,
  0x76, 0xfe, 0xff, 0xff, 0x00, 0x00, 0x00, 0x01, 0x18, 0x00, 0x00, 0x00,
  0x24, 0x00, 0x00, 0x00, 0x44, 0x00, 0x00, 0x00, 0x1c, 0x00, 0x00, 0x00,
  0x00, 0x00, 0x00, 0x09, 0x60, 0x00, 0x00, 0x00, 0x03, 0x00, 0x00, 0x00,
  0xff, 0xff, 0xff, 0xff, 0x15, 0x00, 0x00, 0x00, 0x20, 0x00, 0x00, 0x00,
  0x94, 0xf2, 0xff, 0xff, 0x08, 0x00, 0x00, 0x00, 0x14, 0x00, 0x00, 0x00,
  0x01, 0x00, 0x00, 0x00, 0x7f, 0x00, 0x00, 0x00, 0x00, 0x00, 0x00, 0x00,
  0x00, 0x00, 0x00, 0x00, 0x01, 0x00, 0x00, 0x00, 0xd1, 0xd0, 0x50, 0x3e,
  0x22, 0x00, 0x00, 0x00, 0x73, 0x65, 0x71, 0x75, 0x65, 0x6e, 0x74, 0x69,
  0x61, 0x6c, 0x5f, 0x35, 0x5f, 0x31, 0x2f, 0x72, 0x65, 0x73, 0x68, 0x61,
  0x70, 0x65, 0x5f, 0x35, 0x5f, 0x31, 0x2f, 0x52, 0x65, 0x73, 0x68, 0x61,
  0x70, 0x65, 0x00, 0x00, 0x03, 0x00, 0x00, 0x00, 0x01, 0x00, 0x00, 0x00,
  0x15, 0x00, 0x00, 0x00, 0x20, 0x00, 0x00, 0x00, 0x96, 0xf0, 0xff, 0xff,
  0x00, 0x00, 0x00, 0x01, 0x14, 0x00, 0x00, 0x00, 0x14, 0x00, 0x00, 0x00,
  0x1b, 0x00, 0x00, 0x00, 0x00, 0x00, 0x00, 0x02, 0x38, 0x00, 0x00, 0x00,
  0x1c, 0xf0, 0xff, 0xff, 0x28, 0x00, 0x00, 0x00, 0x73, 0x65, 0x71, 0x75,
  0x65, 0x6e, 0x74, 0x69, 0x61, 0x6c, 0x5f, 0x35, 0x5f, 0x31, 0x2f, 0x72,
  0x65, 0x73, 0x68, 0x61, 0x70, 0x65, 0x5f, 0x35, 0x5f, 0x31, 0x2f, 0x52,
  0x65, 0x73, 0x68, 0x61, 0x70, 0x65, 0x2f, 0x73, 0x68, 0x61, 0x70, 0x65,
  0x00, 0x00, 0x00, 0x00, 0x01, 0x00, 0x00, 0x00, 0x03, 0x00, 0x00, 0x00,
  0xee, 0xf0, 0xff, 0xff, 0x00, 0x00, 0x00, 0x01, 0x14, 0x00, 0x00, 0x00,
  0x14, 0x00, 0x00, 0x00, 0x1a, 0x00, 0x00, 0x00, 0x00, 0x00, 0x00, 0x02,
  0x38, 0x00, 0x00, 0x00, 0x74, 0xf0, 0xff, 0xff, 0x28, 0x00, 0x00, 0x00,
  0x73, 0x65, 0x71, 0x75, 0x65, 0x6e, 0x74, 0x69, 0x61, 0x6c, 0x5f, 0x35,
  0x5f, 0x31, 0x2f, 0x72, 0x65, 0x73, 0x68, 0x61, 0x70, 0x65, 0x5f, 0x35,
  0x5f, 0x31, 0x2f, 0x73, 0x74, 0x72, 0x69, 0x64, 0x65, 0x64, 0x5f, 0x73,
  0x6c, 0x69, 0x63, 0x65, 0x00, 0x00, 0x00, 0x00, 0x00, 0x00, 0x00, 0x00,
  0x42, 0xf1, 0xff, 0xff, 0x00, 0x00, 0x00, 0x01, 0x14, 0x00, 0x00, 0x00,
  0x14, 0x00, 0x00, 0x00, 0x19, 0x00, 0x00, 0x00, 0x00, 0x00, 0x00, 0x02,
  0x30, 0x00, 0x00, 0x00, 0xc8, 0xf0, 0xff, 0xff, 0x20, 0x00, 0x00, 0x00,
  0x73, 0x65, 0x71, 0x75, 0x65, 0x6e, 0x74, 0x69, 0x61, 0x6c, 0x5f, 0x35,
  0x5f, 0x31, 0x2f, 0x72, 0x65, 0x73, 0x68, 0x61, 0x70, 0x65, 0x5f, 0x35,
  0x5f, 0x31, 0x2f, 0x53, 0x68, 0x61, 0x70, 0x65, 0x00, 0x00, 0x00, 0x00,
  0x01, 0x00, 0x00, 0x00, 0x03, 0x00, 0x00, 0x00, 0x00, 0x00, 0x16, 0x00,
  0x20, 0x00, 0x1c, 0x00, 0x1b, 0x00, 0x14, 0x00, 0x10, 0x00, 0x0c, 0x00,
  0x00, 0x00, 0x00, 0x00, 0x08, 0x00, 0x07, 0x00, 0x16, 0x00, 0x00, 0x00,
  0x00, 0x00, 0x00, 0x01, 0x18, 0x00, 0x00, 0x00, 0x24, 0x00, 0x00, 0x00,
  0x40, 0x00, 0x00, 0x00, 0x18, 0x00, 0x00, 0x00, 0x00, 0x00, 0x00, 0x09,
  0x48, 0x00, 0x00, 0x00, 0x03, 0x00, 0x00, 0x00, 0xff, 0xff, 0xff, 0xff,
  0x20, 0x00, 0x00, 0x00, 0x15, 0x00, 0x00, 0x00, 0x34, 0xf4, 0xff, 0xff,
  0x08, 0x00, 0x00, 0x00, 0x10, 0x00, 0x00, 0x00, 0x01, 0x00, 0x00, 0x00,
  0x7f, 0x00, 0x00, 0x00, 0x00, 0x00, 0x00, 0x00, 0x01, 0x00, 0x00, 0x00,
  0xd1, 0xd0, 0x50, 0x3e, 0x0c, 0x00, 0x00, 0x00, 0x74, 0x66, 0x6c, 0x2e,
  0x71, 0x75, 0x61, 0x6e, 0x74, 0x69, 0x7a, 0x65, 0x00, 0x00, 0x00, 0x00,
  0x03, 0x00, 0x00, 0x00, 0x01, 0x00, 0x00, 0x00, 0x20, 0x00, 0x00, 0x00,
