unsigned char jarvis0_1_tflite[] = {
  0x1c, 0x00, 0x00, 0x00, 0x54, 0x46, 0x4c, 0x33, 0x14, 0x00, 0x20, 0x00,
  0x1c, 0x00, 0x18, 0x00, 0x14, 0x00, 0x10, 0x00, 0x0c, 0x00, 0x00, 0x00,
  0x08, 0x00, 0x04, 0x00, 0x14, 0x00, 0x00, 0x00, 0x1c, 0x00, 0x00, 0x00,
  0x8c, 0x00, 0x00, 0x00, 0xe4, 0x00, 0x00, 0x00, 0xd4, 0x16, 0x00, 0x00,
  0xe4, 0x16, 0x00, 0x00, 0x48, 0x25, 0x00, 0x00, 0x03, 0x00, 0x00, 0x00,
  0x01, 0x00, 0x00, 0x00, 0x04, 0x00, 0x00, 0x00, 0x9e, 0xe6, 0xff, 0xff,
  0x0c, 0x00, 0x00, 0x00, 0x1c, 0x00, 0x00, 0x00, 0x3c, 0x00, 0x00, 0x00,
  0x0f, 0x00, 0x00, 0x00, 0x73, 0x65, 0x72, 0x76, 0x69, 0x6e, 0x67, 0x5f,
  0x64, 0x65, 0x66, 0x61, 0x75, 0x6c, 0x74, 0x00, 0x01, 0x00, 0x00, 0x00,
  0x04, 0x00, 0x00, 0x00, 0x90, 0xff, 0xff, 0xff, 0x1c, 0x00, 0x00, 0x00,
  0x04, 0x00, 0x00, 0x00, 0x08, 0x00, 0x00, 0x00, 0x6f, 0x75, 0x74, 0x70,
  0x75, 0x74, 0x5f, 0x30, 0x00, 0x00, 0x00, 0x00, 0x01, 0x00, 0x00, 0x00,
  0x04, 0x00, 0x00, 0x00, 0xba, 0xe9, 0xff, 0xff, 0x04, 0x00, 0x00, 0x00,
  0x0d, 0x00, 0x00, 0x00, 0x69, 0x6e, 0x70, 0x75, 0x74, 0x5f, 0x6c, 0x61,
  0x79, 0x65, 0x72, 0x5f, 0x35, 0x00, 0x00, 0x00, 0x02, 0x00, 0x00, 0x00,
  0x34, 0x00, 0x00, 0x00, 0x04, 0x00, 0x00, 0x00, 0xdc, 0xff, 0xff, 0xff,
  0x1f, 0x00, 0x00, 0x00, 0x04, 0x00, 0x00, 0x00, 0x13, 0x00, 0x00, 0x00,
  0x43, 0x4f, 0x4e, 0x56, 0x45, 0x52, 0x53, 0x49, 0x4f, 0x4e, 0x5f, 0x4d,
  0x45, 0x54, 0x41, 0x44, 0x41, 0x54, 0x41, 0x00, 0x08, 0x00, 0x0c, 0x00,
  0x08, 0x00, 0x04, 0x00, 0x08, 0x00, 0x00, 0x00, 0x1e, 0x00, 0x00, 0x00,
  0x04, 0x00, 0x00, 0x00, 0x13, 0x00, 0x00, 0x00, 0x6d, 0x69, 0x6e, 0x5f,
  0x72, 0x75, 0x6e, 0x74, 0x69, 0x6d, 0x65, 0x5f, 0x76, 0x65, 0x72, 0x73,
  0x69, 0x6f, 0x6e, 0x00, 0x20, 0x00, 0x00, 0x00, 0xec, 0x15, 0x00, 0x00,
  0xe4, 0x15, 0x00, 0x00, 0xc8, 0x15, 0x00, 0x00, 0xa4, 0x15, 0x00, 0x00,
  0x88, 0x15, 0x00, 0x00, 0x78, 0x0f, 0x00, 0x00, 0x28, 0x0f, 0x00, 0x00,
  0x18, 0x09, 0x00, 0x00, 0xe8, 0x08, 0x00, 0x00, 0xd8, 0x01, 0x00, 0x00,
  0x88, 0x01, 0x00, 0x00, 0x58, 0x01, 0x00, 0x00, 0x44, 0x01, 0x00, 0x00,
  0x30, 0x01, 0x00, 0x00, 0x18, 0x01, 0x00, 0x00, 0x04, 0x01, 0x00, 0x00,
  0xfc, 0x00, 0x00, 0x00, 0xf4, 0x00, 0x00, 0x00, 0xec, 0x00, 0x00, 0x00,
  0xe4, 0x00, 0x00, 0x00, 0xdc, 0x00, 0x00, 0x00, 0xd4, 0x00, 0x00, 0x00,
  0xcc, 0x00, 0x00, 0x00, 0xc4, 0x00, 0x00, 0x00, 0xbc, 0x00, 0x00, 0x00,
  0xb4, 0x00, 0x00, 0x00, 0xac, 0x00, 0x00, 0x00, 0xa4, 0x00, 0x00, 0x00,
  0x9c, 0x00, 0x00, 0x00, 0x94, 0x00, 0x00, 0x00, 0x74, 0x00, 0x00, 0x00,
  0x04, 0x00, 0x00, 0x00, 0xb6, 0xea, 0xff, 0xff, 0x04, 0x00, 0x00, 0x00,
  0x60, 0x00, 0x00, 0x00, 0x0c, 0x00, 0x00, 0x00, 0x08, 0x00, 0x0e, 0x00,
  0x08, 0x00, 0x04, 0x00, 0x08, 0x00, 0x00, 0x00, 0x10, 0x00, 0x00, 0x00,
  0x28, 0x00, 0x00, 0x00, 0x00, 0x00, 0x06, 0x00, 0x08, 0x00, 0x04, 0x00,
  0x06, 0x00, 0x00, 0x00, 0x04, 0x00, 0x00, 0x00, 0x01, 0x00, 0x00, 0x00,
  0xea, 0x03, 0x00, 0x00, 0x0c, 0x00, 0x18, 0x00, 0x14, 0x00, 0x10, 0x00,
  0x0c, 0x00, 0x04, 0x00, 0x0c, 0x00, 0x00, 0x00, 0x81, 0x93, 0xf3, 0x51,
  0x48, 0xc8, 0x93, 0x6a, 0x02, 0x00, 0x00, 0x00, 0x02, 0x00, 0x00, 0x00,
  0x04, 0x00, 0x00, 0x00, 0x06, 0x00, 0x00, 0x00, 0x32, 0x2e, 0x31, 0x37,
  0x2e, 0x30, 0x00, 0x00, 0x22, 0xeb, 0xff, 0xff, 0x04, 0x00, 0x00, 0x00,
  0x10, 0x00, 0x00, 0x00, 0x31, 0x2e, 0x31, 0x34, 0x2e, 0x30, 0x00, 0x00,
  0x00, 0x00, 0x00, 0x00, 0x00, 0x00, 0x00, 0x00, 0x58, 0xdc, 0xff, 0xff,
  0x5c, 0xdc, 0xff, 0xff, 0x60, 0xdc, 0xff, 0xff, 0x64, 0xdc, 0xff, 0xff,
  0x68, 0xdc, 0xff, 0xff, 0x6c, 0xdc, 0xff, 0xff, 0x70, 0xdc, 0xff, 0xff,
  0x74, 0xdc, 0xff, 0xff, 0x78, 0xdc, 0xff, 0xff, 0x7c, 0xdc, 0xff, 0xff,
  0x80, 0xdc, 0xff, 0xff, 0x84, 0xdc, 0xff, 0xff, 0x88, 0xdc, 0xff, 0xff,
  0x8c, 0xdc, 0xff, 0xff, 0x76, 0xeb, 0xff, 0xff, 0x04, 0x00, 0x00, 0x00,
  0x04, 0x00, 0x00, 0x00, 0xfd, 0xff, 0xff, 0xff, 0x86, 0xeb, 0xff, 0xff,
  0x04, 0x00, 0x00, 0x00, 0x08, 0x00, 0x00, 0x00, 0xff, 0xff, 0xff, 0xff,
  0xc0, 0x01, 0x00, 0x00, 0x9a, 0xeb, 0xff, 0xff, 0x04, 0x00, 0x00, 0x00,
  0x04, 0x00, 0x00, 0x00, 0x01, 0x00, 0x00, 0x00, 0xaa, 0xeb, 0xff, 0xff,
  0x04, 0x00, 0x00, 0x00, 0x04, 0x00, 0x00, 0x00, 0x33, 0xcb, 0x8e, 0xbd,
  0xba, 0xeb, 0xff, 0xff, 0x04, 0x00, 0x00, 0x00, 0x20, 0x00, 0x00, 0x00,
  0x89, 0xa7, 0xc2, 0x3b, 0xd4, 0xf2, 0x6a, 0xbc, 0x50, 0x29, 0x0f, 0xbd,
  0xc2, 0x1b, 0xd8, 0xbc, 0xd4, 0x69, 0x59, 0xbc, 0x2d, 0x61, 0x53, 0xbc,
  0xff, 0xce, 0xf8, 0xbc, 0x00, 0x00, 0x00, 0x00, 0xe6, 0xeb, 0xff, 0xff,
  0x04, 0x00, 0x00, 0x00, 0x40, 0x00, 0x00, 0x00, 0x63, 0x85, 0xa0, 0xbc,
  0x68, 0x91, 0x44, 0xbd, 0x3d, 0xc8, 0xf4, 0xbd, 0x3e, 0x1a, 0xf3, 0xbd,
  0x74, 0xde, 0x8b, 0x3d, 0x99, 0xe7, 0xc5, 0xbb, 0x88, 0xf8, 0xd6, 0x3b,
  0x5a, 0x7b, 0x8e, 0x3a, 0x8f, 0xff, 0xd4, 0x3d, 0x48, 0x0f, 0xfd, 0x3a,
  0x57, 0x8d, 0xfe, 0xbd, 0x98, 0x2d, 0xe0, 0xbd, 0x3f, 0xe3, 0x9d, 0xbc,
  0x6a, 0xe9, 0x37, 0xbd, 0xda, 0x07, 0xa1, 0x3d, 0xa4, 0xc7, 0xa3, 0xbd,
  0x32, 0xec, 0xff, 0xff, 0x04, 0x00, 0x00, 0x00, 0x00, 0x07, 0x00, 0x00,
  0x55, 0x2c, 0xa1, 0xbd, 0xe9, 0xd4, 0xdb, 0xbd, 0xf1, 0xb2, 0xc0, 0xbc,
  0xf9, 0x56, 0x90, 0x3c, 0x95, 0xed, 0x9b, 0xbd, 0x61, 0x94, 0x5b, 0xbd,
  0xcf, 0x47, 0xa6, 0xbc, 0xcd, 0xed, 0x2c, 0x3e, 0xd0, 0x4e, 0xdc, 0xbd,
  0x61, 0xa2, 0x4a, 0x3d, 0x7c, 0xdb, 0xa0, 0xbb, 0x7a, 0xfe, 0x51, 0xbd,
  0x16, 0xd4, 0x09, 0x3b, 0x30, 0xcc, 0xaa, 0xbc, 0x16, 0x1e, 0x88, 0xbd,
  0xb2, 0x44, 0xe5, 0x3c, 0x62, 0x44, 0xd1, 0xbd, 0x15, 0x10, 0xd9, 0xbc,
  0x2a, 0x4a, 0x51, 0x3d, 0x34, 0xb8, 0xcd, 0x3c, 0x4b, 0x63, 0x09, 0xbe,
  0xfe, 0x93, 0x4f, 0xbd, 0x00, 0x52, 0x42, 0xbd, 0x6e, 0x0c, 0x8a, 0x3d,
  0xea, 0x0c, 0xc6, 0xbd, 0xef, 0xf5, 0x04, 0xbe, 0xc7, 0xdc, 0x91, 0xbc,
  0x50, 0x98, 0x90, 0x3d, 0x2e, 0x71, 0x51, 0xbd, 0x5d, 0x8b, 0xd5, 0xbd,
  0x7e, 0xe5, 0x13, 0x3d, 0x06, 0x97, 0xb8, 0x3b, 0xf6, 0x36, 0x9d, 0xbd,
  0x3e, 0x27, 0x92, 0xbc, 0xaf, 0x19, 0x48, 0x3c, 0xa5, 0x85, 0xba, 0x3d,
  0xa4, 0x26, 0x25, 0xbc, 0xcb, 0x59, 0xbc, 0x3d, 0x1c, 0x4e, 0x8e, 0xbc,
  0x9c, 0xf2, 0xdc, 0xbb, 0xf9, 0x9b, 0x86, 0xbd, 0xaa, 0xd0, 0x88, 0x3b,
  0x1c, 0x43, 0x10, 0x3c, 0x2f, 0x2b, 0x6f, 0x3d, 0x27, 0xa6, 0x82, 0xbd,
  0xcc, 0xe6, 0x00, 0xbd, 0x51, 0x58, 0x1a, 0xbc, 0x36, 0x02, 0x6a, 0x3c,
  0x0e, 0x66, 0x61, 0x3d, 0xec, 0xf3, 0x5a, 0xbc, 0x4f, 0xb2, 0x4c, 0x3d,
  0xa8, 0x48, 0x05, 0x3d, 0x5c, 0x4a, 0x48, 0xbd, 0x31, 0x65, 0xb8, 0x3d,
  0x8b, 0x62, 0x51, 0xbd, 0xa0, 0x12, 0x22, 0x3d, 0x98, 0xd9, 0x02, 0xbd,
  0x92, 0xf8, 0x02, 0xbe, 0xfc, 0x87, 0x09, 0xbd, 0xb9, 0x48, 0x77, 0xbc,
  0x24, 0x44, 0x78, 0x3c, 0xcb, 0x81, 0x9e, 0xbd, 0xa5, 0x36, 0xbc, 0xbd,
  0x23, 0x9f, 0xce, 0xbd, 0xbb, 0x72, 0x59, 0x3d, 0x63, 0x4c, 0xb6, 0x3d,
  0x0d, 0xd8, 0x8e, 0xbd, 0x48, 0x7d, 0x93, 0x3a, 0x61, 0x46, 0xe4, 0xbd,
  0x06, 0x41, 0x75, 0x3d, 0x74, 0x35, 0x34, 0xbb, 0x32, 0x05, 0x61, 0x3d,
  0xe0, 0x5b, 0x4e, 0xbd, 0x1e, 0xdb, 0x12, 0x3d, 0x20, 0xe7, 0x2d, 0x3c,
  0xa7, 0xd1, 0xab, 0xbb, 0xf3, 0xed, 0xf3, 0xbc, 0xfb, 0xec, 0x29, 0xbc,
  0xec, 0xe9, 0x49, 0xbd, 0xad, 0x18, 0x05, 0x3d, 0x38, 0xb9, 0xd5, 0x37,
  0x43, 0xc9, 0x84, 0x3b, 0x49, 0xdf, 0x79, 0xbd, 0xd3, 0x25, 0xc9, 0x3d,
  0xe8, 0x58, 0x96, 0xbd, 0xcb, 0x75, 0x68, 0x3d, 0x19, 0x26, 0xbe, 0x3c,
  0x38, 0x86, 0xad, 0x3d, 0x72, 0x00, 0x02, 0xbe, 0x99, 0x25, 0x23, 0x3e,
  0xfd, 0x93, 0x99, 0xbd, 0xf0, 0x98, 0xb9, 0x3c, 0xcb, 0xdd, 0x3b, 0xbc,
  0xaa, 0x10, 0x5b, 0x3d, 0x96, 0x0a, 0xbd, 0xbd, 0x6f, 0x7d, 0x6f, 0x3d,
  0x73, 0x8c, 0x42, 0xbc, 0xae, 0x07, 0xe1, 0xbb, 0xab, 0xf9, 0xa3, 0x3d,
  0xa3, 0x00, 0x80, 0x3d, 0x66, 0x0b, 0x0d, 0x3d, 0xac, 0xd7, 0x2e, 0x3d,
  0xfb, 0x84, 0x42, 0x3d, 0x92, 0x7f, 0xa3, 0x3d, 0xb1, 0x81, 0x03, 0xbe,
  0x4f, 0xfe, 0xf8, 0x3d, 0x2b, 0x63, 0xc1, 0xbd, 0xe5, 0x21, 0xf1, 0x3d,
  0xfe, 0x08, 0xcc, 0x3d, 0xfd, 0xd5, 0xe4, 0x3d, 0x07, 0xf7, 0x01, 0xbd,
  0x2f, 0x67, 0x87, 0xbd, 0xe7, 0xcf, 0x81, 0x3d, 0xa6, 0x96, 0xfd, 0x3c,
  0x9c, 0xde, 0xd0, 0x3c, 0x0e, 0x08, 0xa0, 0xbd, 0xef, 0x1b, 0x97, 0xbc,
  0x35, 0x69, 0xc2, 0x3d, 0x45, 0xfd, 0x1c, 0x3d, 0x4a, 0xf6, 0xa3, 0x3c,
  0x5e, 0x7b, 0x30, 0xbd, 0x57, 0x6c, 0xb8, 0x3c, 0x23, 0x1e, 0xea, 0x3c,
  0xa1, 0x16, 0x8d, 0xbc, 0xd7, 0xe1, 0x50, 0x3d, 0x11, 0xe6, 0x31, 0xbd,
  0x3c, 0xca, 0x89, 0xbd, 0x38, 0x64, 0x98, 0xbd, 0x14, 0xa3, 0x8b, 0x3d,
  0x00, 0x64, 0xd1, 0xbd, 0x4b, 0xd1, 0xdb, 0xb9, 0x44, 0xd9, 0x37, 0xbd,
  0x83, 0x4c, 0x84, 0xbc, 0x71, 0xab, 0xde, 0x3d, 0x71, 0x74, 0x8c, 0xbd,
  0x0e, 0xc3, 0xd2, 0xbc, 0xd6, 0xd1, 0x47, 0xbb, 0xd5, 0xd7, 0x5f, 0x3d,
  0xe1, 0x95, 0x55, 0xbd, 0xd9, 0x6e, 0x32, 0xbd, 0x8e, 0xdd, 0xb7, 0x3d,
  0xf6, 0xd4, 0xe0, 0x3d, 0xb2, 0x73, 0xa1, 0x3d, 0xa9, 0x86, 0x09, 0xbd,
  0x8c, 0x05, 0xc6, 0x3d, 0x27, 0x9e, 0xb2, 0xbd, 0x75, 0x03, 0x82, 0x3c,
  0xcf, 0xaa, 0xce, 0xbb, 0x78, 0x12, 0x6a, 0x3d, 0x57, 0x2c, 0x83, 0x3d,
  0xf7, 0x76, 0x5d, 0xbb, 0x0d, 0x76, 0xe1, 0xbc, 0xd7, 0x39, 0xdc, 0xbb,
  0x09, 0xe2, 0xb6, 0x3c, 0xae, 0x2a, 0x23, 0x3a, 0x53, 0xa4, 0xe3, 0xbc,
  0xc4, 0x70, 0x95, 0x3d, 0xf8, 0x4e, 0x14, 0xbd, 0x1b, 0x85, 0x05, 0x3d,
  0x73, 0xb7, 0xd8, 0x3d, 0xbc, 0x54, 0x0c, 0xbd, 0x96, 0x0a, 0x00, 0x3d,
  0xf6, 0x7c, 0xd3, 0xbd, 0xd8, 0x64, 0x47, 0xbd, 0x39, 0xdb, 0xc8, 0xbd,
  0x0b, 0x31, 0xa1, 0xbc, 0x69, 0xe0, 0xb9, 0x3d, 0x42, 0x13, 0x5c, 0xbd,
  0x4a, 0x22, 0x96, 0xbd, 0xe5, 0xb6, 0x17, 0xbe, 0xc5, 0x4d, 0xcf, 0xbd,
  0x06, 0xe7, 0xf8, 0xbc, 0xa2, 0xb8, 0x0d, 0x3d, 0xee, 0x37, 0x7b, 0xbc,
  0xa7, 0x17, 0xb2, 0xbd, 0xa6, 0xc5, 0x7d, 0x3b, 0x50, 0xad, 0x0b, 0xbe,
  0xbd, 0x4b, 0x3a, 0xbd, 0xe4, 0xcb, 0x83, 0xbd, 0xe0, 0x93, 0x51, 0x3d,
  0x51, 0x15, 0x7f, 0x3d, 0x24, 0xee, 0x0b, 0x3d, 0xcc, 0x98, 0xee, 0x3d,
  0x8f, 0x5f, 0x84, 0xbd, 0xf9, 0xd2, 0x96, 0xbd, 0xc8, 0xbb, 0xc6, 0xbd,
  0xe9, 0x36, 0xd4, 0x3d, 0x69, 0x32, 0x5b, 0x3d, 0x97, 0x5d, 0x06, 0x3c,
  0x7a, 0x0e, 0x4e, 0x3c, 0x9a, 0x1b, 0x0d, 0xbd, 0xfb, 0x02, 0xd1, 0xbd,
  0x10, 0x3c, 0xac, 0x3d, 0xeb, 0xb5, 0x3a, 0x3d, 0x66, 0xaf, 0x42, 0x3c,
  0x79, 0xf5, 0xb0, 0xbb, 0x4b, 0x44, 0xdd, 0x3d, 0xa7, 0x4d, 0x96, 0x3d,
  0x39, 0xfe, 0xa5, 0xbd, 0x4e, 0xa8, 0x5e, 0x3d, 0x10, 0xca, 0x02, 0x3e,
  0xb9, 0x55, 0x06, 0x3d, 0xf2, 0x0c, 0x79, 0x3d, 0x66, 0x5c, 0xba, 0xbd,
  0x4d, 0x88, 0xa8, 0x3c, 0x1d, 0x7d, 0x1a, 0x3d, 0x88, 0xfc, 0x06, 0xbd,
  0xec, 0xd6, 0x73, 0x3d, 0x9b, 0xe6, 0x88, 0xbd, 0x17, 0x9f, 0xe1, 0xbd,
  0xcf, 0x58, 0x06, 0xbd, 0x06, 0x56, 0x48, 0xbd, 0xd6, 0x62, 0x9a, 0x3c,
  0xfc, 0x48, 0x98, 0xbd, 0x96, 0x99, 0x9b, 0xbd, 0x31, 0xc9, 0xd1, 0x3d,
  0x84, 0x0b, 0x80, 0x3c, 0xee, 0xb8, 0x2f, 0xbd, 0x5f, 0xcb, 0xcc, 0xbd,
  0x6c, 0xe6, 0xa9, 0x3d, 0xa3, 0x5b, 0x85, 0x3d, 0x5b, 0x0e, 0xcd, 0xbd,
  0xb5, 0xe5, 0x2d, 0x3d, 0xd6, 0xad, 0xfb, 0x3d, 0x41, 0x5f, 0xa3, 0xbd,
  0x14, 0x68, 0xef, 0x3d, 0x1b, 0x89, 0x03, 0xbd, 0x6c, 0xfb, 0x00, 0x3d,
  0xea, 0x07, 0xbb, 0x3d, 0x09, 0x98, 0x52, 0xbc, 0x4f, 0xdc, 0xe1, 0x3c,
  0x09, 0xc3, 0x9f, 0xbd, 0x4e, 0x45, 0x32, 0xbd, 0xcf, 0x6b, 0xf9, 0x3d,
  0xaf, 0x08, 0xa9, 0x39, 0x81, 0x28, 0x9c, 0x3d, 0xdd, 0xf7, 0x89, 0x3d,
  0x21, 0xde, 0xf1, 0x3c, 0xaf, 0xd4, 0x7f, 0xbb, 0xd5, 0x1d, 0xbd, 0x3d,
  0x71, 0xcf, 0x1c, 0x3b, 0xa8, 0x61, 0x12, 0x3d, 0x73, 0xd1, 0xdf, 0x3d,
  0x50, 0xfc, 0x59, 0xbd, 0x45, 0x0b, 0xe6, 0xbc, 0x64, 0xe7, 0xd6, 0x3d,
  0x9c, 0x1b, 0x0b, 0x3e, 0xeb, 0x9c, 0xcf, 0x3d, 0xfa, 0xe8, 0xf0, 0x3c,
  0x98, 0x9e, 0x08, 0x3e, 0xc3, 0x06, 0x11, 0xbd, 0xbd, 0x95, 0x3f, 0x3d,
  0xb4, 0xc8, 0xff, 0xbb, 0x43, 0x2b, 0xe6, 0xbb, 0x25, 0xd0, 0xcf, 0xbd,
  0x59, 0xef, 0x54, 0x3c, 0x43, 0x29, 0x86, 0x3d, 0xa3, 0xbd, 0x18, 0x3e,
  0xc8, 0xa5, 0xc2, 0x3d, 0x09, 0xf0, 0xf1, 0xbc, 0xa4, 0x36, 0x9d, 0xbd,
  0x17, 0xd6, 0xa1, 0x3d, 0x8c, 0xb7, 0xff, 0x3c, 0x40, 0xb1, 0x65, 0x3d,
  0xd3, 0x05, 0x71, 0xbc, 0x09, 0xc6, 0x9e, 0x3d, 0x36, 0xb7, 0xe2, 0xbd,
  0x31, 0x7e, 0x16, 0x3d, 0xcf, 0x7d, 0x94, 0x3c, 0x77, 0xe7, 0x8e, 0xbd,
  0xbc, 0x09, 0x26, 0xbd, 0x3b, 0x3d, 0xf3, 0x3d, 0xfa, 0xe3, 0xad, 0x3d,
  0x48, 0xcc, 0xf7, 0xbd, 0xed, 0x29, 0x88, 0x3d, 0xed, 0x26, 0x02, 0x3e,
  0x42, 0x9a, 0x25, 0x3c, 0x9e, 0xf2, 0x95, 0xba, 0x26, 0xd6, 0x98, 0xbc,
  0x91, 0xa1, 0xdf, 0xbc, 0x8e, 0xc5, 0x51, 0xbd, 0x3b, 0xea, 0x31, 0xbd,
  0x08, 0x8b, 0xf3, 0xbc, 0x7a, 0xf2, 0xec, 0xbd, 0x1a, 0x15, 0x26, 0x3c,
  0xb0, 0xe9, 0xdf, 0x3a, 0xc8, 0x12, 0x98, 0xbd, 0x72, 0x4a, 0x64, 0x3d,
  0x0b, 0x4e, 0xac, 0xbd, 0xa1, 0x6e, 0x1e, 0xbd, 0xad, 0x3e, 0xdd, 0x3d,
  0x91, 0xe6, 0x6b, 0x3d, 0x8f, 0x36, 0x7f, 0xbd, 0xf3, 0x20, 0x03, 0xbd,
  0x91, 0x56, 0x6c, 0x3c, 0xd8, 0xf3, 0x54, 0x3b, 0xeb, 0x43, 0xce, 0x3b,
  0x27, 0x4d, 0x89, 0xbc, 0xce, 0x13, 0x78, 0xbd, 0xae, 0xa2, 0x86, 0xb9,
  0xd8, 0x04, 0x91, 0xbb, 0x14, 0xcc, 0x62, 0xbd, 0xc8, 0x2b, 0x10, 0x3d,
  0xfa, 0xa1, 0x64, 0x3d, 0xb1, 0x69, 0x0a, 0x3d, 0x7d, 0xac, 0x3a, 0x3a,
  0x54, 0xd8, 0x83, 0x3d, 0xf8, 0x05, 0xab, 0x3d, 0x8d, 0x1b, 0x02, 0xbe,
  0xb0, 0x28, 0x2e, 0x3c, 0x62, 0x40, 0x2c, 0xbd, 0x9e, 0xab, 0xb8, 0xbd,
  0xfc, 0x41, 0x6b, 0xbd, 0x29, 0x7e, 0x03, 0xbd, 0x33, 0x5a, 0x64, 0xbd,
  0x25, 0x44, 0x01, 0x3e, 0x7e, 0x34, 0xc6, 0xbd, 0xc8, 0x06, 0xcc, 0x3d,
  0x5e, 0xad, 0x07, 0xbd, 0x8d, 0x36, 0x23, 0xbb, 0x23, 0xa6, 0xb4, 0xbd,
  0x8f, 0x53, 0x5e, 0xbd, 0xd6, 0xbe, 0xe0, 0xbc, 0xc2, 0x69, 0x46, 0x3d,
  0x1a, 0x81, 0x16, 0xbd, 0x8e, 0x3a, 0x41, 0x3c, 0xfd, 0x0f, 0x43, 0x3d,
  0x2f, 0x15, 0xb2, 0xbc, 0x30, 0x2d, 0x36, 0x3c, 0xfb, 0x14, 0xd3, 0xbd,
  0x9f, 0xcd, 0xa7, 0x3d, 0xb6, 0x52, 0x2e, 0xbc, 0x6d, 0x69, 0x9e, 0x3c,
  0xe9, 0x51, 0x1d, 0x3c, 0xd8, 0xc1, 0xb7, 0xbc, 0xe7, 0xf1, 0x83, 0xbd,
  0x4c, 0xc0, 0xd4, 0xbc, 0x73, 0x42, 0x0c, 0x3d, 0x2c, 0x6d, 0x1e, 0xbe,
  0xe8, 0x71, 0xec, 0xbd, 0xaf, 0xa2, 0xb6, 0x3d, 0xfb, 0x21, 0x91, 0x3d,
  0x86, 0xef, 0xf7, 0xbd, 0x4a, 0xb3, 0x6e, 0x3d, 0x6e, 0x39, 0x81, 0xbc,
  0x2c, 0x83, 0x5e, 0xbc, 0xd6, 0xb8, 0xf6, 0x3b, 0x42, 0x63, 0xf4, 0xbd,
  0xc4, 0x54, 0x32, 0xbd, 0xc3, 0x06, 0x89, 0xbc, 0xd4, 0xad, 0xfc, 0xbc,
  0x88, 0x04, 0x47, 0x3d, 0x62, 0x05, 0x15, 0x3c, 0x76, 0xc9, 0x14, 0xbd,
  0x28, 0xe8, 0x86, 0xbd, 0x93, 0x92, 0xc6, 0xbd, 0x58, 0xec, 0x90, 0x3d,
  0xab, 0xd6, 0xe8, 0xbb, 0xa7, 0x15, 0x99, 0xbd, 0xf3, 0xe3, 0x84, 0xbd,
  0x7f, 0x9e, 0xf6, 0xbc, 0x19, 0x4b, 0x25, 0x3d, 0xae, 0x4e, 0xab, 0x3c,
  0xaf, 0x05, 0x22, 0xbc, 0x92, 0x25, 0x07, 0x3d, 0x69, 0x18, 0xfe, 0xbd,
  0x8b, 0x90, 0x7b, 0xbd, 0xcb, 0x67, 0xdb, 0x3c, 0x06, 0x77, 0x39, 0x3d,
  0x22, 0xc8, 0x17, 0x3d, 0x7e, 0xbf, 0x51, 0x3d, 0x0b, 0x33, 0x29, 0x3d,
  0xf9, 0xd6, 0xed, 0xbd, 0xa3, 0x24, 0x47, 0xbc, 0xf9, 0xf4, 0x94, 0x3d,
  0xdc, 0xcf, 0xe2, 0xbb, 0x7e, 0x2d, 0x45, 0xbc, 0x0b, 0x65, 0x1e, 0xbd,
  0xe6, 0x1f, 0x90, 0xbd, 0xc4, 0xae, 0xb7, 0xbd, 0x6d, 0xcb, 0xdf, 0xbc,
  0x4f, 0xd7, 0x37, 0x3c, 0x72, 0xa8, 0x74, 0xbd, 0xd6, 0x4a, 0x4a, 0x3d,
  0x64, 0xb4, 0x91, 0x3d, 0x18, 0xa8, 0x8b, 0x3d, 0xa1, 0x48, 0xfa, 0xbc,
  0x0d, 0x09, 0x81, 0xbd, 0x24, 0x0d, 0x8d, 0xbd, 0x2e, 0x51, 0xbe, 0xbd,
  0xa3, 0x63, 0xa4, 0xbd, 0x0e, 0xcd, 0xb5, 0x3c, 0x59, 0x30, 0x5a, 0x3d,
  0xe3, 0x6e, 0xb9, 0x3d, 0x26, 0x57, 0x65, 0x3d, 0x12, 0x87, 0x71, 0x3b,
  0x15, 0x6c, 0xa3, 0x3d, 0x87, 0x23, 0x80, 0xbd, 0xba, 0x3f, 0x64, 0x3c,
  0x11, 0x5c, 0xcf, 0xbb, 0x3d, 0x2a, 0xb1, 0x3d, 0x12, 0xb2, 0xa5, 0xbd,
  0x07, 0x3e, 0x42, 0x3d, 0x79, 0x16, 0xa4, 0x3c, 0x67, 0x29, 0xb2, 0xbd,
  0xaa, 0x12, 0xc4, 0xba, 0x7a, 0x56, 0x44, 0x3c, 0x63, 0x8a, 0x0b, 0xbe,
  0xdd, 0x77, 0x81, 0xbc, 0xff, 0xad, 0xa1, 0x3c, 0xe1, 0x39, 0xab, 0xbd,
  0x02, 0x82, 0x0a, 0xbd, 0x4c, 0x3b, 0x34, 0x3c, 0xad, 0x12, 0xa7, 0x3c,
  0x1a, 0x1c, 0x09, 0x3d, 0x5c, 0x26, 0xd0, 0x3c, 0xde, 0x71, 0x96, 0x3d,
  0xcd, 0x5d, 0x81, 0x3d, 0xe1, 0x4e, 0x9b, 0xbb, 0x46, 0xce, 0x93, 0x3d,
  0xa8, 0x79, 0x58, 0xbd, 0x2a, 0x66, 0xde, 0xbd, 0xb5, 0x6a, 0xc8, 0xbd,
  0xcb, 0x24, 0x1e, 0x3d, 0x10, 0x71, 0xc4, 0xbd, 0x3a, 0x9d, 0x12, 0xbd,
  0x66, 0x8a, 0x17, 0x3d, 0x1b, 0x9b, 0x75, 0x3d, 0xe6, 0x3e, 0x98, 0xbd,
  0xeb, 0xd8, 0x85, 0x3d, 0xd4, 0x8b, 0xd7, 0x3c, 0x0d, 0x22, 0x4e, 0xbd,
  0x99, 0x52, 0x5c, 0x3d, 0x2f, 0x3d, 0x22, 0x3d, 0x07, 0xca, 0xc0, 0x3b,
  0xba, 0x9b, 0x85, 0xbc, 0x4b, 0x9c, 0x72, 0xbd, 0x44, 0x62, 0xb3, 0xbd,
  0xfc, 0xf1, 0x7a, 0x3d, 0x55, 0xe3, 0x5b, 0xbd, 0xdc, 0xf8, 0x49, 0xbd,
  0xee, 0x0e, 0x21, 0xbd, 0x82, 0xbd, 0x8f, 0x3d, 0x50, 0x2e, 0x53, 0xbd,
  0x5a, 0x31, 0xbc, 0x3d, 0xa2, 0xce, 0x06, 0x3d, 0xbe, 0xc3, 0x80, 0xbd,
  0xf0, 0xaa, 0xe3, 0x39, 0x3e, 0xf3, 0xff, 0xff, 0x04, 0x00, 0x00, 0x00,
  0x20, 0x00, 0x00, 0x00, 0x00, 0x00, 0x00, 0x00, 0x00, 0x00, 0x00, 0x00,
  0x00, 0x00, 0x00, 0x00, 0x00, 0x00, 0x00, 0x00, 0x00, 0x00, 0x00, 0x00,
  0x00, 0x00, 0x00, 0x00, 0x00, 0x00, 0x00, 0x00, 0x00, 0x00, 0x00, 0x00,
  0x6a, 0xf3, 0xff, 0xff, 0x04, 0x00, 0x00, 0x00, 0x00, 0x06, 0x00, 0x00,
  0x33, 0x58, 0xa1, 0x3d, 0x7e, 0x1c, 0x1e, 0xbe, 0x0b, 0xcd, 0x53, 0xbd,
  0xea, 0xeb, 0x67, 0x3e, 0xa3, 0x55, 0x12, 0xbd, 0x82, 0x28, 0x87, 0x3e,
  0x64, 0x24, 0x43, 0xbe, 0xef, 0x46, 0xe2, 0x3d, 0xcf, 0x16, 0x76, 0x3e,
  0x6c, 0x04, 0x05, 0xbe, 0xa5, 0xf7, 0x13, 0xbe, 0x1c, 0x91, 0x70, 0x3c,
  0xe3, 0x40, 0x52, 0x3e, 0x02, 0x47, 0x90, 0xbd, 0x39, 0x6b, 0x2a, 0x3e,
  0x79, 0xad, 0x67, 0x3e, 0xbe, 0x4f, 0x71, 0x3b, 0xda, 0xb3, 0x33, 0x3e,
  0x1a, 0xd0, 0xa9, 0x3d, 0x92, 0x84, 0x75, 0xbe, 0xd7, 0x90, 0x67, 0x3e,
  0x69, 0xc7, 0x19, 0x3e, 0xf3, 0x6f, 0x06, 0xbe, 0x57, 0x88, 0x4b, 0xbd,
  0xba, 0xcb, 0x80, 0x3e, 0xaf, 0xea, 0x69, 0xbe, 0x69, 0xda, 0x3f, 0x3e,
  0x78, 0x5b, 0x64, 0xbe, 0xcf, 0xa8, 0x57, 0x3e, 0x6c, 0x1d, 0x7b, 0xbc,
  0x12, 0x65, 0x13, 0xbd, 0xdf, 0x19, 0x51, 0x3e, 0x25, 0xbb, 0x81, 0x3c,
  0x80, 0x5b, 0x04, 0xbe, 0xc9, 0xb3, 0x31, 0xbe, 0x34, 0x71, 0x75, 0xbe,
  0x07, 0x9f, 0xf3, 0x3c, 0x68, 0x71, 0x5f, 0xbe, 0xed, 0xe3, 0x80, 0xbe,
  0xd8, 0x72, 0x3e, 0xbe, 0xf2, 0x7f, 0x33, 0x3d, 0x92, 0x7c, 0x7c, 0x3e,
  0xac, 0x4b, 0x94, 0x3d, 0x2d, 0x98, 0x93, 0xbe, 0xdc, 0x6d, 0xf2, 0xbd,
  0xbe, 0x34, 0x24, 0x3e, 0xe1, 0x9e, 0x17, 0xbe, 0xc5, 0xaa, 0x33, 0x3d,
  0x47, 0x0d, 0x05, 0x3e, 0xf7, 0xb1, 0x9c, 0xbd, 0x46, 0xf5, 0x82, 0x3d,
  0x42, 0x68, 0xff, 0x3d, 0xfc, 0x0f, 0x81, 0x3e, 0x13, 0x69, 0x39, 0xbe,
  0x28, 0x6b, 0xae, 0xbc, 0x9f, 0xab, 0x16, 0x3e, 0xf3, 0xbb, 0x90, 0x3e,
  0x78, 0xf5, 0x04, 0xbe, 0xc9, 0xe6, 0xff, 0x3d, 0x9a, 0xe3, 0x14, 0xbe,
  0xd1, 0x8e, 0x5c, 0x3e, 0x69, 0xa9, 0x0b, 0x3e, 0xce, 0xc1, 0x60, 0xbe,
  0xc4, 0x93, 0x44, 0xbc, 0x87, 0x0a, 0x07, 0x3e, 0x47, 0x12, 0x88, 0xbe,
  0xcf, 0xcd, 0x67, 0x3e, 0xeb, 0xa0, 0x2d, 0x3e, 0x32, 0x29, 0x74, 0x3e,
  0xe3, 0x11, 0x03, 0xbe, 0xaa, 0x18, 0xc6, 0x3d, 0xeb, 0xf0, 0x55, 0xbe,
  0xaf, 0x58, 0x0b, 0x3e, 0x16, 0xa7, 0x53, 0xbb, 0x9d, 0x4e, 0x41, 0x3d,
  0xbb, 0xac, 0x1f, 0x3d, 0x21, 0x93, 0x87, 0x3e, 0xd0, 0x0e, 0xf5, 0xbd,
  0x88, 0x74, 0xc2, 0x3b, 0x1e, 0xfc, 0x85, 0x3e, 0xaf, 0x66, 0xa3, 0xbc,
  0x37, 0xad, 0x1c, 0xbd, 0xe2, 0x07, 0x66, 0xbe, 0x6f, 0xea, 0xce, 0x3d,
  0x77, 0xa4, 0x25, 0x3d, 0x86, 0x7f, 0x23, 0xbe, 0x35, 0x4c, 0x92, 0x3e,
  0x73, 0x3f, 0xe3, 0x3d, 0x62, 0x70, 0x61, 0xbe, 0xb6, 0x43, 0x20, 0x3e,
  0x74, 0xe0, 0x39, 0x3e, 0xc0, 0x61, 0xa8, 0x3d, 0x27, 0x7a, 0xe6, 0xbd,
  0x1d, 0xf9, 0x2e, 0xbe, 0xfb, 0xf1, 0x07, 0x3e, 0xc2, 0xd0, 0x35, 0xbb,
  0x1d, 0xcc, 0x8c, 0x3e, 0x1f, 0x8d, 0x4a, 0x3b, 0xad, 0xf6, 0x86, 0xbd,
  0xb5, 0x8e, 0xc2, 0xbd, 0x8c, 0x55, 0x8f, 0xbd, 0x82, 0x4f, 0xc2, 0xbd,
  0x83, 0x62, 0x11, 0xbe, 0xc6, 0x93, 0x10, 0xbe, 0x19, 0x71, 0x2e, 0x3e,
  0x5d, 0xb3, 0xb5, 0x3d, 0xf4, 0x11, 0xa9, 0x3c, 0x87, 0x47, 0x88, 0x3e,
  0x1c, 0xfa, 0x1a, 0x3e, 0x45, 0x34, 0x74, 0xbd, 0xf7, 0x01, 0x70, 0xbe,
  0x5b, 0x58, 0xb6, 0xbd, 0xa2, 0xbf, 0xbb, 0xbd, 0xc6, 0x73, 0x72, 0x3d,
  0x06, 0x7d, 0xdf, 0x3d, 0xb9, 0x65, 0x5c, 0x3d, 0x52, 0xa2, 0xa1, 0xbe,
  0xa7, 0xf9, 0x7c, 0x3e, 0x25, 0x8f, 0x87, 0xbd, 0x89, 0x77, 0x20, 0x3e,
  0x6b, 0x05, 0x06, 0xbe, 0x7b, 0x61, 0xd5, 0xbb, 0x6e, 0x2d, 0x2b, 0x3e,
  0x6c, 0x03, 0x78, 0x3e, 0xed, 0x34, 0x5b, 0x3e, 0x1c, 0x37, 0xc4, 0xbd,
  0x3a, 0x75, 0x1b, 0x3d, 0x6b, 0xd8, 0x0f, 0x3e, 0x2d, 0xd4, 0x40, 0x3e,
  0xf7, 0xfc, 0xb3, 0xbd, 0xee, 0x80, 0x06, 0xbe, 0x44, 0x09, 0x7f, 0xbd,
  0x29, 0xef, 0x37, 0xbe, 0xaa, 0x38, 0x8b, 0x3e, 0x5e, 0x89, 0xf5, 0xbd,
  0x33, 0x16, 0xdc, 0xbd, 0x5f, 0xe0, 0x88, 0x3e, 0xa2, 0x4f, 0x17, 0x3e,
  0x9c, 0xb1, 0x4e, 0xbe, 0x57, 0xa7, 0x27, 0xbd, 0x05, 0x83, 0xd8, 0xbc,
  0x27, 0xa3, 0x2b, 0xbe, 0xbd, 0xef, 0x14, 0x3e, 0xda, 0x8b, 0x07, 0xbc,
  0x8a, 0xac, 0xb5, 0xbd, 0xb3, 0x7f, 0x6c, 0x3d, 0xbc, 0x47, 0x07, 0x3e,
  0xef, 0xdc, 0x22, 0xbe, 0x42, 0x2d, 0x81, 0xbe, 0x3a, 0xfe, 0xbd, 0x3d,
  0xea, 0xb1, 0x25, 0xbe, 0x53, 0xa0, 0x68, 0xbb, 0x60, 0xc9, 0xe1, 0x3d,
  0x33, 0xbc, 0xbc, 0xbd, 0xfe, 0x93, 0x1e, 0xbe, 0x55, 0x35, 0x33, 0x3d,
  0xb0, 0xfe, 0x7e, 0x3e, 0x75, 0x9f, 0x06, 0x3d, 0x63, 0xea, 0x74, 0xbc,
  0x30, 0x9f, 0x7b, 0xbe, 0xdc, 0x1b, 0x8a, 0xbd, 0x35, 0x69, 0x20, 0xbe,
  0xeb, 0x16, 0x88, 0x3e, 0xa3, 0x64, 0x3f, 0x3c, 0x69, 0x4c, 0x87, 0xbc,
  0xe9, 0xcd, 0x8e, 0x3e, 0x35, 0xb7, 0x8a, 0x3e, 0x58, 0xad, 0x3a, 0x3e,
  0xa5, 0xa6, 0x03, 0x3e, 0xd0, 0x4c, 0x28, 0xbe, 0xd4, 0xe4, 0x4d, 0xbe,
  0xc3, 0x2a, 0x6e, 0x3d, 0x56, 0xe4, 0x25, 0xbe, 0x53, 0x82, 0x61, 0x3e,
  0xaa, 0x6c, 0x76, 0xbe, 0xfb, 0xa2, 0x96, 0x3e, 0x63, 0xf8, 0x01, 0x3e,
  0xe0, 0xae, 0x8c, 0x3e, 0xd7, 0xfa, 0x38, 0x3e, 0x2b, 0x6a, 0xee, 0x3d,
  0x94, 0xc1, 0x24, 0x3e, 0xc4, 0xdb, 0x2e, 0xbe, 0x85, 0xbc, 0x69, 0xbe,
  0x5e, 0x14, 0x4c, 0xbe, 0xed, 0xcf, 0x7d, 0xbe, 0x12, 0x6f, 0x61, 0xbd,
  0x86, 0xd0, 0x70, 0x3e, 0x99, 0x99, 0xad, 0x3d, 0x4a, 0x71, 0x9e, 0x3d,
  0xdd, 0x50, 0x11, 0x3e, 0x60, 0x73, 0x47, 0xbd, 0xb3, 0xa6, 0x49, 0xbd,
  0xef, 0xc5, 0x4b, 0x3c, 0xc1, 0x87, 0x98, 0x3d, 0x68, 0x1f, 0x65, 0x3e,
  0x8c, 0xbd, 0x9f, 0x3e, 0x65, 0xda, 0x71, 0xbe, 0x4d, 0xad, 0x5a, 0x3e,
  0x91, 0x49, 0x97, 0xbe, 0x32, 0x9b, 0x86, 0xbe, 0xdc, 0xf0, 0x55, 0xbe,
  0x9d, 0x36, 0xd3, 0xbd, 0xa5, 0x44, 0xd4, 0x3d, 0x0d, 0x2f, 0x35, 0x3d,
  0xfb, 0x24, 0x62, 0x3d, 0x2d, 0x40, 0x3a, 0x3e, 0xc1, 0xbf, 0x5e, 0xbc,
  0x4e, 0xf7, 0xbc, 0x3d, 0xd7, 0x5d, 0x1f, 0x3e, 0x02, 0x0e, 0xff, 0xbd,
  0xfc, 0xbc, 0x90, 0x3e, 0x2a, 0x6c, 0x47, 0x3e, 0x67, 0xc6, 0x32, 0x3e,
  0x99, 0x43, 0x24, 0x3e, 0xaf, 0x11, 0x38, 0xbe, 0x38, 0xfe, 0x74, 0xbe,
  0x5d, 0xb7, 0xef, 0xbd, 0x48, 0x3b, 0xdc, 0x3d, 0xc7, 0x6a, 0x64, 0x3e,
  0x13, 0xa7, 0x47, 0x3e, 0x48, 0xb1, 0x59, 0xbe, 0x49, 0x3c, 0xbf, 0xbc,
  0x74, 0x04, 0x41, 0xbe, 0xc1, 0x82, 0x15, 0x3e, 0x80, 0x36, 0x01, 0xbe,
  0x64, 0xd2, 0x9b, 0xbe, 0x8b, 0x04, 0x41, 0x3e, 0x3c, 0xdd, 0x9b, 0x3e,
  0x23, 0xa6, 0x95, 0xbe, 0x56, 0xf7, 0x87, 0x3e, 0x64, 0x4b, 0x5e, 0x3e,
  0x5b, 0x1d, 0x63, 0xbc, 0x95, 0x95, 0x0c, 0x3d, 0xe5, 0x3a, 0x3a, 0x3e,
  0x07, 0xb2, 0x44, 0xbe, 0x7e, 0x60, 0x82, 0xbe, 0x38, 0xf1, 0x6d, 0xbe,
  0x9f, 0xbc, 0x32, 0xbe, 0x82, 0x02, 0x8f, 0x3c, 0x28, 0x0d, 0x04, 0x3e,
  0x68, 0xf0, 0x17, 0x3e, 0xd4, 0x5d, 0xf8, 0xbd, 0x16, 0x42, 0xbc, 0xbc,
  0x18, 0xa2, 0x82, 0xbe, 0x24, 0x90, 0x83, 0xbd, 0x1a, 0x3c, 0xa7, 0x3d,
  0x65, 0xe4, 0x9f, 0x3e, 0x34, 0x8c, 0x82, 0xbc, 0x5e, 0x2e, 0x92, 0x3e,
  0x4b, 0x99, 0x28, 0x3e, 0xde, 0x35, 0x9a, 0x3d, 0x14, 0x2a, 0x01, 0xbe,
  0x0f, 0x35, 0x0e, 0x3d, 0xfc, 0x4f, 0x01, 0x3d, 0x41, 0x09, 0x52, 0x3e,
  0xfb, 0xd5, 0x51, 0xbe, 0xc6, 0xdf, 0x4e, 0x3d, 0x14, 0xaa, 0x1b, 0x3d,
  0x69, 0x67, 0xa8, 0x3c, 0x90, 0x39, 0x82, 0x3e, 0x15, 0x47, 0xeb, 0xbd,
  0xe2, 0xcc, 0x56, 0xbe, 0x62, 0x3f, 0x4a, 0x3e, 0xdc, 0x1d, 0xa0, 0x3d,
  0xb6, 0xae, 0xa0, 0x3e, 0x8d, 0xdf, 0x23, 0x3e, 0x71, 0x59, 0x45, 0xbe,
  0x0e, 0xba, 0x1e, 0x3e, 0xad, 0xbf, 0xb8, 0x3c, 0xcd, 0xe4, 0x1f, 0xbe,
  0xf3, 0x52, 0x47, 0xbe, 0x54, 0x7c, 0x41, 0x3e, 0xe3, 0x21, 0x3d, 0x3e,
  0xab, 0xea, 0xd3, 0xbd, 0x19, 0x16, 0x81, 0xbe, 0xe6, 0xf1, 0x96, 0x3e,
  0x7c, 0x22, 0xf4, 0xbd, 0x88, 0xd2, 0x28, 0xbe, 0x0d, 0x0f, 0xe7, 0x3d,
  0x37, 0x1a, 0xde, 0xbc, 0xbb, 0x7b, 0xb0, 0x3d, 0xcd, 0x0c, 0x45, 0x3d,
  0x57, 0x71, 0xe3, 0xbd, 0xf4, 0xce, 0x78, 0xbe, 0xf9, 0x5c, 0x46, 0xbe,
  0x4c, 0xe8, 0x85, 0x3e, 0xa3, 0x91, 0x43, 0xbe, 0xf7, 0x49, 0x7d, 0xbe,
  0x92, 0x94, 0x1a, 0xbd, 0xbf, 0x7e, 0x6f, 0x3e, 0x5c, 0x03, 0x27, 0xbe,
  0x91, 0x5e, 0x62, 0x3e, 0xfc, 0xc8, 0x7f, 0xbe, 0xea, 0xa7, 0x5d, 0xbe,
  0xac, 0x5b, 0x8b, 0x3e, 0x51, 0x01, 0x0f, 0x3e, 0xa9, 0xd8, 0x3f, 0x3d,
  0x7a, 0xa1, 0xf0, 0xbd, 0x71, 0xf0, 0x0f, 0xbe, 0x6c, 0x41, 0x88, 0xbe,
  0xbd, 0xe1, 0x61, 0x3e, 0xf7, 0x50, 0xe8, 0x3b, 0x16, 0x84, 0xdc, 0x3d,
  0x7b, 0x59, 0x00, 0xbd, 0x70, 0x42, 0x57, 0x3d, 0xad, 0x86, 0x59, 0x3c,
  0xd5, 0xd8, 0x3a, 0x3c, 0x14, 0x78, 0x63, 0x3d, 0x1e, 0xeb, 0x9e, 0xbd,
  0x7e, 0xe0, 0x8c, 0x3e, 0x0c, 0xb4, 0x86, 0xbd, 0x4c, 0xfd, 0x96, 0xbe,
  0xdd, 0x28, 0xb8, 0xbd, 0x39, 0x23, 0x4d, 0x3e, 0xc1, 0x78, 0x39, 0x3d,
  0x19, 0x38, 0x27, 0xbe, 0x89, 0x36, 0x25, 0x3e, 0x98, 0xfe, 0x63, 0xbd,
  0x94, 0x09, 0x24, 0xbe, 0x4e, 0xa8, 0x82, 0x3e, 0x93, 0x61, 0x70, 0x3e,
  0x78, 0xe5, 0x09, 0x3e, 0x08, 0x4e, 0x19, 0x3e, 0xc8, 0xaf, 0x8a, 0xbe,
  0xa5, 0xea, 0x87, 0xbe, 0xd9, 0xaa, 0x19, 0xbe, 0x22, 0x71, 0x2b, 0xbe,
  0x69, 0xf7, 0x90, 0xbc, 0x01, 0x0a, 0xaa, 0x3c, 0xcc, 0x56, 0xa4, 0xbd,
  0x80, 0xfd, 0x69, 0xbe, 0x8d, 0x30, 0x9c, 0x3d, 0xf8, 0x98, 0xdc, 0x3d,
  0x7f, 0xda, 0x5b, 0xbc, 0x65, 0xbe, 0x96, 0x3e, 0x7a, 0xeb, 0x1e, 0x3e,
  0x48, 0x40, 0xea, 0x3d, 0xb0, 0xda, 0x93, 0xbd, 0x9c, 0x49, 0x8a, 0xbe,
  0xc6, 0x32, 0x00, 0x3e, 0x74, 0xe1, 0xf8, 0xbd, 0x42, 0x49, 0x85, 0xbd,
  0x50, 0x21, 0xf3, 0x3d, 0xec, 0x13, 0x6b, 0x3e, 0xae, 0x57, 0x45, 0xbe,
  0x6e, 0x77, 0x54, 0xbe, 0x72, 0x16, 0x01, 0x3e, 0x60, 0x89, 0x28, 0xbc,
  0xd0, 0x7a, 0x93, 0x3c, 0x40, 0xa7, 0x5b, 0xbd, 0x90, 0x91, 0xec, 0x3c,
  0xe0, 0x83, 0xda, 0xbc, 0xf8, 0xba, 0xc3, 0x3d, 0x10, 0x84, 0x5a, 0x3e,
  0x3a, 0xe9, 0x85, 0x3e, 0xd4, 0x19, 0x8e, 0xbe, 0xc8, 0x78, 0x0d, 0x3e,
  0x3b, 0x60, 0x10, 0xbe, 0x68, 0xbd, 0x47, 0x3e, 0xea, 0xf9, 0x10, 0x3e,
  0xa1, 0x73, 0x76, 0xbe, 0xe0, 0xc1, 0xbe, 0x3d, 0xa0, 0xfe, 0xb9, 0xbc,
  0x0a, 0xe5, 0x46, 0x3e, 0x24, 0xd2, 0x66, 0xbd, 0xe0, 0xf0, 0x06, 0x3d,
  0xd6, 0xb5, 0x91, 0x3e, 0xe0, 0x70, 0x62, 0x3e, 0x42, 0x54, 0x01, 0x3e,
  0x08, 0xef, 0x44, 0x3d, 0x34, 0x4f, 0x7c, 0x3e, 0x22, 0x52, 0x8a, 0x3e,
  0x38, 0x46, 0x01, 0xbd, 0x68, 0x92, 0x43, 0x3e, 0xd4, 0x62, 0xca, 0x3d,
  0x7e, 0x7e, 0x2d, 0x3e, 0xc5, 0x85, 0x05, 0xbe, 0x95, 0xf7, 0x6f, 0xbe,
  0xc2, 0x7d, 0x18, 0x3e, 0x44, 0x44, 0x74, 0x3e, 0x96, 0xb6, 0x93, 0x3e,
  0x38, 0x0a, 0x0c, 0x3d, 0x56, 0xa5, 0xca, 0xbd, 0x2c, 0x23, 0x90, 0x3d,
  0x76, 0xf9, 0xff, 0xff, 0x04, 0x00, 0x00, 0x00, 0x40, 0x00, 0x00, 0x00,
  0x00, 0x00, 0x00, 0x00, 0x00, 0x00, 0x00, 0x00, 0x00, 0x00, 0x00, 0x00,
  0x00, 0x00, 0x00, 0x00, 0x00, 0x00, 0x00, 0x00, 0x00, 0x00, 0x00, 0x00,
  0x00, 0x00, 0x00, 0x00, 0x00, 0x00, 0x00, 0x00, 0x00, 0x00, 0x00, 0x00,
  0x00, 0x00, 0x00, 0x00, 0x00, 0x00, 0x00, 0x00, 0x00, 0x00, 0x00, 0x00,
  0x00, 0x00, 0x00, 0x00, 0x00, 0x00, 0x00, 0x00, 0x00, 0x00, 0x00, 0x00,
  0x00, 0x00, 0x00, 0x00, 0xc2, 0xf9, 0xff, 0xff, 0x04, 0x00, 0x00, 0x00,
  0x00, 0x06, 0x00, 0x00, 0x87, 0xda, 0xeb, 0x3b, 0xd7, 0x2b, 0x4f, 0xbe,
  0x3e, 0x17, 0xd0, 0xbd, 0x92, 0xbc, 0x26, 0xbd, 0x4f, 0x9e, 0xeb, 0x3c,
  0xa4, 0x9d, 0x36, 0xbd, 0x39, 0x4c, 0x00, 0xbd, 0x88, 0xa3, 0x86, 0xbe,
  0xf0, 0x63, 0x73, 0x3e, 0x59, 0x1f, 0x85, 0xbe, 0x46, 0xd5, 0x20, 0xbd,
  0x4e, 0xb8, 0x83, 0x3e, 0x0e, 0x32, 0x59, 0x3e, 0xb0, 0xd6, 0x6d, 0x3e,
  0x07, 0x23, 0x53, 0x3e, 0x20, 0x9b, 0x80, 0x3c, 0x3f, 0x04, 0x33, 0xbe,
  0x50, 0xad, 0xa0, 0x3d, 0x5c, 0xc8, 0x12, 0x3e, 0xc0, 0x1f, 0x10, 0x3e,
  0x4c, 0xa7, 0x5a, 0xbd, 0x21, 0x5f, 0x8b, 0xbe, 0x2b, 0xa0, 0x88, 0xbe,
  0x80, 0xfd, 0x0e, 0xbc, 0x53, 0x4b, 0xaf, 0x3e, 0x3e, 0x19, 0x49, 0xbe,
  0x1c, 0x91, 0x12, 0xbe, 0x15, 0x6d, 0x43, 0x3d, 0x69, 0x56, 0x91, 0xbe,
  0xe3, 0x7b, 0x4a, 0xbd, 0x05, 0x0d, 0x5e, 0x3c, 0x60, 0x56, 0x0f, 0x3d,
  0xf5, 0xca, 0xe4, 0x3a, 0x5a, 0x4d, 0x47, 0xbe, 0x8f, 0xe5, 0x04, 0xbe,
  0xb1, 0x75, 0x76, 0xbd, 0x14, 0x30, 0x5e, 0x3e, 0xed, 0xba, 0x0f, 0x3e,
  0x67, 0x15, 0xb7, 0x3b, 0x3c, 0x52, 0xdf, 0xbd, 0x3c, 0x63, 0xe9, 0xbd,
  0x00, 0x86, 0x6d, 0xbc, 0x55, 0x5c, 0x31, 0x3e, 0xc3, 0x53, 0x49, 0xbe,
  0xe1, 0xa0, 0x50, 0xbe, 0xdb, 0x49, 0x5b, 0xbd, 0x50, 0xee, 0x63, 0xbe,
  0x16, 0xa3, 0x4e, 0x3e, 0x23, 0x43, 0xa6, 0x3c, 0x71, 0x77, 0x92, 0xbe,
  0xa9, 0xf9, 0xc3, 0xbd, 0xc1, 0x1c, 0x3d, 0xbe, 0xa4, 0xb2, 0x77, 0xbe,
  0x65, 0x8e, 0x79, 0x3e, 0x63, 0xaa, 0x23, 0xbe, 0x1a, 0xee, 0x4b, 0x3e,
  0x8c, 0x71, 0x0b, 0x3e, 0x6b, 0x97, 0x1a, 0xbe, 0x06, 0xc9, 0xb0, 0x3e,
  0x4a, 0x1d, 0x0b, 0xbd, 0xb2, 0x14, 0x6a, 0xbe, 0xad, 0xc3, 0xc9, 0xbc,
  0xbe, 0xb5, 0xbc, 0xbc, 0x40, 0x67, 0xed, 0x3b, 0x2a, 0x8d, 0x4e, 0xbe,
  0x1c, 0xee, 0x52, 0xbe, 0x9e, 0x2b, 0x3b, 0x3e, 0x22, 0xcc, 0x14, 0x3e,
  0xe9, 0xac, 0x19, 0x3d, 0xfa, 0x97, 0xbc, 0xbd, 0xf8, 0x11, 0x2b, 0x3e,
  0xd9, 0xf6, 0x0f, 0xbe, 0xd0, 0xe6, 0x04, 0x3e, 0x00, 0x91, 0x7d, 0xbd,
  0xfb, 0x15, 0xed, 0x3d, 0xf6, 0x70, 0x77, 0xbe, 0x38, 0x8f, 0x04, 0xbe,
  0x54, 0xd3, 0x0e, 0x3e, 0x1a, 0x68, 0x42, 0xbe, 0xd8, 0x27, 0x52, 0x3e,
  0x2c, 0xb5, 0x89, 0xbe, 0x96, 0xb5, 0x8c, 0x3e, 0xfe, 0x7f, 0x80, 0xbe,
  0x31, 0xd5, 0x5d, 0xbd, 0x21, 0x9a, 0xdf, 0xba, 0xda, 0x6f, 0x07, 0x3e,
  0x2f, 0x8e, 0xfc, 0x3d, 0x42, 0x73, 0x87, 0x3e, 0x07, 0x32, 0x04, 0xbd,
  0x24, 0x59, 0x5c, 0xbd, 0x2f, 0x0c, 0xdb, 0x3d, 0xdd, 0x4f, 0x1f, 0xbd,
  0x57, 0x64, 0xe7, 0x3d, 0x42, 0x64, 0x11, 0x3e, 0x7f, 0x6a, 0xda, 0x3d,
  0xa0, 0x7d, 0xfb, 0x3c, 0x60, 0x7a, 0x67, 0x3e, 0xc5, 0x5f, 0x40, 0xbe,
  0x81, 0x46, 0x61, 0xbe, 0xdb, 0x85, 0x62, 0xbe, 0x79, 0xbe, 0x03, 0x3d,
  0x89, 0xdf, 0x50, 0xbe, 0x35, 0x5e, 0x7c, 0x3d, 0xda, 0x8d, 0x1d, 0x3e,
  0x02, 0xd6, 0x5d, 0x3e, 0x70, 0xd9, 0x2e, 0xbe, 0xda, 0x4c, 0xa2, 0xbd,
  0x50, 0x74, 0x45, 0x3d, 0x02, 0x00, 0xcd, 0x3a, 0x4e, 0xe1, 0x7e, 0x3b,
  0x7a, 0x8a, 0xf2, 0x3d, 0x5a, 0x97, 0xc3, 0xbd, 0xde, 0xfe, 0x2e, 0xbd,
  0x80, 0x74, 0xb8, 0x3d, 0x8b, 0xa1, 0x56, 0x3e, 0x38, 0xb2, 0xf6, 0xbd,
  0x14, 0x32, 0x06, 0x3e, 0xda, 0x00, 0x9f, 0x3d, 0x03, 0x6b, 0x2c, 0x3b,
  0x00, 0x24, 0x4f, 0x3e, 0xec, 0xc5, 0x84, 0x3e, 0x84, 0xf3, 0x25, 0xbe,
  0x5b, 0x39, 0x93, 0x3e, 0x7a, 0xeb, 0x06, 0xbe, 0xad, 0xeb, 0x9b, 0xbe,
  0x13, 0xc0, 0x1e, 0x3e, 0x96, 0xf4, 0x28, 0xbd, 0xce, 0x14, 0xe8, 0xbd,
  0xba, 0x3b, 0x09, 0x3d, 0xd3, 0xd9, 0x3e, 0xbe, 0x3f, 0x36, 0x5c, 0xbe,
  0xf5, 0x86, 0x2a, 0xbe, 0xb3, 0xb9, 0x0b, 0x3d, 0x0b, 0x01, 0x58, 0x3e,
  0xe7, 0xc0, 0x03, 0xbe, 0x95, 0x1e, 0x17, 0xbe, 0x85, 0xcb, 0xde, 0x3a,
  0x4a, 0x83, 0x30, 0x3e, 0x8a, 0x3d, 0x1a, 0xbe, 0x68, 0x77, 0x59, 0xbe,
  0xf8, 0x9c, 0x82, 0x3e, 0x98, 0xbe, 0xe6, 0xbd, 0xa4, 0x08, 0x19, 0xbe,
  0xe0, 0x9d, 0xbb, 0x3d, 0xeb, 0x31, 0xf0, 0x3d, 0x25, 0x6b, 0xd2, 0xbd,
  0x00, 0xc1, 0x8f, 0xbe, 0xcc, 0xad, 0x5b, 0x3b, 0xcf, 0xd5, 0x52, 0x3e,
  0x4f, 0x24, 0x37, 0xbd, 0xd4, 0x4f, 0x0e, 0x3c, 0x90, 0xef, 0xd7, 0x3c,
  0x8a, 0x4a, 0x4b, 0xbd, 0x30, 0xd6, 0xbd, 0xbd, 0x85, 0x90, 0x72, 0x3e,
  0xd9, 0x22, 0x74, 0x3e, 0x6b, 0x92, 0x4d, 0x3e, 0xa3, 0xda, 0xb0, 0xbb,
  0xc8, 0x06, 0xb4, 0xbd, 0x36, 0x0a, 0x49, 0xbe, 0xac, 0xfe, 0x0d, 0xbe,
  0x8d, 0xdb, 0x2b, 0xbe, 0x70, 0x1d, 0x80, 0x3e, 0x06, 0x0d, 0x3c, 0xbe,
  0x74, 0x2c, 0x13, 0x3e, 0xd1, 0xa0, 0x56, 0x3e, 0x44, 0x03, 0x2d, 0x3e,
  0x5e, 0xe0, 0x3f, 0x3e, 0x97, 0x3b, 0xd0, 0xbd, 0x3e, 0x7b, 0x2b, 0x3e,
  0x5c, 0x7f, 0x2d, 0x3e, 0x41, 0xa2, 0xc8, 0xbd, 0x0d, 0xe0, 0xe6, 0x3c,
  0x14, 0xf8, 0xd2, 0x3a, 0x45, 0xc7, 0xd4, 0x3d, 0x9c, 0xa2, 0x8d, 0x3e,
  0xb1, 0x6b, 0x99, 0xbe, 0xea, 0x20, 0xb3, 0xbd, 0xc6, 0x02, 0x94, 0x3d,
  0x87, 0xed, 0x76, 0xbe, 0xd8, 0x8a, 0xb6, 0xbd, 0x98, 0xaa, 0xf9, 0x3d,
  0xca, 0xf7, 0x22, 0xbe, 0xdc, 0x0c, 0x8f, 0x3d, 0x7c, 0x1f, 0x7c, 0x3d,
  0x20, 0x66, 0xec, 0x3c, 0xd8, 0x80, 0x0e, 0x3d, 0x08, 0x15, 0x0a, 0xbd,
  0x3b, 0x0a, 0x3a, 0x3e, 0x29, 0xc4, 0x84, 0x3e, 0x53, 0x3a, 0xcd, 0x3d,
  0x00, 0x56, 0xf9, 0xbb, 0xa3, 0xde, 0x0f, 0xbe, 0x0d, 0xd6, 0x88, 0xbd,
  0x98, 0x2b, 0x77, 0xbe, 0x35, 0xa5, 0x2e, 0xbd, 0xd2, 0x6e, 0x40, 0xbc,
  0xd9, 0xc0, 0x28, 0xbd, 0x0c, 0x50, 0xfa, 0x3d, 0x4b, 0x1e, 0x4b, 0xbe,
  0xa1, 0xc3, 0xb3, 0x3e, 0x96, 0x40, 0xdd, 0x3d, 0x4d, 0xd8, 0x9f, 0xbc,
  0xaa, 0x27, 0x57, 0x3e, 0x4f, 0x66, 0x6d, 0xbd, 0x37, 0xc2, 0x93, 0xbd,
  0x41, 0x81, 0xc2, 0xbd, 0x22, 0x35, 0x81, 0x3e, 0x38, 0x40, 0x9b, 0x3e,
  0x70, 0xcf, 0x18, 0xbd, 0x52, 0x0b, 0x05, 0xbe, 0x08, 0xa0, 0xbc, 0xbd,
  0x23, 0xe6, 0x50, 0xbe, 0xc5, 0xbb, 0xad, 0x3d, 0xbe, 0x86, 0x55, 0x3e,
  0xe4, 0xff, 0xcd, 0xbd, 0xdc, 0x71, 0x0e, 0x3e, 0x73, 0xac, 0x88, 0xbe,
  0xfa, 0x83, 0xb3, 0xbd, 0x8b, 0x96, 0x8f, 0xbe, 0xf9, 0xb6, 0x1f, 0xbe,
  0x62, 0x41, 0x82, 0x3b, 0x76, 0x57, 0xa1, 0x3b, 0xba, 0x99, 0xb9, 0xbd,
  0xe3, 0xa4, 0xa3, 0xbe, 0x00, 0x20, 0x35, 0x3b, 0xdb, 0x34, 0x4d, 0x3d,
  0x9b, 0xa7, 0x52, 0x3e, 0xda, 0x03, 0x02, 0x3e, 0xf5, 0xdf, 0x70, 0xbe,
  0x67, 0x3b, 0xa5, 0xbb, 0xfa, 0x66, 0x8c, 0xbe, 0xd8, 0x96, 0x65, 0xbe,
  0xa6, 0x3b, 0x15, 0x3e, 0x27, 0xe9, 0xbe, 0x3e, 0xd2, 0xc0, 0x54, 0x3e,
  0xec, 0x9a, 0xad, 0x3e, 0x9b, 0x44, 0x20, 0x3d, 0xea, 0x60, 0xae, 0xbd,
  0x6f, 0x94, 0x00, 0xbe, 0x81, 0x89, 0x5d, 0x3e, 0x52, 0xcc, 0x98, 0xbd,
  0xb0, 0xe5, 0x9f, 0xbe, 0xed, 0x16, 0xfe, 0x3d, 0x44, 0xa8, 0x61, 0x3e,
  0xe0, 0xbc, 0xdd, 0x3d, 0xad, 0x63, 0x50, 0xbe, 0xce, 0x2c, 0x53, 0x3e,
  0x4b, 0x41, 0x05, 0x3e, 0xbd, 0x0d, 0x23, 0x3e, 0xc3, 0x2d, 0xca, 0x3c,
  0x0b, 0xfd, 0x95, 0xbe, 0xcc, 0xc1, 0x4e, 0xbe, 0x49, 0x61, 0x5a, 0xbe,
  0x20, 0x83, 0x8a, 0xbb, 0x84, 0x6f, 0x62, 0xbe, 0x34, 0x85, 0x9c, 0xbd,
  0x34, 0xfd, 0x32, 0x3e, 0xf7, 0xde, 0x23, 0xbe, 0xa6, 0x6f, 0xce, 0x3d,
  0x7b, 0x54, 0x31, 0xbd, 0x52, 0x34, 0x28, 0xbe, 0x9c, 0x02, 0xfa, 0xb9,
  0x58, 0x14, 0x0c, 0xbe, 0x89, 0xd2, 0x3b, 0xbe, 0x55, 0xcd, 0x21, 0x3e,
  0x4f, 0x4b, 0xd3, 0x3c, 0x32, 0xc7, 0x4c, 0x3e, 0xbd, 0xed, 0xf2, 0x3d,
  0x94, 0x07, 0x17, 0x3e, 0x3f, 0x82, 0x73, 0x3d, 0x98, 0xb4, 0xc0, 0x3d,
  0xc9, 0xf2, 0xeb, 0x3d, 0x53, 0xe7, 0x94, 0x3e, 0x92, 0x9f, 0x5a, 0x3e,
  0xe6, 0xff, 0x26, 0xbd, 0x9e, 0x39, 0x71, 0xbc, 0xa4, 0x58, 0x12, 0xbe,
  0xca, 0xe8, 0xad, 0x3d, 0xd6, 0xb0, 0xb4, 0xbd, 0xb5, 0x3c, 0x0f, 0x3e,
  0x64, 0x6b, 0x83, 0xbd, 0xcc, 0xf8, 0x16, 0x3e, 0x6d, 0x9d, 0x6f, 0xbe,
  0x55, 0xd8, 0x1c, 0x3e, 0x4a, 0xe1, 0x3c, 0xbd, 0x0d, 0xdd, 0x9d, 0xbe,
  0x16, 0x6f, 0x4c, 0x3e, 0x86, 0x49, 0x30, 0x3e, 0x24, 0xed, 0x91, 0x3d,
  0xbd, 0x50, 0x00, 0xbe, 0x2d, 0xb3, 0xde, 0xbc, 0xc6, 0x03, 0x8e, 0x3e,
  0x91, 0xdb, 0xda, 0x3d, 0x1e, 0xdc, 0x67, 0x3d, 0xd4, 0xaa, 0x26, 0xbd,
  0x3f, 0x71, 0x41, 0xbe, 0xb8, 0x37, 0x79, 0xbe, 0xea, 0xbe, 0x9b, 0x3d,
  0x15, 0xad, 0xc6, 0x3c, 0x66, 0x27, 0x3b, 0x3e, 0xdd, 0x86, 0x77, 0x3e,
  0x5e, 0xff, 0x12, 0x3e, 0x2d, 0xef, 0x08, 0xbe, 0x67, 0x5a, 0xa6, 0x3d,
  0xe4, 0x4c, 0xee, 0x3d, 0xb4, 0x24, 0xf7, 0x3d, 0x0a, 0xd3, 0x31, 0x3e,
  0x77, 0x4e, 0x96, 0x3d, 0xef, 0x04, 0x17, 0xbe, 0x06, 0x5d, 0x29, 0xbd,
  0x10, 0x64, 0x91, 0x3c, 0xf0, 0xf5, 0xb5, 0x3d, 0x38, 0x8d, 0xa8, 0x3d,
  0x3a, 0xcd, 0xc7, 0xbd, 0xf0, 0x4a, 0xfa, 0x3d, 0x63, 0x71, 0x2e, 0x3e,
  0xba, 0xad, 0x98, 0xbc, 0x5e, 0xa1, 0x1e, 0x3d, 0x2d, 0xfc, 0x19, 0xbe,
  0xaa, 0x02, 0xa2, 0xbc, 0xeb, 0x45, 0xfe, 0x3d, 0x17, 0x92, 0x9e, 0xba,
  0x21, 0x08, 0x45, 0xbc, 0xa6, 0x95, 0x97, 0x3e, 0x68, 0xf1, 0x1b, 0xbe,
  0x4e, 0xa1, 0xf5, 0xbd, 0xe0, 0x8e, 0x27, 0xbc, 0x4c, 0xe2, 0x61, 0xbe,
  0x7c, 0x3a, 0x92, 0x3d, 0xf3, 0xd1, 0x8a, 0x3e, 0x11, 0xc4, 0x48, 0x3d,
  0x9b, 0xcb, 0x74, 0xbe, 0xeb, 0xed, 0x1f, 0xbe, 0x21, 0xa6, 0x83, 0x3d,
  0x99, 0x31, 0x17, 0xbe, 0xff, 0x17, 0xd7, 0xbd, 0xc0, 0xe0, 0x7b, 0x3c,
  0x68, 0xc9, 0x9c, 0xbd, 0xaf, 0x2c, 0x86, 0xbd, 0x58, 0x5f, 0x76, 0x3d,
  0xd4, 0xf3, 0x49, 0xbc, 0xcf, 0xc4, 0xce, 0x3d, 0x90, 0x28, 0x3f, 0x3d,
  0x25, 0x9b, 0x1c, 0xbe, 0x70, 0x5b, 0x9d, 0x3c, 0xba, 0xf1, 0xa8, 0xbd,
  0xb1, 0xc8, 0x2d, 0x3e, 0x37, 0x8d, 0x29, 0x3e, 0xa6, 0x56, 0x4c, 0xbe,
  0x5c, 0xd3, 0x7a, 0x3e, 0xbe, 0x18, 0x88, 0xbe, 0x7e, 0xd4, 0x5c, 0xbe,
  0x92, 0x67, 0x3c, 0xbe, 0xee, 0xe9, 0x8b, 0xbe, 0x05, 0xef, 0xc6, 0xbd,
  0xed, 0xc2, 0x2a, 0xbe, 0xad, 0x37, 0x35, 0xbe, 0x2c, 0xd9, 0xe2, 0x3d,
  0x98, 0x57, 0x95, 0xbd, 0xb0, 0xe4, 0x10, 0xbd, 0x3e, 0x4f, 0xa9, 0x3d,
  0xc1, 0x62, 0x25, 0x3c, 0xa4, 0xae, 0xac, 0x3d, 0xaa, 0xb5, 0xe5, 0xbc,
  0xd3, 0x3c, 0x4d, 0xbe, 0x77, 0xf2, 0x1d, 0xbe, 0x72, 0x7b, 0x1b, 0xbe,
  0x4c, 0xb6, 0x25, 0x3e, 0xea, 0x5f, 0xea, 0x3d, 0x45, 0xb9, 0x4a, 0xbe,
  0xa9, 0xfe, 0x98, 0xbe, 0xef, 0x9b, 0x43, 0xbe, 0xae, 0xd2, 0xcc, 0x3d,
  0xe5, 0x5e, 0xe7, 0x3d, 0xf8, 0xc2, 0x55, 0x3e, 0x3e, 0x8c, 0x2f, 0x3e,
  0x99, 0x4c, 0x8a, 0xbe, 0xe2, 0x72, 0x19, 0x3e, 0x91, 0x93, 0x43, 0xbe,
  0x51, 0x1d, 0x56, 0xbe, 0x1e, 0x3a, 0x63, 0x3d, 0x46, 0x23, 0xb6, 0xbd,
  0xf1, 0x6f, 0x24, 0xbe, 0xce, 0xff, 0xff, 0xff, 0x04, 0x00, 0x00, 0x00,
  0x0c, 0x00, 0x00, 0x00, 0xff, 0xff, 0xff, 0xff, 0x1f, 0x00, 0x00, 0x00,
  0x08, 0x00, 0x00, 0x00, 0xe6, 0xff, 0xff, 0xff, 0x04, 0x00, 0x00, 0x00,
  0x0c, 0x00, 0x00, 0x00, 0xff, 0xff, 0xff, 0xff, 0x1e, 0x00, 0x00, 0x00,
  0x08, 0x00, 0x00, 0x00, 0x00, 0x00, 0x06, 0x00, 0x08, 0x00, 0x04, 0x00,
  0x06, 0x00, 0x00, 0x00, 0x04, 0x00, 0x00, 0x00, 0x0c, 0x00, 0x00, 0x00,
  0xff, 0xff, 0xff, 0xff, 0x1c, 0x00, 0x00, 0x00, 0x10, 0x00, 0x00, 0x00,
  0x38, 0xf1, 0xff, 0xff, 0x3c, 0xf1, 0xff, 0xff, 0x0f, 0x00, 0x00, 0x00,
  0x4d, 0x4c, 0x49, 0x52, 0x20, 0x43, 0x6f, 0x6e, 0x76, 0x65, 0x72, 0x74,
  0x65, 0x64, 0x2e, 0x00, 0x01, 0x00, 0x00, 0x00, 0x14, 0x00, 0x00, 0x00,
  0x00, 0x00, 0x0e, 0x00, 0x18, 0x00, 0x14, 0x00, 0x10, 0x00, 0x0c, 0x00,
  0x08, 0x00, 0x04, 0x00, 0x0e, 0x00, 0x00, 0x00, 0x14, 0x00, 0x00, 0x00,
  0x1c, 0x00, 0x00, 0x00, 0x34, 0x03, 0x00, 0x00, 0x38, 0x03, 0x00, 0x00,
  0x3c, 0x03, 0x00, 0x00, 0x04, 0x00, 0x00, 0x00, 0x6d, 0x61, 0x69, 0x6e,
  0x00, 0x00, 0x00, 0x00, 0x0e, 0x00, 0x00, 0x00, 0xec, 0x02, 0x00, 0x00,
  0x8c, 0x02, 0x00, 0x00, 0x54, 0x02, 0x00, 0x00, 0x08, 0x02, 0x00, 0x00,
  0xd8, 0x01, 0x00, 0x00, 0x84, 0x01, 0x00, 0x00, 0x5c, 0x01, 0x00, 0x00,
  0x2c, 0x01, 0x00, 0x00, 0xe8, 0x00, 0x00, 0x00, 0xc0, 0x00, 0x00, 0x00,
  0x88, 0x00, 0x00, 0x00, 0x60, 0x00, 0x00, 0x00, 0x28, 0x00, 0x00, 0x00,
  0x04, 0x00, 0x00, 0x00, 0xe6, 0xfd, 0xff, 0xff, 0x0c, 0x00, 0x00, 0x00,
  0x10, 0x00, 0x00, 0x00, 0x06, 0x00, 0x00, 0x00, 0x01, 0x00, 0x00, 0x00,
  0x1c, 0x00, 0x00, 0x00, 0x01, 0x00, 0x00, 0x00, 0x1b, 0x00, 0x00, 0x00,
  0xd6, 0xfd, 0xff, 0xff, 0x14, 0x00, 0x00, 0x00, 0x00, 0x00, 0x00, 0x08,
  0x10, 0x00, 0x00, 0x00, 0x14, 0x00, 0x00, 0x00, 0x05, 0x00, 0x00, 0x00,
  0x04, 0xf2, 0xff, 0xff, 0x01, 0x00, 0x00, 0x00, 0x1b, 0x00, 0x00, 0x00,
  0x03, 0x00, 0x00, 0x00, 0x1a, 0x00, 0x00, 0x00, 0x08, 0x00, 0x00, 0x00,
  0x0b, 0x00, 0x00, 0x00, 0x3a, 0xfe, 0xff, 0xff, 0x0c, 0x00, 0x00, 0x00,
  0x10, 0x00, 0x00, 0x00, 0x02, 0x00, 0x00, 0x00, 0x01, 0x00, 0x00, 0x00,
  0x1a, 0x00, 0x00, 0x00, 0x02, 0x00, 0x00, 0x00, 0x19, 0x00, 0x00, 0x00,
  0x0d, 0x00, 0x00, 0x00, 0x2e, 0xfe, 0xff, 0xff, 0x14, 0x00, 0x00, 0x00,
  0x00, 0x00, 0x00, 0x0b, 0x14, 0x00, 0x00, 0x00, 0x18, 0x00, 0x00, 0x00,
  0x03, 0x00, 0x00, 0x00, 0x9a, 0xfe, 0xff, 0xff, 0x00, 0x00, 0x00, 0x01,
  0x01, 0x00, 0x00, 0x00, 0x19, 0x00, 0x00, 0x00, 0x02, 0x00, 0x00, 0x00,
  0x18, 0x00, 0x00, 0x00, 0x09, 0x00, 0x00, 0x00, 0x92, 0xfe, 0xff, 0xff,
  0x0c, 0x00, 0x00, 0x00, 0x10, 0x00, 0x00, 0x00, 0x02, 0x00, 0x00, 0x00,
  0x01, 0x00, 0x00, 0x00, 0x18, 0x00, 0x00, 0x00, 0x02, 0x00, 0x00, 0x00,
  0x17, 0x00, 0x00, 0x00, 0x01, 0x00, 0x00, 0x00, 0x86, 0xfe, 0xff, 0xff,
  0x14, 0x00, 0x00, 0x00, 0x00, 0x00, 0x00, 0x01, 0x1c, 0x00, 0x00, 0x00,
  0x20, 0x00, 0x00, 0x00, 0x01, 0x00, 0x00, 0x00, 0x76, 0xfe, 0xff, 0xff,
  0x01, 0x00, 0x00, 0x00, 0x01, 0x00, 0x00, 0x00, 0x00, 0x00, 0x00, 0x01,
  0x01, 0x00, 0x00, 0x00, 0x17, 0x00, 0x00, 0x00, 0x03, 0x00, 0x00, 0x00,
  0x16, 0x00, 0x00, 0x00, 0x04, 0x00, 0x00, 0x00, 0x05, 0x00, 0x00, 0x00,
  0x6a, 0xfe, 0xff, 0xff, 0x10, 0x00, 0x00, 0x00, 0x00, 0x00, 0x00, 0x34,
  0x0c, 0x00, 0x00, 0x00, 0x10, 0x00, 0x00, 0x00, 0xf0, 0xf2, 0xff, 0xff,
  0x01, 0x00, 0x00, 0x00, 0x16, 0x00, 0x00, 0x00, 0x02, 0x00, 0x00, 0x00,
  0x15, 0x00, 0x00, 0x00, 0x0e, 0x00, 0x00, 0x00, 0x22, 0xff, 0xff, 0xff,
  0x0c, 0x00, 0x00, 0x00, 0x10, 0x00, 0x00, 0x00, 0x02, 0x00, 0x00, 0x00,
  0x01, 0x00, 0x00, 0x00, 0x15, 0x00, 0x00, 0x00, 0x02, 0x00, 0x00, 0x00,
  0x14, 0x00, 0x00, 0x00, 0x02, 0x00, 0x00, 0x00, 0x16, 0xff, 0xff, 0xff,
  0x24, 0x00, 0x00, 0x00, 0x00, 0x00, 0x00, 0x05, 0x34, 0x00, 0x00, 0x00,
  0x38, 0x00, 0x00, 0x00, 0x04, 0x00, 0x00, 0x00, 0x00, 0x00, 0x0e, 0x00,
  0x18, 0x00, 0x17, 0x00, 0x10, 0x00, 0x0c, 0x00, 0x08, 0x00, 0x04, 0x00,
  0x0e, 0x00, 0x00, 0x00, 0x01, 0x00, 0x00, 0x00, 0x02, 0x00, 0x00, 0x00,
  0x01, 0x00, 0x00, 0x00, 0x01, 0x00, 0x00, 0x00, 0x00, 0x00, 0x00, 0x01,
  0x01, 0x00, 0x00, 0x00, 0x14, 0x00, 0x00, 0x00, 0x01, 0x00, 0x00, 0x00,
  0x13, 0x00, 0x00, 0x00, 0x0a, 0xff, 0xff, 0xff, 0x10, 0x00, 0x00, 0x00,
  0x00, 0x00, 0x00, 0x34, 0x0c, 0x00, 0x00, 0x00, 0x10, 0x00, 0x00, 0x00,
  0x90, 0xf3, 0xff, 0xff, 0x01, 0x00, 0x00, 0x00, 0x13, 0x00, 0x00, 0x00,
  0x02, 0x00, 0x00, 0x00, 0x12, 0x00, 0x00, 0x00, 0x0c, 0x00, 0x00, 0x00,
  0x92, 0xff, 0xff, 0xff, 0x1c, 0x00, 0x00, 0x00, 0x00, 0x00, 0x00, 0x0b,
  0x1c, 0x00, 0x00, 0x00, 0x20, 0x00, 0x00, 0x00, 0x03, 0x00, 0x00, 0x00,
  0x00, 0x00, 0x06, 0x00, 0x08, 0x00, 0x07, 0x00, 0x06, 0x00, 0x00, 0x00,
  0x00, 0x00, 0x00, 0x01, 0x01, 0x00, 0x00, 0x00, 0x12, 0x00, 0x00, 0x00,
  0x02, 0x00, 0x00, 0x00, 0x11, 0x00, 0x00, 0x00, 0x0a, 0x00, 0x00, 0x00,
  0x00, 0x00, 0x0a, 0x00, 0x10, 0x00, 0x0c, 0x00, 0x08, 0x00, 0x04, 0x00,
  0x0a, 0x00, 0x00, 0x00, 0x0c, 0x00, 0x00, 0x00, 0x10, 0x00, 0x00, 0x00,
  0x02, 0x00, 0x00, 0x00, 0x01, 0x00, 0x00, 0x00, 0x11, 0x00, 0x00, 0x00,
  0x02, 0x00, 0x00, 0x00, 0x10, 0x00, 0x00, 0x00, 0x03, 0x00, 0x00, 0x00,
  0x00, 0x00, 0x0e, 0x00, 0x1a, 0x00, 0x14, 0x00, 0x10, 0x00, 0x0c, 0x00,
  0x0b, 0x00, 0x04, 0x00, 0x0e, 0x00, 0x00, 0x00, 0x20, 0x00, 0x00, 0x00,
  0x00, 0x00, 0x00, 0x01, 0x28, 0x00, 0x00, 0x00, 0x2c, 0x00, 0x00, 0x00,
  0x01, 0x00, 0x00, 0x00, 0x00, 0x00, 0x0a, 0x00, 0x10, 0x00, 0x0f, 0x00,
  0x08, 0x00, 0x04, 0x00, 0x0a, 0x00, 0x00, 0x00, 0x01, 0x00, 0x00, 0x00,
  0x02, 0x00, 0x00, 0x00, 0x00, 0x00, 0x00, 0x01, 0x01, 0x00, 0x00, 0x00,
  0x10, 0x00, 0x00, 0x00, 0x03, 0x00, 0x00, 0x00, 0x0f, 0x00, 0x00, 0x00,
  0x06, 0x00, 0x00, 0x00, 0x07, 0x00, 0x00, 0x00, 0x00, 0x00, 0x0e, 0x00,
  0x14, 0x00, 0x00, 0x00, 0x10, 0x00, 0x0c, 0x00, 0x0b, 0x00, 0x04, 0x00,
  0x0e, 0x00, 0x00, 0x00, 0x10, 0x00, 0x00, 0x00, 0x00, 0x00, 0x00, 0x34,
  0x0c, 0x00, 0x00, 0x00, 0x10, 0x00, 0x00, 0x00, 0x94, 0xf4, 0xff, 0xff,
  0x01, 0x00, 0x00, 0x00, 0x0f, 0x00, 0x00, 0x00, 0x02, 0x00, 0x00, 0x00,
  0x00, 0x00, 0x00, 0x00, 0x0e, 0x00, 0x00, 0x00, 0x01, 0x00, 0x00, 0x00,
  0x1c, 0x00, 0x00, 0x00, 0x01, 0x00, 0x00, 0x00, 0x00, 0x00, 0x00, 0x00,
  0x1d, 0x00, 0x00, 0x00, 0x98, 0x0a, 0x00, 0x00, 0x40, 0x0a, 0x00, 0x00,
  0xe8, 0x09, 0x00, 0x00, 0xa8, 0x09, 0x00, 0x00, 0x60, 0x09, 0x00, 0x00,
  0x0c, 0x09, 0x00, 0x00, 0xc4, 0x08, 0x00, 0x00, 0x88, 0x08, 0x00, 0x00,
  0x48, 0x08, 0x00, 0x00, 0x04, 0x08, 0x00, 0x00, 0xc0, 0x07, 0x00, 0x00,
  0x80, 0x07, 0x00, 0x00, 0x40, 0x07, 0x00, 0x00, 0xfc, 0x06, 0x00, 0x00,
  0xbc, 0x06, 0x00, 0x00, 0x38, 0x06, 0x00, 0x00, 0xc0, 0x05, 0x00, 0x00,
  0x48, 0x05, 0x00, 0x00, 0xc0, 0x04, 0x00, 0x00, 0x38, 0x04, 0x00, 0x00,
  0xbc, 0x03, 0x00, 0x00, 0x40, 0x03, 0x00, 0x00, 0xbc, 0x02, 0x00, 0x00,
  0x44, 0x02, 0x00, 0x00, 0xcc, 0x01, 0x00, 0x00, 0x44, 0x01, 0x00, 0x00,
  0xe0, 0x00, 0x00, 0x00, 0x60, 0x00, 0x00, 0x00, 0x04, 0x00, 0x00, 0x00,
  0xf2, 0xf5, 0xff, 0xff, 0x00, 0x00, 0x00, 0x01, 0x14, 0x00, 0x00, 0x00,
  0x1c, 0x00, 0x00, 0x00, 0x1c, 0x00, 0x00, 0x00, 0x1d, 0x00, 0x00, 0x00,
  0x34, 0x00, 0x00, 0x00, 0x02, 0x00, 0x00, 0x00, 0xff, 0xff, 0xff, 0xff,
  0x01, 0x00, 0x00, 0x00, 0x5c, 0xf5, 0xff, 0xff, 0x1b, 0x00, 0x00, 0x00,
  0x53, 0x74, 0x61, 0x74, 0x65, 0x66, 0x75, 0x6c, 0x50, 0x61, 0x72, 0x74,
  0x69, 0x74, 0x69, 0x6f, 0x6e, 0x65, 0x64, 0x43, 0x61, 0x6c, 0x6c, 0x5f,
  0x31, 0x3a, 0x30, 0x00, 0x02, 0x00, 0x00, 0x00, 0x01, 0x00, 0x00, 0x00,
  0x01, 0x00, 0x00, 0x00, 0x4a, 0xf6, 0xff, 0xff, 0x00, 0x00, 0x00, 0x01,
  0x14, 0x00, 0x00, 0x00, 0x1c, 0x00, 0x00, 0x00, 0x1c, 0x00, 0x00, 0x00,
  0x1c, 0x00, 0x00, 0x00, 0x58, 0x00, 0x00, 0x00, 0x02, 0x00, 0x00, 0x00,
  0xff, 0xff, 0xff, 0xff, 0x01, 0x00, 0x00, 0x00, 0xb4, 0xf5, 0xff, 0xff,
  0x3c, 0x00, 0x00, 0x00, 0x73, 0x65, 0x71, 0x75, 0x65, 0x6e, 0x74, 0x69,
  0x61, 0x6c, 0x5f, 0x35, 0x5f, 0x31, 0x2f, 0x64, 0x65, 0x6e, 0x73, 0x65,
  0x5f, 0x35, 0x5f, 0x31, 0x2f, 0x4d, 0x61, 0x74, 0x4d, 0x75, 0x6c, 0x3b,
  0x73, 0x65, 0x71, 0x75, 0x65, 0x6e, 0x74, 0x69, 0x61, 0x6c, 0x5f, 0x35,
  0x5f, 0x31, 0x2f, 0x64, 0x65, 0x6e, 0x73, 0x65, 0x5f, 0x35, 0x5f, 0x31,
  0x2f, 0x41, 0x64, 0x64, 0x00, 0x00, 0x00, 0x00, 0x02, 0x00, 0x00, 0x00,
  0x01, 0x00, 0x00, 0x00, 0x01, 0x00, 0x00, 0x00, 0xc6, 0xf6, 0xff, 0xff,
  0x00, 0x00, 0x00, 0x01, 0x14, 0x00, 0x00, 0x00, 0x1c, 0x00, 0x00, 0x00,
  0x1c, 0x00, 0x00, 0x00, 0x1b, 0x00, 0x00, 0x00, 0x3c, 0x00, 0x00, 0x00,
  0x02, 0x00, 0x00, 0x00, 0xff, 0xff, 0xff, 0xff, 0xc0, 0x01, 0x00, 0x00,
  0x30, 0xf6, 0xff, 0xff, 0x22, 0x00, 0x00, 0x00, 0x73, 0x65, 0x71, 0x75,
  0x65, 0x6e, 0x74, 0x69, 0x61, 0x6c, 0x5f, 0x35, 0x5f, 0x31, 0x2f, 0x66,
  0x6c, 0x61, 0x74, 0x74, 0x65, 0x6e, 0x5f, 0x35, 0x5f, 0x31, 0x2f, 0x52,
  0x65, 0x73, 0x68, 0x61, 0x70, 0x65, 0x00, 0x00, 0x02, 0x00, 0x00, 0x00,
  0x01, 0x00, 0x00, 0x00, 0xc0, 0x01, 0x00, 0x00, 0x26, 0xf7, 0xff, 0xff,
  0x00, 0x00, 0x00, 0x01, 0x14, 0x00, 0x00, 0x00, 0x20, 0x00, 0x00, 0x00,
  0x20, 0x00, 0x00, 0x00, 0x1a, 0x00, 0x00, 0x00, 0x5c, 0x00, 0x00, 0x00,
  0x03, 0x00, 0x00, 0x00, 0xff, 0xff, 0xff, 0xff, 0x1c, 0x00, 0x00, 0x00,
  0x10, 0x00, 0x00, 0x00, 0x94, 0xf6, 0xff, 0xff, 0x3e, 0x00, 0x00, 0x00,
  0x73, 0x65, 0x71, 0x75, 0x65, 0x6e, 0x74, 0x69, 0x61, 0x6c, 0x5f, 0x35,
  0x5f, 0x31, 0x2f, 0x63, 0x6f, 0x6e, 0x76, 0x31, 0x64, 0x5f, 0x31, 0x31,
  0x5f, 0x31, 0x2f, 0x52, 0x65, 0x6c, 0x75, 0x3b, 0x73, 0x65, 0x71, 0x75,
  0x65, 0x6e, 0x74, 0x69, 0x61, 0x6c, 0x5f, 0x35, 0x5f, 0x31, 0x2f, 0x63,
  0x6f, 0x6e, 0x76, 0x31, 0x64, 0x5f, 0x31, 0x31, 0x5f, 0x31, 0x2f, 0x61,
  0x64, 0x64, 0x00, 0x00, 0x03, 0x00, 0x00, 0x00, 0x01, 0x00, 0x00, 0x00,
  0x1c, 0x00, 0x00, 0x00, 0x10, 0x00, 0x00, 0x00, 0xaa, 0xf7, 0xff, 0xff,
  0x00, 0x00, 0x00, 0x01, 0x14, 0x00, 0x00, 0x00, 0x20, 0x00, 0x00, 0x00,
  0x20, 0x00, 0x00, 0x00, 0x19, 0x00, 0x00, 0x00, 0x4c, 0x00, 0x00, 0x00,
  0x03, 0x00, 0x00, 0x00, 0xff, 0xff, 0xff, 0xff, 0x1c, 0x00, 0x00, 0x00,
  0x10, 0x00, 0x00, 0x00, 0x18, 0xf7, 0xff, 0xff, 0x2e, 0x00, 0x00, 0x00,
  0x73, 0x65, 0x71, 0x75, 0x65, 0x6e, 0x74, 0x69, 0x61, 0x6c, 0x5f, 0x35,
  0x5f, 0x31, 0x2f, 0x63, 0x6f, 0x6e, 0x76, 0x31, 0x64, 0x5f, 0x31, 0x31,
  0x5f, 0x31, 0x2f, 0x63, 0x6f, 0x6e, 0x76, 0x6f, 0x6c, 0x75, 0x74, 0x69,
  0x6f, 0x6e, 0x2f, 0x53, 0x71, 0x75, 0x65, 0x65, 0x7a, 0x65, 0x00, 0x00,
  0x03, 0x00, 0x00, 0x00, 0x01, 0x00, 0x00, 0x00, 0x1c, 0x00, 0x00, 0x00,
  0x10, 0x00, 0x00, 0x00, 0x1e, 0xf8, 0xff, 0xff, 0x00, 0x00, 0x00, 0x01,
  0x14, 0x00, 0x00, 0x00, 0x24, 0x00, 0x00, 0x00, 0x24, 0x00, 0x00, 0x00,
  0x18, 0x00, 0x00, 0x00, 0x48, 0x00, 0x00, 0x00, 0x04, 0x00, 0x00, 0x00,
  0xff, 0xff, 0xff, 0xff, 0x01, 0x00, 0x00, 0x00, 0x1c, 0x00, 0x00, 0x00,
  0x10, 0x00, 0x00, 0x00, 0x90, 0xf7, 0xff, 0xff, 0x26, 0x00, 0x00, 0x00,
  0x73, 0x65, 0x71, 0x75, 0x65, 0x6e, 0x74, 0x69, 0x61, 0x6c, 0x5f, 0x35,
  0x5f, 0x31, 0x2f, 0x63, 0x6f, 0x6e, 0x76, 0x31, 0x64, 0x5f, 0x31, 0x31,
  0x5f, 0x31, 0x2f, 0x63, 0x6f, 0x6e, 0x76, 0x6f, 0x6c, 0x75, 0x74, 0x69,
  0x6f, 0x6e, 0x00, 0x00, 0x04, 0x00, 0x00, 0x00, 0x01, 0x00, 0x00, 0x00,
  0x01, 0x00, 0x00, 0x00, 0x1c, 0x00, 0x00, 0x00, 0x10, 0x00, 0x00, 0x00,
  0x92, 0xf8, 0xff, 0xff, 0x00, 0x00, 0x00, 0x01, 0x14, 0x00, 0x00, 0x00,
  0x24, 0x00, 0x00, 0x00, 0x24, 0x00, 0x00, 0x00, 0x17, 0x00, 0x00, 0x00,
  0x54, 0x00, 0x00, 0x00, 0x04, 0x00, 0x00, 0x00, 0xff, 0xff, 0xff, 0xff,
  0x01, 0x00, 0x00, 0x00, 0x1e, 0x00, 0x00, 0x00, 0x08, 0x00, 0x00, 0x00,
  0x04, 0xf8, 0xff, 0xff, 0x31, 0x00, 0x00, 0x00, 0x73, 0x65, 0x71, 0x75,
  0x65, 0x6e, 0x74, 0x69, 0x61, 0x6c, 0x5f, 0x35, 0x5f, 0x31, 0x2f, 0x63,
  0x6f, 0x6e, 0x76, 0x31, 0x64, 0x5f, 0x31, 0x31, 0x5f, 0x31, 0x2f, 0x63,
  0x6f, 0x6e, 0x76, 0x6f, 0x6c, 0x75, 0x74, 0x69, 0x6f, 0x6e, 0x2f, 0x45,
  0x78, 0x70, 0x61, 0x6e, 0x64, 0x44, 0x69, 0x6d, 0x73, 0x00, 0x00, 0x00,
  0x04, 0x00, 0x00, 0x00, 0x01, 0x00, 0x00, 0x00, 0x01, 0x00, 0x00, 0x00,
  0x1e, 0x00, 0x00, 0x00, 0x08, 0x00, 0x00, 0x00, 0x12, 0xf9, 0xff, 0xff,
  0x00, 0x00, 0x00, 0x01, 0x14, 0x00, 0x00, 0x00, 0x20, 0x00, 0x00, 0x00,
  0x20, 0x00, 0x00, 0x00, 0x16, 0x00, 0x00, 0x00, 0x50, 0x00, 0x00, 0x00,
  0x03, 0x00, 0x00, 0x00, 0xff, 0xff, 0xff, 0xff, 0x1e, 0x00, 0x00, 0x00,
  0x08, 0x00, 0x00, 0x00, 0x80, 0xf8, 0xff, 0xff, 0x32, 0x00, 0x00, 0x00,
  0x73, 0x65, 0x71, 0x75, 0x65, 0x6e, 0x74, 0x69, 0x61, 0x6c, 0x5f, 0x35,
  0x5f, 0x31, 0x2f, 0x6d, 0x61, 0x78, 0x5f, 0x70, 0x6f, 0x6f, 0x6c, 0x69,
  0x6e, 0x67, 0x31, 0x64, 0x5f, 0x35, 0x5f, 0x31, 0x2f, 0x4d, 0x61, 0x78,
  0x50, 0x6f, 0x6f, 0x6c, 0x31, 0x64, 0x2f, 0x53, 0x71, 0x75, 0x65, 0x65,
  0x7a, 0x65, 0x00, 0x00, 0x03, 0x00, 0x00, 0x00, 0x01, 0x00, 0x00, 0x00,
  0x1e, 0x00, 0x00, 0x00, 0x08, 0x00, 0x00, 0x00, 0x8a, 0xf9, 0xff, 0xff,
  0x00, 0x00, 0x00, 0x01, 0x14, 0x00, 0x00, 0x00, 0x24, 0x00, 0x00, 0x00,
  0x24, 0x00, 0x00, 0x00, 0x15, 0x00, 0x00, 0x00, 0x4c, 0x00, 0x00, 0x00,
  0x04, 0x00, 0x00, 0x00, 0xff, 0xff, 0xff, 0xff, 0x01, 0x00, 0x00, 0x00,
  0x1e, 0x00, 0x00, 0x00, 0x08, 0x00, 0x00, 0x00, 0xfc, 0xf8, 0xff, 0xff,
  0x2a, 0x00, 0x00, 0x00, 0x73, 0x65, 0x71, 0x75, 0x65, 0x6e, 0x74, 0x69,
  0x61, 0x6c, 0x5f, 0x35, 0x5f, 0x31, 0x2f, 0x6d, 0x61, 0x78, 0x5f, 0x70,
  0x6f, 0x6f, 0x6c, 0x69, 0x6e, 0x67, 0x31, 0x64, 0x5f, 0x35, 0x5f, 0x31,
  0x2f, 0x4d, 0x61, 0x78, 0x50, 0x6f, 0x6f, 0x6c, 0x31, 0x64, 0x00, 0x00,
  0x04, 0x00, 0x00, 0x00, 0x01, 0x00, 0x00, 0x00, 0x01, 0x00, 0x00, 0x00,
  0x1e, 0x00, 0x00, 0x00, 0x08, 0x00, 0x00, 0x00, 0x02, 0xfa, 0xff, 0xff,
  0x00, 0x00, 0x00, 0x01, 0x14, 0x00, 0x00, 0x00, 0x24, 0x00, 0x00, 0x00,
  0x24, 0x00, 0x00, 0x00, 0x14, 0x00, 0x00, 0x00, 0x58, 0x00, 0x00, 0x00,
  0x04, 0x00, 0x00, 0x00, 0xff, 0xff, 0xff, 0xff, 0x01, 0x00, 0x00, 0x00,
  0x1f, 0x00, 0x00, 0x00, 0x08, 0x00, 0x00, 0x00, 0x74, 0xf9, 0xff, 0xff,
  0x35, 0x00, 0x00, 0x00, 0x73, 0x65, 0x71, 0x75, 0x65, 0x6e, 0x74, 0x69,
  0x61, 0x6c, 0x5f, 0x35, 0x5f, 0x31, 0x2f, 0x6d, 0x61, 0x78, 0x5f, 0x70,
  0x6f, 0x6f, 0x6c, 0x69, 0x6e, 0x67, 0x31, 0x64, 0x5f, 0x35, 0x5f, 0x31,
  0x2f, 0x4d, 0x61, 0x78, 0x50, 0x6f, 0x6f, 0x6c, 0x31, 0x64, 0x2f, 0x45,
  0x78, 0x70, 0x61, 0x6e, 0x64, 0x44, 0x69, 0x6d, 0x73, 0x00, 0x00, 0x00,
  0x04, 0x00, 0x00, 0x00, 0x01, 0x00, 0x00, 0x00, 0x01, 0x00, 0x00, 0x00,
  0x1f, 0x00, 0x00, 0x00, 0x08, 0x00, 0x00, 0x00, 0x86, 0xfa, 0xff, 0xff,
  0x00, 0x00, 0x00, 0x01, 0x14, 0x00, 0x00, 0x00, 0x20, 0x00, 0x00, 0x00,
  0x20, 0x00, 0x00, 0x00, 0x13, 0x00, 0x00, 0x00, 0x5c, 0x00, 0x00, 0x00,
  0x03, 0x00, 0x00, 0x00, 0xff, 0xff, 0xff, 0xff, 0x1f, 0x00, 0x00, 0x00,
  0x08, 0x00, 0x00, 0x00, 0xf4, 0xf9, 0xff, 0xff, 0x3e, 0x00, 0x00, 0x00,
  0x73, 0x65, 0x71, 0x75, 0x65, 0x6e, 0x74, 0x69, 0x61, 0x6c, 0x5f, 0x35,
  0x5f, 0x31, 0x2f, 0x63, 0x6f, 0x6e, 0x76, 0x31, 0x64, 0x5f, 0x31, 0x30,
  0x5f, 0x31, 0x2f, 0x52, 0x65, 0x6c, 0x75, 0x3b, 0x73, 0x65, 0x71, 0x75,
  0x65, 0x6e, 0x74, 0x69, 0x61, 0x6c, 0x5f, 0x35, 0x5f, 0x31, 0x2f, 0x63,
  0x6f, 0x6e, 0x76, 0x31, 0x64, 0x5f, 0x31, 0x30, 0x5f, 0x31, 0x2f, 0x61,
  0x64, 0x64, 0x00, 0x00, 0x03, 0x00, 0x00, 0x00, 0x01, 0x00, 0x00, 0x00,
  0x1f, 0x00, 0x00, 0x00, 0x08, 0x00, 0x00, 0x00, 0x0a, 0xfb, 0xff, 0xff,
  0x00, 0x00, 0x00, 0x01, 0x14, 0x00, 0x00, 0x00, 0x20, 0x00, 0x00, 0x00,
  0x20, 0x00, 0x00, 0x00, 0x12, 0x00, 0x00, 0x00, 0x4c, 0x00, 0x00, 0x00,
  0x03, 0x00, 0x00, 0x00, 0xff, 0xff, 0xff, 0xff, 0x1f, 0x00, 0x00, 0x00,
  0x08, 0x00, 0x00, 0x00, 0x78, 0xfa, 0xff, 0xff, 0x2e, 0x00, 0x00, 0x00,
  0x73, 0x65, 0x71, 0x75, 0x65, 0x6e, 0x74, 0x69, 0x61, 0x6c, 0x5f, 0x35,
  0x5f, 0x31, 0x2f, 0x63, 0x6f, 0x6e, 0x76, 0x31, 0x64, 0x5f, 0x31, 0x30,
  0x5f, 0x31, 0x2f, 0x63, 0x6f, 0x6e, 0x76, 0x6f, 0x6c, 0x75, 0x74, 0x69,
  0x6f, 0x6e, 0x2f, 0x53, 0x71, 0x75, 0x65, 0x65, 0x7a, 0x65, 0x00, 0x00,
  0x03, 0x00, 0x00, 0x00, 0x01, 0x00, 0x00, 0x00, 0x1f, 0x00, 0x00, 0x00,
  0x08, 0x00, 0x00, 0x00, 0x7e, 0xfb, 0xff, 0xff, 0x00, 0x00, 0x00, 0x01,
  0x14, 0x00, 0x00, 0x00, 0x24, 0x00, 0x00, 0x00, 0x24, 0x00, 0x00, 0x00,
  0x11, 0x00, 0x00, 0x00, 0x48, 0x00, 0x00, 0x00, 0x04, 0x00, 0x00, 0x00,
  0xff, 0xff, 0xff, 0xff, 0x01, 0x00, 0x00, 0x00, 0x1f, 0x00, 0x00, 0x00,
  0x08, 0x00, 0x00, 0x00, 0xf0, 0xfa, 0xff, 0xff, 0x26, 0x00, 0x00, 0x00,
  0x73, 0x65, 0x71, 0x75, 0x65, 0x6e, 0x74, 0x69, 0x61, 0x6c, 0x5f, 0x35,
  0x5f, 0x31, 0x2f, 0x63, 0x6f, 0x6e, 0x76, 0x31, 0x64, 0x5f, 0x31, 0x30,
  0x5f, 0x31, 0x2f, 0x63, 0x6f, 0x6e, 0x76, 0x6f, 0x6c, 0x75, 0x74, 0x69,
  0x6f, 0x6e, 0x00, 0x00, 0x04, 0x00, 0x00, 0x00, 0x01, 0x00, 0x00, 0x00,
  0x01, 0x00, 0x00, 0x00, 0x1f, 0x00, 0x00, 0x00, 0x08, 0x00, 0x00, 0x00,
  0xf2, 0xfb, 0xff, 0xff, 0x00, 0x00, 0x00, 0x01, 0x14, 0x00, 0x00, 0x00,
  0x24, 0x00, 0x00, 0x00, 0x24, 0x00, 0x00, 0x00, 0x10, 0x00, 0x00, 0x00,
  0x54, 0x00, 0x00, 0x00, 0x04, 0x00, 0x00, 0x00, 0xff, 0xff, 0xff, 0xff,
  0x01, 0x00, 0x00, 0x00, 0x40, 0x00, 0x00, 0x00, 0x10, 0x00, 0x00, 0x00,
  0x64, 0xfb, 0xff, 0xff, 0x31, 0x00, 0x00, 0x00, 0x73, 0x65, 0x71, 0x75,
  0x65, 0x6e, 0x74, 0x69, 0x61, 0x6c, 0x5f, 0x35, 0x5f, 0x31, 0x2f, 0x63,
  0x6f, 0x6e, 0x76, 0x31, 0x64, 0x5f, 0x31, 0x30, 0x5f, 0x31, 0x2f, 0x63,
  0x6f, 0x6e, 0x76, 0x6f, 0x6c, 0x75, 0x74, 0x69, 0x6f, 0x6e, 0x2f, 0x45,
  0x78, 0x70, 0x61, 0x6e, 0x64, 0x44, 0x69, 0x6d, 0x73, 0x00, 0x00, 0x00,
  0x04, 0x00, 0x00, 0x00, 0x01, 0x00, 0x00, 0x00, 0x01, 0x00, 0x00, 0x00,
  0x40, 0x00, 0x00, 0x00, 0x10, 0x00, 0x00, 0x00, 0xc6, 0xfc, 0xff, 0xff,
  0x00, 0x00, 0x00, 0x01, 0x14, 0x00, 0x00, 0x00, 0x14, 0x00, 0x00, 0x00,
  0x0f, 0x00, 0x00, 0x00, 0x00, 0x00, 0x00, 0x02, 0x20, 0x00, 0x00, 0x00,
  0xd0, 0xfb, 0xff, 0xff, 0x10, 0x00, 0x00, 0x00, 0x61, 0x72, 0x69, 0x74,
  0x68, 0x2e, 0x63, 0x6f, 0x6e, 0x73, 0x74, 0x61, 0x6e, 0x74, 0x31, 0x33,
  0x00, 0x00, 0x00, 0x00, 0x00, 0x00, 0x00, 0x00, 0x02, 0xfd, 0xff, 0xff,
  0x00, 0x00, 0x00, 0x01, 0x14, 0x00, 0x00, 0x00, 0x14, 0x00, 0x00, 0x00,
  0x0e, 0x00, 0x00, 0x00, 0x00, 0x00, 0x00, 0x02, 0x20, 0x00, 0x00, 0x00,
  0x0c, 0xfc, 0xff, 0xff, 0x10, 0x00, 0x00, 0x00, 0x61, 0x72, 0x69, 0x74,
  0x68, 0x2e, 0x63, 0x6f, 0x6e, 0x73, 0x74, 0x61, 0x6e, 0x74, 0x31, 0x32,
  0x00, 0x00, 0x00, 0x00, 0x01, 0x00, 0x00, 0x00, 0x02, 0x00, 0x00, 0x00,
  0x42, 0xfd, 0xff, 0xff, 0x00, 0x00, 0x00, 0x01, 0x14, 0x00, 0x00, 0x00,
  0x14, 0x00, 0x00, 0x00, 0x0d, 0x00, 0x00, 0x00, 0x00, 0x00, 0x00, 0x02,
  0x20, 0x00, 0x00, 0x00, 0x4c, 0xfc, 0xff, 0xff, 0x10, 0x00, 0x00, 0x00,
  0x61, 0x72, 0x69, 0x74, 0x68, 0x2e, 0x63, 0x6f, 0x6e, 0x73, 0x74, 0x61,
  0x6e, 0x74, 0x31, 0x31, 0x00, 0x00, 0x00, 0x00, 0x00, 0x00, 0x00, 0x00,
  0x52, 0xfe, 0xff, 0xff, 0x00, 0x00, 0x00, 0x01, 0x10, 0x00, 0x00, 0x00,
  0x10, 0x00, 0x00, 0x00, 0x0c, 0x00, 0x00, 0x00, 0x20, 0x00, 0x00, 0x00,
  0x84, 0xfc, 0xff, 0xff, 0x10, 0x00, 0x00, 0x00, 0x61, 0x72, 0x69, 0x74,
  0x68, 0x2e, 0x63, 0x6f, 0x6e, 0x73, 0x74, 0x61, 0x6e, 0x74, 0x31, 0x30,
  0x00, 0x00, 0x00, 0x00, 0x01, 0x00, 0x00, 0x00, 0x01, 0x00, 0x00, 0x00,
  0x8e, 0xfe, 0xff, 0xff, 0x00, 0x00, 0x00, 0x01, 0x10, 0x00, 0x00, 0x00,
  0x10, 0x00, 0x00, 0x00, 0x0b, 0x00, 0x00, 0x00, 0x1c, 0x00, 0x00, 0x00,
  0xc0, 0xfc, 0xff, 0xff, 0x0f, 0x00, 0x00, 0x00, 0x61, 0x72, 0x69, 0x74,
  0x68, 0x2e, 0x63, 0x6f, 0x6e, 0x73, 0x74, 0x61, 0x6e, 0x74, 0x39, 0x00,
  0x03, 0x00, 0x00, 0x00, 0x01, 0x00, 0x00, 0x00, 0x01, 0x00, 0x00, 0x00,
  0x08, 0x00, 0x00, 0x00, 0xce, 0xfe, 0xff, 0xff, 0x00, 0x00, 0x00, 0x01,
  0x10, 0x00, 0x00, 0x00, 0x10, 0x00, 0x00, 0x00, 0x0a, 0x00, 0x00, 0x00,
  0x1c, 0x00, 0x00, 0x00, 0x00, 0xfd, 0xff, 0xff, 0x0f, 0x00, 0x00, 0x00,
  0x61, 0x72, 0x69, 0x74, 0x68, 0x2e, 0x63, 0x6f, 0x6e, 0x73, 0x74, 0x61,
  0x6e, 0x74, 0x38, 0x00, 0x03, 0x00, 0x00, 0x00, 0x01, 0x00, 0x00, 0x00,
  0x01, 0x00, 0x00, 0x00, 0x10, 0x00, 0x00, 0x00, 0x0e, 0xff, 0xff, 0xff,
  0x00, 0x00, 0x00, 0x01, 0x10, 0x00, 0x00, 0x00, 0x10, 0x00, 0x00, 0x00,
  0x09, 0x00, 0x00, 0x00, 0x1c, 0x00, 0x00, 0x00, 0x40, 0xfd, 0xff, 0xff,
  0x0f, 0x00, 0x00, 0x00, 0x61, 0x72, 0x69, 0x74, 0x68, 0x2e, 0x63, 0x6f,
  0x6e, 0x73, 0x74, 0x61, 0x6e, 0x74, 0x37, 0x00, 0x02, 0x00, 0x00, 0x00,
  0x01, 0x00, 0x00, 0x00, 0xc0, 0x01, 0x00, 0x00, 0x4a, 0xff, 0xff, 0xff,
  0x00, 0x00, 0x00, 0x01, 0x10, 0x00, 0x00, 0x00, 0x10, 0x00, 0x00, 0x00,
  0x08, 0x00, 0x00, 0x00, 0x1c, 0x00, 0x00, 0x00, 0x7c, 0xfd, 0xff, 0xff,
  0x0f, 0x00, 0x00, 0x00, 0x61, 0x72, 0x69, 0x74, 0x68, 0x2e, 0x63, 0x6f,
  0x6e, 0x73, 0x74, 0x61, 0x6e, 0x74, 0x36, 0x00, 0x01, 0x00, 0x00, 0x00,
  0x08, 0x00, 0x00, 0x00, 0x82, 0xff, 0xff, 0xff, 0x00, 0x00, 0x00, 0x01,
  0x10, 0x00, 0x00, 0x00, 0x10, 0x00, 0x00, 0x00, 0x07, 0x00, 0x00, 0x00,
  0x1c, 0x00, 0x00, 0x00, 0xb4, 0xfd, 0xff, 0xff, 0x0f, 0x00, 0x00, 0x00,
  0x61, 0x72, 0x69, 0x74, 0x68, 0x2e, 0x63, 0x6f, 0x6e, 0x73, 0x74, 0x61,
  0x6e, 0x74, 0x35, 0x00, 0x04, 0x00, 0x00, 0x00, 0x08, 0x00, 0x00, 0x00,
  0x01, 0x00, 0x00, 0x00, 0x03, 0x00, 0x00, 0x00, 0x10, 0x00, 0x00, 0x00,
  0xc6, 0xff, 0xff, 0xff, 0x00, 0x00, 0x00, 0x01, 0x10, 0x00, 0x00, 0x00,
  0x10, 0x00, 0x00, 0x00, 0x06, 0x00, 0x00, 0x00, 0x1c, 0x00, 0x00, 0x00,
  0xf8, 0xfd, 0xff, 0xff, 0x0f, 0x00, 0x00, 0x00, 0x61, 0x72, 0x69, 0x74,
  0x68, 0x2e, 0x63, 0x6f, 0x6e, 0x73, 0x74, 0x61, 0x6e, 0x74, 0x34, 0x00,
  0x01, 0x00, 0x00, 0x00, 0x10, 0x00, 0x00, 0x00, 0x00, 0x00, 0x16, 0x00,
  0x18, 0x00, 0x14, 0x00, 0x00, 0x00, 0x10, 0x00, 0x0c, 0x00, 0x08, 0x00,
  0x00, 0x00, 0x00, 0x00, 0x00, 0x00, 0x07, 0x00, 0x16, 0x00, 0x00, 0x00,
  0x00, 0x00, 0x00, 0x01, 0x10, 0x00, 0x00, 0x00, 0x10, 0x00, 0x00, 0x00,
  0x05, 0x00, 0x00, 0x00, 0x1c, 0x00, 0x00, 0x00, 0x48, 0xfe, 0xff, 0xff,
  0x0f, 0x00, 0x00, 0x00, 0x61, 0x72, 0x69, 0x74, 0x68, 0x2e, 0x63, 0x6f,
  0x6e, 0x73, 0x74, 0x61, 0x6e, 0x74, 0x33, 0x00, 0x04, 0x00, 0x00, 0x00,
  0x10, 0x00, 0x00, 0x00, 0x01, 0x00, 0x00, 0x00, 0x03, 0x00, 0x00, 0x00,
  0x08, 0x00, 0x00, 0x00, 0x86, 0xff, 0xff, 0xff, 0x00, 0x00, 0x00, 0x01,
  0x14, 0x00, 0x00, 0x00, 0x14, 0x00, 0x00, 0x00, 0x04, 0x00, 0x00, 0x00,
  0x00, 0x00, 0x00, 0x02, 0x1c, 0x00, 0x00, 0x00, 0x90, 0xfe, 0xff, 0xff,
  0x0f, 0x00, 0x00, 0x00, 0x61, 0x72, 0x69, 0x74, 0x68, 0x2e, 0x63, 0x6f,
  0x6e, 0x73, 0x74, 0x61, 0x6e, 0x74, 0x32, 0x00, 0x01, 0x00, 0x00, 0x00,
  0x03, 0x00, 0x00, 0x00, 0xc2, 0xff, 0xff, 0xff, 0x00, 0x00, 0x00, 0x01,
  0x14, 0x00, 0x00, 0x00, 0x14, 0x00, 0x00, 0x00, 0x03, 0x00, 0x00, 0x00,
  0x00, 0x00, 0x00, 0x02, 0x1c, 0x00, 0x00, 0x00, 0xcc, 0xfe, 0xff, 0xff,
  0x0f, 0x00, 0x00, 0x00, 0x61, 0x72, 0x69, 0x74, 0x68, 0x2e, 0x63, 0x6f,
  0x6e, 0x73, 0x74, 0x61, 0x6e, 0x74, 0x31, 0x00, 0x01, 0x00, 0x00, 0x00,
  0x03, 0x00, 0x00, 0x00, 0x00, 0x00, 0x16, 0x00, 0x1c, 0x00, 0x18, 0x00,
  0x17, 0x00, 0x10, 0x00, 0x0c, 0x00, 0x08, 0x00, 0x00, 0x00, 0x00, 0x00,
  0x00, 0x00, 0x07, 0x00, 0x16, 0x00, 0x00, 0x00, 0x00, 0x00, 0x00, 0x01,
  0x14, 0x00, 0x00, 0x00, 0x14, 0x00, 0x00, 0x00, 0x02, 0x00, 0x00, 0x00,
  0x00, 0x00, 0x00, 0x02, 0x1c, 0x00, 0x00, 0x00, 0x20, 0xff, 0xff, 0xff,
  0x0e, 0x00, 0x00, 0x00, 0x61, 0x72, 0x69, 0x74, 0x68, 0x2e, 0x63, 0x6f,
  0x6e, 0x73, 0x74, 0x61, 0x6e, 0x74, 0x00, 0x00, 0x01, 0x00, 0x00, 0x00,
  0x03, 0x00, 0x00, 0x00, 0x00, 0x00, 0x16, 0x00, 0x1c, 0x00, 0x18, 0x00,
  0x00, 0x00, 0x14, 0x00, 0x10, 0x00, 0x0c, 0x00, 0x00, 0x00, 0x00, 0x00,
  0x08, 0x00, 0x07, 0x00, 0x16, 0x00, 0x00, 0x00, 0x00, 0x00, 0x00, 0x01,
  0x14, 0x00, 0x00, 0x00, 0x20, 0x00, 0x00, 0x00, 0x20, 0x00, 0x00, 0x00,
  0x01, 0x00, 0x00, 0x00, 0x3c, 0x00, 0x00, 0x00, 0x03, 0x00, 0x00, 0x00,
  0xff, 0xff, 0xff, 0xff, 0x40, 0x00, 0x00, 0x00, 0x10, 0x00, 0x00, 0x00,
  0x84, 0xff, 0xff, 0xff, 0x1f, 0x00, 0x00, 0x00, 0x73, 0x65, 0x72, 0x76,
  0x69, 0x6e, 0x67, 0x5f, 0x64, 0x65, 0x66, 0x61, 0x75, 0x6c, 0x74, 0x5f,
  0x69, 0x6e, 0x70, 0x75, 0x74, 0x5f, 0x6c, 0x61, 0x79, 0x65, 0x72, 0x5f,
  0x35, 0x3a, 0x30, 0x00, 0x03, 0x00, 0x00, 0x00, 0x01, 0x00, 0x00, 0x00,
  0x40, 0x00, 0x00, 0x00, 0x10, 0x00, 0x00, 0x00, 0x07, 0x00, 0x00, 0x00,
  0x6c, 0x00, 0x00, 0x00, 0x50, 0x00, 0x00, 0x00, 0x40, 0x00, 0x00, 0x00,
  0x38, 0x00, 0x00, 0x00, 0x24, 0x00, 0x00, 0x00, 0x14, 0x00, 0x00, 0x00,
  0x04, 0x00, 0x00, 0x00, 0xbc, 0xff, 0xff, 0xff, 0x0e, 0x00, 0x00, 0x00,
  0x00, 0x00, 0x00, 0x0e, 0xc8, 0xff, 0xff, 0xff, 0x09, 0x00, 0x00, 0x00,
  0x00, 0x00, 0x00, 0x09, 0xd4, 0xff, 0xff, 0xff, 0x11, 0x00, 0x00, 0x00,
  0x00, 0x00, 0x00, 0x11, 0x04, 0x00, 0x04, 0x00, 0x04, 0x00, 0x00, 0x00,
  0xe8, 0xff, 0xff, 0xff, 0x16, 0x00, 0x00, 0x00, 0x00, 0x00, 0x00, 0x16,
  0xf4, 0xff, 0xff, 0xff, 0x03, 0x00, 0x00, 0x00, 0x00, 0x00, 0x00, 0x03,
  0x0c, 0x00, 0x0c, 0x00, 0x0b, 0x00, 0x00, 0x00, 0x00, 0x00, 0x04, 0x00,
  0x0c, 0x00, 0x00, 0x00, 0x46, 0x00, 0x00, 0x00, 0x00, 0x00, 0x00, 0x46
};
unsigned int jarvis0_1_tflite_len = 9720;
