unsigned char utils_models_jarvis0_2_5_tflite[] = {
  0x1c, 0x00, 0x00, 0x00, 0x54, 0x46, 0x4c, 0x33, 0x14, 0x00, 0x20, 0x00,
  0x1c, 0x00, 0x18, 0x00, 0x14, 0x00, 0x10, 0x00, 0x0c, 0x00, 0x00, 0x00,
  0x08, 0x00, 0x04, 0x00, 0x14, 0x00, 0x00, 0x00, 0x1c, 0x00, 0x00, 0x00,
  0x90, 0x00, 0x00, 0x00, 0xe8, 0x00, 0x00, 0x00, 0xec, 0x0e, 0x00, 0x00,
  0xfc, 0x0e, 0x00, 0x00, 0x84, 0x1f, 0x00, 0x00, 0x03, 0x00, 0x00, 0x00,
  0x01, 0x00, 0x00, 0x00, 0x04, 0x00, 0x00, 0x00, 0xee, 0xed, 0xff, 0xff,
  0x0c, 0x00, 0x00, 0x00, 0x1c, 0x00, 0x00, 0x00, 0x3c, 0x00, 0x00, 0x00,
  0x0f, 0x00, 0x00, 0x00, 0x73, 0x65, 0x72, 0x76, 0x69, 0x6e, 0x67, 0x5f,
  0x64, 0x65, 0x66, 0x61, 0x75, 0x6c, 0x74, 0x00, 0x01, 0x00, 0x00, 0x00,
  0x04, 0x00, 0x00, 0x00, 0x8c, 0xff, 0xff, 0xff, 0x1f, 0x00, 0x00, 0x00,
  0x04, 0x00, 0x00, 0x00, 0x08, 0x00, 0x00, 0x00, 0x6f, 0x75, 0x74, 0x70,
  0x75, 0x74, 0x5f, 0x30, 0x00, 0x00, 0x00, 0x00, 0x01, 0x00, 0x00, 0x00,
  0x04, 0x00, 0x00, 0x00, 0xa2, 0xf1, 0xff, 0xff, 0x04, 0x00, 0x00, 0x00,
  0x10, 0x00, 0x00, 0x00, 0x6b, 0x65, 0x72, 0x61, 0x73, 0x5f, 0x74, 0x65,
  0x6e, 0x73, 0x6f, 0x72, 0x5f, 0x32, 0x33, 0x32, 0x00, 0x00, 0x00, 0x00,
  0x02, 0x00, 0x00, 0x00, 0x34, 0x00, 0x00, 0x00, 0x04, 0x00, 0x00, 0x00,
  0xdc, 0xff, 0xff, 0xff, 0x22, 0x00, 0x00, 0x00, 0x04, 0x00, 0x00, 0x00,
  0x13, 0x00, 0x00, 0x00, 0x43, 0x4f, 0x4e, 0x56, 0x45, 0x52, 0x53, 0x49,
  0x4f, 0x4e, 0x5f, 0x4d, 0x45, 0x54, 0x41, 0x44, 0x41, 0x54, 0x41, 0x00,
  0x08, 0x00, 0x0c, 0x00, 0x08, 0x00, 0x04, 0x00, 0x08, 0x00, 0x00, 0x00,
  0x21, 0x00, 0x00, 0x00, 0x04, 0x00, 0x00, 0x00, 0x13, 0x00, 0x00, 0x00,
  0x6d, 0x69, 0x6e, 0x5f, 0x72, 0x75, 0x6e, 0x74, 0x69, 0x6d, 0x65, 0x5f,
  0x76, 0x65, 0x72, 0x73, 0x69, 0x6f, 0x6e, 0x00, 0x23, 0x00, 0x00, 0x00,
  0x00, 0x0e, 0x00, 0x00, 0xf8, 0x0d, 0x00, 0x00, 0xdc, 0x0d, 0x00, 0x00,
  0xb8, 0x0d, 0x00, 0x00, 0x9c, 0x0d, 0x00, 0x00, 0x80, 0x0d, 0x00, 0x00,
  0x30, 0x0c, 0x00, 0x00, 0x80, 0x0b, 0x00, 0x00, 0x60, 0x0b, 0x00, 0x00,
  0xb0, 0x01, 0x00, 0x00, 0x90, 0x01, 0x00, 0x00, 0x70, 0x01, 0x00, 0x00,
  0x5c, 0x01, 0x00, 0x00, 0x48, 0x01, 0x00, 0x00, 0x30, 0x01, 0x00, 0x00,
  0x1c, 0x01, 0x00, 0x00, 0x14, 0x01, 0x00, 0x00, 0x0c, 0x01, 0x00, 0x00,
  0x04, 0x01, 0x00, 0x00, 0xfc, 0x00, 0x00, 0x00, 0xf4, 0x00, 0x00, 0x00,
  0xec, 0x00, 0x00, 0x00, 0xe4, 0x00, 0x00, 0x00, 0xdc, 0x00, 0x00, 0x00,
  0xd4, 0x00, 0x00, 0x00, 0xcc, 0x00, 0x00, 0x00, 0xc4, 0x00, 0x00, 0x00,
  0xbc, 0x00, 0x00, 0x00, 0xb4, 0x00, 0x00, 0x00, 0xac, 0x00, 0x00, 0x00,
  0xa4, 0x00, 0x00, 0x00, 0x9c, 0x00, 0x00, 0x00, 0x94, 0x00, 0x00, 0x00,
  0x74, 0x00, 0x00, 0x00, 0x04, 0x00, 0x00, 0x00, 0xae, 0xf2, 0xff, 0xff,
  0x04, 0x00, 0x00, 0x00, 0x60, 0x00, 0x00, 0x00, 0x0c, 0x00, 0x00, 0x00,
  0x08, 0x00, 0x0e, 0x00, 0x08, 0x00, 0x04, 0x00, 0x08, 0x00, 0x00, 0x00,
  0x10, 0x00, 0x00, 0x00, 0x28, 0x00, 0x00, 0x00, 0x00, 0x00, 0x06, 0x00,
  0x08, 0x00, 0x04, 0x00, 0x06, 0x00, 0x00, 0x00, 0x04, 0x00, 0x00, 0x00,
  0x01, 0x00, 0x00, 0x00, 0xea, 0x03, 0x00, 0x00, 0x0c, 0x00, 0x18, 0x00,
  0x14, 0x00, 0x10, 0x00, 0x0c, 0x00, 0x04, 0x00, 0x0c, 0x00, 0x00, 0x00,
  0x81, 0x7b, 0xda, 0xdb, 0x8a, 0x5b, 0x9c, 0x08, 0x02, 0x00, 0x00, 0x00,
  0x02, 0x00, 0x00, 0x00, 0x04, 0x00, 0x00, 0x00, 0x06, 0x00, 0x00, 0x00,
  0x32, 0x2e, 0x31, 0x37, 0x2e, 0x30, 0x00, 0x00, 0x1a, 0xf3, 0xff, 0xff,
  0x04, 0x00, 0x00, 0x00, 0x10, 0x00, 0x00, 0x00, 0x31, 0x2e, 0x31, 0x34,
  0x2e, 0x30, 0x00, 0x00, 0x00, 0x00, 0x00, 0x00, 0x00, 0x00, 0x00, 0x00,
  0x38, 0xe2, 0xff, 0xff, 0x3c, 0xe2, 0xff, 0xff, 0x40, 0xe2, 0xff, 0xff,
  0x44, 0xe2, 0xff, 0xff, 0x48, 0xe2, 0xff, 0xff, 0x4c, 0xe2, 0xff, 0xff,
  0x50, 0xe2, 0xff, 0xff, 0x54, 0xe2, 0xff, 0xff, 0x58, 0xe2, 0xff, 0xff,
  0x5c, 0xe2, 0xff, 0xff, 0x60, 0xe2, 0xff, 0xff, 0x64, 0xe2, 0xff, 0xff,
  0x68, 0xe2, 0xff, 0xff, 0x6c, 0xe2, 0xff, 0xff, 0x70, 0xe2, 0xff, 0xff,
  0x74, 0xe2, 0xff, 0xff, 0x78, 0xe2, 0xff, 0xff, 0x7a, 0xf3, 0xff, 0xff,
  0x04, 0x00, 0x00, 0x00, 0x04, 0x00, 0x00, 0x00, 0x01, 0x00, 0x00, 0x00,
  0x8a, 0xf3, 0xff, 0xff, 0x04, 0x00, 0x00, 0x00, 0x08, 0x00, 0x00, 0x00,
  0xff, 0xff, 0xff, 0xff, 0x68, 0x02, 0x00, 0x00, 0x9e, 0xf3, 0xff, 0xff,
  0x04, 0x00, 0x00, 0x00, 0x04, 0x00, 0x00, 0x00, 0xfd, 0xff, 0xff, 0xff,
  0xae, 0xf3, 0xff, 0xff, 0x04, 0x00, 0x00, 0x00, 0x04, 0x00, 0x00, 0x00,
  0x2a, 0x3c, 0x56, 0xbd, 0xbe, 0xf3, 0xff, 0xff, 0x04, 0x00, 0x00, 0x00,
  0x10, 0x00, 0x00, 0x00, 0x08, 0xe3, 0xfa, 0x3d, 0x87, 0x1c, 0xb5, 0xbc,
  0xa4, 0x7c, 0x4f, 0x3b, 0x5d, 0x69, 0xd9, 0x3d, 0xda, 0xf3, 0xff, 0xff,
  0x04, 0x00, 0x00, 0x00, 0x10, 0x00, 0x00, 0x00, 0x74, 0xca, 0x9a, 0x3d,
  0x41, 0x16, 0x1b, 0x3d, 0x8d, 0xb1, 0x93, 0x3d, 0x76, 0x84, 0x98, 0x3d,
  0xf6, 0xf3, 0xff, 0xff, 0x04, 0x00, 0x00, 0x00, 0xa0, 0x09, 0x00, 0x00,
  0x5d, 0xe3, 0xc9, 0x3d, 0x7f, 0xb1, 0xa9, 0xbc, 0x8f, 0x6e, 0x45, 0x3d,
  0x64, 0x55, 0x0a, 0x3c, 0x7a, 0xbf, 0x9a, 0x3b, 0xa7, 0x5f, 0xec, 0x3c,
  0xf0, 0x7e, 0x58, 0xbd, 0x66, 0x08, 0xe9, 0x3c, 0x3b, 0x4e, 0x2c, 0x3d,
  0xbf, 0x7e, 0xaf, 0xbd, 0x32, 0x7f, 0xdd, 0x3c, 0xd3, 0x34, 0xe6, 0x3c,
  0xe6, 0xe4, 0xb6, 0x3d, 0xde, 0xbb, 0xb0, 0xbd, 0xa5, 0x40, 0xec, 0x3d,
  0xbe, 0x3c, 0x71, 0x3d, 0x5b, 0xaa, 0xdb, 0x3d, 0x12, 0x48, 0x98, 0xbd,
  0xbf, 0x06, 0x6f, 0x3c, 0xf9, 0x50, 0xa1, 0xbc, 0x85, 0x5a, 0x9d, 0x3d,
  0x7a, 0x89, 0xe2, 0xbd, 0x1f, 0x51, 0x04, 0xbd, 0x56, 0x11, 0xbd, 0xbd,
  0x16, 0xb1, 0x05, 0xba, 0x3a, 0x38, 0x10, 0xbc, 0x17, 0xa0, 0xa2, 0xbd,
  0x86, 0xda, 0xfb, 0xbb, 0x76, 0x0e, 0xe4, 0x3c, 0x21, 0x6c, 0x6b, 0x3d,
  0xb8, 0x00, 0x3c, 0xbe, 0xb0, 0x29, 0x57, 0x3d, 0x01, 0xcc, 0x7c, 0xbd,
  0x48, 0x63, 0x02, 0x3c, 0x63, 0x1d, 0x98, 0xbd, 0x1a, 0x12, 0x1c, 0x3d,
  0x07, 0x67, 0x8e, 0xbd, 0x65, 0xbe, 0x75, 0xbc, 0x9a, 0xae, 0x0b, 0xbe,
  0x78, 0xcd, 0xca, 0x3c, 0xf8, 0x60, 0xc2, 0x3d, 0xd9, 0xc9, 0xd3, 0x3d,
  0xec, 0x57, 0x3f, 0xbe, 0x23, 0x4d, 0xa0, 0x3b, 0x62, 0x22, 0xc1, 0xbd,
  0x10, 0xae, 0x46, 0xbd, 0xd7, 0x63, 0x26, 0xbe, 0x65, 0xb2, 0xc9, 0xbc,
  0xad, 0x88, 0xb9, 0x3c, 0x13, 0xbe, 0xc5, 0xbd, 0x01, 0xee, 0x5b, 0x3c,
  0x4e, 0xd2, 0x09, 0x3d, 0xd3, 0x2e, 0xa2, 0x3d, 0xae, 0xe5, 0x75, 0xbd,
  0x1c, 0x03, 0x88, 0x3b, 0x2a, 0xdf, 0x0a, 0x3d, 0xb5, 0xb6, 0x0b, 0xbd,
  0xbb, 0x76, 0x7d, 0x3d, 0xeb, 0xd9, 0x12, 0xbe, 0x4f, 0x90, 0xba, 0xbc,
  0x8b, 0x4f, 0xc3, 0xbd, 0x7c, 0x97, 0x80, 0x3d, 0x98, 0x65, 0x97, 0xbd,
  0xef, 0x05, 0xd7, 0xbc, 0x9a, 0x43, 0x18, 0x3d, 0x80, 0x51, 0xb8, 0x3d,
  0xdf, 0x83, 0x8b, 0x3c, 0xed, 0x2a, 0x50, 0xbd, 0x47, 0x9c, 0x90, 0xba,
  0xb4, 0x94, 0x10, 0xbd, 0x90, 0xf4, 0xdf, 0xbd, 0x38, 0xc2, 0xdc, 0xbc,
  0x57, 0x87, 0xa7, 0x3c, 0x7e, 0x4a, 0x9c, 0xbd, 0xe7, 0x20, 0x5b, 0x3d,
  0xbe, 0x78, 0x61, 0x3c, 0xb0, 0xc5, 0x0a, 0x3d, 0xd8, 0x7b, 0x95, 0xba,
  0x9a, 0xf7, 0x0f, 0xbd, 0x56, 0x98, 0x60, 0xbd, 0x82, 0x45, 0xf2, 0xbd,
  0x5d, 0x8f, 0xbe, 0xbd, 0xd6, 0x22, 0x6e, 0x3c, 0xe5, 0x9a, 0xb9, 0xbd,
  0xc8, 0x03, 0xda, 0x3c, 0x4c, 0x4e, 0x34, 0xbd, 0x08, 0x4e, 0xa5, 0x3a,
  0xc0, 0xb1, 0x18, 0xbd, 0x79, 0x48, 0x5e, 0xbd, 0x29, 0x0b, 0xdd, 0xbd,
  0x55, 0xce, 0xe0, 0xbd, 0x6c, 0x79, 0x7b, 0x3d, 0x86, 0x0e, 0x49, 0x3c,
  0x3c, 0xba, 0xcd, 0x3c, 0xd5, 0x5e, 0x6d, 0xbc, 0xfa, 0xd8, 0x8e, 0xbd,
  0xc3, 0x89, 0x85, 0xbd, 0x50, 0x26, 0x32, 0x3d, 0xb1, 0x71, 0x96, 0xbd,
  0x03, 0x09, 0x59, 0xbd, 0x64, 0x47, 0x9a, 0xbc, 0x77, 0x73, 0x0c, 0xbc,
  0x89, 0x18, 0x33, 0xbe, 0x14, 0x80, 0xc2, 0xbd, 0x6c, 0x43, 0xa1, 0xbb,
  0x91, 0x58, 0x41, 0x3e, 0x2f, 0x43, 0x29, 0xbe, 0x41, 0xa8, 0xbe, 0x3c,
  0x70, 0x4a, 0xf3, 0x3d, 0x85, 0xaf, 0xfe, 0x3d, 0xea, 0x43, 0xd3, 0xbd,
  0x6f, 0x8b, 0xa8, 0x3d, 0xeb, 0x5a, 0xac, 0x3b, 0xd6, 0xfd, 0xa9, 0x3d,
  0xbd, 0x9f, 0x98, 0xbd, 0x9a, 0xd8, 0xb5, 0x3d, 0xa7, 0xbd, 0x88, 0x3d,
  0x50, 0xc8, 0x44, 0xbc, 0x4c, 0xdb, 0x9d, 0xbd, 0x44, 0xc0, 0xcc, 0xbc,
  0x9c, 0xff, 0x12, 0x3e, 0xac, 0x70, 0x5c, 0x3d, 0x9b, 0x31, 0x02, 0xbd,
  0xe4, 0x9a, 0x72, 0x3c, 0xac, 0x77, 0x10, 0x3e, 0xb0, 0x5f, 0x0f, 0xbd,
  0xf4, 0xad, 0xa9, 0xbd, 0x19, 0xf6, 0xc3, 0x3d, 0x7a, 0xe9, 0xe7, 0x3d,
  0x6d, 0xbf, 0x48, 0x3c, 0x91, 0xb9, 0x9f, 0x3c, 0x10, 0x21, 0x78, 0xbd,
  0xb7, 0xc4, 0x85, 0xbb, 0x7e, 0xb0, 0xbf, 0x3b, 0x70, 0x1c, 0x26, 0xbc,
  0xdf, 0x1c, 0x8e, 0x3d, 0x1b, 0x30, 0xee, 0x3d, 0x76, 0x87, 0x98, 0x3d,
  0x03, 0xe9, 0x0c, 0x3c, 0xce, 0x6e, 0x8e, 0xbd, 0xc0, 0x6c, 0x3a, 0xbb,
  0x73, 0x66, 0xbc, 0x3d, 0xc2, 0xeb, 0x8c, 0xbd, 0x9c, 0xd9, 0x00, 0x3e,
  0x58, 0x21, 0x6e, 0x3d, 0xeb, 0xe6, 0xdb, 0x3d, 0x33, 0x7a, 0x28, 0xbe,
  0xdf, 0xcb, 0xc1, 0x3d, 0xa5, 0xe6, 0xf2, 0x3c, 0xd6, 0xf7, 0xd6, 0x3c,
  0xa4, 0x45, 0xf9, 0x3b, 0xdf, 0x4a, 0xc2, 0xbd, 0x85, 0xbe, 0x24, 0x3d,
  0x07, 0xb6, 0x38, 0x3b, 0xeb, 0x41, 0x81, 0x3c, 0x50, 0x35, 0x29, 0xbd,
  0xdc, 0x5a, 0x89, 0x3d, 0xe7, 0x60, 0xf1, 0x3d, 0x38, 0xb9, 0x10, 0xbd,
  0x34, 0x4a, 0x2a, 0x3d, 0xcc, 0x4c, 0xea, 0x3c, 0x55, 0x66, 0x23, 0x3e,
  0xa2, 0x31, 0x01, 0x3c, 0x98, 0x36, 0x05, 0xbc, 0x95, 0x36, 0xac, 0x3c,
  0x1e, 0x91, 0xab, 0xbc, 0x47, 0xfa, 0xb2, 0xbd, 0x8e, 0x7d, 0xc2, 0x3c,
  0x1f, 0x56, 0x1b, 0x3e, 0xf0, 0x90, 0x2d, 0x3e, 0x15, 0xf3, 0xb8, 0xbd,
  0x9b, 0x14, 0xd3, 0x3d, 0xd5, 0x3f, 0xad, 0x3b, 0xd5, 0xa9, 0xdd, 0x3d,
  0xe6, 0x28, 0x02, 0xbe, 0x8d, 0xdd, 0xe1, 0x3c, 0xcb, 0x8b, 0x24, 0x3e,
  0xdd, 0xac, 0x5f, 0x3d, 0x14, 0x20, 0x55, 0xbc, 0x60, 0x92, 0x10, 0x3e,
  0xe5, 0xea, 0xd2, 0xba, 0xcf, 0x1d, 0x20, 0x3e, 0x41, 0x1a, 0xea, 0x3a,
  0xe1, 0x47, 0xfa, 0x3d, 0x79, 0x8d, 0x27, 0x3e, 0x6e, 0x11, 0xb0, 0x3b,
  0x2f, 0xaf, 0x00, 0xbe, 0x98, 0x03, 0x6f, 0x3d, 0x06, 0x57, 0xb2, 0xbc,
  0x18, 0x2a, 0xe0, 0x3d, 0x7c, 0x2f, 0x56, 0xbc, 0x49, 0x28, 0x1d, 0x3e,
  0x08, 0xd6, 0x60, 0x3c, 0xf0, 0x4b, 0xc9, 0x3d, 0xac, 0xfc, 0x22, 0x3c,
  0x44, 0x97, 0x62, 0x3d, 0x77, 0xfb, 0xe2, 0x3d, 0xdf, 0x96, 0xdc, 0x3c,
  0xbb, 0xd5, 0x20, 0xbb, 0x7f, 0xc1, 0xd2, 0x3c, 0x1f, 0x1f, 0x33, 0xbc,
  0xfd, 0x57, 0x87, 0x3d, 0xe2, 0xc9, 0xf8, 0xbd, 0x5e, 0xda, 0xd3, 0x3d,
  0xdc, 0xd8, 0x2b, 0x3d, 0x7e, 0x85, 0xda, 0xbd, 0xeb, 0x04, 0xa0, 0xbd,
  0xb6, 0xb8, 0xfe, 0xbc, 0x84, 0x97, 0x81, 0xbd, 0x28, 0x7a, 0xbc, 0x3d,
  0x66, 0xc2, 0x05, 0xbe, 0x7e, 0xaf, 0xb6, 0x3d, 0x4f, 0xd9, 0x82, 0x3d,
  0xed, 0xb9, 0x86, 0xbd, 0x6b, 0x96, 0x40, 0xbc, 0x6f, 0xac, 0xfa, 0xbd,
  0x29, 0x76, 0x25, 0xbd, 0x03, 0x7b, 0x5d, 0x3d, 0x32, 0x54, 0x6c, 0xbd,
  0xf9, 0x06, 0xc8, 0x3d, 0x6a, 0x07, 0xe1, 0x3d, 0x04, 0x77, 0xce, 0x3d,
  0x71, 0xe2, 0x7b, 0xbe, 0x17, 0x81, 0x26, 0xbd, 0xf8, 0x1e, 0xe2, 0x3c,
  0xfc, 0x11, 0xd1, 0x3d, 0x4c, 0x90, 0x5b, 0xbe, 0x9b, 0xa5, 0xac, 0x3d,
  0xe1, 0xa4, 0xad, 0x3d, 0x1d, 0x19, 0x23, 0x3e, 0x74, 0xb5, 0x4f, 0xbe,
  0x89, 0x68, 0xd9, 0x3c, 0x85, 0xcd, 0xf2, 0x3d, 0xa4, 0xeb, 0xed, 0x3c,
  0x6e, 0x66, 0x41, 0xbe, 0x2c, 0xb1, 0x10, 0x3d, 0x43, 0x5a, 0x63, 0x3d,
  0x5b, 0x70, 0x49, 0x3e, 0xe9, 0x2c, 0x62, 0xbe, 0x1a, 0xa0, 0x2b, 0x3e,
  0x45, 0x03, 0x21, 0x3d, 0x3e, 0x97, 0xd8, 0x3d, 0x7e, 0x8f, 0xe5, 0xbd,
  0xc0, 0x15, 0x1e, 0x3d, 0xd5, 0xb2, 0x8d, 0x3d, 0x8b, 0x51, 0x30, 0x3e,
  0xd8, 0xf5, 0x61, 0xbe, 0x7f, 0x73, 0x66, 0x3e, 0xed, 0xcd, 0xd0, 0x3d,
  0xca, 0xdf, 0x93, 0x3e, 0x09, 0x78, 0xd5, 0xbd, 0x58, 0x93, 0x6b, 0x3e,
  0xf5, 0x3e, 0x61, 0x3e, 0x9b, 0xcd, 0x40, 0x3e, 0x8d, 0x19, 0x50, 0xbe,
  0x34, 0x15, 0x7c, 0x3e, 0xa4, 0x0e, 0x42, 0x3e, 0xdf, 0x02, 0x1d, 0x3e,
  0xc9, 0x67, 0xe5, 0xbd, 0x2d, 0x04, 0x74, 0x3e, 0x8a, 0x04, 0x89, 0x3e,
  0x7d, 0xab, 0x91, 0x3e, 0x19, 0xfa, 0x26, 0xbe, 0x19, 0x0a, 0x95, 0x3e,
  0xce, 0xb8, 0x87, 0x3e, 0xad, 0xd1, 0x59, 0x3e, 0x99, 0x5f, 0xa5, 0xbd,
  0x19, 0xe4, 0x24, 0x3e, 0x8e, 0xa7, 0x4a, 0x3e, 0x72, 0xab, 0x3c, 0x3e,
  0x9c, 0x64, 0x40, 0xbe, 0x61, 0x06, 0xc4, 0x3d, 0x1c, 0x50, 0x36, 0x3e,
  0x7e, 0xab, 0x1a, 0x3e, 0x3e, 0x0b, 0x1b, 0xbe, 0x85, 0x64, 0x6e, 0x3e,
  0x28, 0x98, 0x7a, 0x3e, 0xd5, 0x31, 0x0d, 0x3d, 0x81, 0xd8, 0x68, 0xbd,
  0x0c, 0xf7, 0xff, 0x3d, 0x74, 0x39, 0xe7, 0x3d, 0x1b, 0x79, 0xbe, 0x3b,
  0x7a, 0x84, 0xd6, 0xbd, 0x61, 0x42, 0xa3, 0x3d, 0x04, 0xd0, 0x25, 0x3d,
  0x0e, 0x49, 0xc1, 0x3c, 0x0d, 0x9c, 0x3d, 0xbe, 0x9e, 0x81, 0x9f, 0x3d,
  0x55, 0xfb, 0x36, 0x3e, 0x0e, 0x41, 0xaa, 0x3d, 0x71, 0x17, 0xcc, 0xbd,
  0xc0, 0x4c, 0x2a, 0x3e, 0x87, 0x35, 0x76, 0x3e, 0x5b, 0x1a, 0xc4, 0x3d,
  0x37, 0x03, 0x70, 0xbd, 0xb0, 0x04, 0x2c, 0x3e, 0x86, 0x67, 0xe6, 0x3c,
  0xd4, 0xd7, 0xc3, 0xbc, 0x5b, 0x76, 0xe6, 0xbd, 0x84, 0xf5, 0x70, 0x3d,
  0xb2, 0xcf, 0x33, 0x3e, 0xd2, 0x48, 0xf8, 0x3d, 0x05, 0x65, 0x6e, 0xbe,
  0x88, 0xe1, 0x7d, 0x3d, 0xc7, 0x20, 0x97, 0x3d, 0x68, 0x95, 0x16, 0x3e,
  0xd2, 0x61, 0x25, 0xbe, 0x6d, 0x4a, 0xdd, 0x3d, 0xed, 0xb7, 0x4d, 0x3e,
  0xdc, 0xee, 0x23, 0x3e, 0xce, 0x43, 0xe9, 0xbd, 0xe1, 0x77, 0x56, 0x3e,
  0xf1, 0xb6, 0x7d, 0x3e, 0x3c, 0x31, 0x29, 0x3e, 0x69, 0x84, 0xef, 0xbd,
  0x3e, 0x7e, 0x22, 0x3e, 0xe0, 0x0b, 0x11, 0x3e, 0x06, 0x4f, 0x67, 0x3d,
  0x1e, 0xd6, 0x21, 0xbe, 0xbc, 0x09, 0x92, 0x3d, 0x6b, 0xa1, 0x1c, 0x3e,
  0x82, 0xaf, 0xe3, 0x3d, 0x80, 0x36, 0x99, 0xbd, 0x51, 0xa0, 0x3c, 0x3e,
  0xa6, 0xd6, 0x65, 0x3c, 0xbe, 0x6e, 0x03, 0xbd, 0xac, 0xa2, 0xa2, 0xbd,
  0x6e, 0x00, 0x04, 0x3e, 0x4f, 0xc0, 0x89, 0x3d, 0x92, 0x68, 0x82, 0x3d,
  0xaa, 0xe2, 0xcc, 0xba, 0xe8, 0x2d, 0x61, 0x3d, 0x7c, 0x67, 0x4b, 0xbc,
  0xf4, 0xb1, 0xbb, 0x3c, 0x60, 0x3a, 0xf4, 0xbd, 0x55, 0x92, 0x15, 0x3d,
  0x94, 0x8b, 0xe1, 0x3d, 0xfc, 0x76, 0x5e, 0x3d, 0x02, 0x98, 0xe9, 0xbd,
  0x01, 0x91, 0x1e, 0x3e, 0xbe, 0x3f, 0xaf, 0x3d, 0xd8, 0x55, 0xad, 0x3a,
  0xe1, 0x4a, 0x7a, 0xbe, 0xfa, 0xed, 0xbc, 0x3d, 0x9c, 0x93, 0x0d, 0x3d,
  0xf5, 0x6f, 0x18, 0x3d, 0x21, 0x3b, 0x13, 0xbe, 0x81, 0x93, 0x06, 0x3e,
  0x9a, 0x50, 0xad, 0x3c, 0x5b, 0x76, 0xd6, 0x3d, 0x71, 0xd2, 0x0d, 0xbd,
  0x32, 0x37, 0xbe, 0x3c, 0x86, 0xc6, 0x01, 0x3d, 0xff, 0x58, 0x39, 0xbd,
  0x29, 0x83, 0x2b, 0xbd, 0xea, 0x6f, 0xef, 0x3d, 0x51, 0x95, 0x0f, 0x3e,
  0xbb, 0x69, 0xe4, 0x3d, 0x40, 0xbc, 0xf8, 0xbd, 0x5b, 0x3e, 0x0d, 0x3d,
  0xdf, 0xf9, 0x15, 0x3d, 0xf4, 0x49, 0x43, 0x3d, 0xf9, 0xfc, 0x5c, 0xbe,
  0x02, 0x6e, 0xb5, 0x3d, 0x71, 0x5f, 0xda, 0x3c, 0x6e, 0xd1, 0x14, 0x3c,
  0xa7, 0xa9, 0x2a, 0xbe, 0x41, 0x58, 0x53, 0x3e, 0x20, 0x53, 0x88, 0x3d,
  0x6d, 0xc1, 0x0a, 0x3d, 0x66, 0x53, 0x60, 0xbc, 0x68, 0xc6, 0x24, 0x3c,
  0xe7, 0x20, 0xb0, 0x3d, 0xbd, 0x70, 0x8a, 0x3d, 0xd9, 0x91, 0x2e, 0xbe,
  0x23, 0xb7, 0xd2, 0xbc, 0xe6, 0x75, 0xbb, 0x3d, 0x6f, 0xac, 0x33, 0x3e,
  0x4f, 0xd9, 0x40, 0xbe, 0x8c, 0xd7, 0x22, 0x3e, 0x84, 0xb4, 0x06, 0x3d,
  0x4e, 0x4a, 0x0f, 0x3e, 0x9e, 0x19, 0x32, 0xbe, 0xbd, 0xdb, 0xa1, 0x3d,
  0xd8, 0x4e, 0x9e, 0x3d, 0x37, 0x51, 0xef, 0x3d, 0xcc, 0xeb, 0x6f, 0xbd,
  0xae, 0x6d, 0x48, 0x3c, 0xd5, 0xba, 0x32, 0x3e, 0xd9, 0x05, 0xdd, 0x3d,
  0xa3, 0xe3, 0x89, 0xbd, 0xb2, 0x2c, 0x5a, 0x3e, 0x70, 0x38, 0xf9, 0x3d,
  0x55, 0x40, 0xc5, 0x3d, 0xf9, 0x84, 0x14, 0xbd, 0x34, 0x9a, 0xa8, 0xba,
  0xf8, 0x1a, 0xba, 0xbc, 0xc8, 0x39, 0x03, 0x3e, 0x55, 0xd4, 0x39, 0xbd,
  0x9e, 0xba, 0xc7, 0x3d, 0x25, 0xed, 0x22, 0xbc, 0x34, 0x60, 0xc8, 0x3c,
  0x73, 0x5b, 0x16, 0xbb, 0x64, 0xca, 0x1a, 0x3e, 0xb3, 0xd1, 0xe8, 0x3d,
  0x46, 0x0b, 0x7d, 0xbd, 0x6e, 0x3f, 0x98, 0xbd, 0x29, 0x60, 0xfc, 0x3d,
  0xc1, 0x5b, 0x50, 0xbb, 0xec, 0x5d, 0xb4, 0xbd, 0x2d, 0xe1, 0x1a, 0xbe,
  0xf0, 0xae, 0xd1, 0x3d, 0x59, 0xb8, 0x3c, 0x3d, 0xaa, 0x05, 0x97, 0xbb,
  0xd5, 0x7b, 0x88, 0xbc, 0xb0, 0xf0, 0x4e, 0x3c, 0xd8, 0xd0, 0x88, 0xbd,
  0x72, 0x21, 0xa8, 0x3d, 0xc5, 0xfc, 0x28, 0x3c, 0x86, 0xa0, 0x41, 0x3d,
  0xcf, 0x05, 0x29, 0x3d, 0xae, 0xc6, 0xa3, 0x3c, 0x66, 0x92, 0xc3, 0xbd,
  0x76, 0x1a, 0x56, 0xbd, 0xea, 0x02, 0x93, 0xbd, 0xd3, 0xaf, 0xf8, 0xbd,
  0x49, 0x20, 0xbd, 0xbd, 0x90, 0xdd, 0xa4, 0x3c, 0x43, 0x73, 0xc5, 0xbd,
  0x3b, 0x12, 0xe0, 0xbd, 0xc1, 0xd2, 0x11, 0x3c, 0x1b, 0xe7, 0xe4, 0xbc,
  0x76, 0xb0, 0x8d, 0xbd, 0x25, 0x80, 0x3e, 0xbe, 0xef, 0x2d, 0x14, 0xbe,
  0x23, 0xc8, 0xe9, 0xbc, 0xfd, 0x7e, 0xf6, 0x3c, 0x7f, 0xe0, 0xf8, 0xbd,
  0x16, 0x85, 0xa1, 0x3c, 0x97, 0x85, 0x0c, 0xbe, 0xbb, 0x04, 0xdd, 0x3c,
  0xec, 0xd0, 0x32, 0xbc, 0x48, 0x63, 0xef, 0xbd, 0x0a, 0xb5, 0xff, 0xbd,
  0xdb, 0xd0, 0xcf, 0xbd, 0x04, 0xdd, 0x8d, 0x3d, 0xb4, 0xf3, 0x23, 0x3d,
  0x5c, 0x1b, 0x28, 0xbe, 0xd6, 0x9c, 0xcf, 0x3d, 0xc2, 0xfe, 0xb5, 0xbc,
  0xdb, 0xc8, 0xcb, 0xbd, 0xf1, 0xf4, 0xdc, 0xbc, 0x44, 0x10, 0x96, 0xbd,
  0x02, 0xde, 0x19, 0x3d, 0x69, 0x7a, 0x19, 0xbe, 0x3f, 0xac, 0x9e, 0xbd,
  0xba, 0x09, 0x58, 0x3c, 0x3e, 0x61, 0xcb, 0xbc, 0x01, 0xc3, 0x63, 0xbd,
  0xf4, 0x94, 0x97, 0x3d, 0x16, 0x62, 0xcb, 0x3a, 0x8e, 0x1e, 0x39, 0xbd,
  0xa1, 0xc7, 0x98, 0xbc, 0x16, 0xf8, 0x9f, 0xbd, 0xd6, 0x8d, 0xb0, 0xbc,
  0x6b, 0x27, 0xd8, 0xbd, 0x70, 0x09, 0x36, 0xbc, 0xd1, 0x05, 0x2d, 0xbd,
  0x72, 0x38, 0xa2, 0xbd, 0xc7, 0xe5, 0xeb, 0xbc, 0xf6, 0x73, 0x05, 0xba,
  0x58, 0x8a, 0x52, 0xbd, 0xf4, 0x7a, 0x8f, 0xbd, 0x9e, 0xc7, 0xf2, 0x3c,
  0x0c, 0xff, 0x06, 0x3d, 0x1f, 0xf0, 0x8f, 0x3c, 0x3e, 0x15, 0x67, 0x3c,
  0x56, 0xbc, 0x8d, 0xbd, 0x8a, 0xca, 0x97, 0xbd, 0xef, 0x27, 0x20, 0xbd,
  0x41, 0x9e, 0xd0, 0xbd, 0x45, 0x3d, 0x89, 0xbd, 0x65, 0x8f, 0xd2, 0xbd,
  0x92, 0xf6, 0x79, 0x3d, 0xfd, 0x77, 0x0f, 0xbe, 0xf7, 0xf5, 0x8d, 0xbc,
  0x5c, 0xaf, 0x1a, 0x3d, 0x39, 0x7d, 0xa3, 0xbd, 0xec, 0x8c, 0xd1, 0xbd,
  0x6a, 0x84, 0x5b, 0xbd, 0x8a, 0xad, 0x96, 0xbd, 0x92, 0xb4, 0x82, 0xbd,
  0xef, 0x63, 0x0a, 0xbe, 0x94, 0xeb, 0xfc, 0xbd, 0x56, 0x6d, 0x0a, 0x3d,
  0xff, 0x9c, 0xa7, 0xbc, 0x35, 0x30, 0xe5, 0x3c, 0x85, 0xa3, 0xb2, 0xbd,
  0xc9, 0xe4, 0xf8, 0x3c, 0x75, 0x88, 0x0f, 0xbe, 0x08, 0xb8, 0x43, 0xbd,
  0x1b, 0x89, 0x6d, 0xbc, 0x6a, 0xa5, 0x36, 0xbd, 0x38, 0x26, 0xb0, 0xbd,
  0x3c, 0x17, 0xb3, 0xbd, 0x16, 0x18, 0x25, 0xbd, 0x0f, 0x77, 0x95, 0xbd,
  0x2f, 0x62, 0xe6, 0xbd, 0x85, 0x51, 0x29, 0xbe, 0xbd, 0x51, 0xdd, 0xbd,
  0xae, 0x6e, 0x1f, 0xbd, 0x34, 0x88, 0x37, 0xbe, 0x1c, 0x15, 0x08, 0xbe,
  0x2d, 0x2d, 0xd3, 0xbd, 0xd8, 0x8a, 0x01, 0xbd, 0x9f, 0xfa, 0x6d, 0xbc,
  0x2a, 0x9c, 0x17, 0xbe, 0x17, 0xda, 0x0e, 0xbe, 0x13, 0xc1, 0xbd, 0xbd,
  0xdf, 0x32, 0x03, 0xbe, 0xe7, 0x27, 0x21, 0xbe, 0x26, 0x52, 0x23, 0xbe,
  0x99, 0xba, 0x72, 0x3d, 0xc1, 0xcd, 0xa9, 0xbc, 0x1b, 0xe3, 0x17, 0xbe,
  0x00, 0x8b, 0x4d, 0xbe, 0x86, 0x52, 0xd5, 0x3c, 0xda, 0xfc, 0x4e, 0xbe,
  0xb9, 0xbf, 0xf9, 0xbd, 0x5c, 0xdc, 0x87, 0xbe, 0xa0, 0x12, 0x13, 0xbd,
  0x5d, 0x8a, 0xdb, 0xbd, 0xfa, 0x5b, 0x23, 0xbe, 0xbc, 0xcd, 0x81, 0xbe,
  0x83, 0x52, 0x17, 0x3d, 0xc9, 0x8b, 0x62, 0xbe, 0xdd, 0xb2, 0xb1, 0xbd,
  0xb2, 0x1c, 0x57, 0xbe, 0xb6, 0x6d, 0x04, 0xbe, 0xf6, 0x04, 0x5c, 0xbe,
  0xc1, 0xa6, 0xdc, 0xbd, 0x33, 0xc7, 0x3d, 0xbe, 0x3f, 0x43, 0x87, 0xbd,
  0x93, 0x27, 0x82, 0xbe, 0x46, 0xc3, 0x43, 0xbe, 0xcd, 0x2b, 0x0c, 0xbe,
  0x4c, 0x0b, 0x20, 0xbd, 0xf0, 0x54, 0x88, 0xbe, 0x64, 0x52, 0xfb, 0xbd,
  0xff, 0x84, 0x59, 0xbe, 0xb7, 0x0d, 0x40, 0x3d, 0x26, 0x5a, 0x03, 0xbe,
  0xf0, 0xd6, 0x4a, 0xbe, 0x0c, 0xae, 0x29, 0xbe, 0xce, 0x3d, 0xfb, 0x3b,
  0xce, 0x47, 0x36, 0xbe, 0x3d, 0x95, 0x30, 0xbe, 0xe3, 0x66, 0xa8, 0xbe,
  0x73, 0x3c, 0xa1, 0x3d, 0xe1, 0x62, 0x91, 0xbe, 0x01, 0x56, 0xfe, 0xbd,
  0xdf, 0x81, 0x84, 0xbe, 0x7b, 0x40, 0xc0, 0x3d, 0x19, 0x0b, 0x70, 0xbe,
  0x62, 0xd7, 0xae, 0xbd, 0x38, 0x8e, 0xd3, 0xbd, 0xb7, 0x15, 0xc7, 0xbc,
  0x84, 0x2e, 0x18, 0xbe, 0xe2, 0x18, 0xb8, 0xbd, 0xf7, 0x44, 0x09, 0xbe,
  0x5b, 0x05, 0x6f, 0xbd, 0xf8, 0x74, 0x9d, 0xbe, 0xe0, 0x00, 0x8d, 0xbe,
  0xc8, 0x24, 0x2e, 0xbe, 0xda, 0x0d, 0x8d, 0xbd, 0x08, 0xb0, 0x04, 0xbe,
  0x7e, 0xe6, 0x0a, 0xbe, 0x4e, 0x59, 0x72, 0xbe, 0x68, 0x5f, 0x73, 0xbc,
  0xae, 0xf7, 0x76, 0xbe, 0xbc, 0xbd, 0x20, 0xbe, 0xc7, 0x87, 0x13, 0xbe,
  0x60, 0x93, 0xda, 0x3c, 0xfe, 0x2e, 0x3e, 0xbe, 0xec, 0x10, 0x4d, 0xbe,
  0x08, 0x41, 0x03, 0xbd, 0xa7, 0x4d, 0xb1, 0xbd, 0x44, 0xfc, 0xe6, 0xbd,
  0xea, 0xd5, 0xac, 0xbd, 0x63, 0x1e, 0xae, 0xbd, 0x41, 0x36, 0x2a, 0xbc,
  0xe7, 0xcd, 0x1f, 0xbe, 0xbc, 0x8a, 0xf5, 0xbd, 0x8e, 0x25, 0x06, 0xbe,
  0xca, 0xa3, 0x01, 0xbe, 0x61, 0x1d, 0x9d, 0xbd, 0x03, 0x91, 0xde, 0xbd,
  0x6d, 0x15, 0x5f, 0xbe, 0x2e, 0x25, 0xc1, 0xbd, 0x47, 0x96, 0x41, 0xbe,
  0x0e, 0x92, 0x0f, 0xbe, 0xee, 0xeb, 0x19, 0xbe, 0x6c, 0xd9, 0x91, 0x3c,
  0xf0, 0x3a, 0x02, 0xbe, 0x72, 0xff, 0x78, 0xbe, 0xb8, 0x1c, 0x42, 0xbe,
  0xb9, 0xe9, 0xe7, 0xbd, 0xa6, 0x2c, 0x5d, 0xbe, 0x21, 0x20, 0x11, 0xbe,
  0xb6, 0xe8, 0x56, 0xbe, 0xdd, 0x6c, 0x56, 0xbd, 0x52, 0xa0, 0x92, 0xbd,
  0x8c, 0x57, 0x19, 0xbe, 0x7d, 0x48, 0xcb, 0xbd, 0xce, 0x2b, 0x11, 0x3c,
  0xaa, 0x59, 0x3b, 0xbe, 0xa2, 0xfd, 0xff, 0xff, 0x04, 0x00, 0x00, 0x00,
  0x10, 0x00, 0x00, 0x00, 0x00, 0x00, 0x00, 0x00, 0x00, 0x00, 0x00, 0x00,
  0x00, 0x00, 0x00, 0x00, 0x00, 0x00, 0x00, 0x00, 0xbe, 0xfd, 0xff, 0xff,
  0x04, 0x00, 0x00, 0x00, 0xa0, 0x00, 0x00, 0x00, 0x56, 0x88, 0xd1, 0xbe,
  0xe0, 0x5a, 0x08, 0xbf, 0x2f, 0xb9, 0xf5, 0xbe, 0x38, 0x26, 0x04, 0xbe,
  0x3c, 0x0a, 0x24, 0xbe, 0xf9, 0xb2, 0xd2, 0xbe, 0x1b, 0x75, 0x1b, 0xbf,
  0x2e, 0x7a, 0xe2, 0xbe, 0xc4, 0x8b, 0x3b, 0xbd, 0x76, 0xb1, 0x00, 0xbd,
  0xa8, 0x5f, 0xaf, 0xbe, 0x6f, 0x79, 0x13, 0x3e, 0xe4, 0x8d, 0x56, 0xbe,
  0x0a, 0x05, 0x20, 0xbe, 0x2a, 0xf0, 0x4a, 0x3d, 0x01, 0x77, 0x05, 0xbf,
  0x12, 0xb2, 0x09, 0xbf, 0xaf, 0xea, 0x53, 0xbe, 0x3a, 0x20, 0x01, 0x3e,
  0x41, 0x82, 0xb5, 0x3e, 0x64, 0x2b, 0xf9, 0xbd, 0x56, 0x94, 0xa6, 0x3e,
  0xc1, 0xbb, 0x02, 0x3e, 0x3d, 0x2b, 0x76, 0xbe, 0x59, 0x02, 0x03, 0xbd,
  0x0c, 0x2f, 0x91, 0x3e, 0xd3, 0x89, 0xd6, 0xbe, 0xf4, 0x96, 0x1c, 0x3e,
  0x74, 0xc8, 0xcd, 0x3e, 0x8b, 0x5d, 0xb2, 0xbd, 0x89, 0xce, 0xe0, 0x3e,
  0xee, 0xc5, 0xa5, 0x3e, 0x1b, 0x17, 0x8b, 0x3e, 0xab, 0x34, 0x72, 0x3e,
  0x04, 0x15, 0x22, 0x3f, 0x20, 0xd5, 0x4c, 0x3d, 0xdb, 0xe7, 0x84, 0xbe,
  0xb0, 0x2c, 0xf0, 0x3e, 0xf3, 0x0e, 0x76, 0x3e, 0xb1, 0x0c, 0xd9, 0x3d,
  0x6a, 0xfe, 0xff, 0xff, 0x04, 0x00, 0x00, 0x00, 0x40, 0x01, 0x00, 0x00,
  0xbf, 0x06, 0x1e, 0xbe, 0x71, 0x25, 0xae, 0xbe, 0xbb, 0xd6, 0x01, 0x3f,
  0xd8, 0xa3, 0x36, 0x3e, 0x2c, 0xe0, 0x9c, 0xbe, 0xd1, 0xe5, 0xd4, 0xbe,
  0xd7, 0xec, 0xb8, 0x3e, 0x47, 0x56, 0x7a, 0x3e, 0xfe, 0x0d, 0x09, 0xbf,
  0xf8, 0x19, 0x04, 0x3e, 0x9d, 0xcd, 0x86, 0x3d, 0x33, 0xb5, 0xfd, 0xbd,
  0xe5, 0xe6, 0xca, 0xbe, 0x4d, 0xc3, 0x32, 0x3d, 0x73, 0x5c, 0x81, 0x3e,
  0xe2, 0x67, 0xe4, 0x3e, 0xbf, 0x20, 0x9f, 0xbd, 0x17, 0xbe, 0x16, 0xbf,
  0xc8, 0xa9, 0x21, 0x3f, 0xa3, 0xe7, 0x73, 0x3e, 0x2d, 0x1a, 0x68, 0x3e,
  0xea, 0x25, 0x46, 0x3e, 0x36, 0x0f, 0x3f, 0x3e, 0x26, 0x3a, 0xb6, 0xbd,
  0xeb, 0xac, 0xdd, 0xbc, 0x71, 0xb1, 0x2c, 0xbe, 0x8a, 0x1e, 0x4c, 0xbd,
  0xfa, 0x7f, 0xac, 0x3e, 0xe9, 0x5a, 0x8c, 0xbe, 0x18, 0x88, 0xbb, 0xbe,
  0x92, 0xd8, 0xd3, 0x3e, 0x6c, 0x12, 0x0c, 0xbe, 0x56, 0x41, 0xcb, 0xbe,
  0x42, 0x02, 0x05, 0xbf, 0xc2, 0x2b, 0x35, 0x3f, 0x69, 0x7b, 0xd0, 0x3e,
  0x0b, 0x1a, 0x1a, 0xbf, 0x4b, 0x33, 0xbd, 0xbe, 0x8f, 0x0e, 0x45, 0x3e,
  0x3d, 0xe0, 0x04, 0x3f, 0x22, 0xd7, 0x6e, 0x3d, 0xf5, 0xd7, 0x0f, 0x3e,
  0xe4, 0x35, 0x91, 0xbe, 0x8d, 0xe0, 0xb6, 0x3e, 0x0d, 0x1f, 0x95, 0x3b,
  0xad, 0x58, 0xb4, 0xbc, 0x08, 0x41, 0x94, 0x3d, 0x18, 0xce, 0x47, 0x3e,
  0x51, 0xe8, 0x64, 0xbd, 0x60, 0x98, 0xfd, 0x3e, 0x17, 0x3d, 0xaf, 0xbd,
  0x87, 0x51, 0x71, 0x3e, 0x80, 0x1c, 0xd7, 0x3e, 0x23, 0x0d, 0xa4, 0xbb,
  0x8d, 0x19, 0xc2, 0xbe, 0x77, 0x07, 0x9d, 0xbe, 0xc9, 0x1e, 0x82, 0x3e,
  0x24, 0x7a, 0x18, 0x3e, 0xb7, 0xdd, 0x84, 0xbe, 0x23, 0x66, 0x00, 0xbe,
  0x42, 0xa7, 0xea, 0xbe, 0x4d, 0x7b, 0xde, 0xbe, 0xc9, 0x7c, 0xc7, 0x3e,
  0x57, 0xc1, 0xb0, 0x3d, 0x04, 0xbb, 0x11, 0xbf, 0x98, 0xf1, 0x4b, 0xbd,
  0x0d, 0x91, 0x1c, 0x3f, 0x3c, 0xf6, 0x6d, 0x3c, 0x61, 0xb8, 0x90, 0xbd,
  0x79, 0xc3, 0xd5, 0xbd, 0xd9, 0x02, 0x46, 0xbd, 0x6a, 0x5b, 0xc2, 0x3e,
  0x26, 0xed, 0x70, 0xbd, 0x40, 0x5b, 0xd7, 0xbe, 0x3c, 0x4e, 0x06, 0x3f,
  0xfb, 0x49, 0x99, 0x3e, 0x97, 0x1c, 0x86, 0xbd, 0xfe, 0x2e, 0x9a, 0x3d,
  0x0f, 0xc8, 0xb2, 0x3e, 0xe1, 0xf2, 0x73, 0x3d, 0xb6, 0xff, 0xff, 0xff,
  0x04, 0x00, 0x00, 0x00, 0x0c, 0x00, 0x00, 0x00, 0xff, 0xff, 0xff, 0xff,
  0x20, 0x03, 0x00, 0x00, 0x01, 0x00, 0x00, 0x00, 0xce, 0xff, 0xff, 0xff,
  0x04, 0x00, 0x00, 0x00, 0x0c, 0x00, 0x00, 0x00, 0xff, 0xff, 0xff, 0xff,
  0x17, 0x03, 0x00, 0x00, 0x04, 0x00, 0x00, 0x00, 0xe6, 0xff, 0xff, 0xff,
  0x04, 0x00, 0x00, 0x00, 0x0c, 0x00, 0x00, 0x00, 0xff, 0xff, 0xff, 0xff,
  0x9e, 0x00, 0x00, 0x00, 0x04, 0x00, 0x00, 0x00, 0x00, 0x00, 0x06, 0x00,
  0x08, 0x00, 0x04, 0x00, 0x06, 0x00, 0x00, 0x00, 0x04, 0x00, 0x00, 0x00,
  0x0c, 0x00, 0x00, 0x00, 0xff, 0xff, 0xff, 0xff, 0x9a, 0x00, 0x00, 0x00,
  0x04, 0x00, 0x00, 0x00, 0x20, 0xef, 0xff, 0xff, 0x24, 0xef, 0xff, 0xff,
  0x0f, 0x00, 0x00, 0x00, 0x4d, 0x4c, 0x49, 0x52, 0x20, 0x43, 0x6f, 0x6e,
  0x76, 0x65, 0x72, 0x74, 0x65, 0x64, 0x2e, 0x00, 0x01, 0x00, 0x00, 0x00,
  0x14, 0x00, 0x00, 0x00, 0x00, 0x00, 0x0e, 0x00, 0x18, 0x00, 0x14, 0x00,
  0x10, 0x00, 0x0c, 0x00, 0x08, 0x00, 0x04, 0x00, 0x0e, 0x00, 0x00, 0x00,
  0x14, 0x00, 0x00, 0x00, 0x1c, 0x00, 0x00, 0x00, 0xd0, 0x03, 0x00, 0x00,
  0xd4, 0x03, 0x00, 0x00, 0xd8, 0x03, 0x00, 0x00, 0x04, 0x00, 0x00, 0x00,
  0x6d, 0x61, 0x69, 0x6e, 0x00, 0x00, 0x00, 0x00, 0x11, 0x00, 0x00, 0x00,
  0x88, 0x03, 0x00, 0x00, 0x24, 0x03, 0x00, 0x00, 0xec, 0x02, 0x00, 0x00,
  0xb0, 0x02, 0x00, 0x00, 0x60, 0x02, 0x00, 0x00, 0x38, 0x02, 0x00, 0x00,
  0xf8, 0x01, 0x00, 0x00, 0xc8, 0x01, 0x00, 0x00, 0x84, 0x01, 0x00, 0x00,
  0x5c, 0x01, 0x00, 0x00, 0x2c, 0x01, 0x00, 0x00, 0xe8, 0x00, 0x00, 0x00,
  0xc0, 0x00, 0x00, 0x00, 0x88, 0x00, 0x00, 0x00, 0x60, 0x00, 0x00, 0x00,
  0x28, 0x00, 0x00, 0x00, 0x04, 0x00, 0x00, 0x00, 0x5a, 0xfd, 0xff, 0xff,
  0x0c, 0x00, 0x00, 0x00, 0x10, 0x00, 0x00, 0x00, 0x06, 0x00, 0x00, 0x00,
  0x01, 0x00, 0x00, 0x00, 0x1f, 0x00, 0x00, 0x00, 0x01, 0x00, 0x00, 0x00,
  0x1e, 0x00, 0x00, 0x00, 0x4a, 0xfd, 0xff, 0xff, 0x14, 0x00, 0x00, 0x00,
  0x00, 0x00, 0x00, 0x08, 0x10, 0x00, 0x00, 0x00, 0x14, 0x00, 0x00, 0x00,
  0x05, 0x00, 0x00, 0x00, 0xf8, 0xef, 0xff, 0xff, 0x01, 0x00, 0x00, 0x00,
  0x1e, 0x00, 0x00, 0x00, 0x03, 0x00, 0x00, 0x00, 0x1d, 0x00, 0x00, 0x00,
  0x08, 0x00, 0x00, 0x00, 0x0b, 0x00, 0x00, 0x00, 0xae, 0xfd, 0xff, 0xff,
  0x0c, 0x00, 0x00, 0x00, 0x10, 0x00, 0x00, 0x00, 0x02, 0x00, 0x00, 0x00,
  0x01, 0x00, 0x00, 0x00, 0x1d, 0x00, 0x00, 0x00, 0x02, 0x00, 0x00, 0x00,
  0x1c, 0x00, 0x00, 0x00, 0x0d, 0x00, 0x00, 0x00, 0xa2, 0xfd, 0xff, 0xff,
  0x14, 0x00, 0x00, 0x00, 0x00, 0x00, 0x00, 0x0b, 0x14, 0x00, 0x00, 0x00,
  0x18, 0x00, 0x00, 0x00, 0x04, 0x00, 0x00, 0x00, 0xaa, 0xfe, 0xff, 0xff,
  0x00, 0x00, 0x00, 0x01, 0x01, 0x00, 0x00, 0x00, 0x1c, 0x00, 0x00, 0x00,
  0x02, 0x00, 0x00, 0x00, 0x1b, 0x00, 0x00, 0x00, 0x09, 0x00, 0x00, 0x00,
  0x06, 0xfe, 0xff, 0xff, 0x0c, 0x00, 0x00, 0x00, 0x10, 0x00, 0x00, 0x00,
  0x02, 0x00, 0x00, 0x00, 0x01, 0x00, 0x00, 0x00, 0x1b, 0x00, 0x00, 0x00,
  0x02, 0x00, 0x00, 0x00, 0x1a, 0x00, 0x00, 0x00, 0x01, 0x00, 0x00, 0x00,
  0xfa, 0xfd, 0xff, 0xff, 0x14, 0x00, 0x00, 0x00, 0x00, 0x00, 0x00, 0x01,
  0x1c, 0x00, 0x00, 0x00, 0x20, 0x00, 0x00, 0x00, 0x03, 0x00, 0x00, 0x00,
  0xa2, 0xfe, 0xff, 0xff, 0x01, 0x00, 0x00, 0x00, 0x01, 0x00, 0x00, 0x00,
  0x00, 0x00, 0x00, 0x01, 0x01, 0x00, 0x00, 0x00, 0x1a, 0x00, 0x00, 0x00,
  0x03, 0x00, 0x00, 0x00, 0x19, 0x00, 0x00, 0x00, 0x05, 0x00, 0x00, 0x00,
  0x07, 0x00, 0x00, 0x00, 0xda, 0xfd, 0xff, 0xff, 0x10, 0x00, 0x00, 0x00,
  0x00, 0x00, 0x00, 0x34, 0x0c, 0x00, 0x00, 0x00, 0x10, 0x00, 0x00, 0x00,
  0xe4, 0xf0, 0xff, 0xff, 0x01, 0x00, 0x00, 0x00, 0x19, 0x00, 0x00, 0x00,
  0x02, 0x00, 0x00, 0x00, 0x18, 0x00, 0x00, 0x00, 0x0c, 0x00, 0x00, 0x00,
  0x96, 0xfe, 0xff, 0xff, 0x0c, 0x00, 0x00, 0x00, 0x10, 0x00, 0x00, 0x00,
  0x02, 0x00, 0x00, 0x00, 0x01, 0x00, 0x00, 0x00, 0x18, 0x00, 0x00, 0x00,
  0x02, 0x00, 0x00, 0x00, 0x17, 0x00, 0x00, 0x00, 0x02, 0x00, 0x00, 0x00,
  0x8a, 0xfe, 0xff, 0xff, 0x14, 0x00, 0x00, 0x00, 0x00, 0x00, 0x00, 0x05,
  0x24, 0x00, 0x00, 0x00, 0x28, 0x00, 0x00, 0x00, 0x01, 0x00, 0x00, 0x00,
  0x7a, 0xfe, 0xff, 0xff, 0x01, 0x00, 0x00, 0x00, 0x05, 0x00, 0x00, 0x00,
  0x01, 0x00, 0x00, 0x00, 0x05, 0x00, 0x00, 0x00, 0x00, 0x00, 0x00, 0x01,
  0x01, 0x00, 0x00, 0x00, 0x17, 0x00, 0x00, 0x00, 0x01, 0x00, 0x00, 0x00,
  0x16, 0x00, 0x00, 0x00, 0x6a, 0xfe, 0xff, 0xff, 0x10, 0x00, 0x00, 0x00,
  0x00, 0x00, 0x00, 0x34, 0x0c, 0x00, 0x00, 0x00, 0x10, 0x00, 0x00, 0x00,
  0x74, 0xf1, 0xff, 0xff, 0x01, 0x00, 0x00, 0x00, 0x16, 0x00, 0x00, 0x00,
  0x02, 0x00, 0x00, 0x00, 0x15, 0x00, 0x00, 0x00, 0x0e, 0x00, 0x00, 0x00,
  0xf6, 0xfe, 0xff, 0xff, 0x1c, 0x00, 0x00, 0x00, 0x00, 0x00, 0x00, 0x0b,
  0x1c, 0x00, 0x00, 0x00, 0x20, 0x00, 0x00, 0x00, 0x04, 0x00, 0x00, 0x00,
  0x00, 0x00, 0x06, 0x00, 0x08, 0x00, 0x07, 0x00, 0x06, 0x00, 0x00, 0x00,
  0x00, 0x00, 0x00, 0x01, 0x01, 0x00, 0x00, 0x00, 0x15, 0x00, 0x00, 0x00,
  0x02, 0x00, 0x00, 0x00, 0x14, 0x00, 0x00, 0x00, 0x0a, 0x00, 0x00, 0x00,
  0x62, 0xff, 0xff, 0xff, 0x0c, 0x00, 0x00, 0x00, 0x10, 0x00, 0x00, 0x00,
  0x02, 0x00, 0x00, 0x00, 0x01, 0x00, 0x00, 0x00, 0x14, 0x00, 0x00, 0x00,
  0x02, 0x00, 0x00, 0x00, 0x13, 0x00, 0x00, 0x00, 0x03, 0x00, 0x00, 0x00,
  0x56, 0xff, 0xff, 0xff, 0x20, 0x00, 0x00, 0x00, 0x00, 0x00, 0x00, 0x01,
  0x28, 0x00, 0x00, 0x00, 0x2c, 0x00, 0x00, 0x00, 0x03, 0x00, 0x00, 0x00,
  0x00, 0x00, 0x0a, 0x00, 0x10, 0x00, 0x0f, 0x00, 0x08, 0x00, 0x04, 0x00,
  0x0a, 0x00, 0x00, 0x00, 0x01, 0x00, 0x00, 0x00, 0x01, 0x00, 0x00, 0x00,
  0x00, 0x00, 0x00, 0x01, 0x01, 0x00, 0x00, 0x00, 0x13, 0x00, 0x00, 0x00,
  0x03, 0x00, 0x00, 0x00, 0x12, 0x00, 0x00, 0x00, 0x06, 0x00, 0x00, 0x00,
  0x07, 0x00, 0x00, 0x00, 0x42, 0xff, 0xff, 0xff, 0x10, 0x00, 0x00, 0x00,
  0x00, 0x00, 0x00, 0x34, 0x0c, 0x00, 0x00, 0x00, 0x10, 0x00, 0x00, 0x00,
  0x4c, 0xf2, 0xff, 0xff, 0x01, 0x00, 0x00, 0x00, 0x12, 0x00, 0x00, 0x00,
  0x02, 0x00, 0x00, 0x00, 0x11, 0x00, 0x00, 0x00, 0x0c, 0x00, 0x00, 0x00,
  0x00, 0x00, 0x0a, 0x00, 0x10, 0x00, 0x0c, 0x00, 0x08, 0x00, 0x04, 0x00,
  0x0a, 0x00, 0x00, 0x00, 0x0c, 0x00, 0x00, 0x00, 0x10, 0x00, 0x00, 0x00,
  0x02, 0x00, 0x00, 0x00, 0x01, 0x00, 0x00, 0x00, 0x11, 0x00, 0x00, 0x00,
  0x02, 0x00, 0x00, 0x00, 0x10, 0x00, 0x00, 0x00, 0x04, 0x00, 0x00, 0x00,
  0x00, 0x00, 0x0e, 0x00, 0x1a, 0x00, 0x14, 0x00, 0x10, 0x00, 0x0c, 0x00,
  0x0b, 0x00, 0x04, 0x00, 0x0e, 0x00, 0x00, 0x00, 0x24, 0x00, 0x00, 0x00,
  0x00, 0x00, 0x00, 0x05, 0x34, 0x00, 0x00, 0x00, 0x38, 0x00, 0x00, 0x00,
  0x01, 0x00, 0x00, 0x00, 0x00, 0x00, 0x0e, 0x00, 0x18, 0x00, 0x17, 0x00,
  0x10, 0x00, 0x0c, 0x00, 0x08, 0x00, 0x04, 0x00, 0x0e, 0x00, 0x00, 0x00,
  0x01, 0x00, 0x00, 0x00, 0x0a, 0x00, 0x00, 0x00, 0x01, 0x00, 0x00, 0x00,
  0x0a, 0x00, 0x00, 0x00, 0x00, 0x00, 0x00, 0x01, 0x01, 0x00, 0x00, 0x00,
  0x10, 0x00, 0x00, 0x00, 0x01, 0x00, 0x00, 0x00, 0x0f, 0x00, 0x00, 0x00,
  0x00, 0x00, 0x0e, 0x00, 0x14, 0x00, 0x00, 0x00, 0x10, 0x00, 0x0c, 0x00,
  0x0b, 0x00, 0x04, 0x00, 0x0e, 0x00, 0x00, 0x00, 0x10, 0x00, 0x00, 0x00,
  0x00, 0x00, 0x00, 0x34, 0x0c, 0x00, 0x00, 0x00, 0x10, 0x00, 0x00, 0x00,
  0x18, 0xf3, 0xff, 0xff, 0x01, 0x00, 0x00, 0x00, 0x0f, 0x00, 0x00, 0x00,
  0x02, 0x00, 0x00, 0x00, 0x00, 0x00, 0x00, 0x00, 0x0e, 0x00, 0x00, 0x00,
  0x01, 0x00, 0x00, 0x00, 0x1f, 0x00, 0x00, 0x00, 0x01, 0x00, 0x00, 0x00,
  0x00, 0x00, 0x00, 0x00, 0x20, 0x00, 0x00, 0x00, 0x1c, 0x0c, 0x00, 0x00,
  0xc4, 0x0b, 0x00, 0x00, 0x6c, 0x0b, 0x00, 0x00, 0x2c, 0x0b, 0x00, 0x00,
  0xec, 0x0a, 0x00, 0x00, 0xa4, 0x0a, 0x00, 0x00, 0x44, 0x0a, 0x00, 0x00,
  0x08, 0x0a, 0x00, 0x00, 0xc8, 0x09, 0x00, 0x00, 0x84, 0x09, 0x00, 0x00,
  0x40, 0x09, 0x00, 0x00, 0x00, 0x09, 0x00, 0x00, 0xc0, 0x08, 0x00, 0x00,
  0x7c, 0x08, 0x00, 0x00, 0x3c, 0x08, 0x00, 0x00, 0xb4, 0x07, 0x00, 0x00,
  0x38, 0x07, 0x00, 0x00, 0xbc, 0x06, 0x00, 0x00, 0x38, 0x06, 0x00, 0x00,
  0xc0, 0x05, 0x00, 0x00, 0x48, 0x05, 0x00, 0x00, 0xc0, 0x04, 0x00, 0x00,
  0x38, 0x04, 0x00, 0x00, 0xbc, 0x03, 0x00, 0x00, 0x40, 0x03, 0x00, 0x00,
  0xbc, 0x02, 0x00, 0x00, 0x44, 0x02, 0x00, 0x00, 0xcc, 0x01, 0x00, 0x00,
  0x44, 0x01, 0x00, 0x00, 0xe0, 0x00, 0x00, 0x00, 0x60, 0x00, 0x00, 0x00,
  0x04, 0x00, 0x00, 0x00, 0x7a, 0xf4, 0xff, 0xff, 0x00, 0x00, 0x00, 0x01,
  0x14, 0x00, 0x00, 0x00, 0x1c, 0x00, 0x00, 0x00, 0x1c, 0x00, 0x00, 0x00,
  0x20, 0x00, 0x00, 0x00, 0x34, 0x00, 0x00, 0x00, 0x02, 0x00, 0x00, 0x00,
  0xff, 0xff, 0xff, 0xff, 0x01, 0x00, 0x00, 0x00, 0xec, 0xf3, 0xff, 0xff,
  0x1b, 0x00, 0x00, 0x00, 0x53, 0x74, 0x61, 0x74, 0x65, 0x66, 0x75, 0x6c,
  0x50, 0x61, 0x72, 0x74, 0x69, 0x74, 0x69, 0x6f, 0x6e, 0x65, 0x64, 0x43,
  0x61, 0x6c, 0x6c, 0x5f, 0x31, 0x3a, 0x30, 0x00, 0x02, 0x00, 0x00, 0x00,
  0x01, 0x00, 0x00, 0x00, 0x01, 0x00, 0x00, 0x00, 0xd2, 0xf4, 0xff, 0xff,
  0x00, 0x00, 0x00, 0x01, 0x14, 0x00, 0x00, 0x00, 0x1c, 0x00, 0x00, 0x00,
  0x1c, 0x00, 0x00, 0x00, 0x1f, 0x00, 0x00, 0x00, 0x58, 0x00, 0x00, 0x00,
  0x02, 0x00, 0x00, 0x00, 0xff, 0xff, 0xff, 0xff, 0x01, 0x00, 0x00, 0x00,
  0x44, 0xf4, 0xff, 0xff, 0x3c, 0x00, 0x00, 0x00, 0x73, 0x65, 0x71, 0x75,
  0x65, 0x6e, 0x74, 0x69, 0x61, 0x6c, 0x5f, 0x38, 0x5f, 0x31, 0x2f, 0x64,
  0x65, 0x6e, 0x73, 0x65, 0x5f, 0x38, 0x5f, 0x31, 0x2f, 0x4d, 0x61, 0x74,
  0x4d, 0x75, 0x6c, 0x3b, 0x73, 0x65, 0x71, 0x75, 0x65, 0x6e, 0x74, 0x69,
  0x61, 0x6c, 0x5f, 0x38, 0x5f, 0x31, 0x2f, 0x64, 0x65, 0x6e, 0x73, 0x65,
  0x5f, 0x38, 0x5f, 0x31, 0x2f, 0x41, 0x64, 0x64, 0x00, 0x00, 0x00, 0x00,
  0x02, 0x00, 0x00, 0x00, 0x01, 0x00, 0x00, 0x00, 0x01, 0x00, 0x00, 0x00,
  0x4e, 0xf5, 0xff, 0xff, 0x00, 0x00, 0x00, 0x01, 0x14, 0x00, 0x00, 0x00,
  0x1c, 0x00, 0x00, 0x00, 0x1c, 0x00, 0x00, 0x00, 0x1e, 0x00, 0x00, 0x00,
  0x3c, 0x00, 0x00, 0x00, 0x02, 0x00, 0x00, 0x00, 0xff, 0xff, 0xff, 0xff,
  0x68, 0x02, 0x00, 0x00, 0xc0, 0xf4, 0xff, 0xff, 0x22, 0x00, 0x00, 0x00,
  0x73, 0x65, 0x71, 0x75, 0x65, 0x6e, 0x74, 0x69, 0x61, 0x6c, 0x5f, 0x38,
  0x5f, 0x31, 0x2f, 0x66, 0x6c, 0x61, 0x74, 0x74, 0x65, 0x6e, 0x5f, 0x38,
  0x5f, 0x31, 0x2f, 0x52, 0x65, 0x73, 0x68, 0x61, 0x70, 0x65, 0x00, 0x00,
  0x02, 0x00, 0x00, 0x00, 0x01, 0x00, 0x00, 0x00, 0x68, 0x02, 0x00, 0x00,
  0xae, 0xf5, 0xff, 0xff, 0x00, 0x00, 0x00, 0x01, 0x14, 0x00, 0x00, 0x00,
  0x20, 0x00, 0x00, 0x00, 0x20, 0x00, 0x00, 0x00, 0x1d, 0x00, 0x00, 0x00,
  0x5c, 0x00, 0x00, 0x00, 0x03, 0x00, 0x00, 0x00, 0xff, 0xff, 0xff, 0xff,
  0x9a, 0x00, 0x00, 0x00, 0x04, 0x00, 0x00, 0x00, 0x24, 0xf5, 0xff, 0xff,
  0x3e, 0x00, 0x00, 0x00, 0x73, 0x65, 0x71, 0x75, 0x65, 0x6e, 0x74, 0x69,
  0x61, 0x6c, 0x5f, 0x38, 0x5f, 0x31, 0x2f, 0x63, 0x6f, 0x6e, 0x76, 0x31,
  0x64, 0x5f, 0x31, 0x37, 0x5f, 0x31, 0x2f, 0x52, 0x65, 0x6c, 0x75, 0x3b,
  0x73, 0x65, 0x71, 0x75, 0x65, 0x6e, 0x74, 0x69, 0x61, 0x6c, 0x5f, 0x38,
  0x5f, 0x31, 0x2f, 0x63, 0x6f, 0x6e, 0x76, 0x31, 0x64, 0x5f, 0x31, 0x37,
  0x5f, 0x31, 0x2f, 0x61, 0x64, 0x64, 0x00, 0x00, 0x03, 0x00, 0x00, 0x00,
  0x01, 0x00, 0x00, 0x00, 0x9a, 0x00, 0x00, 0x00, 0x04, 0x00, 0x00, 0x00,
  0x32, 0xf6, 0xff, 0xff, 0x00, 0x00, 0x00, 0x01, 0x14, 0x00, 0x00, 0x00,
  0x20, 0x00, 0x00, 0x00, 0x20, 0x00, 0x00, 0x00, 0x1c, 0x00, 0x00, 0x00,
  0x4c, 0x00, 0x00, 0x00, 0x03, 0x00, 0x00, 0x00, 0xff, 0xff, 0xff, 0xff,
  0x9a, 0x00, 0x00, 0x00, 0x04, 0x00, 0x00, 0x00, 0xa8, 0xf5, 0xff, 0xff,
  0x2e, 0x00, 0x00, 0x00, 0x73, 0x65, 0x71, 0x75, 0x65, 0x6e, 0x74, 0x69,
  0x61, 0x6c, 0x5f, 0x38, 0x5f, 0x31, 0x2f, 0x63, 0x6f, 0x6e, 0x76, 0x31,
  0x64, 0x5f, 0x31, 0x37, 0x5f, 0x31, 0x2f, 0x63, 0x6f, 0x6e, 0x76, 0x6f,
  0x6c, 0x75, 0x74, 0x69, 0x6f, 0x6e, 0x2f, 0x53, 0x71, 0x75, 0x65, 0x65,
  0x7a, 0x65, 0x00, 0x00, 0x03, 0x00, 0x00, 0x00, 0x01, 0x00, 0x00, 0x00,
  0x9a, 0x00, 0x00, 0x00, 0x04, 0x00, 0x00, 0x00, 0xa6, 0xf6, 0xff, 0xff,
  0x00, 0x00, 0x00, 0x01, 0x14, 0x00, 0x00, 0x00, 0x24, 0x00, 0x00, 0x00,
  0x24, 0x00, 0x00, 0x00, 0x1b, 0x00, 0x00, 0x00, 0x48, 0x00, 0x00, 0x00,
  0x04, 0x00, 0x00, 0x00, 0xff, 0xff, 0xff, 0xff, 0x01, 0x00, 0x00, 0x00,
  0x9a, 0x00, 0x00, 0x00, 0x04, 0x00, 0x00, 0x00, 0x20, 0xf6, 0xff, 0xff,
  0x26, 0x00, 0x00, 0x00, 0x73, 0x65, 0x71, 0x75, 0x65, 0x6e, 0x74, 0x69,
  0x61, 0x6c, 0x5f, 0x38, 0x5f, 0x31, 0x2f, 0x63, 0x6f, 0x6e, 0x76, 0x31,
  0x64, 0x5f, 0x31, 0x37, 0x5f, 0x31, 0x2f, 0x63, 0x6f, 0x6e, 0x76, 0x6f,
  0x6c, 0x75, 0x74, 0x69, 0x6f, 0x6e, 0x00, 0x00, 0x04, 0x00, 0x00, 0x00,
  0x01, 0x00, 0x00, 0x00, 0x01, 0x00, 0x00, 0x00, 0x9a, 0x00, 0x00, 0x00,
  0x04, 0x00, 0x00, 0x00, 0x1a, 0xf7, 0xff, 0xff, 0x00, 0x00, 0x00, 0x01,
  0x14, 0x00, 0x00, 0x00, 0x24, 0x00, 0x00, 0x00, 0x24, 0x00, 0x00, 0x00,
  0x1a, 0x00, 0x00, 0x00, 0x54, 0x00, 0x00, 0x00, 0x04, 0x00, 0x00, 0x00,
  0xff, 0xff, 0xff, 0xff, 0x01, 0x00, 0x00, 0x00, 0x9e, 0x00, 0x00, 0x00,
  0x04, 0x00, 0x00, 0x00, 0x94, 0xf6, 0xff, 0xff, 0x31, 0x00, 0x00, 0x00,
  0x73, 0x65, 0x71, 0x75, 0x65, 0x6e, 0x74, 0x69, 0x61, 0x6c, 0x5f, 0x38,
  0x5f, 0x31, 0x2f, 0x63, 0x6f, 0x6e, 0x76, 0x31, 0x64, 0x5f, 0x31, 0x37,
  0x5f, 0x31, 0x2f, 0x63, 0x6f, 0x6e, 0x76, 0x6f, 0x6c, 0x75, 0x74, 0x69,
  0x6f, 0x6e, 0x2f, 0x45, 0x78, 0x70, 0x61, 0x6e, 0x64, 0x44, 0x69, 0x6d,
  0x73, 0x00, 0x00, 0x00, 0x04, 0x00, 0x00, 0x00, 0x01, 0x00, 0x00, 0x00,
  0x01, 0x00, 0x00, 0x00, 0x9e, 0x00, 0x00, 0x00, 0x04, 0x00, 0x00, 0x00,
  0x9a, 0xf7, 0xff, 0xff, 0x00, 0x00, 0x00, 0x01, 0x14, 0x00, 0x00, 0x00,
  0x20, 0x00, 0x00, 0x00, 0x20, 0x00, 0x00, 0x00, 0x19, 0x00, 0x00, 0x00,
  0x50, 0x00, 0x00, 0x00, 0x03, 0x00, 0x00, 0x00, 0xff, 0xff, 0xff, 0xff,
  0x9e, 0x00, 0x00, 0x00, 0x04, 0x00, 0x00, 0x00, 0x10, 0xf7, 0xff, 0xff,
  0x33, 0x00, 0x00, 0x00, 0x73, 0x65, 0x71, 0x75, 0x65, 0x6e, 0x74, 0x69,
  0x61, 0x6c, 0x5f, 0x38, 0x5f, 0x31, 0x2f, 0x6d, 0x61, 0x78, 0x5f, 0x70,
  0x6f, 0x6f, 0x6c, 0x69, 0x6e, 0x67, 0x31, 0x64, 0x5f, 0x31, 0x37, 0x5f,
  0x31, 0x2f, 0x4d, 0x61, 0x78, 0x50, 0x6f, 0x6f, 0x6c, 0x31, 0x64, 0x2f,
  0x53, 0x71, 0x75, 0x65, 0x65, 0x7a, 0x65, 0x00, 0x03, 0x00, 0x00, 0x00,
  0x01, 0x00, 0x00, 0x00, 0x9e, 0x00, 0x00, 0x00, 0x04, 0x00, 0x00, 0x00,
  0x12, 0xf8, 0xff, 0xff, 0x00, 0x00, 0x00, 0x01, 0x14, 0x00, 0x00, 0x00,
  0x24, 0x00, 0x00, 0x00, 0x24, 0x00, 0x00, 0x00, 0x18, 0x00, 0x00, 0x00,
  0x4c, 0x00, 0x00, 0x00, 0x04, 0x00, 0x00, 0x00, 0xff, 0xff, 0xff, 0xff,
  0x01, 0x00, 0x00, 0x00, 0x9e, 0x00, 0x00, 0x00, 0x04, 0x00, 0x00, 0x00,
  0x8c, 0xf7, 0xff, 0xff, 0x2b, 0x00, 0x00, 0x00, 0x73, 0x65, 0x71, 0x75,
  0x65, 0x6e, 0x74, 0x69, 0x61, 0x6c, 0x5f, 0x38, 0x5f, 0x31, 0x2f, 0x6d,
  0x61, 0x78, 0x5f, 0x70, 0x6f, 0x6f, 0x6c, 0x69, 0x6e, 0x67, 0x31, 0x64,
  0x5f, 0x31, 0x37, 0x5f, 0x31, 0x2f, 0x4d, 0x61, 0x78, 0x50, 0x6f, 0x6f,
  0x6c, 0x31, 0x64, 0x00, 0x04, 0x00, 0x00, 0x00, 0x01, 0x00, 0x00, 0x00,
  0x01, 0x00, 0x00, 0x00, 0x9e, 0x00, 0x00, 0x00, 0x04, 0x00, 0x00, 0x00,
  0x8a, 0xf8, 0xff, 0xff, 0x00, 0x00, 0x00, 0x01, 0x14, 0x00, 0x00, 0x00,
  0x24, 0x00, 0x00, 0x00, 0x24, 0x00, 0x00, 0x00, 0x17, 0x00, 0x00, 0x00,
  0x58, 0x00, 0x00, 0x00, 0x04, 0x00, 0x00, 0x00, 0xff, 0xff, 0xff, 0xff,
  0x01, 0x00, 0x00, 0x00, 0x17, 0x03, 0x00, 0x00, 0x04, 0x00, 0x00, 0x00,
  0x04, 0xf8, 0xff, 0xff, 0x36, 0x00, 0x00, 0x00, 0x73, 0x65, 0x71, 0x75,
  0x65, 0x6e, 0x74, 0x69, 0x61, 0x6c, 0x5f, 0x38, 0x5f, 0x31, 0x2f, 0x6d,
  0x61, 0x78, 0x5f, 0x70, 0x6f, 0x6f, 0x6c, 0x69, 0x6e, 0x67, 0x31, 0x64,
  0x5f, 0x31, 0x37, 0x5f, 0x31, 0x2f, 0x4d, 0x61, 0x78, 0x50, 0x6f, 0x6f,
  0x6c, 0x31, 0x64, 0x2f, 0x45, 0x78, 0x70, 0x61, 0x6e, 0x64, 0x44, 0x69,
  0x6d, 0x73, 0x00, 0x00, 0x04, 0x00, 0x00, 0x00, 0x01, 0x00, 0x00, 0x00,
  0x01, 0x00, 0x00, 0x00, 0x17, 0x03, 0x00, 0x00, 0x04, 0x00, 0x00, 0x00,
  0x0e, 0xf9, 0xff, 0xff, 0x00, 0x00, 0x00, 0x01, 0x14, 0x00, 0x00, 0x00,
  0x20, 0x00, 0x00, 0x00, 0x20, 0x00, 0x00, 0x00, 0x16, 0x00, 0x00, 0x00,
  0x5c, 0x00, 0x00, 0x00, 0x03, 0x00, 0x00, 0x00, 0xff, 0xff, 0xff, 0xff,
  0x17, 0x03, 0x00, 0x00, 0x04, 0x00, 0x00, 0x00, 0x84, 0xf8, 0xff, 0xff,
  0x3e, 0x00, 0x00, 0x00, 0x73, 0x65, 0x71, 0x75, 0x65, 0x6e, 0x74, 0x69,
  0x61, 0x6c, 0x5f, 0x38, 0x5f, 0x31, 0x2f, 0x63, 0x6f, 0x6e, 0x76, 0x31,
  0x64, 0x5f, 0x31, 0x36, 0x5f, 0x31, 0x2f, 0x52, 0x65, 0x6c, 0x75, 0x3b,
  0x73, 0x65, 0x71, 0x75, 0x65, 0x6e, 0x74, 0x69, 0x61, 0x6c, 0x5f, 0x38,
  0x5f, 0x31, 0x2f, 0x63, 0x6f, 0x6e, 0x76, 0x31, 0x64, 0x5f, 0x31, 0x36,
  0x5f, 0x31, 0x2f, 0x61, 0x64, 0x64, 0x00, 0x00, 0x03, 0x00, 0x00, 0x00,
  0x01, 0x00, 0x00, 0x00, 0x17, 0x03, 0x00, 0x00, 0x04, 0x00, 0x00, 0x00,
  0x92, 0xf9, 0xff, 0xff, 0x00, 0x00, 0x00, 0x01, 0x14, 0x00, 0x00, 0x00,
  0x20, 0x00, 0x00, 0x00, 0x20, 0x00, 0x00, 0x00, 0x15, 0x00, 0x00, 0x00,
  0x4c, 0x00, 0x00, 0x00, 0x03, 0x00, 0x00, 0x00, 0xff, 0xff, 0xff, 0xff,
  0x17, 0x03, 0x00, 0x00, 0x04, 0x00, 0x00, 0x00, 0x08, 0xf9, 0xff, 0xff,
  0x2e, 0x00, 0x00, 0x00, 0x73, 0x65, 0x71, 0x75, 0x65, 0x6e, 0x74, 0x69,
  0x61, 0x6c, 0x5f, 0x38, 0x5f, 0x31, 0x2f, 0x63, 0x6f, 0x6e, 0x76, 0x31,
  0x64, 0x5f, 0x31, 0x36, 0x5f, 0x31, 0x2f, 0x63, 0x6f, 0x6e, 0x76, 0x6f,
  0x6c, 0x75, 0x74, 0x69, 0x6f, 0x6e, 0x2f, 0x53, 0x71, 0x75, 0x65, 0x65,
  0x7a, 0x65, 0x00, 0x00, 0x03, 0x00, 0x00, 0x00, 0x01, 0x00, 0x00, 0x00,
  0x17, 0x03, 0x00, 0x00, 0x04, 0x00, 0x00, 0x00, 0x06, 0xfa, 0xff, 0xff,
  0x00, 0x00, 0x00, 0x01, 0x14, 0x00, 0x00, 0x00, 0x24, 0x00, 0x00, 0x00,
  0x24, 0x00, 0x00, 0x00, 0x14, 0x00, 0x00, 0x00, 0x48, 0x00, 0x00, 0x00,
  0x04, 0x00, 0x00, 0x00, 0xff, 0xff, 0xff, 0xff, 0x01, 0x00, 0x00, 0x00,
  0x17, 0x03, 0x00, 0x00, 0x04, 0x00, 0x00, 0x00, 0x80, 0xf9, 0xff, 0xff,
  0x26, 0x00, 0x00, 0x00, 0x73, 0x65, 0x71, 0x75, 0x65, 0x6e, 0x74, 0x69,
  0x61, 0x6c, 0x5f, 0x38, 0x5f, 0x31, 0x2f, 0x63, 0x6f, 0x6e, 0x76, 0x31,
  0x64, 0x5f, 0x31, 0x36, 0x5f, 0x31, 0x2f, 0x63, 0x6f, 0x6e, 0x76, 0x6f,
  0x6c, 0x75, 0x74, 0x69, 0x6f, 0x6e, 0x00, 0x00, 0x04, 0x00, 0x00, 0x00,
  0x01, 0x00, 0x00, 0x00, 0x01, 0x00, 0x00, 0x00, 0x17, 0x03, 0x00, 0x00,
  0x04, 0x00, 0x00, 0x00, 0x7a, 0xfa, 0xff, 0xff, 0x00, 0x00, 0x00, 0x01,
  0x14, 0x00, 0x00, 0x00, 0x24, 0x00, 0x00, 0x00, 0x24, 0x00, 0x00, 0x00,
  0x13, 0x00, 0x00, 0x00, 0x54, 0x00, 0x00, 0x00, 0x04, 0x00, 0x00, 0x00,
  0xff, 0xff, 0xff, 0xff, 0x01, 0x00, 0x00, 0x00, 0x20, 0x03, 0x00, 0x00,
  0x01, 0x00, 0x00, 0x00, 0xf4, 0xf9, 0xff, 0xff, 0x31, 0x00, 0x00, 0x00,
  0x73, 0x65, 0x71, 0x75, 0x65, 0x6e, 0x74, 0x69, 0x61, 0x6c, 0x5f, 0x38,
  0x5f, 0x31, 0x2f, 0x63, 0x6f, 0x6e, 0x76, 0x31, 0x64, 0x5f, 0x31, 0x36,
  0x5f, 0x31, 0x2f, 0x63, 0x6f, 0x6e, 0x76, 0x6f, 0x6c, 0x75, 0x74, 0x69,
  0x6f, 0x6e, 0x2f, 0x45, 0x78, 0x70, 0x61, 0x6e, 0x64, 0x44, 0x69, 0x6d,
  0x73, 0x00, 0x00, 0x00, 0x04, 0x00, 0x00, 0x00, 0x01, 0x00, 0x00, 0x00,
  0x01, 0x00, 0x00, 0x00, 0x20, 0x03, 0x00, 0x00, 0x01, 0x00, 0x00, 0x00,
  0xfa, 0xfa, 0xff, 0xff, 0x00, 0x00, 0x00, 0x01, 0x14, 0x00, 0x00, 0x00,
  0x20, 0x00, 0x00, 0x00, 0x20, 0x00, 0x00, 0x00, 0x12, 0x00, 0x00, 0x00,
  0x50, 0x00, 0x00, 0x00, 0x03, 0x00, 0x00, 0x00, 0xff, 0xff, 0xff, 0xff,
  0x20, 0x03, 0x00, 0x00, 0x01, 0x00, 0x00, 0x00, 0x70, 0xfa, 0xff, 0xff,
  0x33, 0x00, 0x00, 0x00, 0x73, 0x65, 0x71, 0x75, 0x65, 0x6e, 0x74, 0x69,
  0x61, 0x6c, 0x5f, 0x38, 0x5f, 0x31, 0x2f, 0x6d, 0x61, 0x78, 0x5f, 0x70,
  0x6f, 0x6f, 0x6c, 0x69, 0x6e, 0x67, 0x31, 0x64, 0x5f, 0x31, 0x36, 0x5f,
  0x31, 0x2f, 0x4d, 0x61, 0x78, 0x50, 0x6f, 0x6f, 0x6c, 0x31, 0x64, 0x2f,
  0x53, 0x71, 0x75, 0x65, 0x65, 0x7a, 0x65, 0x00, 0x03, 0x00, 0x00, 0x00,
  0x01, 0x00, 0x00, 0x00, 0x20, 0x03, 0x00, 0x00, 0x01, 0x00, 0x00, 0x00,
  0x72, 0xfb, 0xff, 0xff, 0x00, 0x00, 0x00, 0x01, 0x14, 0x00, 0x00, 0x00,
  0x24, 0x00, 0x00, 0x00, 0x24, 0x00, 0x00, 0x00, 0x11, 0x00, 0x00, 0x00,
  0x4c, 0x00, 0x00, 0x00, 0x04, 0x00, 0x00, 0x00, 0xff, 0xff, 0xff, 0xff,
  0x01, 0x00, 0x00, 0x00, 0x20, 0x03, 0x00, 0x00, 0x01, 0x00, 0x00, 0x00,
  0xec, 0xfa, 0xff, 0xff, 0x2b, 0x00, 0x00, 0x00, 0x73, 0x65, 0x71, 0x75,
  0x65, 0x6e, 0x74, 0x69, 0x61, 0x6c, 0x5f, 0x38, 0x5f, 0x31, 0x2f, 0x6d,
  0x61, 0x78, 0x5f, 0x70, 0x6f, 0x6f, 0x6c, 0x69, 0x6e, 0x67, 0x31, 0x64,
  0x5f, 0x31, 0x36, 0x5f, 0x31, 0x2f, 0x4d, 0x61, 0x78, 0x50, 0x6f, 0x6f,
  0x6c, 0x31, 0x64, 0x00, 0x04, 0x00, 0x00, 0x00, 0x01, 0x00, 0x00, 0x00,
  0x01, 0x00, 0x00, 0x00, 0x20, 0x03, 0x00, 0x00, 0x01, 0x00, 0x00, 0x00,
  0xea, 0xfb, 0xff, 0xff, 0x00, 0x00, 0x00, 0x01, 0x14, 0x00, 0x00, 0x00,
  0x24, 0x00, 0x00, 0x00, 0x24, 0x00, 0x00, 0x00, 0x10, 0x00, 0x00, 0x00,
  0x58, 0x00, 0x00, 0x00, 0x04, 0x00, 0x00, 0x00, 0xff, 0xff, 0xff, 0xff,
  0x01, 0x00, 0x00, 0x00, 0x40, 0x1f, 0x00, 0x00, 0x01, 0x00, 0x00, 0x00,
  0x64, 0xfb, 0xff, 0xff, 0x36, 0x00, 0x00, 0x00, 0x73, 0x65, 0x71, 0x75,
  0x65, 0x6e, 0x74, 0x69, 0x61, 0x6c, 0x5f, 0x38, 0x5f, 0x31, 0x2f, 0x6d,
  0x61, 0x78, 0x5f, 0x70, 0x6f, 0x6f, 0x6c, 0x69, 0x6e, 0x67, 0x31, 0x64,
  0x5f, 0x31, 0x36, 0x5f, 0x31, 0x2f, 0x4d, 0x61, 0x78, 0x50, 0x6f, 0x6f,
  0x6c, 0x31, 0x64, 0x2f, 0x45, 0x78, 0x70, 0x61, 0x6e, 0x64, 0x44, 0x69,
  0x6d, 0x73, 0x00, 0x00, 0x04, 0x00, 0x00, 0x00, 0x01, 0x00, 0x00, 0x00,
  0x01, 0x00, 0x00, 0x00, 0x40, 0x1f, 0x00, 0x00, 0x01, 0x00, 0x00, 0x00,
  0xc2, 0xfc, 0xff, 0xff, 0x00, 0x00, 0x00, 0x01, 0x14, 0x00, 0x00, 0x00,
  0x14, 0x00, 0x00, 0x00, 0x0f, 0x00, 0x00, 0x00, 0x00, 0x00, 0x00, 0x02,
  0x20, 0x00, 0x00, 0x00, 0xd4, 0xfb, 0xff, 0xff, 0x10, 0x00, 0x00, 0x00,
  0x61, 0x72, 0x69, 0x74, 0x68, 0x2e, 0x63, 0x6f, 0x6e, 0x73, 0x74, 0x61,
  0x6e, 0x74, 0x31, 0x33, 0x00, 0x00, 0x00, 0x00, 0x00, 0x00, 0x00, 0x00,
  0xfe, 0xfc, 0xff, 0xff, 0x00, 0x00, 0x00, 0x01, 0x14, 0x00, 0x00, 0x00,
  0x14, 0x00, 0x00, 0x00, 0x0e, 0x00, 0x00, 0x00, 0x00, 0x00, 0x00, 0x02,
  0x20, 0x00, 0x00, 0x00, 0x10, 0xfc, 0xff, 0xff, 0x10, 0x00, 0x00, 0x00,
  0x61, 0x72, 0x69, 0x74, 0x68, 0x2e, 0x63, 0x6f, 0x6e, 0x73, 0x74, 0x61,
  0x6e, 0x74, 0x31, 0x32, 0x00, 0x00, 0x00, 0x00, 0x01, 0x00, 0x00, 0x00,
  0x02, 0x00, 0x00, 0x00, 0x3e, 0xfd, 0xff, 0xff, 0x00, 0x00, 0x00, 0x01,
  0x14, 0x00, 0x00, 0x00, 0x14, 0x00, 0x00, 0x00, 0x0d, 0x00, 0x00, 0x00,
  0x00, 0x00, 0x00, 0x02, 0x20, 0x00, 0x00, 0x00, 0x50, 0xfc, 0xff, 0xff,
  0x10, 0x00, 0x00, 0x00, 0x61, 0x72, 0x69, 0x74, 0x68, 0x2e, 0x63, 0x6f,
  0x6e, 0x73, 0x74, 0x61, 0x6e, 0x74, 0x31, 0x31, 0x00, 0x00, 0x00, 0x00,
  0x00, 0x00, 0x00, 0x00, 0x8a, 0xfe, 0xff, 0xff, 0x00, 0x00, 0x00, 0x01,
  0x10, 0x00, 0x00, 0x00, 0x10, 0x00, 0x00, 0x00, 0x0c, 0x00, 0x00, 0x00,
  0x20, 0x00, 0x00, 0x00, 0x88, 0xfc, 0xff, 0xff, 0x10, 0x00, 0x00, 0x00,
  0x61, 0x72, 0x69, 0x74, 0x68, 0x2e, 0x63, 0x6f, 0x6e, 0x73, 0x74, 0x61,
  0x6e, 0x74, 0x31, 0x30, 0x00, 0x00, 0x00, 0x00, 0x01, 0x00, 0x00, 0x00,
  0x01, 0x00, 0x00, 0x00, 0xc6, 0xfe, 0xff, 0xff, 0x00, 0x00, 0x00, 0x01,
  0x10, 0x00, 0x00, 0x00, 0x10, 0x00, 0x00, 0x00, 0x0b, 0x00, 0x00, 0x00,
  0x1c, 0x00, 0x00, 0x00, 0xc4, 0xfc, 0xff, 0xff, 0x0f, 0x00, 0x00, 0x00,
  0x61, 0x72, 0x69, 0x74, 0x68, 0x2e, 0x63, 0x6f, 0x6e, 0x73, 0x74, 0x61,
  0x6e, 0x74, 0x39, 0x00, 0x03, 0x00, 0x00, 0x00, 0x01, 0x00, 0x00, 0x00,
  0x01, 0x00, 0x00, 0x00, 0x04, 0x00, 0x00, 0x00, 0x06, 0xff, 0xff, 0xff,
  0x00, 0x00, 0x00, 0x01, 0x10, 0x00, 0x00, 0x00, 0x10, 0x00, 0x00, 0x00,
  0x0a, 0x00, 0x00, 0x00, 0x1c, 0x00, 0x00, 0x00, 0x04, 0xfd, 0xff, 0xff,
  0x0f, 0x00, 0x00, 0x00, 0x61, 0x72, 0x69, 0x74, 0x68, 0x2e, 0x63, 0x6f,
  0x6e, 0x73, 0x74, 0x61, 0x6e, 0x74, 0x38, 0x00, 0x03, 0x00, 0x00, 0x00,
  0x01, 0x00, 0x00, 0x00, 0x01, 0x00, 0x00, 0x00, 0x04, 0x00, 0x00, 0x00,
  0x46, 0xff, 0xff, 0xff, 0x00, 0x00, 0x00, 0x01, 0x10, 0x00, 0x00, 0x00,
  0x10, 0x00, 0x00, 0x00, 0x09, 0x00, 0x00, 0x00, 0x1c, 0x00, 0x00, 0x00,
  0x44, 0xfd, 0xff, 0xff, 0x0f, 0x00, 0x00, 0x00, 0x61, 0x72, 0x69, 0x74,
  0x68, 0x2e, 0x63, 0x6f, 0x6e, 0x73, 0x74, 0x61, 0x6e, 0x74, 0x37, 0x00,
  0x02, 0x00, 0x00, 0x00, 0x01, 0x00, 0x00, 0x00, 0x68, 0x02, 0x00, 0x00,
  0x82, 0xff, 0xff, 0xff, 0x00, 0x00, 0x00, 0x01, 0x10, 0x00, 0x00, 0x00,
  0x10, 0x00, 0x00, 0x00, 0x08, 0x00, 0x00, 0x00, 0x1c, 0x00, 0x00, 0x00,
  0x80, 0xfd, 0xff, 0xff, 0x0f, 0x00, 0x00, 0x00, 0x61, 0x72, 0x69, 0x74,
  0x68, 0x2e, 0x63, 0x6f, 0x6e, 0x73, 0x74, 0x61, 0x6e, 0x74, 0x36, 0x00,
  0x01, 0x00, 0x00, 0x00, 0x04, 0x00, 0x00, 0x00, 0xba, 0xff, 0xff, 0xff,
  0x00, 0x00, 0x00, 0x01, 0x10, 0x00, 0x00, 0x00, 0x10, 0x00, 0x00, 0x00,
  0x07, 0x00, 0x00, 0x00, 0x1c, 0x00, 0x00, 0x00, 0xb8, 0xfd, 0xff, 0xff,
  0x0f, 0x00, 0x00, 0x00, 0x61, 0x72, 0x69, 0x74, 0x68, 0x2e, 0x63, 0x6f,
  0x6e, 0x73, 0x74, 0x61, 0x6e, 0x74, 0x35, 0x00, 0x04, 0x00, 0x00, 0x00,
  0x04, 0x00, 0x00, 0x00, 0x01, 0x00, 0x00, 0x00, 0x0a, 0x00, 0x00, 0x00,
  0x01, 0x00, 0x00, 0x00, 0x00, 0x00, 0x16, 0x00, 0x18, 0x00, 0x14, 0x00,
  0x00, 0x00, 0x10, 0x00, 0x0c, 0x00, 0x08, 0x00, 0x00, 0x00, 0x00, 0x00,
  0x00, 0x00, 0x07, 0x00, 0x16, 0x00, 0x00, 0x00, 0x00, 0x00, 0x00, 0x01,
  0x10, 0x00, 0x00, 0x00, 0x10, 0x00, 0x00, 0x00, 0x06, 0x00, 0x00, 0x00,
  0x1c, 0x00, 0x00, 0x00, 0x14, 0xfe, 0xff, 0xff, 0x0f, 0x00, 0x00, 0x00,
  0x61, 0x72, 0x69, 0x74, 0x68, 0x2e, 0x63, 0x6f, 0x6e, 0x73, 0x74, 0x61,
  0x6e, 0x74, 0x34, 0x00, 0x04, 0x00, 0x00, 0x00, 0x04, 0x00, 0x00, 0x00,
  0x01, 0x00, 0x00, 0x00, 0x05, 0x00, 0x00, 0x00, 0x04, 0x00, 0x00, 0x00,
  0x4a, 0xff, 0xff, 0xff, 0x00, 0x00, 0x00, 0x01, 0x14, 0x00, 0x00, 0x00,
  0x14, 0x00, 0x00, 0x00, 0x05, 0x00, 0x00, 0x00, 0x00, 0x00, 0x00, 0x02,
  0x1c, 0x00, 0x00, 0x00, 0x5c, 0xfe, 0xff, 0xff, 0x0f, 0x00, 0x00, 0x00,
  0x61, 0x72, 0x69, 0x74, 0x68, 0x2e, 0x63, 0x6f, 0x6e, 0x73, 0x74, 0x61,
  0x6e, 0x74, 0x33, 0x00, 0x01, 0x00, 0x00, 0x00, 0x03, 0x00, 0x00, 0x00,
  0x86, 0xff, 0xff, 0xff, 0x00, 0x00, 0x00, 0x01, 0x14, 0x00, 0x00, 0x00,
  0x14, 0x00, 0x00, 0x00, 0x04, 0x00, 0x00, 0x00, 0x00, 0x00, 0x00, 0x02,
  0x1c, 0x00, 0x00, 0x00, 0x98, 0xfe, 0xff, 0xff, 0x0f, 0x00, 0x00, 0x00,
  0x61, 0x72, 0x69, 0x74, 0x68, 0x2e, 0x63, 0x6f, 0x6e, 0x73, 0x74, 0x61,
  0x6e, 0x74, 0x32, 0x00, 0x01, 0x00, 0x00, 0x00, 0x03, 0x00, 0x00, 0x00,
  0xc2, 0xff, 0xff, 0xff, 0x00, 0x00, 0x00, 0x01, 0x14, 0x00, 0x00, 0x00,
  0x14, 0x00, 0x00, 0x00, 0x03, 0x00, 0x00, 0x00, 0x00, 0x00, 0x00, 0x02,
  0x1c, 0x00, 0x00, 0x00, 0xd4, 0xfe, 0xff, 0xff, 0x0f, 0x00, 0x00, 0x00,
  0x61, 0x72, 0x69, 0x74, 0x68, 0x2e, 0x63, 0x6f, 0x6e, 0x73, 0x74, 0x61,
  0x6e, 0x74, 0x31, 0x00, 0x01, 0x00, 0x00, 0x00, 0x03, 0x00, 0x00, 0x00,
  0x00, 0x00, 0x16, 0x00, 0x1c, 0x00, 0x18, 0x00, 0x17, 0x00, 0x10, 0x00,
  0x0c, 0x00, 0x08, 0x00, 0x00, 0x00, 0x00, 0x00, 0x00, 0x00, 0x07, 0x00,
  0x16, 0x00, 0x00, 0x00, 0x00, 0x00, 0x00, 0x01, 0x14, 0x00, 0x00, 0x00,
  0x14, 0x00, 0x00, 0x00, 0x02, 0x00, 0x00, 0x00, 0x00, 0x00, 0x00, 0x02,
  0x1c, 0x00, 0x00, 0x00, 0x28, 0xff, 0xff, 0xff, 0x0e, 0x00, 0x00, 0x00,
  0x61, 0x72, 0x69, 0x74, 0x68, 0x2e, 0x63, 0x6f, 0x6e, 0x73, 0x74, 0x61,
  0x6e, 0x74, 0x00, 0x00, 0x01, 0x00, 0x00, 0x00, 0x03, 0x00, 0x00, 0x00,
  0x00, 0x00, 0x16, 0x00, 0x1c, 0x00, 0x18, 0x00, 0x00, 0x00, 0x14, 0x00,
  0x10, 0x00, 0x0c, 0x00, 0x00, 0x00, 0x00, 0x00, 0x08, 0x00, 0x07, 0x00,
  0x16, 0x00, 0x00, 0x00, 0x00, 0x00, 0x00, 0x01, 0x14, 0x00, 0x00, 0x00,
  0x20, 0x00, 0x00, 0x00, 0x20, 0x00, 0x00, 0x00, 0x01, 0x00, 0x00, 0x00,
  0x40, 0x00, 0x00, 0x00, 0x03, 0x00, 0x00, 0x00, 0xff, 0xff, 0xff, 0xff,
  0x40, 0x1f, 0x00, 0x00, 0x01, 0x00, 0x00, 0x00, 0x8c, 0xff, 0xff, 0xff,
  0x22, 0x00, 0x00, 0x00, 0x73, 0x65, 0x72, 0x76, 0x69, 0x6e, 0x67, 0x5f,
  0x64, 0x65, 0x66, 0x61, 0x75, 0x6c, 0x74, 0x5f, 0x6b, 0x65, 0x72, 0x61,
  0x73, 0x5f, 0x74, 0x65, 0x6e, 0x73, 0x6f, 0x72, 0x5f, 0x32, 0x33, 0x32,
  0x3a, 0x30, 0x00, 0x00, 0x03, 0x00, 0x00, 0x00, 0x01, 0x00, 0x00, 0x00,
  0x40, 0x1f, 0x00, 0x00, 0x01, 0x00, 0x00, 0x00, 0x07, 0x00, 0x00, 0x00,
  0x6c, 0x00, 0x00, 0x00, 0x50, 0x00, 0x00, 0x00, 0x40, 0x00, 0x00, 0x00,
  0x30, 0x00, 0x00, 0x00, 0x28, 0x00, 0x00, 0x00, 0x14, 0x00, 0x00, 0x00,
  0x04, 0x00, 0x00, 0x00, 0xbc, 0xff, 0xff, 0xff, 0x0e, 0x00, 0x00, 0x00,
  0x00, 0x00, 0x00, 0x0e, 0xc8, 0xff, 0xff, 0xff, 0x09, 0x00, 0x00, 0x00,
  0x00, 0x00, 0x00, 0x09, 0x04, 0x00, 0x04, 0x00, 0x04, 0x00, 0x00, 0x00,
  0xdc, 0xff, 0xff, 0xff, 0x03, 0x00, 0x00, 0x00, 0x00, 0x00, 0x00, 0x03,
  0xe8, 0xff, 0xff, 0xff, 0x16, 0x00, 0x00, 0x00, 0x00, 0x00, 0x00, 0x16,
  0xf4, 0xff, 0xff, 0xff, 0x11, 0x00, 0x00, 0x00, 0x00, 0x00, 0x00, 0x11,
  0x0c, 0x00, 0x0c, 0x00, 0x0b, 0x00, 0x00, 0x00, 0x00, 0x00, 0x04, 0x00,
  0x0c, 0x00, 0x00, 0x00, 0x46, 0x00, 0x00, 0x00, 0x00, 0x00, 0x00, 0x46
};
unsigned int utils_models_jarvis0_2_5_tflite_len = 8244;
